bd5a2886
beb306ed
bd94cdf7
beac9692
bf23c37c
3d80e4bc
bed4cb7c
3e18e07c
beb51037
bf61da7c
bf48f54c
bdce17cb
3e6d2d3b
bf0909cb
3f14a635
be8da977
be8b603e
bdb308b1
bd016a62
be2f2dc2
3d87bfc0
be947f34
becb8a8d
be86c86e
be00de51
3e8c3d43
beba4b4f
3e393595
3eb0310b
3dbd5544
3d6158b4
be5c59db
be8234ca
bcd437aa
3e9b2b17
3f6643b8
bf4d4bfe
3df000b1
3e9e1bbe
bd697c7f
3d116883
be5fe056
3ced8bf9
be8f6d30
be845f31
3e8e700b
3cfe8fd2
bebb436c
3dc06644
3e9c32b2
3d0da137
3ec14fe7
3eafeaa7
bf137ef3
be2c297f
bf10db96
3d34cc8e
be3cbf57
3f567002
3e2ff113
3dfb7e8c
3ded44e6
3db3dbd6
3ea285c0
bd753ba1
3bec007d
3d001e68
3c01809e
3bcf52f1
3f424f76
3e285753
bd835e77
3e6a63e6
bf42bf3e
3e0034ef
3dfa4c6d
bc117970
be180251
3d923300
3e60480c
bf13e296
bda470bd
bdedfe17
3db5fff5
3d8c68ff
bf30d41c
3dfba1fb
be6641a5
3f3a9258
bd7d7d9d
bec85868
3ecdaaec
3dc0bc57
3de1e333
3d874d7f
bd79cafb
3cee668c
3ed69575
3e6c4209
3e289978
3eb82d52
bd4e58fb
3e54ea1c
3c640f7e
be4a6a18
bbf3002c
3ee42a76
3f29a279
3d69ad3b
3e47ef65
bd9e7850
bea2087b
3e4252bb
3e172ba6
3d55141c
bd9cab06
3e54d65b
bedb08fb
3dc1ebab
3e26b6b8
bf020ca1
bc8cb9c1
bcd5fca9
3e7bae2f
bde98850
beaa242c
3ea5aed3
3f1702eb
bf11d2a3
