3db791de
3eca56ba
bed803ec
bdc47da6
be4b3300
3f4df516
be226149
3b16b4b3
be7fad96
3e888071
3e212fa6
bd44606a
3ed76aef
bddc8c2e
3d8480d3
be45b4b9
3f183da9
be74dab5
3eae813f
3e011c19
beb5e64d
3e5c33a2
3f0275b4
3ca87394
bdd05c39
3db04103
3e8b719d
3e3868c6
bb960168
3e130c90
3da57081
3ea1347b
3e3eabfd
bec66d86
bf1bd69a
3f43cc0f
3e4400f3
3e28d410
be4eefdf
3e086b16
3ed26c16
3e3a81e3
3ea6014b
3d46b9c6
bda3d7c9
bde50efa
becaf2ec
3e0149db
bf10f13b
bcce0598
3d5ca0c2
3aea1364
3eb9186f
bed58530
be078dfd
3ec30905
bd10913d
3f2342c8
bede59ba
3d55a1b1
3d1ec719
3a248edd
3e932b7c
3ea9d901
bec8edd0
3e0e81be
be5f4033
bbb19d42
3ebd2a4a
bde13d9b
3f57131e
bd4afd07
3e5943a3
be0f3231
bda0494f
bf08b81a
3e93cd2a
3e98e8b5
bed19369
bda54a8f
3f923259
bda42570
be1aaf4e
bd46c1f5
bee0178b
be9b0f89
3d8c0b44
3ef00a05
3d5b4b83
bf0cc287
3e9edcc9
3e7021e5
3e65cce4
3de02f66
be72e559
3d8fbdca
bd0d5132
3f37b5bf
bdd15a0a
be10b192
3ea8441d
3ea2b1bc
3d19e8eb
3d9a3fdd
3ceaafa0
3d9e01a8
bd5bf0ee
be2799bb
3e9e4245
be288d5a
3e15b935
bd8c74b8
3d99b40c
3eb4d7d6
be8b0b2d
3e541636
3eae6152
bf24d053
3f0eb2c1
3ec66018
3f27a289
bd17f871
3ab4f045
bf0df94e
3eeedeb1
bee588be
bbf0e99b
3f3da9b8
befaf6d2
