3d93d508
3f05502a
3e82e1da
bdc47d81
3ecbcb67
3ec53676
3d5bcad0
be63f9e6
bb7a29cd
3d803541
be4fc6bf
bee3e1e9
3e5492d5
bc4b26dc
bcd54278
3ec473db
bf08f5de
3d890a33
bf16bdee
bf0a3fc3
3e33aa6e
bd98b83f
bd1dd3be
be4ef9e9
bdee6950
3e791fd0
be0356a9
bea6d5ae
3e16b9c6
3eb5b818
be84bb6e
3e8b7e9a
3db58eed
bef3a73a
bf2c8170
be8c4edf
3f0bf856
3d946e5e
be687b1b
bf111e9b
3e609bc9
3eab8534
3e88ab1e
be3d35f7
bd2e6c2a
beb0941b
bd85bf37
bece6346
bddb78cb
becf37e3
3e1b3392
bc7f0e12
bdabb24f
3e1489d3
beab596f
3e774ce4
bd452c13
be8b6756
3ea7f36c
bbba846a
bf0e39d2
3e80bef8
3e7624df
be26715c
bf01b97e
3bdf33fe
bf39b16d
3e3fdd2a
3d9e56a7
3eb2786e
be894d57
befc19eb
bdb872b7
3e918473
3e349434
3dcdcc69
3dda6cf3
bed6ff43
3d7bb0b8
3cc8e8ed
3e844e98
beaafc73
3ec6df6d
3deb225d
bf13a8c2
3e2832aa
3e1b3ea8
3ecd34f4
3e4906f3
bd1900eb
3ef0591c
3e9c95ed
3d21f453
3ee1a45c
be2d8d8a
bdeda1b6
be99aa89
bf53159b
bdd3d754
be108156
bd0f6b7f
3e85438c
bdf73a48
3eaac1c6
bef8c86a
bd5d205f
3da544be
3e4c0fe6
bf15be4e
bf7ed8a5
3dec26d7
bd53fb91
3e091c89
3ee87c71
bf3aff8a
3eb1b532
3e3575e3
3e13e802
3f159cad
3ea323cb
be192be1
3d82d4f0
be59508e
bf05eafd
be4d7c9e
3dbbb277
3bdd21b9
be39656f
be1907bb
