3e2cf150
be3f072f
3e10dcf3
bdb8c7eb
bd9b5f2b
be522f26
3f1a6e1d
be5049ef
3e61e2ce
beaa377e
be628361
beb855b3
bea69a44
be756285
bde25339
bee100f3
bec3fb3a
bf50ecd0
3d960637
3df5e53c
bee4455e
bec56c6b
3e25e001
3de55a62
be6511f9
3ecc36cb
3edcdb04
be5aa46e
3e0350c2
3dfb4f35
be2b0f81
3e3be392
bd4b8211
