bd6829fc
3d910671
3d22e886
be7c44b1
be399c7e
3e09523e
be4fd899
3e1d3e09
be8cb0da
be4f53d9
beab4f6c
be1dcfd5
3dd5f18c
3e06d97b
be46788c
3e59bb45
3eb50fec
be31f97d
be3747a8
be39fd34
3e8fb796
3e8aa217
3e52c16e
3c60ba9c
bd8e552f
bdc64771
be4fd846
be8fa216
be4116eb
be12149e
3eaf9694
be41f9cf
3f201b1b
