bedf5129
3ebed41a
3e88e675
bddb38f0
3e12c55b
be98054a
beccc6c6
3d8e0d03
3dec6b40
be833724
3d914167
bf12b0de
be440314
be9ffc45
bee831fa
be927742
bddbb770
3eb5bed2
3e0f4afa
3b8511ce
bdb3b687
3e9df074
bdbbfd2c
3e33bdd8
3df0d9fb
be29d7ac
3dedc386
3e9ab47e
3e9edde5
bd8c0b6e
3e31ce67
3ea48417
3f02a7ba
