be744c81
3e5edad5
3d9def52
3c781c76
bce19e0b
bea8d9a2
bebc04f0
be633d04
3e46afaf
3ea70a2d
3df01377
3e5ea07d
be37d2f0
3d09a2c2
3cc8ff45
bdbc94b9
be471069
bed69684
3ea7c773
3efb4c7f
3ba72768
bd9c5130
be3b4124
3e3e4eaf
bee1d56a
bdb327b2
3d87f2d0
3d92f473
3e1f8cea
bddf2ee7
be654cfc
3e071ed1
3e3ce714
