3f5f0528
be4e0dff
3d28a7e8
3d84591e
3dccc997
bcc3f883
bdf30fc8
3e7d6b91
3f027de9
bcddff62
3ddd88b6
3e072b83
3e34963c
bef96e9b
bc9a4ed3
3d374f65
be21c562
3e5dc21c
bdf19b41
bf11c262
3ecb5159
3d657292
3e2607e5
bee55c7a
bd675f73
bf15ddb0
be440617
3e80173d
3d8b6798
3d7b5618
3e3e737f
be0c5a50
3d59e8ad
3e0c8e8f
3dd68c38
bec56cd7
3e42a33a
bea4461b
ba07b9c8
3d4dc46c
3e80ce07
be43c89a
3e1d6494
3c89f654
bd6d6c27
3dd2fa22
3caa2b5e
3d636ea2
be84538f
be99cc87
3e51b2ae
3ea5fb7b
3d0792bc
bb73de04
bdff9f93
3d09a07b
3e833f38
3e9dd985
3dfe53ef
3dbbe8c5
3f1881ea
3ee45961
bed8c729
bdea1a30
3d1eb44b
