3d35a97f
3db74fc6
bc8066e7
3d10dfa7
3d67ddcb
3e218ec1
be97e983
3ea68620
3c6c7481
3e5278e5
bdc28f1c
bf368e47
3e742ed9
bf26764f
bed540a4
3e9ffc00
bceb1705
bed99048
3dcd8cc2
3e4152d1
3e8c50fc
bd02099f
3e7857db
bf719b33
be0d6150
bf67d89d
be4495cf
3e5f01dd
bd4e51de
bf02ca09
bd31eed7
3ec548aa
be078580
3e254eb7
be6bf0e4
be6a6fca
bdb06d7c
be4f6ca5
3efeb275
3ca6fbfb
3d5337a6
bf19d1d4
3d899059
bda185bf
bebb2f0f
3ebc3601
3c1171ae
bf21d82e
be8d7b06
bd39fe34
bd88f4d6
be050d94
3e9f2eda
3db3d309
3e81338a
3e511e3a
bd0b8f2a
3e978dc5
bef8f5c8
be7de701
3e5fb352
bea106e3
bee8fe59
be7ef5df
be4c7727
