bcb2acc2
bf062302
bdd4f8b3
3c635059
3eaed5c1
3f0c4cef
3e19fbf2
be877a83
3db3df66
3ef41a96
bd1215da
bd08bfe1
3ecb4789
3dea88b2
be2a094a
be1dc714
3f06be6e
bd445c8b
3e884276
bcc70869
be2b4aab
3ea86021
3d4d841a
3e29defe
3c26cde8
3ed260cf
3e2f1888
3d77b40a
3e2707c5
3d09d7ba
3d9e8825
bccc0508
3ebb07ef
be0a32f5
bf49a64f
3f860658
3f044f2d
3e701d0f
be1ce101
be8f380b
bcf4e6ed
3e6c87eb
3dfc625e
be49e45d
be2da083
3dd2bfcb
bf18c902
be05f752
bce8892d
3d8ac6ff
3d11b8a7
3e0285ee
3e5f4d42
be884a1c
bf4b487a
3f366658
be532135
3dc70d78
beead48b
bd57a1f5
be71a24a
bf5d0a78
be4583fc
bd2cac47
bf5633e8
3dcec260
be049dbd
3e038c3e
bf7bbdc3
bdf4e2cf
bf2c967c
beddf4e9
3d51755b
3e9f70f5
be1407df
3d4785d8
3e81be4d
3e4b34fd
be2a4073
3e826324
be97c651
bdbb7556
beb11eb5
3ea47cde
bea84a91
be499b93
beededdd
3e43bf3b
bdbd9f0b
bd253a50
3ed20af2
3e5d57eb
3b9f2813
3f160bae
3dc5c699
be40c2c3
bf290d8b
3ea5099e
bd259023
bd7c7ff2
bf71849c
be32e9da
bf17f285
bd20da07
bdf6725d
be0073ab
bd562331
bde1310f
bf4f99e8
be29a2c8
3d84e3eb
3e67e0b6
3e1e2a05
3e823ea0
beafb055
3e337800
3e9bcc14
bdb6851a
3eee34d4
3e84b050
3cc41e27
bc61ca20
bda843aa
bf5cf80a
3ec46577
3ddd6df0
3c6cc761
3ea0ed2e
3d360101
