3d4d0262
3d73c82e
bbbbce30
bbfa4840
3d4dc4ca
3bb9fd50
ba86eb80
3d9da3e1
3d98e903
3d140492
3c8ffc30
3cccb7dc
3ccc15e8
bc86a6f0
3d98cba9
bd264984
3d3e5b42
3bd5d930
bcf30f10
bd320e89
bcd619ea
3d2e608a
3d3f6a2a
3d87a0eb
3caf819c
3c094618
3d908351
bd39105c
bb3f2a40
bd668354
bce65aee
3d9e4b7f
3d303a78
bcab3c94
be285f9f
be86823f
be28db97
bdac0fe5
bd753148
be0f1d24
bd52253c
beba6772
be029743
bc002ca3
bdda3c83
bdea88e0
bda7f0fc
b97a7492
be16fcf2
bdaae3dd
be294000
bd1de2f8
bd08be49
bd1257e7
bc3fbfc8
bce2fa7e
bd8af6da
3d412082
bd643648
bdc6b289
bd51c666
bdb9dd09
be27ce86
be046918
be35ce2d
be8099d7
bde71b4c
be969c63
bf0ce452
bf443d35
bf4caf07
be927d25
3e831bbc
3ea2ec69
3e3cd54f
be3458ba
be0e0e60
be1bdcda
bd251ffe
bdf9f6d2
bd84ea03
bd48359c
bbe43a50
bcd9be32
3d84b273
bc668cf0
3cab7ed4
be16704b
bddc7652
be1890b7
bf162612
bf5d736a
bf5da8ed
bf4fcdb3
be9da653
3ea42795
be23231c
bf17bce8
bea2fd05
bf817eb6
bf560c4a
bc8d8da4
3d6a820f
bf056acd
beff712f
bf2c76c3
be5b050a
3ded8398
bb387251
3d13d9d7
3d7df336
bd9815ab
bda4a464
bd98eab2
bd010c6f
3e2a27a2
3d9237e6
bead396a
bf432e2e
bf57dbdc
bf1f8cc5
bf2eaa40
bf4237d2
be26a430
bdc23a32
3dac87fc
be2ab760
bf463ec2
bf3c86e4
3e8f3988
3e41e050
3d3cf93d
bea94c98
bd200c74
be787559
3e8e0a27
3d9e26e5
3c84e51b
3d0f1df1
3da077e3
bcb3923a
bcf3882a
3d104068
be0d7007
befde592
bec8d493
bf1e07d5
bf3fedd2
3e33a71f
3ebf7186
bf27abbf
beb5cb53
be3a1f7d
be8c37db
be442847
3e24d8d5
be8886de
be884732
be928cde
bf12b933
bdc8cd4c
3cf4bea8
bea8a7c3
bd6d9198
3d40ca42
3e22c32e
3bcd9f0f
bcee1863
bd81b9c2
bd4a94ac
3df7dd79
3ed41898
3cefa169
bbffdbf8
bbbd593d
3da29529
3ed7e484
3d9d69a9
bef96cb6
be0eb4b4
3d47a09f
3d9fd69f
3d1a7c29
bdccb25b
3e32ccdc
3eba0662
bdfd55d6
bf160720
bea88bf9
3e1ae41f
bea55910
be437200
bd8482c3
3ea22895
beb2b51b
be3b3503
bac1542b
bd9683f0
3ed021f5
3f428f28
3e443902
bf002e64
3e323428
3dd6514e
3e0dd9e5
bd9ff1cf
bdf666c8
bdced13c
3e2ff2fc
3c58c655
bd64ed2f
3e2c3178
be380f52
3e40a963
bd9643bc
3d66d907
beb1634f
be7557e7
be31031f
be8f4d6d
be53a002
be60c934
bee80517
be71a47c
3d868d9e
3e8ef5fc
3e3bde9f
be2ae2cc
3d1c4588
3e45aaf3
3d8bae2b
be77f446
3c98f3f5
be9c372d
bc16e17f
3e1e6bfc
3bab55a7
be0e1130
3dd54423
3df6091c
bdd4ee5d
be7b93e9
be08bc27
be6ccabf
3d00f95c
bd975d0a
be8b9991
3cc28e18
3ce7700c
be9a13dc
befdfcbb
3cc2a10b
bd0f8d1d
3e2409ca
be79f476
bebac83d
3ee6aa30
3ec9f882
3e76b95e
3d3fe48d
bdda3acb
be948dbe
bd232e94
3d433482
bd1a0427
be49a8a5
3cc9b0f8
3debb2d5
3db06c49
3e655645
ba7f0ded
be2320c9
3e69a2c6
3c0d4c70
bdfbd405
bc130216
bf021827
bdbf9ca2
bf0ffe02
bd22fd6f
3c06d76a
3e269ef3
bd319728
bedb223b
3e5f7b2c
3ee5a87f
3e985a6f
3de99565
3adea7f3
3dea87d0
bddef862
bceaaf68
be1040b5
bef1a905
3caea19d
3e59f7d1
3d1bb7a8
be6551be
bc75341d
bd821949
3e1e8722
be0b8c36
3eb8deaa
bea55330
bf839856
3e761dce
bf21a02c
bd7b821f
3d3292a6
3e88cbcd
3ea4013a
bea87a82
3dc7797d
3e97d13f
3e4214a3
3ebd289d
3e369ba8
3e4aab45
3e8d1dac
3d824f1d
3e381e53
bf166360
3e10d4db
3e84ad16
be2de82a
3d886762
be1b5f2a
3e3d62ea
3e02d61d
be01cea3
3ede0efb
be28e8c1
bfe2b3d5
be97e754
bf3681da
bdae4a5b
bc84f81f
3e66855b
3edd24a9
bdd81d4b
3e915ba9
3e450df5
bce58cce
3e026520
bde326fa
be497f4b
be363843
3e528470
3e24e9b9
bec06f3e
bd4252ca
3ea2e08e
3dcb0041
3d811df8
3e87fc64
3e50615f
3d9e1c52
3e187511
3ce3a989
3c0c96d8
bf026a39
bc878af6
beb59f4c
3d88c842
3d4a9b36
3e5ad675
3ec9bf14
3dffbaef
3f3513a2
3e9ce7f5
bb0674b1
3e5547bc
3d851775
3c66dcd9
3dfe8d07
bd861200
3e14dea6
bdfc7c66
be8ab3b3
3e6ff638
3e197e9d
3e9a59b7
3e7d57d5
bccb3392
3dc20f00
3ea571ad
3ea7e0b0
bec1fb69
bf510a85
bf147188
bf1becd0
3dae2a7c
be8483b2
3e187224
3ef4d929
3f08683a
3e9a859c
3e54d4a3
bd81adc3
bdcffdfd
3d824cd1
3d422f2e
3e5bd379
3daa9583
be0b0467
be9b5675
be19a533
be371245
3e19a6c9
3e983f77
3e3d799c
3d45d89b
3e2996e4
3e30af28
3f0a0839
bcb3cec6
bf3d9c2f
bec8c821
bf25e600
bd264bdb
be0bae17
3de7ea95
3f1f5030
3f045bf4
3e1ab868
be98651a
be529cc1
bea83a76
bde4cfc3
bcd7329e
3ec8dbba
3ddddafc
bed8e7b1
be5d5737
be3b1bfd
bd337532
3e1df7f8
3f0318b2
3e8d34ec
bd470b0c
3e8c537a
3eddbedf
3ee7a826
bc11bdfd
bf1178b2
bc37f45d
3effca1e
bcb556cb
bbbac5e7
3d6b9e71
3e0145d3
bc5bbb4f
3e444610
bd892547
3da7dfe7
3d9e98aa
3e52b6e4
3da15ee0
3d85e32f
3e8503e9
3e69d230
bd1f65b8
be8211d4
3ec2d6e6
3e49c67e
3edd7ab1
3d90c065
3d79c39d
3e8dd466
3e867cd1
3ee39549
3de9769a
bdfa0afb
be4dc062
bee248c5
beea0f4d
3c6a1780
bd901ce8
3eca4c10
bf1d2315
3e3dd3fd
be944335
be2a06ef
3eb64bb4
3efe1181
bd6aa626
3dda61b8
3cbd3206
be89ef2a
bef1883b
be7ff037
3e2cb845
3ee5aa64
3e1e605a
3eb365f4
3e0d1bed
be880bc9
bcfa09a7
3e791109
be9bd97d
bf3ae27b
3c40493a
be80d101
bf2b0701
3dfdebde
3b731618
3f069387
beb09cba
3e90f378
bde58577
be1b072f
3e23a487
3e525716
be98caaa
bebab479
3e43c9d9
bf07cc5a
bea89c6a
3da5ff22
3e67b741
3d015dee
3d5458f8
be25163a
be2aa13c
bf0cd251
beac42bb
beeb61ed
bf849562
bf4801af
beb6430c
3db137cf
3d6fa668
bcfbb864
bc488ffa
3e948fbc
be7000ba
3de1f80d
be2094c6
bdd365c8
3de3fc66
befc5ef9
bf0cd250
bf4ad90e
bf769e35
bf8092da
bf249f36
3ea9e75c
3ed335ff
be846a8a
be746b94
be2324a0
3e9774d6
beb6e9b2
becb19c2
bf9a6b30
bf705d26
bf24c32a
be1e8663
bc43c085
bc30dd60
3b1294c0
3cb35bab
bda96e9b
bf1f64a2
bef1562d
be2de9c7
be23dbdb
bec57af3
beaecddc
bf63370d
bf129d3b
bf51439f
bf138c53
be9efe57
3e08b921
3d0a72a7
bdc03a9b
be791820
bd8ecfa0
be0c4825
bebef722
be974957
bf11cbc1
bf1506f9
be065d69
3e3b9b67
3d71b8cf
bb8ad210
3d53ced2
bc8a58c9
be650883
bf12664d
beb1a187
bda74dca
3d512717
befbb967
bdbcd0a3
3e0b0950
bce2437a
3dad3efe
3d4a4568
be681aab
3d795024
3dd65234
bdb3946f
be5821d7
bea29f0c
be48b6b6
beeb0d3d
be4ae3cd
bf0e1c0a
be73aca3
3e81fd21
3e80861b
be6dad75
3d8ddbbb
3d9b5d01
bd8006ad
be668a17
bf03e592
be188cb6
beaf582b
be53cbfa
be478359
be9da253
bc470022
3cc00a62
bd9db580
be0457c0
3df2ff25
3ecd8a93
bbce1e2f
3e05651f
3c561959
bed3af12
3d7e7d2c
bdda1f4b
be849707
beac80cd
3a4cc576
3e4e03f8
3e61e42a
be401be9
3d33631a
3da1ae6b
bca8e8e4
be471242
be4d9f9d
3e2b4c3f
bdf8c885
bed957e2
be922089
bd926fd4
bcfaa5a0
bd9117f9
be8cbcb4
3d0a82c9
bdbb6bb3
3eda3983
3e35235d
3ce8b8e3
be69beb8
3d0d6d7c
3cb33bdd
3cfa3112
3e775e28
be1657c2
3ec91b48
3eb93686
3e848ed0
be750c52
3d98dee7
3d1632ac
3d7a5486
3e932ddf
3e4a6660
3ed72db6
be84102c
bf5cbdd9
bee68145
befb9208
bf22d6d7
be46236d
be68089c
bf1a9658
bea28c4e
be2427a5
bdac4ca0
3e55f8a7
bd678eb7
3da31e3b
3e7f5693
3eafbb3a
3e1c4c12
3e446335
3eaddd0c
3ddb4c7b
3e763d22
3e217024
3cdfcd84
3cb38ff4
bd1d6d99
3e0402d0
bd4af7ba
3e7c6570
be30b563
bed5f142
bf65d2e1
be9c3182
3d72e81a
bedc622f
be59ddaf
bec1d3d4
be4970d7
3e8968df
bd8e4bf4
bd81a310
3dcb6eaf
3e88c2fb
3dea783f
3dfe0bef
3d9bcbde
3bb4fdac
3e228dff
beb7945d
3e8d7835
3d065f2f
bc3880c8
3cf32364
bd715594
3ce7a8f4
bc39acc0
3eb9c669
3caa1119
bd5eada2
befb699d
3e8f5c83
3f4a9583
3e4c4a2a
be9e045a
be965b3b
3ceb8151
3ea795d8
bc8b9723
bc8ebf94
bd0d1615
be00d2f5
bcb9a315
bd388b4e
3e6fba72
3e3a7c19
3e953b32
3e053e72
bc29f320
bd953853
3d9a2471
3d417aca
bcdc3f56
3d5b6542
3d452762
bb85d23a
3daa9a4b
bb862353
bd817535
3e081022
3ea23369
3ee5bfd3
3e47f528
3d0cc41b
3c470678
3f3b050e
3e7f1212
3e42bc6d
3edba6ca
3e05a5e0
3eaec6d1
3f1012b2
3f2e4789
3f06dfb8
3e22b7c4
3b957970
3ce72754
bc6452a8
bc54a5f0
beb9a24f
