3d4efd0c
3eaa08b2
be1fc02c
3e94730c
be8635a8
3e901a22
bec72155
3e2a77c9
3ea2c872
3ef043eb
becaf177
bf2e8dcf
bd46f1ed
3c832ff6
3e1af44b
3e8d2a12
3f0310bd
3ddc22cc
3eaa0664
3da0ecb1
be0cf5bc
bf099d1d
bf4d9c4a
3de71b6a
3e113d12
be72b4ab
be06de6a
bebfe68e
bd67f485
3ec06f5f
bf39df43
3d43ff39
beee5f14
bd45a4b2
3cc10df3
bf08ff46
3c74454e
bd9e6fe7
be0104db
bf2d233e
3e927398
be85fb53
3e581da4
be1415b1
3e0707d3
bd529c69
bd3cbf86
bde6cafa
3d9130bf
be8c963a
bf1cfe4e
bb7888cd
3ec8f94a
be9312d3
3f269927
be119517
beb3d073
3e387fab
bdb28b41
3e7c1b37
bbc0cde1
3ee04600
3e24f16b
bdf6bc14
3e3f20b4
3e80cff7
bdc13c22
bec14c97
3e3e79bb
bb935e76
bee71f0d
3f06370d
bec46614
bc954328
3e448fc7
3d0dcc97
3cbba9e0
3e145247
3ed42f8b
3e4f72de
3e337e00
beffc27d
3e5b88e7
bd1ec947
be99f450
bedbd6b8
bdbd90f1
3ef93c32
3d8f5b36
bcb1ddd5
be955e99
3ea777f0
bf616b5b
bdaf1fdf
3f07c1e1
bc1bfd9b
3e124615
3f0dc974
3e82b2fe
be49d0e9
3e9bd568
be7c8cdc
3e975289
3ec8ce26
bea67113
be15dfef
3ea3cc49
bdc9658e
3f231513
be9e6a9b
3e70faed
bf20a3bc
bee7fbb1
bd9aa99e
be0e93c3
3ec75593
3e90cc8e
3da58936
beae40cd
be41c769
be50db64
be00712e
3e0c842b
bc48b60f
bbbf5253
3b33ee50
becfe9fa
be8a7a88
be486eb1
