be01be88
3e1045c3
bf1c7780
bdbd88ed
be74e49c
3df9eb72
bea0e92f
3e788ded
3e439d2c
3e860dbc
3ca34b6a
3e204c65
3e2eff8d
beac7020
bea20bbd
3f6740b0
bddd02b4
bec3c909
3e1f8d18
3ebecfa1
3ecec76d
bf07ac1f
3df2cd55
bdfb9ba1
3d792123
3eada08c
3e1c0547
3e2d2a52
3dbf1884
3f0a74cc
3ecdc4d2
3e3401a4
3ef5b271
