3c8ed978
3de5c00e
3e457c6b
be25a042
bf59d624
bf2923e6
3b00ef01
3de7a718
3ccf5e6c
bed5c5d4
bd1b761b
bd0c7bb2
3e5de9b7
3dce2ff1
be07afd8
3e259ee3
3d9100b6
bebe4931
bd49a73e
3c59c5c1
be3ef398
3ddf7130
be4889de
be3028cf
bd820f58
be5212e6
bc1fc1e5
becf3347
be5c98f3
3b892a0d
be4db7a5
be4ccb59
3e4df2ce
be684c91
be261860
3e0f35b7
bf02c191
bde8ade7
bf33111f
3da56874
be943f15
beb768c2
3eb66163
bd60ecb6
bf420f24
bed8c306
3e7a88ae
be4bd6ee
3ea6a165
3e0ca1b5
3ed6c2f8
be587613
beddc615
be88a9bc
bf1261fa
bf75cffb
3b33967e
3e8888c0
be3d5952
3e4de5ce
be4080dd
bd4a9e4f
bec38e52
beeeaac3
bd5f8015
