bd863b36
bc687648
3cc34698
bd49fb20
bb8fc640
3d3d7a9a
3d8c7c1b
bc2034f8
bda4797e
bd5d92bf
3d93f805
bd1a972c
bd778362
3ca7412c
bd6ea31b
3d8aabe1
bca65dbc
bd8076da
3d949181
3d4cb012
3d76318a
3ca43a5c
3d7d4346
3d091b28
3cc5dfac
bc2111c0
bd185523
3d9b2117
3c721870
bb5da420
3d76b036
3d255010
3ac9e900
bd897440
bd6af207
bc85a56b
3ce81277
3c98257a
bd7e1390
3dc7017e
3d4abf78
3e2e7d83
3e286d7b
3ebdb9a1
3ea82792
3d87fd4b
be91484c
3c987011
3d386b3f
bd92c0e5
3cedd90f
bcc82f4a
3ca84e2c
bd9049f8
3da1fad9
3b88d3b0
bd28ec0d
bd7e4ade
bc976efc
3f113522
3f0097aa
3c427da8
3d47cff8
bbafec99
bebb790a
be9162cf
bebce0f0
bf5db139
bf090e51
bd929b1b
3da10401
bd0b4ba7
3e881fda
3e45402b
3df42bbd
bd04fd19
3a5d2e06
bec3706e
be84871e
3d4c2007
bc79a198
bd780323
3bbb55b0
3da02d83
3d8b32b1
bcfbc0a0
3d012f3a
3f13ffe7
3f0c009c
3dc9f57f
bcd00e63
3dee3d07
3ee67deb
3f1f1526
3eb7760f
3ec468d3
3ed0f642
3e1d320b
3e6a7ac3
3e4c835b
3d71f580
3ec27aee
3e463fd8
3df17be2
3f371763
3f8491e0
3ef435aa
3eaf0f8f
3ee23705
bd9f3a44
3d02793b
3ca86fe0
3d963b47
bd395d44
bd761822
3ec35c2c
3e6c0977
3e946186
bd560f04
beb6194e
bf2ecde8
3d67fe78
3d998317
3e8e8024
3eb55773
3e9d2675
3f0ddbab
3f64c23a
3f279571
3f397409
3eb7afd7
3ec43fa9
3f25d45e
3f37aac1
3db5d463
3e42508b
3f0648ae
be13691f
be96c156
bd95e9ad
bc3a3148
bcadf0ce
3c3725e2
be5a0159
bebc6a27
bf131038
be5e27ab
bde3fa4b
3cb24d7c
3c84a668
bf0ef862
3cbd566f
bd9fb55b
3ea3e7d2
3dc7ad98
3ea94b85
bc153be3
3ec7bbca
bcb70325
bebd821d
3c405359
3e84c6df
bf415233
bf6099da
be4379a3
3d9695fc
3eead4c3
3e86f879
bd25eb00
3c8fc0be
3eae0e4a
3d671cd4
3e1f2e9f
bd1578b6
3e38a79a
3e19850a
bcd6482a
bde345d1
be985f99
3cb8dbbe
bed1cb71
be76f18d
bf0d05a2
bf24cbb6
bf03df7d
bd6ad4de
bf50bdfd
bf30e573
bec6b4af
3d49b4e2
be989ddd
bf11acd4
be9c4404
3e8d2d01
3e413a56
3f0acbfa
3d532145
3dd1a521
3eeacb42
3d6bbe78
bb3e4b3c
bea696dc
bda4f0cf
3e42a54b
3e94e9b3
bca5a513
be0739d2
be94dc8b
be1bc14b
beb6aa6c
bece2da8
bf155728
bf3c2047
bf3f2c96
bf588b24
bf1946cc
be81eb3b
be5291b6
bcdb3b98
3d9b2f29
3d9a283d
3dc8f8c8
3e64bbb5
3f3ff7c2
3e67c967
3def490a
3c2a8a67
3d121096
3cc065ef
be069c72
bd44daed
3db88207
3e08e645
3d6a10e9
3e849e49
bcc62d01
bc67dd6c
3df3e1b7
bc8b096b
3e2781f4
3e8d1697
3de877fb
3d4653c6
3e2f98bb
be0b4e0c
3e2886e7
badf3358
3e9b0bdf
3e62ece6
3df2fcc2
3d42c0e0
3ec830ee
bc5e9e07
3ebc6ce6
3e7c82ba
3e87e3d9
3f1014d5
be9f684f
bcb3bb17
3bf49f61
bd8961ec
3e3665ce
3f37e1b6
3ea3e7e5
3ebe8526
3f1c9d0c
3f15d5fc
3e9ffcf8
3f03697f
3f3c52be
3ed632cd
3ebe33dd
3e811a45
3e37bd8c
3e3da238
3ea95497
3ed9c97e
3f0f6734
bc28116b
3e8735d4
bca84393
3e4d1887
3db030d6
3ce125a5
3e4c9260
bd973416
3d75a31e
bef7c3ca
be176678
3eaa62b3
3f1159ef
3f10623d
3e317a2c
3f1a22ea
3e9c817a
3e3269f6
3f0f60e4
3ecb5269
3e5cad7a
3e8ec7aa
3f2f1242
3c4378af
3eb096a4
3eab0c18
3e84cd19
3f21d211
3f1c812d
3e4105db
3e1147d7
3e778277
3f10a3f3
3e80c038
3e1c45e5
be44691b
3c9c3dbc
be030646
be6a974d
be2ac6ad
bd8220c1
3ecef7a4
3e851af6
3e9cfb7c
3e2946ae
3e68cb38
3b1351eb
3e2a883a
3dad2744
3dc76e45
3e7b8426
bef3e882
3e10321d
3e95c259
3f3cbad0
3f5a2a57
3f3ec7bc
3ed96e15
3d8e2f42
be0f3371
3ebe4565
3e18548a
be4a7448
be36a047
bed62998
3dace1d0
3d2686ac
3c73c19d
bd3e5789
bdde636c
beb499a8
3eb05a82
3e75208b
3df5b5bf
be54195a
3d183116
bea9bcce
3c3d006c
beb7c3ef
bf2ddc33
bdbf60dd
be9f49ea
bee656db
3df9b3c2
3c01f7c8
be183c14
3d965272
be3106a2
3ef9d12d
beb6f612
bebeedd1
bd0c1116
be457241
be006718
be0b4b61
be3046b5
bdd68293
bdf4f833
bd026916
3d168ebf
be480dff
3db092fb
3d8e8643
be448622
be883f43
be5957fe
beb289da
3baea019
3d8a0931
be3d3ef7
3e0a38b3
bb0f5857
be64c043
be9a78f0
bd807346
3d801f0b
3f107aec
bd830694
3bd173fe
3e44ce7b
3ccfdf8a
bed03092
bcd3780d
bd050842
bdb7a4b8
3d07727e
bd2d977f
bee09b56
bee6a3af
3c2170fc
bcd3a41d
bd98c85e
3e02adbe
be65253a
bd794509
3e07e8c8
bd69e0ae
be903f13
3f0800e0
3e5af026
bf1f5d78
b977d8d4
3d8f096e
bd301dc3
3e70593d
3e1e1f11
3e8d286d
3efd77b4
3ebe3e20
be2baea8
bd268b4c
3d0f4e4d
3decb581
bd0c1b1c
be25bcb2
bdcecd96
bec2bbd2
be48bac7
be2a1d28
3e444f28
3e8aaccd
3e64a0cd
bde1bfd4
bca24968
bdb6e862
3e34bd71
3e603f4f
beca707b
3d5352e7
be7e2d57
3c3e4599
bd98a0db
3eacd203
3da53080
3d05e875
3ed4c2ab
3e0d3278
3c27f163
3d9d20ee
bd625d74
3eba8bcd
bd701a0c
be70d621
becd9c03
bf0fd45f
be453849
be1be249
3d551c35
be04ab3e
3ed41f14
3decafd7
be13633a
3d229aac
3d6ee639
befb3063
bf0a39ea
bc71f31a
3e1d2248
b8eb1000
3b204598
3cd4d951
3dd8461a
bf149ab2
3eb62e79
3e01aa42
3e6883fb
3d6e181f
bdab8d97
bdf39795
be24909c
be8d28c9
be722e60
bea0a6f2
bdd5f6f0
bdd25956
bcfede06
bebd83a0
3de891fd
3da226d9
bebc5982
3dfaec1c
3e48efc9
3dafc012
bef6c518
bf1f4924
3e55f466
3f2f9b6d
3b52d8db
3e3b419c
bef77d38
bf086fbf
be0728c8
3d6560df
3e2dea7b
3e20ed88
3df55897
3e4deb07
3cc340cf
bca0eb3f
3d021f8c
3e9bfd98
3b30e04f
3a44a60d
3dc55679
bd980c41
3e02dfd5
3cf54698
be1f8c5d
3db17e54
bd56794f
bea2c08c
bea2552a
be97ead9
bdd392de
3cd0a50a
3f0c1ca9
3e8d5bfe
bf2f8b40
3e24cc75
be79e49b
3dadfa93
be026a32
beb05dfd
be0c607b
be9a9366
be55cc27
3ccc009d
be0225ea
3dd4f72b
bc0e4555
bdcfcb28
3e5bda28
bda089f2
3e787a30
bdac1de5
be588ee1
bee815f2
be9cc7c9
bee53f7b
bdf8b051
bd419e8a
3c7ba2d5
bd50e736
3e87df83
3e121dbf
be755850
3d97415b
be55cfb3
be021aef
be30147e
be6c3db4
be0c77bf
be79cd12
be8b82de
beffba3c
bed0946a
bdfe7e77
3d01f0e4
be2e1f8f
bcedf387
be004cd2
3ed711c2
be90a6aa
befc493f
bde88dd0
3dbce82a
3ef0401b
3e77839d
bbd07850
3db30257
bd05e6b2
3d302b10
3eab3991
bf02d782
beb4ca9f
3d711369
bd8d368c
bec58fa4
becda0ef
3d540751
3db14339
3cc10562
be9a2f1c
bd87718b
be09dde0
3d4cb676
be09009f
be409f2e
3e349b36
3e270016
bec52746
be4a4d8c
be2886a0
3d884a94
bd275d6e
be307b40
bd2aa111
bce67d5c
bdbe4c1b
bd51f4b3
3ebcb04b
be9e2f2a
be87c1a9
3d51f82b
be10ba50
bec0b459
be32a8a1
3e866e2b
be46c634
bcd39c48
3e8172e6
3e25a8a1
3d9c775d
3db2e89c
be038675
3e4fa4c7
bd217857
bea1b225
be895564
3b8eb8f3
be71b137
3cea5e12
3da5fceb
bed7c69d
bcfa123a
3d4b28cf
3d93652d
3d9cb2f1
bd224208
bdca1854
3f080244
3f0506c5
bd942887
3dd98b1d
3e923fad
3e7c2693
be09cff8
3ea2a87a
3f0f4899
3e4730bb
3d99e356
be2a8a15
bd625918
bea12c45
be869010
be42571b
be7b0a4e
be8e5590
be24dda1
3eb76793
3f53b988
3ed3be1a
bddb20d7
3c6ed228
bd46082e
3cc22fdc
bd8ed6d3
3e1f0def
3f07e51b
3f15b840
be1e48f0
bd0ff228
3dd7998a
bdab143f
3bfc534b
be3a96b4
bc2679d6
be1341d5
be00c7fe
3dbfba40
3e668b15
3ee4d3b7
bca6c527
3de224d4
3e8d4894
bd01e203
bda05da8
3ed9e2fd
3ee02545
be5f0a41
be30b588
bbda8730
3d8ecc5d
3d8a7797
3d8db1d7
3e339180
be93a165
be9162ee
3e1fce15
3e2d2db8
beb17b7e
bdf4eecb
3e921572
3e6dd891
bdb4c9c4
bf10ed05
3e67c0a3
3e2a1dc0
3f345bc5
3f48d2e0
3e8fa28f
3f2290af
3f25e23c
3e1cea4c
3e5e1e74
3ecb8f84
3f25160f
bd30cae5
be22a30b
3b062360
3da370ad
3d201712
bda1e264
3cd80e68
bf22cca3
be9c3767
beac31e5
be74d426
3e5e0773
bdaac785
bdc8f356
be6337ed
3ea81b97
3d3780c1
3d298235
bdc07d8f
bcb1635d
3e5b0f5a
bea600f5
be8b2b30
3e67587e
3e467737
3e8dbeb5
bd5f6d4d
be57bf0f
bccbf08d
3b2c3a80
3d19b68a
3d929379
3c33d238
3d0378de
bda241de
bd0b0fe6
3d42c9ee
3dd620c8
3da9503d
3c9178f4
bea5f1e5
3e22d76f
3e5f606f
be36c6d3
be6d8ee0
beb6211f
bee1942e
be7af0b2
3e887acd
3dcb32b8
bea21e8f
be2818b4
bc968883
3df5a558
3e7489ce
3d666f92
bd32beba
bd1fb906
bd4da555
bbf35ada
