be163156
3d91d7af
bd7c1437
be867fae
3c4655d8
bf574d62
3da2e0bc
bef8640c
bedc8608
bf0a4056
be694bed
3d9cb9ed
bf4b9d97
be2725b7
3ec6aa81
bf8ab5b1
3cfa3065
bd8cdf49
3d36a01a
bf24354f
bd8746f0
3d5caac8
bea53d03
3e600384
bdadef92
be162e05
be9df082
be9d7593
3eded552
bd35361d
3e4d402e
bd6a069d
bc1afd54
bed03609
3f0b0463
bee8a6f6
bf226cb2
3d1c4036
3e107bc6
3d9d5b94
3f0d050e
bf06deff
3d9e6de7
3e0d28ed
be2354b3
3b935931
3e0ef142
bea8f569
3e95cd8f
beab950f
3e1dc6f5
3e9f1766
3ecc0863
bd1bf7ce
bc7f4398
bcdc1e74
3d55a0f7
bd81ed03
3f26c83e
3c698044
3ed649bd
3e5f83ea
be942aca
3ec2e4db
bdf794cd
3daf5c09
bd279f28
bddd0f9c
3da42b68
3f15a137
bea9aa4f
bcf20cb7
3ea1462a
bee37f16
bed63ce1
bd8b3cd4
bf098cb9
be30c7a8
3eb35718
3e284df2
bf1a5578
3e53ddf7
3e213e62
bdbee2d1
3e85edf0
beb7d430
3e24a168
bf6ca05b
3e0b06aa
bc75a1b1
bf0f3eba
3f111d8e
3dab38eb
3dd15bb4
bf0ef51f
3e8740bf
bd5b8975
bdce31db
bdd9f413
bec49115
be10390f
beb6abb2
be05168a
bebd4dda
bbab9ece
bea9565a
be2214c7
3eab48dd
3e010fcc
3d879b7a
3d6cd68c
bad4527d
3e20c57d
be29085e
bd306943
be273275
3ef59556
bdb91733
bdea2830
be7b7e24
beaccc3c
be42adf5
bb953e20
be1c6c8b
be76f89e
bf03cba3
be209132
bd3797af
be1d7f1c
