3d2948ec
3c465cc0
3d921f75
bc9a0b60
bda012ff
3d8fd217
bcae520e
39e44e00
bcd74c06
bd2cc695
3d8e4ca7
bc941f8c
3d0d8ba4
3d3efc36
bd741744
3c27b428
3d9aa947
bba11a10
3d75c4ae
3d41c306
bc26c870
3d17d184
3cd78114
bd3a0bc8
bc317918
3d609e3a
bce85d9e
3d63abf6
3cc91c88
bd8f6b54
bc548558
bcacda26
3b8c38d0
3b19c200
3d755ad2
bd878e6e
3d11170d
3d9fd313
bd07866b
be099fe8
3d47b9f9
bd15475f
bcd8cded
bdaff054
bcb58182
bd55bbb2
bd81c6c9
bd626461
bc9e40c6
3cb1f29c
bca21ffc
3d019198
bb930e10
3b9b7300
3d48a85e
bd23eb8a
bd231402
3cae3b38
3d4e149e
bc95d3ec
3d970cd9
bc24a704
bd34c261
bc8ec722
3cf42462
be0800f1
3f34dfa7
3f2def27
3ec7a72c
bec58274
be8d71cd
bf41d99d
bf6ff34b
bf0a8d3d
bf129a23
becd53e8
be74a698
bddf9825
bce1f43e
bd6d6d8e
3dabb548
3b7ffa76
bd548efc
3d8112d7
bb6809a0
bceaf0ba
3f0350bf
3ecbf424
3da222db
be4aba1b
be877afb
3d0d9f78
be26d026
3e023e94
3ed271ed
3ec55347
bdcb3cee
bf182b01
be776fb3
bea4fa22
be9d63a6
bf1e87e7
be0829df
3d2ccc8d
bda0948e
bf058100
3ef3f48e
3b86c328
be0885cd
be485831
be546536
bc88ce10
3b7196e0
3d426e56
3eee8765
3ed641f3
3d5ad372
be558579
3cd298fd
3e1f6453
3ecdad7e
be5adda4
bebaf1c6
beb8a9e3
bf32f1c0
bf6ad172
bbd86d7e
3d8b650d
3e5f86f2
3d98c5d0
be1aef52
3e89c9a6
3f128607
3e8067b1
3ec9eb90
3e2d2e77
bee9df0e
bf546d51
be598069
be43ba72
bd0bd65a
3c80a190
3eeee6e7
3eb9407e
bcb4373c
3e15b7f7
be60049c
be370493
be3c9006
3e86c937
be523560
bf4fddaf
bf928813
bf35788f
3e6835c7
3efb3ef1
3e3e66a3
bd78df46
be452353
3db521d5
bf12bf25
3d7a07dc
3f25263b
be974488
be9507e7
be5e7247
be7dcb5b
be27091c
bd2c1195
bd882b10
be1a9c90
bd52df7f
be071c72
be7f9514
3e45ba13
3d8bb50b
be6a952c
3e41169d
3dd973e5
bef197a7
bf60461f
bf7618af
3e4bbc87
bc905c89
bcab9782
be48e077
be6045d5
3cf03873
be99675e
3ad1cb51
3e15165e
be312ffe
be38a022
3d703332
3d87cb3d
3d16a4c0
bd9becce
3df9f66f
3d7a706d
bd89433a
3ced2003
3ec78bed
3f092393
3f31cde0
be473972
3ec11ba0
3eabbcc1
be9f598d
bfa323be
bf17f2b7
3e910092
3d19b1f2
3e93c2e2
3d90471c
bea5d4cf
3ea58b9f
be175126
3e5d8a00
3e4dddd4
be9303c5
bf07f880
be6152e0
bdd30679
3b8401be
be12408e
3d8c790b
3e3cbfbd
3eb97f88
3e09c351
3ed2e92c
3e0aab6f
3f253b17
3e6d08b7
3ed8cf96
3e9f07e0
beff6b63
bf8f8690
bec4631c
3e54fc4c
3e93b00e
3ee4db95
3e404561
be8de2f3
3df3864a
be919f30
3e7fef1d
bf0850d0
bec24b14
bf407fb9
bee40ed3
bed1524a
bd38cb56
3b766718
3e9517b7
3e3ef6e1
3e62050b
3debb879
be1fd587
3e2d22f8
3efdf92a
3ee680a1
3ee63484
3efe5e97
be0483c3
bf1bc469
bd754d75
bce36d2c
3e90557f
3f2793a6
bc53ce86
3db51674
3d8e10f8
be52ec9f
bf0fcb12
beead293
bf02dd3a
bf5ae85a
bf261725
bf27260e
3e2a8980
bd9e18c6
3e1d2bf5
3ed002d0
bcb3d830
bd8d45cf
be195de3
3dbf318d
3dcb5ae4
3d3e59d8
3ec4ef15
3eeb47d0
bec95de5
be3840c9
be32dd30
bdbfc8fa
3ecb05c1
3eeb243e
3e594c5d
3de8d441
be09deb0
befebd52
bf5bafad
bec9261f
bf2a03ae
bf8005d3
befc5670
bedec0b7
bdb913ae
bd900ff2
3d93aa20
3e1a0b64
3d8cde82
3e049e28
bdf6e3dd
be8504bd
be9ff7fd
3e35c1b4
3f2114c7
3e59e8ac
bea3cd6b
bec8cdd1
be2497fa
3e3c0674
3dbd783c
3e4f9fad
bd1708e8
bb2a0de2
bd6c363f
be10a84d
be3dcb38
be17a22e
be8bc72d
bf0dd4b3
be82dfad
bef07580
3db55382
bc38eb78
3da28477
3f20a33a
3e57e53c
bda5f553
be846f13
befbd9f5
bee8e37d
bd65702e
bd25823e
3e881c15
bede6380
3eb748dd
3d9d368c
3dcae1d7
bc2bfa15
3db12bab
3c25b3d9
be7ac999
bd1b989f
bdc05270
3e1f710a
3eb5a9c7
3ebcd0e0
3e53dfcc
3ed975a3
be64224a
3ee50d27
3de5a44e
3d9be39d
3ed4becc
3e32118b
bd363142
bc4da162
bda07e7e
3d7d6d9e
be23f8c3
3d245101
3d21f144
be623ee8
bcf84a3e
be606b49
3e32347a
bdb4fd3c
3cb7efaf
3db2a92c
3e74b908
3e464f60
3e26c94e
3f0b644a
3ee10505
3edc821c
3f2bf818
3e8d6d84
bea601e2
3daaddc8
39c2bf00
3d48a152
3eb44df4
3e33d30b
bec650cb
3eae9374
3e9a55d2
3e34518f
3eb5bda9
bd0f4a20
be9b7563
3d393d7c
bda0c112
3e10dc1b
3ec1fc7e
3d91cc37
3d96455a
3e99a224
3e24817d
3e810d3e
3e112402
3e4ad0f5
bc7054e1
3e29c437
3d2a53f0
3dc7f562
bda7d791
bd96c5e9
3d2a3ad2
3d93c157
3f00ad01
3eb5d205
3e102fcd
3da9a876
3e158673
3ecf2862
3e8495de
be2baf06
bec1d535
3ea9a134
3e0e3670
3e839110
3dd87802
3e602d5a
3dc490de
3df14b5b
be6c0a06
be425ec6
be32642c
be6a4791
becb5255
bef5df74
bebb188b
be4bd358
3eb3ce59
bd5fe297
3d677b5e
3d9c6dd3
3ecb513c
3e0b7689
3f0bc799
becf5f2a
be732558
bd28e679
be84cbad
be173c0e
bf00054a
3d3e51b7
3e2d7537
3e09a8e2
bdf5ba28
3d5ed68a
3debb91c
3e20fcb5
bcd3bb51
beab52b1
be4ab76d
3c331cf0
bda00731
be57b785
bde1151b
bef6ef75
3e6e3034
3d050e58
bd803ec4
3d1ecde5
3d22a559
3e9d4b1b
3e9390b0
becb895a
bf2a02fa
bed99a52
be438808
3e3b1009
be171197
3e77ff64
3d9c6670
3d700594
3dad41e8
be7e2d4f
be06b929
be8a9097
be7726aa
bf0dc6ab
be98584c
3d050d66
3eb41b29
3e967dde
3e876845
3f0388cc
3ed102f9
bd90e7a4
be140a27
bcd058e6
3d3c7e45
bd9efead
be2f322a
bed8a367
bf54b09e
beced08f
be66583e
be73012d
be399261
3ad4e304
bd3b691a
3e9fb9c1
be8a1563
beb02b14
bde7f585
bed84d34
be457372
beae14a4
beea7619
be111749
3ca3a98f
3d1e68d8
be843626
3e68563c
3edc82fe
3f2da5b7
3d6ab865
3e1d9310
3cc34d3c
bde001c4
3e181d18
bb288734
bd02a15e
3e23aeb9
3e9e4950
be063709
bcd2d27d
bdb19742
3c5d8bcd
3ec9edf5
be25c79e
be3f05e5
bdf7f2d6
bf389ffb
be82a198
be96d13a
bf17a3a1
be9a45f9
bdd8f8a4
bed4f272
bdaf8b47
be257c5a
3e6801fa
3ef95e88
bd85e4c4
bc5c16f7
beb354d7
bee56d7d
3efa794f
3d41c2ed
be7c21ce
be4944e6
3e77dca8
be837611
3ca1c4c2
bdc23692
3df4efb0
be1f3338
be5543e9
bdd52bb6
3c2d8a89
bf1f3582
be9a6b7b
be8aafd9
be6adc5e
beb8f478
3dea4490
be26bca2
3dc516b7
be1df9ca
3ec2d238
3ccbe9c3
3d4ba8c3
3e03ac43
be18fc19
3d0ee032
bdbcf420
3e65f4a4
bdaf70ed
be86e5f4
bda2c681
be031324
3d97a71c
bec9d93d
be209848
be6d71ad
3d7b84dd
be89764e
bee4447e
bf3f8ad5
bec71c03
be9cd0b6
bd1657aa
bc45182c
3c26bf1e
3e7fa57d
3ec79f81
be2f7be9
3e896335
bd12aa9d
3dcf6879
3e00eafd
3dbacb61
3e487e0b
3ec3f492
bd7802de
be478700
beda6267
bdd0c80c
be4e3d12
3d0e45bd
bead012e
bee33c88
3d47ceec
3e9592af
3d0433ba
3e736604
beb3fcc4
bda3ff0f
3dd328fb
3d4c7f23
beabf2df
bba0810d
3e87a877
3eb988c6
3edd7541
3ef5bddb
3da1529d
bd82cef9
bcf2eb2c
3d4b8f0a
3df0ba10
be34c86c
3d7d417c
bc6ea967
3dd96a63
3e174179
3e088260
3c1de3ba
3e718445
3e1343cc
be134ea3
3e301b9f
3e831803
3e89b534
be6f30b3
3e4dbb10
3dbb1061
bdeec42c
bec139b6
3dff9aae
3efb9d2f
3f200b2b
3e288d7f
3ef5c378
bd02f878
bc786cb8
bd60f1fc
3b7b3adb
3dda2da0
bed552fa
beaca937
be83f9f7
bf088096
bec42488
bd3923e3
bea3fe3b
3e5c7bf1
bdfe7b6f
be8bc7a7
3ed03551
3e869c08
be13d322
beeaba4f
be790b2b
becbc06f
bdf23730
be2427fb
3e92c595
3e8652e4
3e9598e4
3dafc1db
3d859279
3c90f730
3d163338
bceac964
3c0851f8
3bc648ac
be52ceb2
3db76986
3e31857d
bf7bae75
bdfb7742
3e8c3d99
3c815024
bed53a70
bf17f3f9
be79764e
3d616343
bdad4b69
bed9ea2b
bd502827
be78bb3f
be842303
bd286d94
be8ee12d
3e26acb1
3e4a699a
bcce72b1
bccd8ec0
3d8ae287
bbd6ddb0
3d1eed56
bc37eb38
bd2109a2
3afe0c26
bd9af55c
3e3e6617
3e38b616
be82386c
bedd0a96
bf519229
bef5f9ef
bee09ca4
be958a97
3cef85bd
bebb43d0
bec99933
be8921e8
3b4cc81c
be869aba
bed8d146
bf15413d
bebebbec
3dd3063c
be3c19dd
bc16dd61
bb6e28a0
bc7c1c88
3d80ed9f
bbe40d60
3d1aefa4
bb9fdaa0
3c2daaf8
3e5ba25c
3dffc851
3dfc46fc
bd7611db
be4538e6
beb09681
be8147a7
be810d7c
be8616f5
bf2ae698
bf84a4e3
be7b4fc4
3e6a6a42
bf35ec4a
bf4f78d7
be98876c
3c25e5e2
3e92d889
3eae27ba
3dfbd695
bd3e5acf
38caa800
bd8964fb
3c265d60
bea38a0e
