3d05bfe4
bd9e5925
bc0bab28
3c36b400
bcd62742
3ccb2bd8
3d96fb95
bd12c182
3d753f46
bd83d8d5
bd426359
bd377466
3d7507ff
3d891895
3dd4eb68
bd88440c
3c155a70
bd61ea59
3d85037b
3d438122
bc902144
bd43de8a
bced52b8
3d59a5d2
3d18d8a8
3d982f8d
3d7c7576
3d55845a
3cd1c910
3d7bd676
bd6f16fe
3d66a532
bd879420
bd822232
3e0b48fa
3dfdf263
3dba40f6
3ceed1f8
3eabb745
3e81f25d
3f1c3999
3f56bf60
3f22fe55
3ef1fc3e
3f20cc49
3f0ac184
3ed6a5dc
3de21e8e
bd865ac7
bd8d1354
3c69456f
bb47f8cf
3d4749ca
3d4aedc6
3d8ab31b
3b41ba00
bd9e70f3
3d8afdf9
bcfde9a0
3da7b8d8
3e525f83
3d510ed9
3ccd8cc5
3e6db3bd
3ef67967
3ec10292
3e0ee3cf
3f4bf122
3e41df85
be938ec1
3e7ec7be
3ef05614
3e74cf9c
3f20f729
3f007081
3e1fcc81
bdf14d73
3d8dc2d9
3dea7eb8
3ded3fba
3d89cadb
bcda7c9d
3ca3afbc
3d6d5e86
bd4d0efe
3d86782f
bd3bcaae
bcab8a1f
3d9a0459
3e78813a
3e3a6a48
bdf0caf2
bed33286
be06dc3f
beb95697
3d8f4084
3c323111
3c0fe7e0
bca1b4a9
bd7778b1
bc225b76
bf0d4fe7
bf68d3ca
be44d05d
be91e5ec
bf259018
befd29f8
bec50e5c
3bd7c8af
bd68df3b
3d0b55c7
bd733639
bda2f22f
3d80f597
bd03da9b
be5472ed
be29916c
3f3bc317
3f7ce135
3e08e5d5
bcc3f376
3e70e216
3eb73542
3ef8f543
3e93b9c7
be9982b5
beb5d2b5
bdc09d02
3f115d32
3ed9d142
bdb02296
3ca8b117
be84cbc9
bf0122c1
be938ec8
be9e2a02
3eab9d5f
3f51ce48
3f07e7b6
3f20e006
3c4ab938
3d1a616a
bde8e38e
bc40e076
3e751080
be47cd20
bdfc8f5b
be983616
bde23c98
bea9757b
be883195
bee8dc0f
bdf2835a
bdfbb72a
3d61889e
bde985d2
bd7ecd71
be9b2c5b
be91cc30
be4d0e7b
be65f6b1
3eaedf7d
3ecec832
3ef0c746
3f0db60d
3ed96036
3f1113cc
3f1752b6
3d1e8d3c
bd8a104d
3ec4c05f
bec57dd0
bee4d56b
bf2008da
beab9d92
bee2fe98
bdc6b5e7
bdda8de3
bf147316
beb11a5e
3d2bd6b7
3d8bf21c
bc3cb2a0
bd6d8260
bda215b5
3d00a6d0
3dddda26
be34e5e4
3dfc385e
3e6bf17d
3daadb49
3f3f43df
3ba7b8da
bdd14b51
3da21acd
3e02fe77
bda283b4
be357c22
3ee6a478
be75d5b8
bf146ab8
be978342
be4d9425
bef69189
3d9ed9c7
3c755dbd
3acea629
bdc73f36
be510b45
be806da4
bec2b794
3d31c765
bea2ba77
bed025fe
bd9cee83
be690e66
3e094e6b
3df5012c
3e276451
3f0a5dd5
be935891
bf21be35
bcd1f758
bc9554b3
3ddc5998
bdc63bf0
3ea42f7b
bead479f
be9979b2
3cc93781
be0fd24f
be0f2834
3e21a44d
3dce892e
be611537
be472b1e
bd8e5797
be1e4b8a
beb7f8c3
be29dfbd
be0c51a7
befe8133
bda59b9f
bdd75837
3d5884df
3effc32a
3e212fe1
be201f07
be9e39cb
3e4a1b8d
3e801d3f
3eac04de
3ca13d3f
bdb4d376
3e0bbe2d
be9c2607
be8ad6ab
3e10f95e
bdb856c9
3ea18156
3e14e0a3
3e4e33b9
3d3439f3
3e2f8ef3
3d23b07d
be602199
be8985db
bdf3b5c3
be2d6caa
be65d2b0
bdeeaa6b
3c75d33c
3dac40a9
bb2a891e
bf0be67c
be804b88
3d19ca0b
3ebd9dfe
3e92b8f9
bef43301
3b86cfdd
bddb5fd3
bec7169a
bebea752
3e65d136
3d06ef6d
3e0e1e60
3e347250
3df839dd
3de00173
be0259fc
3e09114d
bd900bf7
bf440403
bf120f05
bdae4526
3c8076b9
be9ae2cb
bce2f6fd
bd48927a
beaba40f
becffe82
bdcbc734
3ebdd08d
3f39dc67
3f045184
be21845b
be1539bb
3c2bface
bdddeb72
be0337ae
bec732c8
bd66c333
3d6d3be2
3f132939
be9126c8
be5990f6
3e49366c
bd3f796d
3e0747e5
3e811b80
bf01a985
bea5fe0f
be0a19d4
3cb32129
bd8b7274
3e960448
3c293b05
be8f5914
be8802fe
be6eff65
3e74317c
3e67e573
3e454139
3e7d1657
be2b0c21
3ccc8228
bd6b05f0
3d0e3107
3e7446d9
be831df9
3eba33ec
3f28e16e
be3b0448
bf0773b1
bdf65ed4
be261e25
3e9a3458
3e880794
be53c342
bd9c3821
bda14ea4
bdcc05d5
3de4183e
3d9c5eb3
3d948366
3ea7e269
3e0de30c
3d81fcac
3b25f5f4
3f5c4660
be6fd707
bf198272
be286096
3d4875e3
3dddd83c
3dda4f0b
3d29fbaa
bf3e7f53
bebd7bc6
3da1c64e
bdacb4f5
bda4993f
3e10d65b
3e03aab9
3e717421
3e13f189
be04fd96
bbebaf4c
be12df6e
3dea5a7a
3e1ae155
bc849071
3e1b7627
3e83f642
bdd2c805
3e3cdd02
3e04f5af
be9af51f
bec59187
bf32e7fa
3e1db711
3e3b7e16
3d815395
be47f499
bf00ac23
bf3199a5
be7496d2
bee23f51
beeece11
3d71e614
3cf294ca
3e9af109
3d9f2c17
be8446dd
bd0a0342
3e64b4bb
bd909995
3d3526d8
be07ddf7
3e0cbbc1
3e309a32
bdef052e
becd8d6e
bda7a353
bd499c83
be30370f
3e3f5718
3cc98069
3b05826c
3d192f5d
3d98b3cf
beac821d
3e64ffdc
3ea442d1
3e869bd5
be8b8261
befc05c4
3c63017c
3d6a8cc7
bdbc7189
bdfd44dc
bf19e2cb
3d65cec2
3ebee269
3e86e5d3
3ea22f5a
bc727424
bd14553f
be54855e
be491af6
be847598
3d10a0c2
bda0bf88
3e196cc9
3ea38df7
be9e769c
39b9b2a6
3d917a07
3d75dadc
be1c1f01
3f058bc6
3efecf4a
3ef5d5a1
bd4bc864
bf002df4
3c2daaa1
3e0f9b1b
be17c3e4
be0c7420
be0915ee
3ee46129
3e8a69b6
3e769256
3ea4ba10
3e25fc34
bc24bec1
be592e20
beaf044a
bee7ab9c
beb9844d
be708f46
3e9b1595
3f4c40cb
3c9ccb77
3da88a32
bda10df4
3d24c2ac
3b4d4e99
3df0bb23
3e7830e8
3e12105f
bf01226c
bf4cdf18
be7b1da1
bebc677b
bc41fb93
be7a2fae
3e356393
3f0f4b74
3d8989e1
3e2299f3
3e393be7
3ead5fe2
bd0d1edc
bec1d9f5
bdd6e005
bd741798
bec67fb4
be386a5e
3e2747c8
3d741384
3b8c504b
3dd20072
3cdd3aa9
3dbb46fd
bcb954a6
bd478cb9
be864252
be5c8ebb
bee8aff7
bf37b358
bdb9f909
bef9a469
be25d12d
bca58f0d
3ef03487
3f006da2
be0d2729
be6dac8f
be1eb4ba
3d522d93
bd94307f
be2f10ee
3da2e0da
3e3cd73b
3e66c9ff
3e853994
3f19b6b2
3ed42121
bcff2a40
bd9ed370
bc8a5938
bea85abc
be82f2ce
bda70cc3
bed5133a
bea271ed
be81b5d7
bece413d
bf17b80c
becf2218
3e574b8b
3dca552a
3ecaf064
3eaa3cd8
be4020b3
beb2d8fa
bdcbcee0
3e87abf1
3eb3cec4
3e21efd0
3d4d5241
3e196fe6
3e7b9297
3f31e2ce
3eaf7537
bd579704
3e3b3169
bdf457a2
3d59f4aa
3bd673a6
bdb27f97
bd08b899
bef8b708
bedcc88c
bf66cfd3
bf9126b8
bedc470e
be270127
bd6a6552
3e55b129
3edb3dbf
3e42edda
bd8587bb
3db2fd5c
3e7126e9
3ef6d50b
3e9801c6
bd034d70
3cd051e7
be6fbd6f
3da0cc7a
3e85468d
3e700d75
3e596873
3e128f26
3d1edd9a
3cea6789
bcd43832
bca9614e
bc0c8c52
bedeecc5
bece96c1
bf5c80ec
bf93d7fd
be0d5d22
3e8b2a3a
bdf0c727
beff3aaf
3e3b7a3d
3e692815
3db05670
bc7cfb36
be29d985
3e0c9808
3c2b1ece
bded0c2d
bf059c65
bf3429b3
3e639d79
3ecb1517
be24b439
bdda4ebc
3dfedf3d
bce1db34
3cdaafc4
bd295a40
3cb227c2
bc81708c
be42f088
bee2299f
bf26ab10
bf3c0993
bcb712db
3e88817b
3d6bd134
beee1bde
bdab564e
3e166c93
3e498c28
bca0bf0e
bd985c5c
be8d6047
bd80ea00
beab01fa
bedeb57e
bf1ba555
3e7d3608
3cbdf2d7
3d1b2cfc
3e8d3851
3d97fdb9
3d04e95a
3cf11c7c
3d42b7a2
3da228b1
bdd87d84
be530814
bf4ce7c7
bef904b8
bed85e85
3e603a99
3d72afe6
3eaabc6e
3d3c17bf
3ac4e676
3d51df43
3e5937a9
3da807ec
3e2d9305
bd33d1c8
be19bc8a
bdd92d33
be508828
be997ed7
3e856327
3e27c149
3e30fd44
3e701d33
bd934c57
3d1f6902
3d60124a
bcaa6488
bd4fc191
be3f0583
bf16c70b
bf47ab5c
bf1116e2
bf7f653f
bf213c30
bf01ac11
be04f91f
3e4d633e
3e30afdd
3e130ffb
bc9cc0ea
3d968b92
3f001885
3cb4c639
3e82e241
3ec13f94
3e8020a3
bb912245
3e6bd60a
3e74fc59
3e3a90aa
3e52c7a0
bd47daec
3d81695b
bd35d88f
bd4e3d7e
3e8cec64
3e685ef6
3c0fcb95
bdfe21ac
be206768
be445b77
bf8cf0b6
bf2372e8
3e3c28ac
3eff0976
3e97d37a
bdefb233
be80a43b
3eb3a742
3efb39ce
3f5423dc
3f2c1695
3ee4c11f
3f3f2ade
3ec88161
bddfde29
3d89663b
3ce10d5e
bd7670e3
bd88a7a0
bd018263
3d4cddea
3d48186e
bd95c611
3da00b30
3e33caef
bd08ed8c
3e311351
3ecc8fc3
3e6dda01
3f00053f
3e84a6fa
3e10cea7
3e3c9581
3ea9fbd0
3ead6a04
be827c63
bf0eb6a3
bd9d7bfa
3c025a13
be396eb3
bed2dcf4
bdc7d311
3e2a9219
3f0d388d
3e8d2871
bd4b0d8d
3d69ef46
3c48e1a8
3b9a1d10
bc098260
3d3c8462
bd301885
bd373314
bccd5ee8
bcf1a34e
bdbeed7f
3dd652c6
3e76d0f8
3f01b7bb
3f50138d
3efd1dc1
3eaf1732
3ee1af70
3d84cf3d
be6dab64
be3dc60b
3e6b46a6
3ef8501e
3e6a465f
bb6084ed
3b2ebf63
bd2dffdd
3d5de5ce
bd099f7e
36a6c000
3c0a7098
be380ae1
