3e2aec42
bee013ef
be537a5c
3d1efbf0
be63083c
3ec00a19
bd745db8
3d49862c
be7fec9c
3d8c0329
be05c946
3db497eb
be1275ad
be629a47
be160e95
bf33202c
3e90d216
bf3196af
3ef2f667
bdedfb6b
bf08817c
3e0429c0
be0b8d5f
be667ee8
bd64c881
3e2ebfb5
3ddab4aa
be2ce6d6
bf13f6e7
befe8644
3da7eed1
bf0e85f1
3d1680b0
be04e9e3
bea29b7f
3f0c0f9c
becb7bac
be78b268
bebc1dd6
bec9cee1
be73e1ca
bebe2e52
3e040cdd
3db34319
3ee4746d
3e631456
bef1dd6f
3e1a2e23
becb6006
bd3fb88a
be92c812
3e03c582
3e320b2e
be5ea79f
bdf17bba
3e483f6a
bf1db128
3eb93cd9
bed689c8
bebb6d36
be080c45
be9a5bd4
bedbf505
be69bdce
bf2b31e8
3eff364e
bb480302
3e09318c
bed8d2b4
be1c45ce
bde07d81
bedadd6a
3e2aa267
be050a83
bf25d926
bf488cad
be0b4418
3dceb921
beda1572
beba4d4f
bf13698b
3eb16e84
bf07fcbf
3e07ef77
3ec7db1e
bf05568e
be40a9f7
bf5ec818
3e4b9532
beeee91e
3db1a9fa
be9af775
3e1e66d7
3e17abc8
beee1521
becb1526
bf057fd9
3f7c085d
3da7155e
bf7d8641
bf207cec
3e7a54cc
beb4d768
bf111b4e
3d284ad7
3e2097af
3ca85907
bdb49e7b
be43fc4e
bd565d35
bed6569c
3d15936d
3e3b52ae
be5a1439
3c699a58
3e8a610d
be2e5011
bf959c40
3ea01fe9
bd47f59d
3f1a6e80
bed04bbe
bde6f947
bdb113ac
3f359a5b
bf637ca0
3e6482bd
3f0c0acc
bcbb4954
