3d81b8bc
bed9f333
3efda03a
bd64d1e8
beaae854
bf20a6d1
bc49fe57
bddcd424
3eddac14
3e123ada
bde91c53
3ea18eaf
bf306d54
bc2503a6
bf406e6a
be46ddaf
bea8ce9f
3e47d050
3cb880fe
3e2f127c
3d40824a
3dc56112
be9bd9af
3d52147e
3d94333d
bdb42d21
3e9f2799
bf3ff310
bf826efa
3da56de7
bf81cf9f
3e60cfa1
bebbec60
3e479cab
3e56638a
beaa3721
bef5a6dd
3e9e25fe
bd321efd
3d44bca5
bf3a5411
bf7011a6
bf12dbd3
3e89e107
3ebe31a3
be11f635
3da9550b
3f011166
be16bd0d
3e93238f
3d63f7af
bf602cee
3b28b403
3ed428db
3e900e76
be54e80f
3e613ad8
3e12df70
bf5a9978
3da9e2d7
be534724
3ef91361
bec2299a
3e21408e
3e6bca94
bf063910
3e068294
be2121ca
3e4f747e
bf07ea5f
3e1f51cd
3f0d908d
befba51f
3da75741
3f187ff9
3e19374e
bf1279cc
3e68a580
3d4559c8
bd7c2c2d
bf2d1852
3e3e5d98
3e6e4205
bdde7607
3d92a9cf
3d3bd8e7
bf11325c
3e31010a
bf06a47e
3e8e5558
bdefe41e
bee579de
be6cac61
3d24710e
3e9e324c
bf02305b
3e4f4421
bf52ee78
be49fddf
bca9e529
be43835e
beb80db3
3d676817
3ebfce65
3d8b8639
bc9d54cd
becd3f48
bf9b73e0
3cc1f77a
3d8c6a90
bc913f18
be59e4cf
bf33480a
bf063d24
3ed02e7d
3e496b62
3ca979f7
3dc0b882
bf159a8c
bf13f8ab
3e55098a
be80f5be
3cf5e237
3ec85318
3e14a058
3e8abefe
be9e07ca
bdf557db
3e0bfeff
