3d3e323a
3c00e5f0
3c8901c4
3c2056b8
bc003c08
3cfe514c
3d12a78e
3ca22ad0
3d69ff9e
3d8fec2b
3d7e414a
bb053880
bd7d30d8
3d849803
bd2b3be6
3d8d6fc5
bd4b1652
3d3d56b6
bd97c6aa
bc3abca0
bd5a782a
3d08b76a
3caa7034
3c8897ac
3d9dc7e5
bd852126
3b9aa990
bd19baff
bccead5e
bd721a66
bcfac862
bb2c1ac0
bd30e1b2
bd955b87
bdac7736
3c4bd778
3d555ce1
3d222db9
3ddbf72f
3e8bb93c
3d192fe8
bdd14c3e
bde5cacc
bcf8d709
3cd4d676
3ce23825
bce2a1f5
bc140267
3d651ad3
3d80c506
3cf718e8
bc0de760
3da47c29
3cd1ed5c
3c0bc738
bda1f7c1
bd8e232d
bbf43180
3d3946ca
bc0d46cd
bc5a5116
bdac4124
3d397a30
bdab7705
3e61a723
3e867056
3f314c0f
3e95c431
3e2f1a35
3dfea408
3d08c285
be86121e
bf45d687
bf2af196
bf381834
bf021ee5
bf081a6c
bdf368f6
bdd4a72f
bd0e1f54
bd04a130
bd7542ec
3d6e45ae
bd8da64c
bd373382
3c58fc80
3ba09e8a
be05a18a
bd6edfd5
3eb378d0
3ea7ebfd
3e2fbe50
3d289b4e
be580a9a
3ebf8075
3f09d6de
3f6685b6
3dd247b4
3d730b84
bd3924d6
3ea08003
3e74225b
bf33e7a3
bf4ad854
befe5a32
bf13183d
bf0d4afc
bf00452c
be8fd7ea
bdc421bf
3de08106
3d63eed6
bd5fe5ac
bd628f48
bc00386b
bdc967a2
3ea8e76a
3ee532b1
3e814027
bc911b6e
3ef96bc2
3eb6637f
3e6f27ac
3d844a13
3d76ccfc
3eb0c096
3df5da2b
3ea07b6e
3e45d055
be10eda3
bdec9ac0
be8c0db7
be1f6bda
3ea67cd7
3e53236a
be2707b9
be39c8d5
3d364dcb
3ebe9ce5
3d438baa
bc285320
b9ce9200
3e1cb5af
3f03f082
3e2cf254
bdc60f76
bd857e9c
3e8fcf33
3eb5f7a2
3e0152da
3d90587c
3e015839
3e789224
3ea192ce
3d6d3622
be5affe8
bcd1722d
3d258284
3e985e74
3e292983
be799998
bdbd6ddf
be5cbf05
be8f6c0a
bdcbef13
3e8d3439
3ea226c5
3e88ecab
3c4d3d28
3df40719
3e9da832
3f5b3ad3
3eb339b2
3ed323cb
bd864c33
bd7c4995
be2aebd7
bd4f3b24
3ee799a1
3ecdd499
3e658b7e
3ee8699a
3e4b7388
3d4f3383
3d2f3d83
3db020b2
3e516425
3dc56a83
be7430f7
bd4137f7
be0c0065
bed71cd0
3d9fc01a
3f475d91
3f26448b
3e65ff28
bd26e216
3f16f4f4
3dfc596b
3f0f1c1a
3f37e7db
3eeaf862
3f00d7ff
3e772b71
bcdd9c40
3e478f36
3e894635
3f10b280
3d94d48d
3e0830fa
3de0482c
bda169f0
3c239809
bd38116c
3df7d3bb
be725b11
becc0627
be2ca5fe
3af5ca88
be857a12
3dcd1d32
3f5fa10d
3f696c3f
3db57409
bc599130
3ed57ff3
beee5129
bc5844bd
3f84ec17
3e19a540
3d64e9ae
bd9835ae
3e3eaab5
3e0c78a3
3e7257e8
bec65f81
becbac49
bed92b0e
bdb83cae
bdfe7b46
bd26029b
bcdb228b
3d8dbaa1
bea6301d
bdc9b72b
be25e622
bc0f4bbb
bec27ed6
be6d8f66
3e6d4b9f
3ef7da21
3deeec7f
3c4dfd28
3e4bc8db
3e9307fa
be993a0a
3f05fe7e
3e98f1e1
3dbba9f7
beb0e790
bf035fae
bf2b3eaf
bf336b74
bfb1bddd
bf4e846f
bf0c5470
bdd84e8b
3e8fe068
3e9c3674
3dfaea88
3c53892c
be0ff250
bccff3b9
be087875
3bdbe7b8
bec66e3d
bed6778e
3e4fe26d
3e8540ca
3df1f91c
bb4dc440
3e0e67ee
3f42e515
be15013b
befddb56
bf65e8cd
bf303388
bfa30818
bfcd286a
bf8f6b07
bf8eceeb
bf54cccc
be1e2f41
be2f91a5
bb310f82
bdf35e95
3e9d8818
3e1c1a0e
bd9769e6
bec9ec11
3d88df24
3e0d0518
bf40d090
bd9e9a6b
be365b1e
3e963383
bcea50f5
bbf05493
bd3a7386
3d6e7a2f
be85fe2d
be8ec7d2
bf5aa9db
bfaa7e93
bfada847
bfaef075
bf87582a
bf0c166c
bdad666d
3c17bed3
3e50efb1
bdc0a445
bdd38ee5
bd858f66
be4a72df
bd760950
be128e3e
be3d4dd6
3c7016ca
beba5a45
bf9d5492
bf418bdb
3e9ce870
3f13bdc4
be8f4fc6
be8f75b6
bccabbdc
3d0e1f1b
bd745290
bef3d9cb
bf4c03be
bf21cf39
bf489f78
bdf63094
3cc12527
3e8af927
3f205fd4
3f19c708
3ec66565
3dd7c4d1
3d83a651
bde17695
be239f1f
bdbb0327
bc0526c8
be8ee799
be19c448
bd812f87
bf40e505
bf59004e
3e0a238b
3e9fe917
be903510
be84e28a
3d5a69fc
3cf22996
3c5650e5
3e55baca
bea5b29e
3ebe9b95
3d66a0f7
3f3ba361
3f0a9ab2
3ea2afc1
3f118105
3e86b6cc
3e512129
3e00b50a
3df8f7b3
bdffacb0
bd9bc42e
be1b1c4f
3e86d517
be23073e
bd9a3fb9
be469750
bf35f502
bef7f3d1
be4dd090
3d3bbd13
be66da12
becaa565
3b462d0a
bd6e77b5
bdbb9b2a
3f27569f
bde591ab
3e198bb6
3f22094d
3f215a47
3ec4b317
3df07275
3db72287
bdc4848e
be89f8ac
be41ef11
be360ba0
bea5848d
beedafcd
becf3198
be483bad
bd6d6a66
3ce24999
3dcad02f
be582a48
be9a0039
3dd91064
3e3df2cc
3d94e2bc
bdc954e3
bd3fba83
bd2b83d8
3c0918aa
3ecfcd3f
bec6b029
3e7480e6
3f1fbe29
be18b9b0
bf19fd6d
be3fec8b
beb26196
bee73b0d
bee79bd7
bdd3701f
be8d9f24
bda7dcc2
be2d4781
bebc6cef
bdbd5d99
bde6b8d4
be4f5d69
3dca0238
3cd3fc0c
3e48d600
3eadfa3e
3e089373
3ebc65cb
3e9304c1
bca1f0fc
3d82b816
3d7b52a3
3da38e53
bf1efaf6
be071b1f
bdd268c4
beca0bcc
bf0657b6
bcaaed25
be7208ce
bf391d65
be7f212a
3dc6e3b3
bb9c2f93
bd467efa
bcf40fdf
3e1df548
3e3afa9f
3e312626
be90b9a0
3e24999c
3e8e20a0
bdfc7f8c
3ed9bbf6
3ecc706a
3eea67e1
3ead2226
3c361f28
3cc3fed3
3e63b2e0
3da2d297
bf0fee42
bef343ff
befe280e
be931f2d
bd89c9d6
bebf267a
be10c210
be17658b
bd194914
3e163542
3be64140
be43c237
be0b0b79
3e58181a
3d2907b2
bd805f51
beb2cf60
3d3b4752
3e8158ad
bef5d650
bd605c18
3f03fa30
bd8bd613
3e6a97a9
3e5b3985
3ddf5540
3e9e48de
3f03fa9f
3d096d0b
bd9bcc53
3dc88b9a
be0a478d
3e35a43a
3baf34fc
3e3da631
3e8ba0b5
3e0e4a0d
be545db8
be2ca365
bdf6f1b8
3e2d6555
be0ea9c8
bc6e8502
bdaa751a
bc3fcc39
3f269dac
3f140f10
b8cb8564
3eb62e40
3f45ed1b
bdca4fad
3ede670e
3c57a719
3d65a3e7
3d485cb0
3f793c99
3d993db7
3c86168b
bcf4f4d1
3d9eb4b7
bd9037e0
bdaa8ddd
bd57e51f
3dddcfb5
3d92b966
3e8b086f
3ca4bc6b
3c904225
3e56a981
3d23c5f8
bbb445c7
bc905581
3e07baeb
3e8d66ff
3eb2d8fb
3dcd4bf6
bd5e352c
3d0c404f
3e83e5fe
3e421248
3c2de870
3defdbe4
3e22d77a
3f4abe60
bd2ef310
bcc2dee6
3c9c8911
3b7a2f33
3e885668
3e77d040
3d5ef2c7
bde3ea94
be031c9a
3e44b7ab
3e194c9c
3e7755d5
bd997563
bcafee85
3d8760ff
3e652eb3
bd02cefe
3d512f00
3e8ec9d9
3e3a0025
be465c87
3df903b8
3e6d3923
3d58aca1
be01309e
3d161277
3f23444c
3f14cbf6
3d3063c8
bef57bc4
be735ca3
bac255cf
3e0bb5dc
bdba6197
3dd6aa66
3e64d9ca
be12f9de
3e242510
3dabae17
bda587f6
3c42403e
3e03ad56
3d452332
3d2e3be6
be1bf1b9
3d7b323b
3e9d35fe
3e20b423
be61ad56
3ea5b9cd
3e92cfe9
bd8bccbb
bd7cac05
bc561f82
3f1be7e4
3f3d975a
3ee0db94
3dfeaa6f
3de9257f
3de19e5e
3d90a651
be41820d
bd5c11c3
3e5880e2
bd660f0c
3e496d22
3dbe8a56
3e840801
be6da015
bdfe8d1f
bd820855
3deae961
3eabe250
bc7a1b98
3efe9895
3f291597
3f45d569
3e79b464
be1c8509
bccbeca7
3bcfa000
bce40d18
3e9b7ebf
3f1148ab
3e3d91e9
3ed1aed8
3e4a16cb
3d570fc6
3ea91d4e
3ebd889d
3e0c23d1
3d3d63c9
bd3f67db
bc22d565
3d665ad8
3de63eb3
3d76370c
bc8c9f7b
3c694e18
3b593d60
3d4fad58
3da2905a
3e0daa3f
3f1f7082
3f2ae717
3d1ac003
be085610
3c9f0c90
3c880290
3d68ae62
bf0c8f16
bebc4435
be117b7d
3e90b382
3e209815
3e07cccc
3ea63551
3f1f7372
3e32953f
3c7f164f
be192b66
3e94288c
3f017801
3e8c02c1
bf03b391
bd4a0849
3ec0b012
3eb4f4ef
bf0297db
be77b37e
3e680e84
3f2996bf
3dc696dd
bc9a0bd7
bd81b539
3d0d8124
3b6a00c0
3d628f1a
3c014e4c
3e06c25e
3eb55563
be052670
bd557810
be29d54f
3ddb99a4
3e6a315c
3efaf80b
3f3928aa
3e769a46
3d191c51
bdbe91c1
3dca299d
3eae5853
3f0c99c9
3f6c80e0
3f617a6c
3f05abc9
3e8b2a8c
3d8ea962
bde3d07b
3c741f90
bcb1c476
3d0237ac
bd515df0
3d82c22d
3d94cea1
3da08eff
3ce028c4
bd02f1a7
be251568
be944fb4
beca3f9e
bf1903e0
bedf7a11
3bb8b144
3d23929f
3ea9e1cf
3eb9834d
3ce7e44f
3c3b6b36
3ed21df0
3e9f5e64
3f3c1766
3f12d55d
3f01cf71
3f096aa6
3eefbfd5
3d941cca
3d87887f
3c8809d0
bd5369fe
3da53ffd
3d01f4fa
bc57f458
bcd10f7c
bd8fbefa
bd9fd5d4
bd62b1c2
3d0da265
bcd1f8b8
3d9b0c94
3d2cf3ae
3cc6a2de
bd87d744
3ce8facf
bda44983
be0055bc
bd575be4
bd68eaab
3cebe9ef
3d129c7d
bdb779a7
bcfc7b27
bd89acbe
3ca6abcc
3cafbe00
bc5f9308
3d9fa651
bd36ce6d
bda1973b
bd091bf6
