bec5b4bb
bee9bd7f
3e27c5ef
be08e02f
bf25ca4a
3c255ae3
3ea23d01
3e6b6a23
bea58286
bd34519f
bb9fb6bb
3d9b0dc3
3ce40305
3e906997
3d0a0b4d
be51407a
bee0bf44
bd117649
3dad6ef0
bea0fb8c
3e1e2a38
bd0398c3
be896d3b
3de80520
be0cc509
be975d45
be914501
3c8f521d
3c6145c8
3e943502
3e6881b9
bc2c7877
3e8d0feb
