bec65cb5
bd8e2c22
be2ea82c
3cc9dfea
bd8a0777
bd72efee
3ede62ad
bf4c4882
3dc8718b
3e709e22
bdc4c8c2
bd2c4526
bdd6d033
3e19ec4d
be027361
becc52d7
3ca1489f
bea272af
3ce0f06c
bed2412f
3e9f07ad
bebdc519
3e1f4656
bd866da7
3d65b79e
be312f42
3e2dc90d
3e6bc175
3dfd8b8b
3ed74bc8
3dcd31d9
3da44425
3e8eec64
