3e7f83e6
3e62762d
3e10f223
bdfe9950
bf1b3538
bdaeddc1
bf066e2e
3e6dd4dd
bca0eb53
beb5fb54
3cd07c84
bde639ed
be991607
bdcbd59f
bdc050ba
be0c22bc
bed9155e
3e7dd185
3e805437
3e534e49
be25f6e7
3bc8aab1
bef0db69
bda8c376
bf7914ce
3db0f6fa
3eb590fc
3e1ad12a
3e09a2db
3e9502df
be8899ac
bef03adf
3e506865
3e74be55
bd4c78f1
3e9348a9
be2d0b73
be76c366
3e1a5efc
3e0e3509
3cf0cb0b
bd2fab90
3e39d14c
3e0f45e1
bf154bee
be094bd6
3d9192d2
3e37b86b
bf5a09be
3a4db4dc
3e5c0e57
bb3a3541
3ea0de57
bf13648e
bea6f439
3e5aba33
be74c0c3
bdc03f1e
3e4a999e
3ed07e7c
3dec03c7
3e21f2a0
bd3d4cd7
bca5eab5
3f074023
