3d979d47
bc25f490
3d967e1b
3da356ed
3baace70
3d8dccf7
bd9a010c
3c2aa470
3d2e9c80
bbcaf590
bcaa6bde
3d1a3e12
bcd959d8
bd6ad535
bd747a87
3d8aeee0
bd05f45a
3c0ac410
bc6998d0
3cf84a20
bc882b70
bd7501eb
bd0935be
bc974754
3c8781d4
bd7b2fb8
3d914d9f
bda0dcec
bcc1dc5c
ba53cd00
bd26ef78
3d943b3f
3cc0aef2
3cae09cf
be1a2d42
be53d056
bdce5d73
3ceff181
3ea0c9a5
3ede2df0
3e6e52b2
3ec41a81
3eea63f8
bf27ea62
bec9aca0
bdcba091
bdedd11b
be5d5707
be61a4b4
be249424
bd4d5f20
bdcf2f87
3d65baaa
bc2027d8
bc2b0ad0
3d656dd2
bbeeab10
3d935f69
3d9bf512
bf1cef32
bf23e6f9
bda958c9
be39b244
be9c819b
3d085370
3e5df99b
bd89d38c
bf0b4e8a
3dc6a7e4
3df9d0ae
3e88ae45
be259100
bf6959ae
bf638f09
bf7464cf
bf3db773
bf54e871
3d004b12
3d1bff20
3e3cb1d8
3e85ce46
3d2df354
bd540f22
3c62d788
3d9abfc5
bcbe8da4
3d6c508c
bf412854
bf5557ff
be2194f1
be85f332
3d182e7a
3e0e8826
3e4161df
3e81bafc
3e9773a3
be56c696
bf016778
be991442
bbc8d5c9
3da53216
bec32b41
bef2a30d
beccc0e5
beabf5cb
be85a1be
bee2d6ff
bdf1c110
bec3fe15
beb6e263
beea74df
bd8be7ae
bc94c41c
bd12cecf
bda2cec1
bf1185d9
be64257f
bee1ac0d
be7d7360
3d5213e3
bdb1c036
3e9168e1
3e8a5175
bdd6023e
bdbf30c3
3d85d0c9
bd330543
be93f4e5
bcf88b42
3e6206b8
bdae3fac
bea5a01b
be67c615
3e290ae3
3ea86445
be95edf3
be0523e6
be067e33
bf430ff6
bd1709a8
bd7325f0
3d3043ac
3e0a3510
3e03a44e
3e965bdb
bde5a5f8
3bd162c2
be93be1d
beb2fa2d
bdd93c79
3e8f5572
3c55bf84
be085894
be2116c6
be33af9b
bed222d8
beb8ca4b
3db69fa8
3eaf71af
3d841914
bde6ef5d
3c931144
3ebcc208
ba9d2a75
3e41ffcb
3e5e1991
bf4eba9f
3cbf9da3
3d14d0ce
bd49e914
3ebf72aa
3f4c0612
3e861172
be6df3b0
be0df2a5
be60435f
be9b83e4
be0fafbb
be0dbe85
be390d3b
be3f130b
bd9fe8af
be4659eb
bf20fbc2
beece2f2
be58ca28
3dc2b4f6
bcc17111
be12540a
be11a879
3d74605b
3e5e6e78
be958e95
3eb89fad
bf3a839b
bdef4f86
3d198cdb
bd7a7e38
3f24b687
3ec11f5f
3ea8ad93
bc94a44e
3cd243c7
be52e1bb
bea7493f
bebf86e8
bdca2b09
3d898c1e
3eaaf340
3eebd0d5
be830860
beebab91
be1fa311
3d044395
3e3e36e3
bd44a42b
be72100d
3e32d62b
3eb8b655
3de4a094
3e29f71e
bce9a2a3
bf5189f3
bdaf579e
3f68a525
3eeb618e
3f3f39fd
3d4a26c6
3d4b630b
bc1c85a9
bdf86a7b
be25b618
bf10e235
bec1e718
be5d7c80
be16fc62
3dbeb942
3b114de0
bea86840
bf0533ef
be1e2dc4
3e94ba5f
bac5d435
be2a83e4
bd996ff8
be085ca5
3d88c21e
3eb0dd40
bd430a74
3df802c7
bedcca50
3d1ca61b
bd15fd1d
be30c5cd
3e626db3
be796474
be9f487f
be0aae52
be017759
be08c1ad
be28e729
bde41e89
be1069af
bf12fbb7
bde7fc86
3e051cc0
be794961
bec69e2b
3d4fe6f3
3e80770b
be0eff0a
be590c07
3c388a7b
3d99a145
bf04e80f
bdcbab34
be702d7f
3df4d0c0
bf2e29d8
be0a6164
bd85ede9
bd995644
3e0562fb
be5129b9
bd895858
3ec719fd
be46f43a
bec7b60f
3c8bcd06
be06bc1f
3da83302
bd840a5e
3dccde0e
3e8f3ec2
bd36c476
bf7c7bdc
3dc76453
3efb3976
3dbe70ea
3d82ec35
3c915c71
be1980f2
bebb4d96
bd474c1a
bee34d94
3d69439a
bf176691
bda42437
3c54d780
3ebd947f
3c5cb66a
3da3ff36
3edff68e
3ed53a88
3e893e4c
3e35dd8e
3e45f143
bda8c8a7
3cbd5b39
be9815a5
3d79b64a
3e0cd8f2
bdbcf734
bf658565
3e228ac1
3ec87ef5
3e3bdee5
3dc3615a
3d7c9286
bea14e01
bdaafb6d
be783899
bea4a007
3eeb5626
bf184ba3
3cccb353
bd3cda14
bd5981ef
3e098e68
3e901bd0
3efdb543
3e13e8c9
3e25780d
3e117d24
be84ed46
be55d230
3c587602
be202d29
3cf8266b
bd3cd77f
bf160b54
bfa0c939
be803d44
3e0c10b8
3d3a23f2
bd7310c0
3d90eca1
be4dd580
3e826d62
be0c522c
3d5e2e41
3efb48e6
bec37279
3d91619f
3c2d0488
3d99a601
3d607843
bd5e6e64
3ecb5127
3bab666a
3e6105e6
bda5e584
bd245396
bd97ef68
3c8a06fc
3df79209
3dbf7b66
bef2726b
bf657267
bf3a84a3
bec2605f
3e6e4afa
3db0b835
bd8d08a0
bdccf61f
bdace887
3ea36db9
3e340438
be010051
3f2a95f3
beeca7d4
3d88dbfb
bd0ba242
be0a2614
be79c236
bf0ea764
bded4644
3ecd2c6e
3dbc7836
3debe5e8
3dc8ee05
3d93a52a
3c158e2d
3e8333c2
3e676484
be139ca0
befc2fe4
bedb6397
3d3c541d
3e734c70
3d72884c
3e7cbe34
be6dbb23
beadb432
3d7e6a08
be3f205d
bebf8552
3e3c31cb
be87b61d
bdd74f5f
bd9ed46c
be4a6f5f
3ef1d52a
be66c1cb
bf244d15
be4a53af
be5ec1a8
3d3ed376
3e35e3a8
3e88f73b
3e9dce01
3ebc5865
3eb1a488
3ea8e4f9
be25be30
be934890
bb49193f
3ea07df8
be78d606
3d17935e
bed9d00a
bf0bd14b
bcfcc5ea
be7593cd
bec3ba7f
bdb08bb7
be32e24e
3da6aab9
bc3d7710
be2cd673
3eddb249
be40fada
bed3574b
bd427534
3d6077de
3e4aa8c2
3e8d69ba
3e4fb061
3e7c386b
3e1b748a
be18d59b
be952ed3
be29275d
3e7851cd
3e699ea9
3e0be305
bd08e106
bc988328
bed0c7fb
3eac0e38
be84fae4
bee974a5
be61b926
bec14452
3bb7cdd2
bdf9c5ac
bd1f39d2
be73ffde
3f009ce4
bee00894
be01b4c2
3e6325da
3d5f0e5d
3e63a9dc
3e4b0f85
3d2f40c9
bd53fcec
be0d9b03
be9f452e
be92ba39
3e2dfe88
3edb3022
3ea4e46d
3dd3e5bf
3c8ca7af
bcfeaeac
be3861ff
3f3867fc
3ea4e2a2
3ec6320f
3eaa4e67
3ea59167
3f1ba0f9
be028b20
bf32fd3b
bcb0c283
3debe663
bf195815
3e9ea25a
3eb934c4
3e54774b
3f27922e
3ee048fc
3e9657d6
bd9f654f
be2e436c
be8ac796
bcb5e113
3ebbad6d
3ec9f2d4
3e800d90
be0033f3
3d4bbb16
3d85b924
bd52c712
3e247aca
3e010fbf
3eb7ec49
3ea52f72
3e58890f
3ed2791b
3ec71bc5
bd9d5ee3
bc2e6eae
3df6e572
3d27d5b8
3e82878e
3dd16003
3e56d0ae
3e0ebe46
3ee683e6
3ebc1215
3d6e16ab
bcb9c084
bd83b24e
3df60ca8
3f0c1105
3f0caeb3
3e09a948
3e301d1b
3dcb2503
bd645cf4
bec23c39
3e2e6117
3dc5dd4b
3d5632fd
be05247a
be04e416
3edbac71
3e37f67e
bd07c87b
3a85135f
3e8c9fe2
3dd93409
3e3b4adc
be14aa3e
bd39272e
3ee37549
3f120a67
3e6bcfba
3d27abf0
be109f4d
be00a21d
3d37a0bd
3e9e7388
3e5ad89a
3ec56b52
3ed57cd0
3e9a9f9f
3f0c42ab
3f0649c4
3eefe055
3da894ce
3e0249b5
bd577348
bef97dd5
3edd62ab
3d8efc6a
bbe467c0
3ded6661
3eb0b0b7
3e0e71fe
3ebe5855
3dc9854e
be64bd52
3d42fab1
3e960fc9
bdbad8f2
be7dbedd
be84c96b
bebcf836
bda7e520
3d5d853f
3e88bd87
3d0dc4a7
3e1b187b
bd5a1706
3ea8ec7e
3eec296a
3eba8fe8
3f0b236c
3e9bc5b3
be30fa1b
bd1745a4
3dcabdc7
3d0cfc99
3b739920
3da1887e
3f1f082e
3ea3de29
3e4c1c4a
3eb8ed3c
3f16abe7
3e9b15e4
3e263a28
bd221ff9
3e139cdb
bd00e72c
be3b4a9a
be7ca659
be45eadf
3d8bc814
3c173479
3c1e9b8a
bd1c9d02
3e41c56f
3e592b75
3ebc348d
3e8d1771
bdcc3ed8
3da229bd
be3b8290
bcfc345e
3b49756b
bd935e00
bcb2683a
bd17e25f
3ecdc08a
3e6ee4c8
3e9053dc
3ea4bd91
3f0fae77
3ec2babd
bce82adc
bd6bda46
bec9957a
be6e8e87
be957b5e
bf080a1e
beec7409
be06dead
bec6d552
3c06829e
be444b36
be0d3154
3e18ba8a
bef5a1e5
beab85f4
3e48ec85
bedeae54
be392030
3ccb1c4c
3d93547b
bc84220c
bc52aeda
be12076e
bef0cb22
beaf4ab6
bc6b910c
3edbc7ab
3e77a60a
be493301
be6fd8a0
bef1aef0
bee192c5
3e623919
bf4b009e
be9a42fe
be83782a
bf0283cb
bee4aa8c
bf366107
bf510508
bf1d8151
bf2aeb5b
bf44d63b
bdd1ee2c
3eaeadcb
3edc8104
bd38bfd1
baca52c0
bd5ee07f
bda63f01
bdf19007
bea14638
bf2ea99c
bf20b7ad
beef2955
bf3fb910
bf9d11db
bf2e1961
be8a474c
bd888e78
bec3341b
bf259429
beb79a9f
3d4d1479
be203f60
be76d2e9
bf8b1e7f
bf98ea92
bf21e797
bf1b5993
bf314412
bf079ab1
3eb91e12
3ed2b320
bb83f7c0
bd015f3a
bda4e9e1
3d63012e
bd04656d
bb8d1c95
3e432ca0
3d8eb4f5
bde483e9
bf55aea2
bf3b2e4a
bf07b0c7
bee77cbf
bf82d733
bed6498d
be810be9
be285705
bf0d0119
beec14eb
bf1acd74
bf2b44d1
bf359a79
beb4e476
bed1c50d
bdf8b3db
3c9b3dd9
3d55ebd6
bd72dc3b
3d068f70
3c8f2e04
3d960e7d
bd853f86
3d9008b7
bd910b6f
bd1cd6a7
bddec312
3d1f5fd1
3c359107
bbc73f01
befca6b3
bf21c1ba
be1926cd
bd28f915
becd9db3
beb7da15
bede6bc6
be97f01c
be486a80
3daeb847
bceb1530
be3f86e7
be889f62
bea11e4f
3d3c450a
bc3e25c8
3da2012d
bd1850d1
3d91fe74
