3d2eaed4
bbed8360
3ba4c2e0
3da128cf
bc25b590
bc730cb0
3d86b7f3
bd97a0dc
bd237b6c
3c31eff0
bd137f49
bd2a4562
3dbd2bce
3e2a65d7
3b932200
bd8aa9f3
bcf681b6
3d24b674
3c83fc14
bd429785
bd5ba6d0
3ca39370
3c5eab78
bd650d68
3d376326
3d7ef22e
bc9ec44a
3d0377e6
bd2ada14
3d895fc3
3cd2a4b4
bd897aad
bd62e68d
bc6074c8
3d11c9a0
3d44309d
3d6423e4
3d58e123
3e7bc81d
3df742ad
3d0f8f91
3e3a6f3c
bd7b7901
bdfb18db
be660890
3e9fdf5a
3e937692
3e23de13
3e5d4e1c
3df76785
3d97cfaf
bd3e9f74
3d767c72
bd6d9a62
3cc34810
bc576798
3d91a841
bd920845
3d3766cf
3cf8ee2a
3e33a6c9
3dc4a49b
3e2654db
3d769d58
bea02197
bf11968a
beba78dd
3e8a0db9
3f00f92c
bd7e1001
be4bc8f9
3d859bbd
3d4a8d80
3e4d2fd1
3dd0d5ad
3ce1637e
be1e17bd
3b16267c
3dbc290b
be27772a
bde43492
bd853b50
3cc50ae8
3bfe5360
bc6a8cd0
3ce1d3e8
3df9b9c4
3dd48fec
3df202e1
bd59a0cf
be009698
3d88b87a
bef639c8
bf55f95a
bf27cf98
bedd24b7
3ce8b31f
3e4202e4
3e252e65
3e655a61
3ed509e9
3f0aee62
bc3ff71b
3e5b8afe
3e5aee38
bdf84f9a
be3d627f
3ee9860f
bd91eae5
bdc1c85a
3e0dd691
3cd74010
3d3912ea
bcec7c8c
3e1f0269
3e446948
3e8b87fa
3d91ec62
becead78
bf3f7968
bddf1692
3e1c1d69
be2df067
be6f4fd4
be0f7aca
3ecb1563
3d4a2ad4
bebde1b8
be7df34c
3df0627d
bc82e2ab
3ed26375
3e7b4589
3e756bff
be24851e
bf2a8ad1
bea390d4
bec11d2c
3d0152f0
be9dd6ad
3d86fdb1
3d9669ef
3e012d68
be6580e0
bd815ed8
3d8bb27b
bef183c4
bf2bc222
3e23f485
3d88790e
bed4e66c
be49c56f
3e9a9671
3e5013fa
bdd8792d
be09f217
be988c31
bd1aa2b0
bd3b8539
3e9fd3b9
3dab0b7f
3d6baace
3e7e2f63
3db308ee
3ca04312
be0bc1de
bdd35e2a
be78adff
3d71ba66
bd9bf56e
beaa28dd
3e1a7f86
3ebbb387
3e9b07bb
bedd86f1
beb4989b
be9359ba
be87b243
bed8e4f8
3e57ae69
3ec2b113
3ca44408
be2e02a3
bee6266d
bef30fd8
be3298d5
be6dd124
bd4095e3
be0bb076
bdef9413
be61de03
3d8d237c
3e33b5e9
be805fb7
3e23c1db
3e059c67
bda52d17
3daf1c81
bf013848
bd415f0e
3e88481e
3ef76de0
bd8004d2
be82bcee
bf2d3707
be3e082e
3d0cc242
3dfa6fce
3ec01ee7
bca62759
b8c8ef51
bdc354d5
becd8db5
bcca48ba
3e42ae00
3dfed11d
bda579c4
be08e988
3dcf8554
3f0582b5
3e97945a
bed59ed0
3d662644
3dafb5c4
bd538fba
bc32e9c3
be4c0e5d
3eadb9ed
3f0f9c69
3f1f7c7b
3f508dc5
3eab6845
be939adb
3be6e925
bd97cd2c
3bb5bd65
3ee520e3
3d7b52f9
bdb4c88b
be9770a4
bf2b1959
bd819371
be9060fb
bee56f73
bdf13ec9
be83b021
be375df5
bdcfbd42
be176b68
3c5291f2
3dea1921
3e3650dd
3d2f4431
3cba6682
3eb55907
3f2a53c5
3d38f76d
3ef7442f
3f175f21
bd35c9b2
bdb7a23a
bd9b1097
be6b08b4
3d824201
be3ad484
3dbaee52
bce577ea
be4305d1
be4ab802
bdc23bf5
bd9f80a9
be92af42
be6556f6
3dc764d4
3b388e8d
3e8777a5
be5c38c2
be0ae051
bea0d192
3e57f4d8
bc095416
3d93d150
3e7590e8
3d56063c
3e36619e
be5b5330
3e94e640
3e02ff98
be0566f6
bc85b0b4
bd32557c
3de47778
3e09466f
3e34c703
be01c293
be4c7955
bdbef64a
3e7c9256
3c31f635
be190217
bdef9734
3cd24ea3
3e15a416
3da4cdd6
be437407
beeb61b1
be9acca5
3ebbfd3a
bc94f035
3dc5f921
3e85c9d8
3d278fba
3e2f879d
bda1f6ef
3e5821cb
3e34be1e
3d98cb71
3eada747
bdae8eb6
3d2a121f
3dadeb87
3e57ec74
3dd8e9af
bd24ee66
bdd65042
bdf950ad
bdc6abcd
3d5b4526
bc6cfaaf
3e641690
3e125e8b
be738b8c
bd539578
bf16f075
3e8a1c39
3ed19084
3d90b329
3d9cde7b
3e6a2e5e
3d0d3073
be090f0e
3dfb513c
3e0a5d6a
3d9edef4
3e7f3584
3e80aad3
be07ea62
bed4f1d6
bd496813
3e9f9a4e
3ed8019a
bcc50c4c
be26febd
bc7984b7
be08181c
bde33773
3e0ab5eb
3e52afc7
3e60ca71
bed42c3e
3e44b1f2
bf1c1674
be530312
3de1caba
bbde9a1f
3d85e283
3ea57a3f
be3ce29b
bea73b30
3b9076a4
bd7ee715
bdf5d99b
3e6af3c6
3ccf56ca
3df8f1db
3e2305ec
bdfc0af0
3e2692bb
3e264245
3d24f047
be1384bb
bc972a78
3d51fee5
3e9ff11a
3ed71018
3de98798
3cb894f7
3e4a2e6e
3e559216
be00fd2b
be9180d8
be7f4093
3d447924
3ca7a645
3e89d853
3e0190a7
bec7a1df
3e8ae91b
3da343a0
3e938391
3eabb21f
beca8dec
bee3aec3
be267e46
be030034
3d3d8900
3ed09cfa
3ccd6bda
bd3b94ff
bdfe7b83
beafe90e
3e3091ac
beb205de
be81f41b
be5c8e9d
3ef871c4
3e67aade
bc02f95d
bf4bc4bc
bdefac37
3db8f6ad
bda48a64
3e44a446
3e3c17ca
3e4b842c
3e4e81d9
3ea0ed07
3eccf5fa
bd875325
beb8b7de
bea708d1
3ea7b424
3dc3df8d
3e93b66a
3eae0d9d
3cbf8378
be2928e3
bea4b59f
3d92f0a5
3c99626a
be8edaf2
be601bbb
3ee5fa61
3f1374a5
3d2ed9b7
3d849498
beb43a4a
bcd8f1cf
3d880bc8
bb8d24f9
3e21037b
3ee7683d
3ecc2900
3f374764
3ed23718
bd13aecf
be6ee2c0
bf14464a
be85271e
3e96681b
3e8d7ad9
3ece2292
3de5cb53
be3935a2
3c51faa3
3db24cca
3e9bef47
be7a701c
bd670464
bde7c448
bb9cfcc3
bc0bb252
bea8f529
bef22f4d
be2624bc
be259f70
bd1132bf
3dcf73eb
3dd9a8bb
3ee68009
3e645bf1
bd35d525
be25047f
bf1894d2
bf39ecd9
bee8b513
3e449b94
3ec0cb1b
3ef0f955
3e5d17e9
3e80e2ea
bcc51131
3e5f5080
bd6b0394
bc5cde6e
3da2cb82
3e387303
3d2965f0
beab851d
be11dd19
be10a87b
be5cf896
3d8ab4da
becb8d2e
bdcb6274
bd20e342
3e6f6782
3df49234
3d62f961
be998d21
bf6e7dfe
bf88a526
bf2367d3
3eb344d4
3e9db35c
3eb6bffe
3ef9318a
3ea407b3
3cb9e32b
3cdeb26a
3d5d9b3b
bd0c5f83
be55a764
be5a9884
3e341d5e
be8d1c75
bf68ca6e
bf78ee87
bea5759c
3d9d0e23
3e864d08
be6c906e
3cdae91d
3e1eb17f
3e1392d7
be4c1313
be9baa4c
be977747
bf84f622
bed57acd
bd6b0ab8
3eaef39e
3e995ddb
3e858e45
3eae28a5
3ec6d3e4
be82d4a1
be78a72e
beb25160
bea7d650
be89b6c4
beae9d24
be3ee149
be8cc0e2
bf6bdc65
bf1767e8
be2e0a9b
3e1270ca
3e58e36a
3e11587c
bd9f42b1
bc8fb45a
bdc45143
be34d16e
bef5bfbd
bf876ba9
bf7c09b8
3de4306f
bcce1e1b
3d8eac49
3eb93165
3eee3208
3ef3e304
bd403a03
be1809f7
3df1ebd0
bdd90d5f
be349fa5
3dbac934
be331b16
3dc60e76
beed1fe1
bf027cee
bf154eb3
beb07550
bbb5c68b
3eafe60c
3d1dfea1
3c02b8db
bd53a89a
bda516a8
be6e29a1
bf07faca
bf2dd188
3e3a1a7b
bc4a0557
3e08a746
3ea4706b
be163ee4
bcb5b933
3e6821b1
bd6bd067
be051e85
bdbebd90
bdb2a18e
bc5ad36e
3bf84a6b
bd447085
3d832c7b
be8bff26
bf0fa9cf
bf0126b9
bf266bf4
3e26732f
3e957b2b
bd83201b
bc43c749
bd2d0d90
bdc36a2e
be858474
bddc7aae
3e163d0c
3d003a71
3bfe7fbb
3d17387d
bcae7c61
3e3c355d
3d69dc28
bd5c2274
3beb2d3e
bdde9552
be5cf750
3de00dd5
be230ae7
3e56aac0
bd326d74
3e2c57ab
3d803be9
bf0f7caf
3e7f9bd4
beb9929c
3f0bb126
3e25fa9e
3cfc8381
3bcfa150
bd671066
bd148af1
bea7373c
3e6973fd
bd779aa6
3eb15c7d
bd1a90ee
be698c0a
3e279972
bd64cfc0
bce7b04a
3eb19a69
3ed470ef
3e492d96
3d8824d6
3e83b64e
3ee82b90
bd9eeeff
be101ad6
bd5b338d
befbc581
bf0e85f8
bf381794
bea9b686
3e983d23
3d25e54f
bcbe790a
3d858dcb
3bdb94a0
bd9f5b5b
bf33f2b3
bf4d9483
bedfb67c
be0c8c5e
bf496f71
bf78192c
be57054c
bce849cc
3e442a26
3f0a46fd
3f0d8451
3ef16782
3e130756
3ea0acd0
befedbd6
bf1965f2
3e8b9d34
be047751
be7bc36d
3da23f37
be124347
bf4b083f
3e17d33b
3b085751
bd3636f9
bbcc7a40
bc286080
bda82adc
3d09b669
be32fb27
be95ac25
3f147eeb
3e1d0a70
bf7c69ad
bf05ddca
be2f7f6b
3cb7eb06
bf0ebfcb
be86403f
3eedc38a
3df778f5
becce36f
beac9141
bf0f2489
bee97685
bee9bbec
be5d8711
3eb15b71
3f121867
3e9ac1a4
bcd00fb1
bc81fa39
bd812183
bd84afde
3ce40688
3d80a2c3
be1a175a
beb71f67
bed47a5b
beecd12c
bf0a087e
be94ff6f
bebf4145
be8bea3b
3d8947a0
be9fd41c
bf1172d3
bf0c0110
bf00bb4f
3e3858a9
3e0a994d
bf10ac01
be344fdf
bd28fea7
bf0d8ced
bebc5ba1
3d53be9c
3d4e68c7
bd80076e
bda2fcb2
bd6933f0
3d501b36
3c437340
3cf6a340
bd394a60
3d05b5c8
bc84f56d
bc094ab1
bdbe5d7a
3d235438
bc7806fd
3c537df2
bd46ea2d
bef7b671
beb6f346
3eb214d1
3edc44a5
3e5a74d4
be4750b4
bedc2def
be300312
bd502216
3ce4e86d
bb08841d
bc382981
bd25376c
3d363462
bd4b3e20
3d56342e
bebb40cb
