3be2edee
bee763a5
3e389ea8
bcc6a227
bf726447
3e2746ca
be91b69c
3eb416af
3da74595
bf26cb97
bf1f04e6
bf0f88d1
3e9c2102
bf4648c5
3db64447
3dfbda07
beb4e158
3d59a269
3e925ea9
bf32051d
3e6f5f12
bf40486c
be2f0ef3
bf42cf55
bf5ff943
bf2918bc
bf7cbc28
3ed9a6d4
3e089798
3d7a122b
3e8611ed
be031768
be604b4b
bed75702
3dfdaf91
3e0d8099
3d7c9809
be3ec55d
3e0caaad
3e2f54e5
3ed17cd9
3c73273a
3ec6a84c
bedab948
bf23fb90
be9a8d42
3e38006d
bf3826b9
bd5e549b
bd845254
be3d1b53
3e3103a7
be04f5b7
3c926687
bee88928
bedd8035
3eb775cb
bd86ace2
3f21b815
3e8dde73
bf1033ca
3d9fdefd
bde05408
3eb03a16
be7ac68f
3c88a26b
3e8dccea
be3cdb93
bec3ceda
3e661f04
3eaeda9c
beb3b9dc
3e96e95a
3d950a99
bdf4dc58
3e003cb3
bdb22b06
bf21b583
3e511764
be728a3c
bf238e99
3da7feb9
bc38dee4
3d817ad1
3c3207bc
bd2abb59
3e4b8af8
bee4b819
3eaaad3d
bf25babd
3de683fd
3e38a26b
3eefdee2
bf3f2479
befc7b33
bd4ebd42
3e1883d0
bf592cc5
3e8fb9fc
3f0ca946
3e533b36
3ddc5977
3e2eb170
3e946dd5
be85166b
3d96c305
3e97636e
3ecf86e2
be8f3896
3dae8cdf
3d1a5017
bf0280a8
3af3ff00
3d95f910
be814b5d
3d4c93c9
bf1c2691
bdbdad93
3ea33ff1
3e17e5d6
bf43501a
bf18b936
be333915
bdf84baa
bf1c6e2e
be986eb6
be00268f
3f0c47c2
bc970ef3
