bcb4ebe0
bd310ef5
3bd0df70
3d8e9d47
bd103f6f
bbba7580
bd493e9a
3d9be98b
bd27da5d
3d5aa5ee
bd159c1d
bc15e868
bcd78281
bd926e82
3b7206af
3c6da88f
3d845ff7
bce92550
bd2245e2
3d257c5e
bd8784e8
3c4d5bd0
3d64382a
bc5bed78
bd9a55f3
3d58396e
bd27466b
3d8bca49
3d977d57
bd8417f8
3d8bcad5
bcd504d6
bda1f026
bd876923
3d4a3b5e
bd8e341b
3c4e4f28
3d90f55f
bf00104a
be94bef6
bdee12d1
3d4d093f
beba5389
3e36ba6f
3edbdc26
3e5facb1
be7ee035
3d9af06d
3e7de531
3ddb5115
3d81ff70
bcc285f2
bcf9b294
bd620a0b
bd5203aa
3cb986fc
3d8ea503
bd80fa62
3d4faf32
3f2abea4
3f1c18f3
3e414009
3de5feb6
3e9ab54a
3e4b48ba
bededfe3
bf839384
bf0f78a8
be7d5c70
bebbb600
bf139282
bec34102
be180770
bec094e8
bed17d13
bec376b7
bf36eea3
bf1f43eb
bee853cb
3e6adc37
3b9e709b
3d655816
3d8fee25
39dd1c00
3cce325c
bcfc3370
be9f2ff7
3f2808ac
3f221e6d
bc90c9e4
be1972bf
be1060f2
bf0d24cd
beaad734
be876853
3d53fe73
3f1d2b6b
3ed41f17
3d98f461
bee9614e
3c6ffde2
3dad75b4
be13515b
bf11214b
3eba465e
3e994ebe
bed83d3a
be9c89d8
3e66196e
3ea603ba
3ee764d9
bd9c89f9
bda000f8
bda18823
becba196
be293f8d
3e867f91
3ec7195e
3e915064
bee3d723
beb8eb57
bf174e84
bdd5e40e
3e2eecfa
3d976767
3ed96a07
3e12aa13
3e385cd3
3d8b2505
bcf9bb82
bb6ab93f
3ea63dcf
bd8c8d85
be77bb1b
bf07b6b7
bea3fffc
bdc5ca68
3e937187
3e9390df
3dd529ef
bb0eb8c0
3ca7b480
bebc6800
bdf54ab8
3e81861e
3ea3907c
3e3f0415
bee780f0
bf1366f3
bf1d1661
bed474f2
bddc595b
be482960
be1fb500
be9311b5
3ea492fb
3b82d568
be900812
be24d656
bd2a243e
3ebc559b
be2d1498
3d829df5
bdb1daf0
be4d20dd
bec0c1ba
3e104665
3e00a54f
3bb2f110
3c2b739a
3da9ec4a
bbb31f50
3f0cc446
3e8eebd1
3e4f7e1c
bea933c5
bf13a75a
bee22b18
3e804097
be5e67bc
bd53bf58
3eb19f05
3cdf6526
be94a961
3de74aa8
bd4f6581
be5ca490
3d4b7eef
3ea4904e
bd089684
3ee7e765
3dde48d4
3ead6e31
bf325565
3e8273ac
be4a184f
3d76f06e
3ddbe586
bd063d99
3e9102cd
3eaf990b
3e1912b2
bdce7651
bed161e3
beb2bce1
bf5dc87b
bee6bf9a
3e1b54f2
3e5bcd97
3d81f97a
3e168f04
be1f0e9b
bd54ad9a
bc1be29b
3e09f1b7
bdd7b1ec
be408d0d
be6530b8
3c9bbb7a
3e8906c6
3e075553
be7fe4a9
bc9466d4
bdfafcaf
3f99ac0b
bdeb4321
3dcd0092
3ec40748
3eb7b737
3e2c78ef
be47cb59
be012884
bda6ae64
be13a7a9
bcdb2a62
bc17c9a2
3cfc8514
3e8d3fb0
3dd93e90
3e2a0de9
3e294686
3e33fdb4
3e55636c
beccdee4
3db25fb0
3e3fc34c
3e70f1c8
be42341b
bdc06da2
3e5ef490
3d9dc8e5
3e8f97b6
bd80244b
be807c43
3bfe5801
3e5ba4fe
3ee079b8
3f0fcc8a
bda34859
bd950c7e
be4c31a6
be1be6a7
3d4fada8
bdc77758
be0db7ee
3dedd5b1
3dc2787e
be656408
3e40e3d0
3e879196
3e1795fa
bd1c528e
3e5308b0
3e26aebc
bd9d1b69
be5e1821
bd7e047c
3e6834bb
3efa089f
3e3e08bf
3ca606f1
be94af15
bee3e1b7
bdc35bbb
3ecfa7dd
3ee6f797
3ee0514f
3e4d3ec5
bdbdb9fb
3eb5bd48
3e963a10
b9c2da9f
3d8ee16c
3e651e17
3e21d4a6
be12e9a2
bd0d8727
3d8a5c16
bd90f33c
bd9f1d96
be4f5188
be3ccd73
3deb7e7a
3b5fdfa8
3e099c53
3f1e0eaa
3ed4f5b8
be354f75
3ccb8cef
3f9dcf4b
befacd24
3e18c7ff
3e5f4e7a
3e1defa3
3e8614de
3eb57fd2
3df070f3
3e33ca05
bd4df70e
3d4a13a9
bde67664
3df69792
3e22d077
3e5cf6a0
be8d1455
3e5c1062
3e231276
be8300a2
be8c1c0d
bef24eff
3bf655ec
bdb10925
bd8e4ecf
bf29caff
beb09e24
3d8acacf
3d852b2f
3e63ffd6
bf0c5b8b
3e4e5640
3ec56484
3ee5881e
3e1d8b39
3ee6f66d
3d89abeb
3e83dcf4
3e402128
3ed96014
3eba7143
3e3274a9
3f227c65
3ed9aad0
bdd1612d
3e64f233
3cc16330
bd464746
bc593038
bf2a040c
beace20c
3de41a8e
be88058c
bf454e22
3dc76315
bec615b9
3c549868
3eb95458
be7ac41f
3e5bf739
3e8c0b51
3f3fbd7d
3e96b267
be61e1aa
bd6d2743
be4498ca
3d8a1155
3d609245
3e438fc9
bd02be45
3d921c8a
be63c245
3db102e3
3cc16bd9
3e3b98cf
3e1ebac3
be3c2d5c
bf121c3a
3c96806e
3efcaa60
bd48249b
bf797533
bf03a7a0
befbaf00
3d300fe2
3dca7db4
bebd65a6
3e92c52b
3ed20457
3f15f31a
3e05eb48
be8784c3
beb6d19e
be45b00f
bd08c705
b963d778
be2dac96
be65de19
bea878c9
be9c9697
bb138514
bddf4f94
3db2eb04
3d428fa6
3e83ec0e
3c9bb5d8
3e003422
bd7dbd13
bd83b355
bf9041a2
bf83be35
be483160
3c710fa0
3c113330
bd47990f
bf49997a
3e40be24
3e891790
bd794af0
bd921a52
3d543f3b
bdcf4ae1
be9b5b3a
be8ac8a0
3da62418
be4a7700
be63bcd5
bbf8648f
3e8e95a1
bc937880
3e5d3036
3ecf7684
3edd7471
bdad97a2
be33a333
3c8bb605
3e878517
bed2afaf
bdf7a095
bdd98677
bc1988a0
3b0c159c
3e285e0b
be9fe9cf
3ea17630
3dc737e1
be3002be
3c79c7ad
be361a5f
bf01c02c
be39f473
be0d0d1b
be818b68
bd7ae050
bdbe546a
3dc1a323
3dc546e8
3e32e05c
3eb0cac8
3ebe3413
3ec57dd9
beb95838
be10d2a8
be996147
be786206
3e58a391
bb550d18
3f0b78c8
bd439ef8
3dc3651f
3dd70575
3d00d1fb
3eb214de
3db38886
bec8bf45
3e0a496c
be38ab02
be682d77
beb089f3
beacae1f
be905c51
bebf4477
bef56c39
3e3780b9
3ec1e89b
3def54b0
3d29f6f6
3d12425f
be8b3f21
bf1f209c
bec3b072
bd5a1b1d
be7bb876
be7d47e9
be99a76b
3f2b7ad4
be3d78d8
3db07e7c
3e4d85e5
bd03b3da
3e619bd0
3d8a7412
be86f74c
3e56bab1
3f457744
3e9ab9ca
3e7b1cc1
3eaff1ef
3dc57c9b
bddc3dde
3ea016f5
3e9bcbc9
3eb6f96d
3dc1df98
3d5db666
beecc0ea
bf8ffbe4
bf2b2cea
be83020a
be804b58
bee422d5
bcae1280
bee6a595
3d75131f
3d73a35f
3f3f373c
bd2312c3
bd4d02a7
be19ff89
3e8c7ad8
3eab7564
3e5be1f7
3e46af71
3e3d7aaa
3e477b65
3d830a34
be452671
3e7c9a59
3ebcc414
3ddbfa14
bd4cddd4
3d263cef
3eff351f
beff753d
bf521e8d
bee9e3b3
beb1e5b9
be7b85b1
bf331c35
bef58236
bec12691
bd845717
bcd41eee
3f361064
be0ef748
3db13031
bd8d1826
3c8ce0f4
3e4d2160
bd331255
bdd0c040
3e20fb72
3e682cb3
3d96f484
3b6c5175
3e257995
bd310e7b
be20ee7c
beee72df
be59e491
bee2bf4b
bf47cdc0
bf97fe16
bf25a8b6
becf81cb
bf15085e
beb94302
bd874ecc
becc694b
3ca361b6
3c6a4132
3b671780
beae390d
3d0caa4a
bea87f82
3caa0b0d
3c642ad5
3de2e6c5
be0c645e
3e940059
3eadcf58
3e619a35
3eb33ae0
3db2039f
be8b939a
bde49965
be6295b0
bf64e24d
bf799caf
beb069e4
bf31bef6
bf723741
bf3288b3
bf086b7c
bf07d7b3
bd0e9fac
3f2fc284
3b3f6b40
3d6a03ed
bcee65bb
bd3135ac
beb51187
bea4cbc8
bd304d73
3e0dd084
3dbdb38b
be22389e
3e883f64
3dbbc2eb
bd570197
bc311d10
3e3f3df2
bd97e024
bee46929
bf92317a
bf96658d
bf95d771
be689666
bec2dce1
be9ffe1f
be039380
bf05d9cb
bec7ce30
3d901782
3f5903ce
bd775dd9
398e2800
3d94d0e7
3f05333c
be8b0968
bee9e6e6
be6498fd
bebb45d7
be9e05d8
bebc9087
bf01fb6c
bead64f4
bf2cc7e6
bf8fed46
bf8dc65a
bf81b0ff
bf91b7f7
bf43c9ab
beac29c6
bdc6011b
bf305640
3b05c326
bde64490
be857898
be8107fc
3ec2aa67
3f0123ed
bea34521
bd00743a
3b939940
bd1c392d
3ed2acbd
3f707806
bf081310
bf0a03f9
bf83ea82
bfadfe47
bf92ef2f
bf78bf66
bfa040a2
bfb8c5d8
bfaf7f0a
bf80bff2
bf006442
bde0bfa3
3e46e52e
bf076b44
bd6beab5
bf2747af
3dd6acd7
3e086906
3d0c0892
be87d81b
be7f705c
3ccfad50
bcdf39f0
3cd42f5c
3c7da738
bc9965e0
3d5712ae
be3feb4c
bdbe99d8
be48cfb9
bf056b49
bf271e77
bfda8a51
bfd2f3d5
bf4958f3
bed0add0
be46c958
be139389
3e359d21
3e70062a
3d4061b9
bf8117b1
bf4e129a
bf84d1d8
bf5b9f69
bf5aee48
be4425d5
bdcb45b4
be9bdba0
bd0e0121
3d93d605
3d9fd1ff
bd4bee7b
3c60e208
3bebd890
bd5d9680
3e970241
3e40e527
3e31c6ed
bdc488a0
bf1b1632
bf18b501
bea519dd
be0706ff
bebb7bbb
bdd31d09
bec3d8cc
be994fac
bed28448
bf1b1dcc
bece9272
bdabf3a2
bd8b96f9
bd7a7c32
be024fbf
be18e0b3
bd61446e
3d6e97f5
bbf86940
3b4cff40
bd8b6cdc
bcbd0794
3cf284a8
3d4ae06e
be07878f
be1b0116
be2e58c6
bd1d6693
3c80f5c4
bdf53452
3de673c9
3cef97d5
be67eb0d
be988b33
bf097436
bd95d60c
39c48fd1
bdbe413d
3d00a799
bd834cdc
3da55f2d
3d2a10c0
bd8d2d03
bd401e24
3c260520
3d6f65f6
3c547d60
bca05416
3e824af4
