3dde19ca
befb7f0a
3ea1bc2a
3e09b871
3e24148f
bf299404
bc4dcf14
bcb7660a
3ddf6983
be65c51a
3e90612c
bd4f6c21
be5aff33
bdaae041
3e2bd5ea
3ebbd73c
bc8e672f
bdb10a92
3e1acc7b
bedd2c99
be43723d
be88f4df
bf4be139
be1986e7
bd2af053
bd9fb2ec
3e87c0ee
3dfe1056
bdac9b25
3d0b62df
3c80fc54
bf154d1e
bd069045
3c8ebf38
3eca1557
be9682b5
bf12f51c
bd9c7e47
3e690909
3ec7c515
3e5f8ea3
bf4f845c
3e113694
3f080bda
3e777616
bde301b5
bec4df18
bdebfc69
3da8a1f4
be8ee2e2
be3ed798
3e74bc75
3f1e6aa0
bdffae95
3d82541e
bd6a01ac
3e04ff8c
bf0b647f
3e6a32d3
bd6e83ce
3e6a43e8
3e488215
bed4f947
3cb5230f
3d696e61
3dc524be
3b928fc2
bec48378
3eb016fe
3f1abd97
3e658572
3ea13cec
be388241
be8f886e
3f55e4a9
3e3d0c55
bf155e02
3e47883a
3d44614a
3ea7df83
3e3ba8b3
be529808
3da9fc0a
bdcabccf
3d82d328
be155a75
3e9a8354
3d8a89c0
bd504052
3e02d334
bf55dc3c
3eb547a8
be0b7ae6
3e68f54f
3f16b420
be9d9bbb
3da26464
3e17b4c4
3ea9cd6f
3eebf124
3e8a0b4e
be656f9b
be19e271
3e4ff3da
3e1136be
bec5d2b0
3f0f8ddd
3e6c024a
3e8e2dd0
bc00afdb
be7eefca
be2203e7
be998261
beef929e
3e1a14d7
bdf5d142
3ee20e69
3d208b8a
bedb7788
bf583114
3e384589
3f1762fa
3eaf7b84
3e50bd0f
bf096a27
3ebd9af8
bec43c0d
bd22f6af
bf0e4fe1
