bd3c6bca
3cc6b5f4
3d9f5b21
3d931c7f
bd4a4ab7
bd029f7e
bd6b9cbe
3cacfc60
3d8ca6b3
3d5c7392
3c68a6b0
3d07b97a
bd4d07b2
3d562c06
3b6140e0
bcfa2f16
3d08f25c
bc140e10
bc446490
3d5a4152
bd39f1ce
baab5dc0
bd2ae7a5
bcb44b86
3d3f1926
3b5254e0
bd28d0ec
bd47527c
bcb5c8de
3d9b0767
bd6fd871
bd28d656
bd8636c2
bd871dce
3c5ff138
3c9d27b0
3cc78e68
3d5c0a24
bdc251f9
bda0fdca
3ce75ca6
3c5d183d
3c24ccbf
be06b228
3c78e467
bcd79d5a
bb979178
bd1eb3a7
bcefd477
3c98ab21
bcda7613
bb881e50
bd7590ff
bbbe4e00
3d81084f
bd649eea
3d88d5c9
bd15b27a
bd82c931
3d749c1a
bd320d90
bd5ff8db
3d4f20b3
3d36eba9
3c0e6291
bd353736
3f3ba533
3f3aa17f
3f095687
ba48fca4
be12af1e
be4ad0b4
bf1e5a8f
bf1b9d14
bf117733
bd33b99d
bdc99d96
be00e919
bdee1355
bc3b1fce
3dbf6453
3d863acf
bd2bf541
bc9bd272
3ce84ce8
bd166d2d
3d3e8b0e
bd8c2a39
3d99bea5
bd81941f
bdb8f7df
bbf3f3b5
be0c0ddf
bc1f8d3a
3ddca658
beac9893
be9a71cb
be6c7c58
be88ecdf
bf9532bc
bf012d95
3ce6999f
3e95c9c1
3ea3a681
3e178b83
bf0bb687
3e9b45bf
bb8f8903
bd8648e6
bda36902
bcfeb227
3d20a312
bd05bf72
bcdb4704
3cfa5c80
3cfc10ec
3dff39be
3d3fc6d6
bdb32112
bcaf3f7c
be644401
be68dd93
bf3ed8b0
bf3e2884
bf40ec5a
bf543c91
bf01ac02
bebb9b0f
3e0fcf36
3e64d25a
bde47c0f
3ea99991
3ed3fcfa
bbcaa27b
3f26cf46
be98a15e
bf11eb13
bee053b1
bdd66d88
be59b692
bd5c3bd0
3d94af03
3dd69039
3d602096
3cd6e66f
3e5fb30f
bdf7f724
3e3ebd5f
3c4be3b7
3e04ee13
be7884e0
bec26ef6
be9a2c20
be6db587
be2f885a
be7cea6e
becd42b8
bf08e01d
be02d872
bc83af6d
beadeb5d
3e32991c
3eb43651
be8ac60a
bd97aa5b
beb4f3bc
be4dda1b
be23021b
3d603fce
3d637096
3c23f887
3cc4b70a
3d2698d9
3d5f646b
bef959c9
bef1a959
bd12141c
3eb372f5
3ee8156a
3d376402
bdc33d16
3e882206
bd52a29c
be1743fc
be33ac6e
3dcc43d3
3eb22f6e
3eee9938
3d186caf
3e7ab9f9
bd6ad411
be19bb63
bd8cb486
bf3d1aed
3ecbaa93
bd33a120
bbedc5e0
3c745cd5
3cf4684d
bc9e64ac
be7e3b1a
be852475
bec8a3fc
bee75327
3dd1877d
3e825052
3e4743c0
3dea4540
3ec8efac
3e1a1a71
3de6b8ed
be9b6abb
3e28849d
3e331cc9
be4dd50a
3e3e266d
3d8ec398
be672556
3e63b575
3ef93bd1
be0e1e42
be2061ce
3ee6b97a
bd78e18b
3cd64e78
3e374558
bcbc93cd
3d720f41
bdad4927
be922d6c
befa3d1d
be7b4b3c
3e009168
3d9ea963
be9e44c0
bd1a3e42
3ea7fd56
3cf88761
bd9bd8c7
be46d188
3caaf2ed
be0c9afc
be01858c
be097b6a
be0c7b5b
be5f3569
3ce71099
bec61c15
be6c8105
3eabcac3
be4a7b1e
3e42e10c
bd590add
3dca536b
bb643163
3d2198f3
be96687b
be995483
bef750c6
bd9935aa
3dff284e
bc6b70b3
be21ac80
bcbbf477
be38c070
bf006315
bf34a808
bea0183f
3ed03640
bcbfc659
3ea9951a
bd1cb88f
be29a3f6
bdd79eac
bbdb698e
bf04b870
3d49244b
3da7fa54
bd3ac5e9
3e0f4a69
3bc44c20
bc9364ad
3f3e594c
3ccd9e8d
be8cfea6
bef57efb
bf35900e
be6756dc
3d2c4ada
bd6f45eb
3ea0828f
bdf12327
bed27835
bf07107b
bf18d3db
3eaac5e8
3ecf5dd2
baff328a
3e8a52ef
3ea9ffac
3e860af8
3e385829
bc80bbb7
be998b3c
bc6e13bf
3e74bf29
be5bace9
be24b66f
ba382980
be4112ec
be086753
bd0b8018
3e01ffe6
be4e38e6
bf3eff0e
bdc9ca95
3e1e06a1
3e339e64
3dc5ab79
be5cd54d
be12be29
bec29df8
be4742a5
3f67afe4
3e64dfab
3e11bee8
3eee2415
3ed5a1e3
3eb1d494
3f088890
3e607b62
3e4170b6
3d22748b
3de9e984
3dc5d9ec
3d935b6f
bb3113c0
3c6c4eb7
3e8e53db
3e3992ba
3d013803
3cf12df4
bf03e284
3e4bae4b
be5d5071
be125b62
3d864d37
be9c75c2
3ec4a1e2
3daf81d6
3ea8f83f
3ec69117
3d21aca4
bcff384b
3e9005ee
3db857a7
3de30312
3ecd387f
bceb4d10
3e37bda9
be0d7236
3d05d195
bd6a1263
3bf9ab90
bc01a9e8
3d787f49
3ef6f086
3eeb64ea
3ddcd242
3ea5fe8b
bde6afc3
3ea37c31
bdb86e63
bd6d08e1
3ea982b1
bdce2581
3cee5389
3e380824
3ed90d31
3e5979ba
be8c7ef4
3ba65a70
be2c187d
bd62495e
be4b42a2
3e46176b
3d1c4a2e
bed55a25
bdb5e8a7
3efd5d14
3dca16ec
3bcee4d0
3cb6c388
3dc74aeb
3e9096cf
3eefc351
3ddf61d4
3e56d698
be5d2a0e
3f078ff4
3ea49625
3e1dd622
3e0abe73
3e231912
be8f5970
bdb0e262
3efe8820
bd285500
be59b6fd
bf1a31ee
be71895e
3c4f4cd0
beb99f06
3e248188
3df0413a
be27650d
3eb8bbdd
3edb9497
beb5ec67
3b14da80
3c3bed08
bcccd822
3ecc3bb8
3f1cb4b0
3f02e64a
3e57be80
be43380f
3f0cc00f
3defac81
bdb649b6
bdafc06f
bcde744b
be13324f
3db92a3b
bdbcb4d1
be12262a
bef1ff00
3ddccfff
bc438428
be1db881
3de12c67
3eae3bc0
bd4c4bfb
bd6ed675
bd0925a4
be3b9167
bee7c211
bd91dad4
3d92af37
bc982786
3ec58652
3d37057b
3f0a5d93
3ef6cf63
be161f75
3c30f336
be71db22
bdef9536
beb8840d
be2d5e95
bdc9974a
3e8409fc
be06908e
be731118
3eb7bb90
3e4e5358
bdc7247a
3ead4d59
bdbc90d2
bbf07137
bdae6f15
bd11eafa
bda4301c
beccb722
be877edd
bd922744
3d732076
3d3f7c4d
bb0eece3
be2135ce
3e8ab9f0
3e260cbe
bdc94457
bedbf365
beebf827
be93bd23
be25fbb3
3e01b82b
3e6ea7fc
be1794f3
3d2abe8e
bdea347f
bbc0f2c9
bf05bcf5
3ce2446e
3e91ec0d
be0c433e
3d8a30cc
3cc31667
3e658a1e
bd3e4f67
be34006d
bd4ee965
be8c0750
bd4a2590
bca0a0ba
bdbbc422
bef1967e
3dbbdb77
beb26537
bf8184fc
bed20504
be9e0fae
bee5873a
3db6381f
3ec86d02
3e2cb158
3da79084
be9260b7
bde3c6fd
be067197
3ce47706
3ea435f3
3dfabdd1
bf005ec4
bef5d7a5
bedc8267
befaedac
bf22da8f
bea6db44
3e612e9c
be5c76a3
bce37a2c
3dc39121
bdf13807
bf0cdb96
bee8e14c
beeb0ffe
bdce334f
3cbb8549
bdb6b323
3d4f5b78
3eaace9e
3ea7f45a
bca0bcd7
bebbc6cd
bfa5417b
bef1e622
bebb4f35
bf28ef6d
beca20a3
bee80ac3
bf157517
bf17ea40
be5c2654
be0b6e19
be1d07f9
be995f07
3da9fd8c
3d139ce4
bd8bf227
bd114d0c
bee18610
bf623fee
3e9613ad
3e659f7b
3e15b384
bedda6dc
be8431f5
3df6f03e
3dd4cbc4
3e6f1439
be173432
bf525561
bf5fe1d4
be715f36
be50f0f0
bef1a946
bf5a56c0
be8f22c0
beb480d9
be9a478d
bd2a927f
be6e1cf8
be45b586
be47e363
3d591275
3ceb11a6
bbe55b39
3ce0378c
bef8f65f
bec41052
bf03d0e6
3e5907f8
be650dad
bf158f0d
3dd89fa7
3e84d36c
3dbf5f85
be26d16e
bea8a483
bf29fd90
bf06e3b0
bf0f0729
bf872f8b
bf8b5e19
be121f4a
be5000e7
bf0f965d
bec87f44
3de9bd67
be2f64ce
bec137cc
bf4bdbe0
3dfcb465
3d7cdc7a
bda1728d
3d8f246b
be6c1edb
bf034c71
bde19248
3de767cb
3e6d04a4
3c787f79
3e8e1990
3e28fe9c
3ddcd352
be6fa6dd
befacb81
be24d3e6
bedef21d
bf082a24
bf29c99c
be3454fb
bdab315c
bdfe6b61
be82df89
be61b294
bdb05424
3d9633f7
bd6c4a1a
bd7bb2b9
3e40be73
3d999533
bd52c930
bd439803
bec54f7a
bf6d952a
bd74c7a3
be2aed59
3e6c1863
3e2e56ee
bd1c122b
bcb906e6
3e427c09
3ea28a40
bc723034
bdb22692
bec3f94d
be57b4d0
bdd8689d
bec09080
bdaedffa
3e00ead5
bc319059
bcbed407
bd80a132
3d4ad2b7
3ece14dc
3e80ee57
3e9212ac
3c87ad64
3d555326
bd981bb6
bebdb26d
bf9c66a0
bd1e2164
3e8b1126
3e238fad
3ec0a3e1
bd013455
3e8fa4b9
3b7152aa
be9e82b1
3e48e1ef
bed655d2
bebe0217
be6c2c70
beed0bed
bef4b41f
bee53e98
bf03d846
bdef4370
be3717d6
3e1acb7f
3dd0891e
3e2ce089
bd0511de
3bb9a240
bd8abfb8
bd3aff18
3d5c2d5a
bd734662
3f8476dc
3f2ff9e5
3eb7466e
bed54d43
3da6d267
3e456823
be0656c1
bf2ab8c7
be788cd2
bf0535b7
bf29bd66
bf04a0b5
bf246dca
3d06a1a0
3e47f4ed
be321b8b
befadd20
3deda76b
3e6cf7db
3f35b70b
3e2a9962
3ea85d51
3c864860
3c8dfda4
bd4e494c
3d17b662
bd15e92b
bc7870b0
3dedc1c0
3e4f73b0
3ea9b52a
3f547f78
3f8f8abb
3edbb928
3c6e2e19
3e231ed8
3ef953d5
3e411980
3b50fbf2
be07c9fa
be352c86
bd228eea
be81342f
beb88a96
bd0be3af
3de97ed6
3cd9668f
3df72f5c
3d372842
3cc32398
bd054e86
bca9690c
3b8e6280
3c7e4b38
3d611fc6
3ca79d44
3c4184e0
3dc9f595
3e47b7fa
3e2a1114
3e719bcc
3e1d4308
3d8c6b5e
3ee05f60
3ea2dacb
3d2db786
3bf57b40
3d178c00
3d535b4a
bc905bb4
be9c7b38
be6e0ae0
be977f96
bd86b82f
3d9a7b4d
bd0bc4c1
bb5f9300
bc490bd0
3c885038
bd89e88a
ba32f200
3dcce4d1
