bda4193e
bd5cbcb7
3d571692
3cd65918
bd5af346
3d802f55
bc9a3334
bd09542e
bce0821e
3c24fd08
3d20f3e0
39c5dc00
3cc55f98
bb28e6e0
3d9abeb7
b82c0800
3d928f23
bd9e0734
bd16e699
3c717b98
3d236ba6
bda04e51
3c721790
3cfe21b8
3bca0b30
bd68bdfb
bbcfaf40
bd73ed11
bb847cc0
3d725eaa
3d18964a
bd986cb8
3da28c1b
3c5e5a88
bced4772
bd52c17a
bd35dcd8
3d98a82d
3d393857
bd930f42
bd812e33
be419c1a
3f335b3f
3f46808a
3ed7c340
bd241619
3ce96b71
bd1943bd
bd84f5e6
bd5c855c
bd39916d
3d69b1d6
bb3ebb60
3d3c4f72
3da3a863
bcfed562
3d8daf3d
3d45ca1e
bc0c3368
3d732c2e
bd552f5c
3c7eb088
3d7341a7
bc3c04db
bc9f9282
bdd9c537
bddc36be
bebf3115
bf083542
beace16e
3dc39843
3e9bdaef
3f16c062
3edde885
bec2afdd
beb17d5c
bce60c00
3d88f065
3c66553d
3daf9b73
3d4a798e
bda4a0bd
bce4cb38
bd459cd4
3cc2ceac
bd008cfd
bc909027
bd7ccc65
bd92a968
3c10dbb4
bbd8550b
3d81e6b4
bdb7aeb1
3e4ce594
beaf483f
bf6df803
be9f3272
3e42c960
3e345c48
3f01012d
3f11bfbe
3d25e3a0
be8806cd
bee32693
bf068de0
be67a44b
3ddb1c36
be2e44fc
bd9fd4ce
bd07169d
3d152425
bd88c11e
bd98827d
3c9ecec0
bcfa3d14
3d31f823
3d4d071a
bdcf5138
be4f6e55
be44f852
becacede
beca990d
be9e25e6
be60cd82
be40b190
3da973b3
3e779c73
3d75d0b3
bdb44af7
bd1e41e8
bd7aba2b
bdfa8899
be018ae9
3d9fb72d
3e391980
3c480afa
3e2670b1
3e234f3b
3da7e462
3c941bc4
3d44de2e
3d615eda
3d7b0fb0
3dc281fa
3d97534e
bc723c33
beb4a947
be347ea4
beb56666
bf6f0f56
beda6c9d
be373f6f
bd72f01e
be785b78
be056e27
3ea8e2ed
3e90655e
beb00c21
be6cb51c
bca05229
3e437389
3da473c3
bc4fb97e
3ca0d24f
bc895a94
3db12543
3e586c6c
3d2a5f46
3c7d1478
3d953c8b
bd1d2406
3d90e235
be35ff62
be4fc7bf
bf22811d
3df848db
bdc40d9d
bf8df648
bf7ab390
be18f357
3d8dd6cb
3df42560
3e4296b0
bdc3c793
3dbe1d25
3de06d15
bde9ec94
bc875e14
3e6c5da3
3e9a4f7e
3eb608ad
3cc9bcfe
3dd4cecd
3dae98da
3ec4c844
3df1d9d0
bda38bfb
bd0da195
be044c2c
bc98765e
bd8a024b
be48d70b
bf600f6a
bdb97faa
bea6ba4a
be040a9d
be5e0db5
3eab5aef
3ef1f2eb
3e2083d2
3e02700b
bd2ec50e
be91bbe3
bdc6b217
bec85a26
be93bf35
3e2253f7
3e634fa0
3e43bb69
bd56f576
be27439f
3ea24890
3e0daa74
3d26b156
bd8f1b80
bc019996
bd7c8cf0
3cc90998
be601336
bea9809b
3db601be
bca735b5
be87af71
bd8aad26
bedd2c16
be753856
3f05ef2b
3e3d5bea
3dfe05f4
3cbbb1d3
be82708c
bf1fe372
be934932
bf64b70e
be32b64c
be8b2d5a
bea28b91
be47bfff
be2d0702
3d632e45
3dde1955
3d89ddb7
bc90cf12
bc315c7e
bd2b50f3
bb581c6c
bea01b32
bedec0f0
3e61a53c
3e82d9c3
3dbb85fc
3e3c82ba
be475f04
3db94af9
bdc92265
3d3e9256
3e63af65
3dec1028
3caf7fa9
bf380674
bea252e1
bed79824
bf384023
bf3923a1
bf4bab03
be8a772b
be8fbee9
3e1dcda0
3d541640
bdacab8e
bd7fdf5c
3db48cfe
bb226a20
3e059297
becb3e94
bec94bc2
3e218235
3efec059
3deda9e8
bf00eae1
bd32ac84
be4704b7
bd813280
3e95f6e2
3c87ddf0
bda08243
be241ab9
bec2c1a2
be76c91d
3e938154
3d0f2e8e
bf10dbc3
bf342366
bd4167a7
be5a7a73
3e8101c1
3e09c491
3d8859af
3c8d95a5
3c61ea0b
bccffe34
3e1b6f10
bebd7764
bf12a1a5
bf66418e
bf2ba865
bf91076a
beac5fb0
be887fd5
be0e1569
be04691f
3e23325b
3e1b0f7b
bea08410
3d6d4506
beccc961
bf3be80e
3ec0e3bc
3e908ea8
bf145a05
bf5befab
bdf731cc
be37f209
3e91b7d8
3d8a25db
3e58c1d6
bd9c134a
3da043c9
3d3dd035
3e216e40
bd4100ba
bea8005c
bf1a518b
bf3f917c
be1990b6
3cdb8c5c
be1a00f9
bd175d80
bd21f858
3e94cab7
3e582770
bdf6be60
3e21ee42
bec3bb0a
bf563795
bdc4cc35
3e9752b1
bc1352d8
befc0408
be8149b2
bda59523
3e651860
3e4ec7e3
3e67f853
3d122684
3d67f6ec
3d76c02c
bdd49d5e
3e9c7f9f
3e5554d2
bf4179fd
be220cb9
3e1b3afc
bd831d54
bd6ceb3b
bddcf81c
be10b2aa
bf0be260
3e0b2263
be0e2b58
3db749c1
bf423f44
bf02a48b
bde2fb78
3e7bbf1d
3e1bd01c
bf0696f4
be94d9cb
be11ff77
3e5d8de5
3e435460
bd56079a
3d4ece56
3d118fd4
3dbebee5
be1ff522
3e05b422
bec805b2
be3b4ab7
bebfddb0
beddd9b7
bd237ce0
be63d7c3
bf12329e
be75fe6d
bed12a92
3e53117e
bbe6ce48
3e979493
bf180040
bee41308
beb82b25
be19023b
3d1c03d3
be948e46
bf601dc3
bdf975ab
bd48bd3d
bc95a3db
bcd3cabc
3d9926a5
3c72ee68
bcec51fc
bd9e43c8
3d345ee0
be94f619
3e8ff36b
3df924ed
bed0f41d
3e293085
be715eed
bee1977a
bba40820
3d0354f6
3e1df52e
babac840
3e7166b0
bf5375dc
bf07b25e
bd2387e4
be0c351f
3d13285e
bea9f405
bf41aff2
bed420fa
bd3451b1
3d0238b8
3d568d04
bd6631de
3cdb7dd3
bcad973c
be98e697
be9061de
bdd1f885
3e9e5abc
be5c5859
be920e20
3d9d38bb
3e87937c
bee0a190
bf08b7d9
3c6a98a4
3e9675d5
bd90b14a
bbeb78c3
bf22a03b
bf0c3d4d
3e95996d
3e2d7455
3d63d84d
be7decb3
bf33c872
be637a2e
be6afa12
bdc1a203
bd84eb67
3cd9ccd8
bc16f9ed
bd9586d7
bdb8e6e6
be2bfd33
bd2cfde4
3d235131
becb2549
bdb44ae8
bf11f7ad
be3fad73
bf39249c
bf183a8f
bc98692a
3edb76fc
bc2f3623
be1da734
bebefaf6
becf18d0
bec94f1e
3e4a8c18
bd7038ef
bdec2c14
bc8d1886
bd256746
bf775b6e
bea7c5e0
be283dd4
bca499b3
3d4993be
3d226dd8
3dcf79b7
3e95d5bb
3d62a52b
3e2f3daa
3bc8e7fc
bdba06a7
be606a90
be398802
bf387000
bf26aed4
be0cd8ec
3e9af267
3e406504
be58fb00
be8e5dbf
be039a04
bd49e34d
3eeca0b5
3eed22e3
bd9abab9
bd24fbb1
3d510471
3ee16827
be54f6f6
be4efbfd
bd8450fd
3db91aee
3eb2f50f
3e878a05
3e8bd45f
bc2c80e9
3eb07119
3ebab09c
3ec91906
3ef2109e
3e14e133
be86f8b3
bf000ce4
be8f92a6
3e689373
3e8081b6
bcec4b62
bed4c529
3e0aa0a9
3d0de81c
3eb1c7fb
3e1bcf73
3d6ca39e
3e2f2b4a
3ef5f99a
3f467438
be49d33d
bd1ebda0
bd3985cf
bd063be9
3ec76cfb
3e9c41f6
3e4de0e4
bdf32a90
3eaa093a
3e260d0f
bd3016ba
bd849567
bdeddc07
beb3bb8b
be17edcb
bcf8eac7
3e7b219d
3e9acb40
3e7f65b7
3d9561e8
3ec322b4
3f08623b
3e2c4d60
beca5b2d
bec90dc4
be55e710
be942279
be9e999f
bc15712c
bd6d04b0
bd11f840
bd3459a8
3e745328
be6e82d4
3e09f2f1
bd177ee7
3e010d48
be0e003f
3dfaaec6
3e21d138
3d645882
3c934e7f
3e57d327
3e300d23
bd2a16eb
3e86d19c
bd6cc79e
be05f830
3ef680cc
3f225f1c
3da16030
3d2715fd
beca669a
beeeb79f
bc8aa748
be40953d
bd8b32d7
bd8aed40
bd8838dc
3d991453
3d9df54e
3be177ea
bd99c09f
3e65277c
be8e702f
3d93b499
bc8aecc6
3e2e33f7
3e104348
3d7454d3
3ea3511d
3d9b9b1f
be1253dd
3e1b2db4
3e214aa2
bcfd3140
3eaf4996
3ec0ddeb
3e50856e
3f10922e
3cb0ee66
be0dfcd6
be2bee44
b930ebcf
bd68aa7d
bd05bd8a
bbc49980
3d5fa50e
3d3cc3d1
bcf694dd
be841f54
3eb67643
3e5b7c74
3e682ada
bea48a7f
3ed69b11
be959cdc
bda94593
3e2d760d
3ea35f10
bcac1555
3e1ae093
bd98fc88
3cc15544
bda17907
bec87cc9
3dc0a724
3e9f8ee3
3eb9418d
bdd6a800
bd8dbc65
be3ee02c
3e5f0ab4
bd1a5982
bda1f9ec
3ca99554
3d2a0cce
3d578603
be71e0ed
be2545dd
3e803e81
3e4e0d79
bcce13c5
3f08e47d
3f14cdd7
3d14be63
3d43b511
bee876d1
beede0e6
be92e166
bf036eb8
3dca6221
3ede33aa
bf1e46d6
bed5d6df
3f55863d
bedda68a
bd5fff2e
be08a14f
3e4c8ec2
3e5c0909
3bb76360
3cd01a48
3cfec1f4
3cece49c
3cde54e3
be0f3999
be581906
3e81244f
3ed2bfee
3eb5aaf9
3e89382d
bdaf5b0b
be7c65ed
bee7b2ab
bda4d6f4
3e6bef08
bf05c4a5
bf6a7a89
bf4c6fe4
beb2dc92
be7f0e99
be979731
3d312b72
bd6cd007
3d7dab8a
3db426c3
3d50cad3
bc91f6e4
bd899f4c
bbb4a930
3cb11154
3d2afbb8
3c6f3f98
3d2a5031
3c29abf0
bd379783
3d400784
3cfb48f0
3dba2087
3a9c25a8
3e2a64a7
3e7c6ad7
3e0444a7
beafda92
bf43aa46
bf4b61cb
bed1b8b2
bc3b915c
bd103c9c
bd293712
bd9651d9
bd431aa1
bbaa3fcd
3c9a41c0
3da6f1f1
bcb8e310
bc429ad8
3c490300
bd53c8ee
3d19937e
bd93c844
3d38105d
3d7036a4
bd7ec295
bb96ea72
3ceb9e47
3d918c40
3dcb41a5
bd016780
3d5c3a7e
3dbeb5ca
3d38bbeb
3d9afe95
3d44feca
3dc64c68
bd519133
bd3a8806
3d7d87d6
bd0c4bdd
3d6ac1da
3d843e91
3ccea748
bcf87db6
3d8f1457
bd8727fc
beb84b9f
