3d32fd0a
bd2a0ee0
3d05cd32
3d37f756
3d6a650e
3c6bbb80
3d2d280e
3cb21e80
bd828445
3d398f76
bd8eb134
3d2f4d56
bd076528
3d807476
bce0a5b5
3d8b0156
3d8d3e4b
3d8ae341
3d6df17a
bd163225
3d89292f
bc412960
bcc7fa9a
bd068ad0
3a979dc0
3c7bdbe0
3cfa63b0
bd7da700
bcf0022c
3c288e28
bd0cc61e
3d80bba7
bd8a1499
bcae962c
bd7ee29b
bdd33f50
bdb12bdf
be1f6623
be307a7e
be416384
be342b6c
be4fe831
3d2b296f
3de421a8
3c56c0b6
3d46df62
bd2107b8
bdd3ba2f
be5923f0
bd4bd025
bd464dbd
be100d94
bd6561c2
3b8e9de0
3c049e98
bcbb334a
3c1da1b8
3d9a6455
3d5146e6
bd688b7b
bca80402
3c0dbe25
3c05668a
bc879b7f
3ea01fe8
3e9ce24f
3f09fd95
bec3e074
bf87a5db
beefcd02
be6794ae
be514ce1
befddff0
be252882
bda18d93
beed04c5
bea1770e
bf166b81
befdb8ad
3cf6028e
3e7457a0
3e66c64d
3da4800b
bcb07988
3cd22854
3d9e3ee1
3eb87fea
3e72262c
bd83b91c
3ee622d8
3e8e2e9b
3e9a3cd2
3eab17a3
bee0e448
3e851714
3e41616a
3d52a882
3ea61f3e
be7e2d06
3c0569fd
bdc5f863
3d7b25ce
3e80f5cf
3e8f63ea
3ea4bd23
3e80b901
be4333b0
be2b82a8
be7a6bff
3dd3830a
3d3e296f
3d2dc54a
bc8fc660
3d36532a
3e86eb9b
3e9caa0d
3ec672a7
3b72a99a
be193493
3f1d1589
3ef72c7f
3e0c3e63
3f20d35b
3e9c6136
3e22524f
3e8ae21f
3dc8c754
3d2b371a
3e485388
be1e957c
bdf1b402
be3fbacc
bdb11058
3d95ae5e
be2b0f50
3c5d9ba3
be9313d6
3eed4029
3ec940e9
be0a92fe
3d045712
bd05f9bf
3e91fcaf
3dcdee9e
3daee791
be01b95c
3d561bb4
3f23fc34
3f368797
3e76cfe6
3dbbed88
3c46c9fd
3e29e092
3e7661c4
be11cacd
bde73d9e
ba162b64
be300b66
bdf92e1e
3d80a70c
be22ee02
3dc6a74a
3e3ff62d
bcce694e
3ad0e6a9
3f537ea4
bf030331
be9a18f2
bd4bb782
bd20bfac
3d180cd0
3f3707ae
3d57bae5
be6d6753
be281dcd
3e1673f5
3e2dfb59
baa66c11
b980de6c
be352599
bdffc9d3
3d31fd74
bdfc98b0
be68686a
be2302d6
be492e57
3d0241b7
bd267ea8
be174e01
bd1a603b
be0bdce5
bdcb5ac5
bf16f4b7
bd553a58
bdc899da
3e0509ca
bd048a80
3e876a67
3eb20fd5
3f692478
3eed1e18
be0e1d5d
3e1262ea
3e7be139
bf085621
bf2a6482
bea19f76
bf10f41e
be780e4b
be001396
be434d02
bdda42d7
bd5e9036
3d81864f
3c4c5ddf
bdc2fbb9
be349f32
3df70012
3eb72ff7
be85110d
be6c8947
3e651577
3df0dcad
3e97096d
bfa77c19
3f4eb2fd
3eb896fd
3eb4b9f3
3e126665
be0540d7
bd86b1b0
beea7d22
bf099de5
bf5cb4b1
beff5506
be907d82
bd25c220
bdfe48f1
be96ead1
bd302ad5
bc1c695d
bdd6b8bd
3e906829
bdd120fe
bd151315
bddd4ec3
3de18376
3e48189c
be71b279
3c60a21a
3eb7e35e
3e9fde93
3d742b5e
3e62c4d5
be0e75cc
3af0cd90
3e69d324
bde6b8c4
3c58472a
beb16cff
be840114
be91fdc3
bdd2c36d
3e766c81
3e2a179a
3eabbb3e
3e42a865
3db9d9d0
3d604216
3e9fb973
be332455
be84a327
be418533
bc1260ae
bcbdfc97
3db4b5d8
bf1e671d
3e836f8e
3ee9cc7e
3f277128
bbb35b26
3de1af75
bf3698fd
3ecdaa87
3ec8a32f
3f086a3e
3f323cbb
3e507b00
3e8601a2
3ebb3702
3f01c2be
3f1c53ff
3ef1e789
3f1c190f
3e9391c0
3e7680e2
3e36fc25
be0ddbbb
3da9ee7f
3d9c4553
bb4ab67a
3d9e26b5
be08d548
beb83d3a
3d9c0c28
3eea8d79
3e84bde9
3f1cfd0f
bc8645dd
bed4dcd7
3e887f4a
3f40a434
3f408f29
3f298678
3f31d617
3f1f1f1f
3f386d5a
3ed3262e
3f265e86
3f412d28
3f14b264
3ee02083
3e27a140
3e98c6f0
bea31d7d
bec9bfb0
bd8b9653
3dcff2a3
3ea9ca4e
bd84edb7
be070163
be37a46d
bd4df9e1
3ef3e72b
3d866b6e
3f122812
3dab4e9b
3e4c8b8a
3f0d118d
3ef3a5bb
3ea681f0
3e87309a
3e40b403
3ecd2cb9
3f068557
3e08877e
3da70c95
3d0074e3
3aec54e6
be7bf2d7
bd875325
3da93326
bf06eed8
be12d8c0
bd9f8494
3e8af90b
3ed1c85a
3bf16b8a
be562173
be5c1f75
be084e68
3ebb502f
3ee7fdaf
3f24ff09
bcc175c7
3db0d230
3eacfe63
3e018fd8
3e58e7c7
3d73b674
be7a71c7
be3a9516
bdd63d7d
bdf8fa8b
bec5014e
bf078986
bf192815
bf0d274c
be066d1e
be61a71f
bd008b8f
3daa04ab
3da91616
3e97fafb
3e996982
3d8f1c71
be250c65
be751b68
bd9c89ce
3e9b05df
3f225cdc
3dde251e
3da43e69
3e54c9fc
3e9849f6
be43b391
be8bf549
bf8fc50f
bf66ad0e
bf37d699
bf7712f5
bf8b6140
bf96d416
bf755f4d
bef52ec5
be2a947c
be0b3ab7
bcc91c6e
3e28f8eb
3e7ee65e
bd1e21ef
3cf43aaf
bd50c9a0
bd0f42dc
be9e795a
be0cd236
bed49095
be8dcecf
3edc2608
3d4b5232
3d03adbf
3e742831
3e67983c
bf19041c
bf7a8e1b
bfba22b3
bf9f450c
bf614da9
bf4bacac
befc4ac5
bee12883
bd91919b
bc8c8d28
3e586bd5
3e8d92c6
3e27293a
bd293ebc
bd97476c
3e19c6a1
3dc8660e
bd51b869
3e0fa8ec
3db66191
be0dc280
bdf18dbf
bd6bfedd
bd445c14
3cb7d3b2
bd1bd465
3e3b50de
3f4f6f66
bf152b83
bf5ebaa0
bf24a75e
be9c1f42
bd808235
bc457977
3e6a3cb0
3ddbb99b
3e30a480
3e12c3fd
3eddef1b
3e2a5525
3cb02d37
be6c3c54
3e0bde9d
3eae13a3
3d444783
be238221
bd44f3ed
bdbee4e1
bdbd7311
be6a85cf
3dbd6c27
be14f423
3c3975aa
3d605aa2
3dda405d
3f4a4bd1
3e07b00e
3ef9a30c
be33c331
3e773518
3e80920f
3ed08bda
3ecf1d7c
3e4915d1
3ee359ba
3e72f0fe
3ea8efd7
3de43995
be3d7d60
be4b23a3
bd3da9e2
be8a9e11
be339aaf
be45f3f9
3d104cd7
be10908d
be93f24e
be6253a5
3f059019
3e75984a
3e2ae16f
bda07d2c
bd47a753
3f00e9d2
3f01d0ea
3ebab8ee
3e83e784
3e49640a
3da39d7d
3e06aa55
be009157
3e54aaf2
3e4aa6a3
3e30772e
bdfd7399
bdf54469
3c447dff
be067142
be359a52
bdf9c2f1
be627c8a
3d9979a6
3e137ef4
3d935cdf
be5220b0
3ebd8b40
3f0cf934
bc5a2c20
3cc5a76c
3c3a26ce
bd9c2ca6
bd3cf793
3eb3aabf
3c1a0cba
3e26eb42
3e4f16b5
3d818752
3e15b21e
be19e6f2
be0687d5
be31b81a
3d9ab96c
3e3b200e
3e2c108e
bdabafa2
be97e408
bdefa4bd
3df3122a
3d3a8533
be3034c4
3d600f46
bc94fee4
be9b8573
be2b22bb
3e97fad2
be6e4c88
bbeae680
bd6e7655
bc938a86
3e09259b
3ed71997
be290f50
bd374190
3e1d1f93
3ee45a1a
3ef3a6b6
3e4fe14d
3ddd76ce
3e7af0d5
be102382
bdacd52f
3cbe62a2
3e61e3e6
3cc7bde1
be026525
3c24832d
bee4ecbc
be9d9fd7
bdd3db65
be3415e5
be0b278b
be027130
3ea2c82c
bed47149
bc3e7797
bd978d23
3dea60f6
3edb2b6f
be5b8de4
3e8bb4b7
be8efbc7
bd19cd86
3d86d009
384db5d8
3dd63b01
bcb4d63a
3e241f05
3d5c1b37
3d36b8e0
3ce43d67
3dbd7302
3e3d8877
3c016224
3d961f2e
bc0671c9
becee736
bf19561a
be10f6ea
be1f943b
be91e66a
3dfd2606
beafef9e
bd93dd19
bdb293a3
3cf34008
3eedf267
bdd4f91d
3ed6b9d8
3e013987
3d94563d
3d13ca1f
3b97f84d
3e299084
3c9aee6a
3ddd4ab7
3d260f93
be649f02
3e02a304
bc3dcfff
be63dd2e
3e85a121
3e4fe26c
be14a0a2
beefa8c4
beee4221
bde99f32
bf00b99f
becdc001
3ea9cee8
bda927fb
3d318d14
3d6d7bee
bd9bdfb9
bb9a3f33
bec8684f
bc2c4384
be944396
3d69e30a
3e5b5532
be7df331
bce8449e
3d9f1f25
3e889947
bd868086
3e33df11
3e2b6aa9
bd9c21e0
3e2f1871
3e9bc4f5
3eaa6d0d
3da2dd26
bdc31c58
3d244f5d
beacd50e
be418540
3f39185e
3ef22e31
bc0a1cda
3d10e27c
bd3bf4bd
bd20e945
3e00f0ee
3eac1bd9
3dc54ea0
3eaa970e
3ea9a655
be7a83bf
bf3544ba
bf424d23
be21eaae
3dcbaa25
bde77f43
bd9ccc0e
3cc5e624
bed4f5e6
bd012e3c
3ea53f1c
3de4e8e3
3f072f24
3ee3db62
3f4fe7af
3e8fec1c
3f0a55b5
3eb4731a
bb05129e
be0b81e7
bd01f07a
3c4a96d8
3cbfa844
3d872893
3f26c3fa
3e13ee85
3d7b12a7
3f040ba4
3ee20bcb
bbdc03d4
bf157e6e
bd506838
bec0ae45
bdb73f00
3de9472d
3e99f42c
bc13e955
3f3590dd
3e9b103d
3cfcdb26
3f21cda4
3ebdac2f
be11b825
be7cf125
bdbcc99e
3d29611e
bd8f5eb2
bdabff77
bd75d3da
3d826ceb
bc3c9060
3d73012e
bbabbdd6
bf75d960
bf1f8a54
bf0009e5
3eb4060a
3f1b2f1a
3b91316f
3e17bdf0
bf02fa46
bf233fc0
3e95b26b
3e8e4660
be70cca6
bea333c9
bf21b2e0
bf11408a
3e4e0876
3dd33a2e
bdd9122d
3dcde49e
3e323d5f
bd6c2ffa
3d4eeb9f
3d036cde
bc4c8b08
bd5ecf33
3ca5ccc8
bc01e478
3cb887d8
3e0ac8bd
3ea4884c
3e79a0c3
3d24665e
b9c1f088
be994b1a
3e16b136
3d883ef9
be2e6dde
3e8f2d34
3eac7aae
be9b8417
bed7b6c0
bf001e5c
bf09e4f7
3db3b423
be4e3ed5
be46a908
bd17268e
3e0376fe
bd1dce15
3cb4c9e4
bd081e08
3c82ae3c
be9a3bf4
