3d9fbe89
3d616b3a
3d96e369
bda38ec4
bd40c40f
bd314ac6
bc564a68
3d36034a
ba67b400
bd99a924
bd09acef
3c89d4d4
bd9865b7
3cefcd54
bd9f658f
bd515d06
bd77e6ec
bd7e300f
3d1697d6
3cc650c8
3d024100
3c5c23b8
3d4b967e
bd8957bd
b9912100
3d42d052
ba23ba00
3d9451c7
bc454698
bd9bb564
3d3af482
3cd00ff0
bd758936
3c24db98
3d255358
bceafe53
bd92bcfc
3d9beabd
3c1b0984
3decee94
bc47247a
bdb3caae
3dd68a08
3ebdf5b9
3ef9f4b6
3f20198e
3ec6766b
3ec6d37c
3ec05b36
3ea9f2a9
3e1cbceb
3e59abdd
3d84b0d7
3d3125ee
3c6d92d8
3cd39590
3bc562b0
3d94ffc3
3e2a6845
3de2770b
3d6fbdc2
bacf3793
3d7673a2
3d9335d4
bd001fd1
3d2c1801
3c3c4bbe
be1db360
bf88764f
bf5f1752
bf2b105f
3c219783
3e70e513
bb740bde
3b679a1c
3e65e174
3e8c399e
3f19a600
3f246296
3ec321a9
3da77401
3dde9bb3
bd1cb61b
3c89ceb4
bc94ba10
3cbc02f0
3e43746c
3e5ad238
3e3dfec4
bd4794a0
3d12588f
3dc695db
bd49fabf
3e88577b
bec1bdb7
bf09bb06
bf8a93ab
bdb045d3
3e8ff726
3e1e510a
be8ed3ad
3e0e5211
3e9bd181
3ee98af3
3e3fe77c
3e9b2229
be139b72
be17dfb4
bee907eb
bf2770b9
bf393304
3d418d7e
bbb38120
3d86abe3
3e016e2d
3da10204
3b2e8952
3d05186d
3df57653
be14e044
bf46a1f3
be326e23
bd6e01e7
bf2e9876
bf7692b8
bf16731c
beeb40e6
3d497e12
bd363c40
be65a76e
be427350
bda667f4
bc94dffb
bd7e0da2
3eb468fd
bc39cc32
becaa371
bf12cebe
bf752e9b
bd642642
3c630a28
bd80fde4
3e8b9734
bcce1062
3db6fe11
3e170d97
3e7fc7c3
be495b08
bf0837b9
be01a814
be25a0ae
bf1e4520
bf2628af
bc9d16cc
3e1c2985
3e4ff30d
3d505c6a
be7f10f7
3d5f414d
bd89eee8
bef1b06b
bed331ec
be39dc76
bde7d9d0
3e6b0e8a
bf0bdd7f
bf27cfcc
bedbd5ba
3c20fdd0
3bdda80b
be88e8f0
be61d12e
3e88531a
3ef4d7a1
bdbb1cad
bed2885b
bf26658e
bf20c50a
bf531c69
bfb48ccf
be93e020
3e670965
3da2f52d
3e79065b
be08cc62
bd8b107d
be77267e
3d827afa
bd8f4ce3
becaec6f
3d27abcc
be16752e
3e3915a7
bddb219c
bf131deb
bedd78fd
bc77a040
be0e6082
bea66931
be615d4f
3e59e658
3e0e52b4
bf880e58
bf6ff169
bf33dde6
bf91b89c
bf934fc8
bf14c3ab
bc2d1b4c
3e89b226
3eddd552
3e3a354d
3c104394
bedbc6c2
bdb578f3
be0fcafe
bdf4488f
be6ed646
be60ff2b
bd3dcaec
beda0d4d
be92d804
be09bd6b
be12b016
3d9093ff
bd42c364
3f0ebc25
3ed15761
be2c437c
be8571fe
bf2ed029
be70ca0a
bf4251b8
bf9b9265
bf4e1c54
bedf11b1
3e75fea3
3ecbe284
3e915fb4
bd80f9bd
be7a4d8f
be5aaf6a
bec105a3
beb4722d
be7eb9bb
be55ddf1
bf092fba
bf590087
beb1974b
bef4f5ed
beb51d9c
beb7dac4
bd0161a6
3d1b8610
3f55fef5
bb2960b6
3e2eaa5c
3d2148c5
bdcdd2e8
bf1cf6b6
bf0f6066
bedd312a
bf0a0086
bdcb9e80
bdad92b3
3e983e05
3e936e99
be463722
be93c3cc
be80ae67
bda775ec
3d5e06bb
bdaff3b9
bd42757c
bedee00f
bf0f23c3
becea834
bf35dfee
bf0f6651
be4d6480
3d6fa0bd
3d09d57e
3f702a3f
3f30b7a7
3ece0ad2
3cc0254e
be486c96
bf1bfead
be804ae2
be83fc5f
bed41504
bd139224
bdc1fffc
3efef0b3
3dda12e5
be83a15b
be765bcd
bd357dd5
be4ef819
be4910dd
3c0bc4ba
3b1fd59c
bd8780b0
beb9c269
bdc81d94
be9d64c8
bf052420
bd86b79c
3d871de3
bd8123f7
bec7d4f6
be2b380b
be970e3c
be9a8508
bf4b9589
befe3f1b
bf276846
be9aaf44
be073285
3e417f2b
3effade4
3eda6dd0
bede4e50
becc2b98
be3b2478
be4f54ef
bc2e18ed
3e8a1af2
bde07825
3d38c169
be563c08
be5f7cfb
bec61c79
bf2b5873
bf22a8dd
bd0cdf87
3d9b40bf
3d2b7fbc
bed06423
be8e90a9
be1dba50
bede4f94
bebc217b
bf0123fa
be6f8543
3d95f893
3e259bef
3efd4c08
3f287a64
3e6495ee
beab42f3
bdbaf1d5
3d48b045
be80d382
bec9880f
3ce09877
3ca821fe
bdeb0814
3e0c8486
3e1bea4a
be7dda78
bf6587da
bf02b221
bd15e712
3d9f9bd3
bce4a511
3ce0db30
becd7548
be903b98
bee8175a
bf1a2b51
bc5e3e9e
bc81517b
3ecc8c9a
3f1c9c4e
3ed57749
3ecc9c8c
be33fad5
beea69a2
bed4a70d
bd3b69f6
3cfe94d8
be288f67
3e404428
3eb1639f
3dd4a881
3d418f4a
be87854a
bf53711d
bf3540bf
bf340904
bd82df5d
3db5f945
3d4b28bd
bb0b230a
bd60b1f2
bd9f75e2
bdd9101a
bf0ff306
be7627de
3d2d5089
3ebf35e9
3e8cd52c
3db5f3a0
3e604d1f
3ddcc665
bf04ef2f
beba9b8e
bd220764
be5b84fb
bdd65184
3b8cda17
bc881d36
3e472539
3f20652f
be5f5ad0
bf2e4271
bedf9d15
bedb7577
bdb9036d
3b94e08f
bd3dabf4
3e993a9d
3e816def
3ded2bc3
beab8f69
beefcd85
3c8ea5dd
3e02c543
3da5d516
3d35ed34
3dd1bb0b
3e949fd1
be8ad368
bf25cc3d
bef7643a
bcb822f2
bceee97b
3d24065d
3d9e86fc
bb9e1f85
3eda8e2f
3ec6f76c
bd38e3c3
beb75716
be98594c
bf3c1cd1
be5c057f
bcc68c23
bc694298
3e84ef62
3e6cddc8
3e75c499
3dae83db
bc0f71ba
3dbc3236
3ec6a581
3d1dfd03
3d483d54
3e2053be
3eaac0f7
be35be83
bec34dd4
be7bda2e
bd547ed4
3d5c89c1
3eaf45e3
3db0edfb
3d15bfad
3ce2175e
3d5b679c
be21233a
bdda8257
bedfd6f6
bf52952c
beba6ecf
bd897abd
bd942191
bd669856
bd5c6da6
3e82da3f
3e9f5b89
3e0ae26a
bd96d765
3e591917
3c885e28
3e96fd61
bea474d6
bccd81a1
bbe916ad
3d5262ee
bea68272
bd05eaae
3e860e62
3e176036
3e139d11
bc5b2323
3d629f7a
3dc84cce
3e599642
bf44a612
bfbca3bd
beeb90d3
bebf5cb1
3e061a9b
3cfceae8
bb26ea3e
bdb0c8af
3e650940
bd601c50
3d245ddf
be12a079
3dbcc93c
3ddb0784
be3b742a
be3a4b74
3d63a239
be491e0f
becd4b2f
bc336a74
3e98cd14
3c05c3b9
bd5e27fb
bdc10c14
3e759587
bde69741
bed61ad0
bed71023
bf97e2df
bf9e0b76
be040180
3c30eea4
bcdba442
be630a70
3ddd7a15
3ea4a399
3e6a70fc
bd712f66
bb672e1f
be4f3426
be04c119
bb8d4f60
be313f1f
3e238487
3e147aa1
be845971
bebca186
3dd27425
bd7159b5
be8e657e
bdf10db3
3e3c3345
3b69a633
bd6bff45
be66bd0e
3ca1ae90
3dbc2f2e
bf14d1ef
be612185
bd973783
3d842daf
3eb4ae63
3ea5efb1
3ee1613b
3e5beaaa
be592c1f
bdf80d60
3c2c7c35
be41572f
be6bd3ea
bdd7b2e3
3e928b15
bd8acb99
bea1ba83
3c8a0989
3d849038
be8aebf3
be904f53
bd5a357f
3d61a408
bbc62c46
3db91715
3e9864a7
3dae0b75
be1fb7d5
bef203d3
befdab6e
bbfeda10
3d1884d0
3d83cc5b
bcf7f710
3f07dd25
be09dcb8
beb3bb9b
be8e053a
3cd56607
3cd62b97
be03d8bf
bd81c1a1
bdb75761
3ddeaed3
3daf23d7
3e16bd0c
3de799f5
3ca4d56f
be95953d
3e21f1fe
be167d11
3f0425f2
3ef362d5
3dd5bae7
be0fbfbe
3ea2341d
bf2a860a
bf0441b1
3db435ff
3da51711
bd52feb6
be565059
3f1113bb
3d11ba60
3e93d931
3c9d65d7
3d9e0c7b
be751ff4
bcd43610
3e2bb856
bd38f160
3e0dbfbe
3e666aa8
bdd55a1d
3ea83971
3ec60889
be279694
bdd2b3f4
3e8eaf49
3eac1ebb
3ea58c2c
bd858248
3e424986
bf1edabf
beec327e
3dc6cafb
bd5b6d60
bcde4648
bd9d49ca
bdfa2091
3ef1005c
3e878ebd
3ee63f38
3e8dfb28
3de0a862
3ec43812
3d9d7473
3da007fe
3cbe5556
bd82f01f
3ddb80c3
3df6ac99
3e0e9c21
be7d57ce
be67bd33
3e5644cf
3e819a9d
3ea7db94
bdf08b55
bf1734b1
beea94d9
3d9171ec
3d068162
3dc06539
bca4295e
3d937eeb
bc056f60
bd1c875c
bde11e7a
3e3aa227
3f06c067
3ea9f1f6
3ec80111
3eb5ef05
bb63ae74
be912bf4
be46eeb4
3e13e21e
be2d4b29
be97779f
3f04a52a
3f5b532a
3e71284f
3f14011c
3db59feb
bd95b02a
bedccbf5
be491d08
3e4ec925
3e8fa22d
3da8c3ee
bd35a5ee
3c707b58
3d29b2cc
3d8fcb9b
bcd2de6c
bcbdc7a4
beaa8ea1
3e0c8487
3e3652a4
bc65bad0
bedae53f
bdaf6bf0
3ea4b79e
3ee7167f
3d6ca472
bf3249ef
bf21e556
3e9c2597
be903df6
bf75dff6
bee8e3da
3cb91185
bf35d5d3
beaac272
bc0357b1
bbf6c5ca
3d36edd6
3d8f32c9
3cbd8b6c
3d080508
bce676e0
3cc14b54
3cc41a94
bd9f2383
be04ba65
3bb1d342
3d244748
be3bd287
bf358106
3d2f42e4
3e96d7ae
3e943b14
3e897526
3e984205
3ef49908
3d26595c
3d65df60
bf4de8d1
3ebdb663
3f1f59d5
bf4046e1
beab17bb
3e082197
bd982079
3d4c1b36
3c3a2b58
bba8d770
bcf93492
3cf2c3ec
3bc6d030
3c9e2d58
3cc1fbf4
bd0264ee
bcd91292
be197b0d
be69fc2c
be706a8d
bded1cda
be821f7f
bea21e06
be7dd5aa
bec83cf7
be5a454c
3db2fcce
3d82688e
bca68941
bd75a354
bda3003a
3d0b097c
3e28c274
3e2fd653
bcfe53b0
3d3bfb92
bca21688
bceacda6
3d840583
be6a829d
