bc5d13e0
bd0be999
3c447148
bbf7efc0
3d283c3e
3d3cdc92
3ce18e50
bd714d44
bd424448
3d661db2
bd7b5d14
3c7e1870
3d3ef64b
3c354272
bc8f390f
3d3978be
bd3b884b
bd9e4c16
3c9d1dfc
bc95a2d8
3d392742
bd1b0406
3cd20d90
bd2aa30b
bd3c163d
3d88ed93
3aba7d00
3c8a29c8
3b8073e0
bd3ac473
bd4e43ec
bd988119
bcfc51e1
3d682d0d
bd6de39f
bbfc2d82
bd0fbfbd
bd201a1c
bc4c186d
bdbc7c99
bda8898c
3d97b7b9
3deec51f
3c3f0ab7
bd907999
be39ef6b
bda21a3a
bdd73209
3cf0b79f
bc000cd6
3c60e201
3dc528c0
3cd43228
bd75c7b0
3d85a9e1
3d1a5a70
3d788f7a
bd86eb29
3d0bc25c
be82d1be
be15485a
bd8c5284
bdb83b3e
be2b53da
3f025f5c
3f50d87c
3f893e1b
3f482a12
3db3f054
bf384efc
bf2c2b14
bd150a53
be543d93
bec58254
bf16ae37
bf255006
bea6c7bc
be207ea5
bda0de59
3d4fd897
3dcf0dd8
3dfae5b6
bc2d3e20
3d944ee3
3d558b1e
3d826c53
3d58ead9
be4ce35d
bd9c26c8
3e6f7676
3d9614e6
be1831b1
3d4fa78a
bf3e60bf
3cbac380
bc6236db
3c429694
be64e68b
bedac2fb
be023921
be95bce4
be5e8097
3e027e9e
3c7aca88
3e0b80cb
3f1123fe
3ef741e4
3f4f4eb4
be448141
bea1564c
bebddaf1
3d0abcd6
3d9e9b73
3d90ec52
3e183268
3d4eafdc
3d8e1bef
bea0e9f9
beae7eaf
be5a715b
3e1e1d0c
3de13867
3ecf29f8
3eaa2410
3ea238ba
3e2c8fdb
3db811aa
bcf88a93
be72637a
bee27518
be5d01d4
be943837
be5de1ec
bda2fb50
bdb22032
3ef746d3
3e24f9c7
bda8f676
3ca31c39
be44cb56
3d2bdec0
3d15f4b0
3d84b7d5
bdb8bf54
bdf38a96
be4e252e
be610f1b
3e52ead4
3eeeaee6
3eaf2eb1
3e07aa0b
bda91f5b
3ed0f624
3e2ff27a
3ea4d1e7
3eb3e39b
3e00387a
3cfe9d5b
bef46c55
bec6d459
bdb54ca4
be1e04e7
3e3c32ed
3ecc718f
bd49cd59
3ebec664
be623eb9
be03c1bc
bcb02ede
bc75724b
3e2a2fd3
3e9f5cae
3e94de37
bdba60bd
bdfb290f
3e77b01e
3ef65bd6
3eb4b593
3e85bd8f
3d4b59ec
3e642f33
3c92ac27
3e7b1315
3e4aa5e0
bcdf22d2
be2e77e5
bebe9d07
3e551b42
3df2456c
be2644d3
bd5a29bc
3e266917
bedcb913
bc217bc6
3c0a67fb
be6b0a21
3cda4d5c
3e24ade2
bd0ab77e
3f10d5af
3f67e6bc
bed5eb51
bd32257b
3e18d792
3d2c94e0
3ea1dfae
3e8972de
3e381f52
3e579301
3e5846df
3bb783aa
3b821994
bdd7d12e
bdeb2d28
be6893c8
3de3777b
bd071c6b
be2e080b
3c58ff9a
bdbe62ea
3d85ff13
3ee17a64
bdc437e7
be345022
bdd2172b
bd4ec6af
bed92016
3ea34dc2
3f723c22
beea252e
be9d7d77
bc91947c
be14f7c1
3ea266fd
3e5ea3cc
3e76982a
3f033eba
3e9951f9
3d4c1a7a
3e48cfae
3c2dd8c4
be09a276
b8a4fc2c
3ce37ebc
be15d6d2
be7bf542
bded8b96
bc98fbc8
3ec530ad
3f0df972
3edcb107
3e8ef728
bc68850a
3d676d77
be972bab
3f0e7bc6
3eff32f6
bd922e88
bdf11bb7
beb0202c
bd74e4e8
3c79e541
be7850f8
bdeaad1b
3ec9fe9d
3e72af63
3c3a1189
3e122bfc
be2de223
3df04e55
3e1253a7
3d5d2b1c
bd7475fd
3e263d89
3d53c461
bd39beeb
bd31f265
3ea4346b
3f000968
3e084611
3c36f63a
3dc80018
bde8ef9d
3e785233
bd528736
bdeae3f6
bdfb9bd5
bd2e6e90
bdbb7d84
3d9c9dd4
be249e66
3ddaa9b8
3e9be240
3e632061
3efc6758
bdbe3fe1
bef74526
bc9a69ea
3e9764b6
3e18a640
3dc42afb
bd96cfc0
bdbecd88
3d4212f1
bed20bcd
3e6f9b74
3f16b9e7
3e795ba1
3c31ccfd
bddc9f95
bef544dd
be238e2a
bd2c42b0
bd155555
be7486cf
bdb1674e
3e818f28
bcbb6cf8
bea97279
bdf98d95
3e688269
3d9d3943
3e8ef824
bca9f23e
bea2a13a
bd0e5e3c
3e132c4c
3e1ce58f
3dd463a5
be928e2a
bea82ceb
be28b17c
3ebe8379
3f72e68c
3f6b904f
3e94436d
bd705136
3d9b6edb
bea884a7
3ef71c7b
be5a89ab
bec42c23
bf1af9d4
be9880f1
be4142ab
becfa611
bece76e6
beb69012
beae9028
3e71c603
3ea0f367
3db40031
be331a86
3de79541
bca77ae0
3d1dd8ff
be5b7f70
be783393
bdc948e1
3de48abf
3e2de970
3eea07aa
bdda3a3e
3e3a9c86
3c37bf11
3d49d2c9
ba95f1d2
3ecf637c
bf08a94e
bf0f3e12
bf3c695c
bf6e7abc
be581baf
bcea896f
bdfafb7e
be22970e
3db3222f
3ee23100
3e6c1a2c
3e8c847a
3ea84f00
3d0a1514
be33c96d
be69284f
3e0c3388
3df9aeba
be21d287
3f14600a
3cb8f8b2
3e0558d4
be578d99
3e2a2322
bd844ed2
3ab6100c
3c15b33a
3b93d7f4
bf878fe5
befea3c9
bf005d89
bef20c12
bdfad5b6
3a3cefb9
3bc126bd
3e1b7750
3dd4721b
3dd62779
3e19c967
3e86fd15
3ed93e70
3dd781b5
be2fb0bd
3d7f7dbd
3c2dafa7
3e3aa1e3
3dad2de4
3e467096
bea9e694
bd93776b
bf14a2f3
bd41829b
bcfa76af
3caae573
3e2af9b5
3e9b63af
bf498245
bdb0399d
bdf56a2e
be472231
3de79795
3ddd1817
be50d350
3da6c03e
bdb906cc
3e9bd2cb
3f11c735
3ecb4995
3e37d8ea
bbbc7f12
3d0e1bf6
3efa52a7
3e7c9363
bda79bf0
3e946a07
3db3e71f
bed233af
bed1fd8e
bea60e37
bbaeaff4
3cac7285
3db9a5ab
3c2b723f
bc73c331
beae1b71
be66e2fd
3e4477b1
3e23bc7f
3e2039b8
3e77e2bd
3e3a7b4c
3e0ff9d9
3ed47383
3ef9faa6
3e9f0a84
beafb50a
bda8d66b
3e4fa8d2
3e0a2c28
3e27ea69
3e40957d
3decc8f2
3da47946
3c706cee
3c029a91
bee0b5ac
bdc695a8
bcb0424a
3c0e3078
3d0856d4
3ebf53ee
bcad138e
3d137ae9
bbff7d9f
3e58ddd5
3e27da93
3ec51189
3e9acc7c
bcbf0df5
3caa9e67
3d8402f9
bbe0e59d
bf02ca76
bf21cf10
be1ffbed
bea723dc
bec7587a
bdae225c
be000455
bd471713
bc68e32c
3edd2055
3ec35731
be1e4ddf
bda9a722
bdcc7001
be47921f
3da1b080
3f0dc2df
3eb2156b
3e70a7bc
3ef1cece
3e2846ef
3e9026fd
3d035774
3e1d6af4
3e363ca0
3ea22362
bbfd3421
bec0e911
bf0fc1dd
bed5224c
bf0a35ab
bf099da7
bee3290a
be9609a5
be391c95
bdd83466
3dd3fbd6
3f6558e2
3ebbe20a
be8b38a6
3ece1e0e
3e54616a
bc0436bc
3be15190
3e03a683
3e40413f
3e6d046e
3ed91b18
3e7e4b79
3d600013
be1682c5
3e107e12
3dacd8c8
3ddbdf3c
bf26fd38
bf318258
be8c85e5
be631218
bee9377f
be807142
be724a6b
3e14ba46
3d059dba
3d522468
3ef54f07
3f3c9c81
be9e2652
bee6e61d
3d09a402
3e0749d4
3d2cef8a
bd50f9c5
3e0e545b
3e83db04
3e5a805c
be1d80a7
bcbaed9e
3d874466
3bb2d049
3d0a4e0a
3dad5cf4
bd6b0c80
becedf64
be448e0c
bddeac03
be042076
be6e7e60
bec7e2b4
bdfe66a4
3d8eeaa9
3df23bc6
be02c6e0
3e5e6226
3ee3253f
becd0c8c
bf0c541b
bddafc1f
bd6557a9
3d91f4a9
bb8386b7
3e94c58a
3ed8ec7f
3e547c76
be489bc4
3d54d6e1
3e3d085a
3e09c3ec
3e187fd4
bdd8e52b
3b6f6803
bc7fd30a
3d97d3d9
3e58864e
be496b00
bece27b0
be2b2c87
bebdfbd2
bcb69b72
bd932bbe
bec2da4d
bcd303c3
be3224a4
bf81508d
bf10f95c
3cf19849
3d1b25ef
3da3ee71
bd0f09d2
bb46c15e
3ed51003
3ece1de0
3ae4122f
3e260a87
3d89c805
bc9fde8b
3dd46843
3e6a4bc3
3e46507d
be1decd8
bcf3e0d4
be13b1c2
be83a9db
bed99d36
bea517a4
be461a96
be3e4012
beadf306
be9c7724
3d57985b
bed5840d
bf6fe26c
bf690dc2
bed6bb23
bd96cbff
bd0e1f15
3c88bb68
3c9d6b8c
3e78f2c0
3ed03c9e
be318889
bed060ae
bd00b2c6
be9b173b
3e24f6cf
be40e450
3da7e5e2
3e0c1c42
be1d4ee9
be49d62d
be75d137
be4d6b53
bdaca95f
be2b4fd8
bf235278
beb023bb
beecb9d8
bf10ece8
bf1351de
bf7b31af
bf426269
bf04a2a8
bd8959e6
3c92f2dc
bc761250
bc88b8c2
3e38b899
bf09e524
be7f4a1b
3ee44b59
bea37feb
bed8174b
bebc2f0d
beabaca1
bcd860e2
3d88df38
3bf441f5
bd9621ec
3d48a859
be4da0d1
bf1479c4
bf06f2a3
be975188
beabe1a1
bf6876ed
bf350680
bf4880ca
bf286280
be414b2c
be1f230f
bd1a65c1
3c8f866c
bd67bdea
bce91109
3f1e83e1
bd0b18e3
be92c3e7
3eb8a3e3
3ef217da
bec1e5a3
3dd511f4
3e54681d
3ec71540
3ef97f10
3c7c76c7
3efca9a6
3e2e851d
bd23b50f
be245b67
bf0b6d6a
bf2bdfef
bf7ce701
bf714faf
bf0199ba
3c21351b
bee4ce8a
3da06fda
3c18b773
3a5b3b80
3ca9c900
3d3bfd0e
bd85f969
be9a787a
bf5448fb
bec42e7a
be4f7a0e
bdebe32e
bd1d3485
be10de8d
be24d511
beb7c3c4
bf6a8292
bf58e748
bf0d6eb3
bf1feca3
bf3d8e47
bf0e28f6
bf4a806c
bf3176d7
bee17c14
bec5f8ce
be76bcf4
bdf5908b
3c85d4ee
bc95b4b9
bd314e05
bb6c6a80
3d6457c6
3d166c58
bd811966
3d58d0fa
3de3a4e1
3d71990c
be76749e
bec60791
bed9e975
be86f2c0
be0e9a38
bd84008d
bf69352e
bf4bce4a
be08fd9e
3d3d51f7
3e286ee4
be7cc8d7
bef4ca04
bdb21bd6
3d65c365
3df64a01
3db6a953
bccc2b38
bcec9642
bc75df70
bd910caf
bc016358
befbae51
