3e3ac87a
be50a46c
bec48b4d
bdcac7b8
be32860a
be844609
be0dd124
baac0657
bd49b233
bda3db03
3e53f566
3e38eed4
be0c07db
be61b07f
3c73749e
be40e598
bc22925b
3d4b3cc6
3b4b0d4b
3eb176d3
3e322445
bf06413c
bf21e192
3dcbaae6
bde3cc6d
3e40b5e3
bdd8efe9
3d1022e4
3e6a73d8
be901aee
bc0adae8
bdac5f8c
3e25ed76
