3e1d1cb9
3e2463bf
b9de2547
bc38c11b
3e67a554
be910ef9
3e27dae1
3ddeb87f
3e7a9463
bce92918
3c27189a
3dc1c958
bf467174
3ea0b77c
bf255f89
3ecf9337
3e35c693
bea0958a
3e45f8e9
3eac14a7
be5ed6fc
3e8c9f66
be2759d5
bdcc0486
bb8f1bb9
3f0676a4
3e1c4278
be8c704e
bea682f7
3e6f128c
bf517290
3d732f62
be2cc689
3f1546ba
be864b69
bd1ec96e
b908df7b
3d9b93f0
be378229
3cdd8494
bf101117
bd28689e
bf8beba2
3eedb6de
3d3f9cf0
bebaa87c
bd6e20a1
3ebe85c6
3e0a0a67
3e586d3a
3cc65c2c
be12b1dc
be42a6fc
3ea60f5d
bf86ef09
bdf09d80
3eee8c96
3d4d3b45
bf0ba1c6
bd70f11f
3e3bef78
3d824a12
be669559
bcab77e8
b9b4f635
3dc5a801
3a31a979
be8f34a5
be2c1608
be07d510
3e15b314
3d954d2b
bee668e2
3e285b9a
3ec6b193
3dee018e
bd7ca437
3e850799
3d93efc2
3d89beef
bf056f0b
3dbd1dcc
3e9964be
bdd2ae21
3e0003b5
3e1cf5da
3e0f568d
be09507d
bf0c1768
bb778f5a
bd9974b7
bef4b852
3e26d1d9
3f26f8f5
3ef7ea75
3c3e69f2
bf37567b
bd350007
bc214ba4
3be9c1dc
bf781ee0
bea92c11
bf672e23
be0e7422
3e689938
bc4c5328
3e481628
bee560dc
bf0f645e
3d7d1f8b
bda01149
3d92a3e1
3e16b9b8
bdf6ce40
3e3e7c0a
3dda50d4
be141316
3db4a199
beac72ce
bee5e009
3e39ffe4
3d963a5f
3da5b48f
3efd4399
bd5ec11c
3e6d7d5e
3e1e207f
3d52fa14
be804580
