bdc26be4
3ecb85d7
3e722241
3e4969a1
3d578a49
be61dabc
3e136932
3e54cec6
3f0d3621
3eed7f1a
bf0ab65f
3e54e330
3ec2a2fa
3cd86e6f
bf855847
bf2483e7
bf169a23
bdc32253
3ecc78a4
3e1d135a
bebc836e
3e08f58e
3e85927a
3beb94fc
3d6407e5
bb0dda16
3ecea94c
bf4570f0
bf43ec70
3f00329f
bf237b54
3e90ed76
bd4ed03c
3ed64278
be20b9f9
be0d7d81
be256a87
3cf81af4
3bd7e6ce
3ecdcda9
bf6a2b00
3d9907b6
bdb7d072
bdfe4eb8
3e81bd32
bd54e5aa
3d8b7382
3e9ec83e
bd8b3bd0
3e888fba
bd05651d
bf429747
bd6ef79d
3e019270
3e42dd3f
3dd9e7c9
3efb04b2
3ead7680
bf62221e
3bf0f29f
be1cd5d5
be25bd0e
3d6ff108
3dc3eb50
3d988203
bf6a877c
3c141b94
be12e15f
3ebbbd00
bf649749
3db457e3
3ede4401
be5c12a3
3e089cba
3ebbad30
bc82e15b
be83dadb
3eb1cd7f
be642935
be24fd67
bef5e889
bd81077f
3f0d1d7e
3d7d72f4
bd615eec
bc8b63b9
bf493b91
3e6080e0
bf2c7c10
bd81a5f2
3eb94fac
bf081df1
be8ef692
be0003b5
3eb79b7d
bec6a0e0
3debbb25
bdcd7cb7
be8b0c3a
be3a350f
bd370685
be25da73
be963647
3ee3a7f1
3e21536b
3db32200
bf4ad227
bf7f9b9e
3d5c2d63
bce144f3
3eb14281
bd9c98cf
be068a8e
be0b35ba
3e31ef15
3e2fc098
3de46b96
3e0edd3e
3e947521
be9aaf5b
3c9321e7
be91545b
3eb43368
3c3a208e
3e4b6eef
be4a3b38
be3a429f
3e1a5ff6
3df24d99
