3ba03538
bd752292
3e1337ab
bea40742
be5467dc
3cf972e6
be09c85b
be83ec33
3dcb4ad6
3e4fb499
bdcfe306
3d7852ca
3ea3ee06
3e4c60ce
bd2e380e
bdc06511
3ca83adf
be892558
3eae65bd
3d8909a7
3e2c7225
3ced7533
be858c79
3adc0bab
3d8c9487
be381dad
3e1c8dfd
3d9f1823
3e4833f5
bdd7a94d
3ea2200b
be7e8e22
bea5d1af
