be25483a
3b0e3836
bedbf8cb
bf27614e
be1420e2
3f008792
3ed7c4ab
bde8afc1
be3cdc62
3d94206c
3d1a23d9
bdff05ba
3e8c25ac
3eb25243
be60f875
3ec2c597
bea2b1fc
bdaa1ce9
be70cb14
bf0244eb
3b998c6d
3e92137b
bc9338cc
3e30d0bc
beca8773
be1b8337
3d8ff4dc
3e3865ec
be8b31d0
3d0e8a15
be6d1cbf
3e2f200d
bdb760de
