bcf0501e
beaad277
3dde6744
bf129b15
3e8b4637
bba37867
be421cbf
bd95e242
3eb2e917
be1203d8
bf529509
be6a8a8e
be6c9df6
3e895576
bed0fe90
bc2bd44e
3e90ed3d
bf2d4609
3e3bee60
bd79bf1f
3e631408
3efa8b04
bd000450
3f072d76
3dbaac63
3e4e4900
bf1aad24
bf3be493
3d89d44f
3e072512
bf2cd861
3e937284
3eb5a7cb
3dc1691f
3deca108
bed855d1
3e4dd2b8
be92f01c
3dfef70e
bf7573bc
be58c6a2
3e06e9b0
be300c93
bf933f4d
3db85d52
3de9562c
3d56f562
bd254c47
bdfd1194
3e2ef0c1
be186225
bee28dff
be7d796b
3e6111a4
bf1b1d33
bed85535
3e8534b7
3e2a2fde
bf365443
bf530340
bec0d9fb
bf6e98a3
bef01755
3e023d8d
bec8b214
bdd7fa8a
3e4db10f
3ea54e49
3c1870d4
3cc1bd2c
3d1035e8
3e53fc43
beca97f8
befcddde
be6012bc
3e016dd0
3e1e0ebe
be6ca934
bf040cb9
3e133a48
bf291978
3e5bfb02
beed060e
be3620f5
3e8103b1
3e3d6c3f
bf83c38a
3cace098
3e216118
3f19927a
3ed5091c
3d684d0a
bf57da03
3e0618ce
bda1d069
bf184d03
bca454a5
bf4e4323
bf4f84d3
be94d3ce
bf435197
3e514eee
be904fb0
be87f583
be448cf3
bf2c5698
bdc2740f
beccfdea
bf7f5123
3e394489
be06e2e5
3e44323d
be28aabd
3e530565
be653915
3e58d2e7
be817c3d
bd584c6d
be0ddbdd
3d1bcd6b
3ea67d55
bf356858
bf9e2704
3e1a23a5
3f549276
3da78c5c
bcdc483c
beae4ee6
bc381999
