bec6fb56
bed8e484
3d66e07f
bd6dd826
bf3ac9f1
3d5350f4
3dd6eb05
bd18a6ff
bde6eeba
bd236a93
3e8ee675
3d8dfb6d
be8ba6e3
bf6bfc81
bdec6c93
3e476296
bea62dd5
3e0aee4b
bf29b009
bebf7d9d
be85eecf
3d04d535
3e6ab5aa
bf3f8b85
be8a1fd9
3bb2def4
beb51cc8
3e678d9d
be9c6c69
3e8ffd2c
bf6f6ab4
3e3c48a8
3e926810
3e98466b
be9099b5
bf261173
bc2a23dc
3e287541
3db6266b
bce81a77
bf1abd65
3e2bc6d2
3ddf4a4e
3e824d8d
be3d3a3b
3d4a9d6d
3e691a19
be624bfa
becc4084
bf144feb
3da74d6e
3d6fbb72
3d6b0e58
be216e02
beb1a7e5
3eafcecb
3eac4b27
3ebcc654
3df801ed
3e0d624a
3e1497a2
3e01f3c7
be20a01e
3e78d116
3dbf1f4b
