3a840c40
bd2176c4
bcbf9d68
bd8dd903
bd37dcaa
bbeae3f0
bd57e9e8
bd83db85
bbf1b420
bd9a3b65
bda1d438
3d117cf6
3d9dc5fc
3d898454
3bccdd73
bd0be8d1
bbd462c0
bd856221
3cbb74f4
3d8d4917
bccbcc26
bd49aee1
bc2cd4b0
3cbe348c
3d4c400a
3af22380
bb35c960
3c1a68e8
bcadf44c
bd81f788
3c9db33c
bd2a9dff
ba50a1a6
3df09dc3
3deaa46d
3e21f904
3d42884c
3dc29729
3ef1c2e0
3e02b59f
3de24762
3d8ee4d8
bea8449e
be3ed4d2
be7c29d7
3c0627da
3edc324f
3e398814
3eb77f8e
3e608bc5
3e25649b
3e92ed69
bce4d1ea
3a9265c0
bd6b26de
3d5141ce
bce2583c
bd72606a
3e0a7011
bf4de79c
bf2ec472
3e8315dc
3e2489bf
3dc54f22
3da9b652
bde3a7f2
be36b2e0
3ea8c0a7
be62a9c2
be221567
3f1da34c
3f0d2a0b
3d11a215
bdebb0b4
bdb8a3a8
3e94eec1
3e85adb8
3f416824
3ee3a97a
3eb3c56d
3e5ec861
3e39eadb
bd8f26e7
bd3ec957
bd20cb86
3d613572
bce128ae
bf4c2b05
bf2b92f3
3e95da5b
be422e93
beb67ece
bf7ec639
3cd21f25
bd2c97ff
3ea20b32
be870724
be860373
3ee75828
bdc59a06
3e880c75
3e2d3b2f
bf082ceb
bc4b8de8
bdb47de2
3ecfa8db
3e58189c
3e5c5ebd
beb68f3a
3e936219
3d35a7f7
bd9eb6de
3d918ce1
bd5723e0
3d6c9e5a
bea5654f
3ea68cd0
be0bbe6c
bea5af15
bd65f398
be4d8cec
3d4cd4dc
3d8a0311
be78eeae
bd3bb1b4
3e062064
3efc8861
3e84514e
3eb555f8
3ead69b3
3bd1ea2c
3e27029e
3e0c0608
3ced9a1f
bd90aeff
bcd5bd2d
bf278966
bf1050fe
3e45ba31
3d7f9f9d
bd6da396
bd35a448
3e56d425
be836d06
bd6eb0ae
be7099de
bbed03a5
3e21be75
be81ff01
be3412a4
3dbf3de0
bdb3d4a3
3e84108b
3e4c09a7
3ef9da11
3ec0d022
3e60591f
3e917095
bdcfa422
be1d0b64
3d319e0c
3dd9968e
be0b3536
bbe005ed
bf301329
bebcfc26
be42b5a2
bd878fb4
3d54c42e
3d9ef015
bc914457
bcce9c1d
bf0083a2
bf2ad2bd
3d30be04
3e99fb62
bef3b69f
be99e372
be6abcad
3e48fd7e
be0067da
be57e63e
bdc736b1
3bbcadb4
befaaa20
bdcd688b
be90d5dd
3dbc6849
3deb2ea2
3e9019c1
be6e7520
bea6649a
3d0812b1
3ce5c377
be4be5a8
bd905c11
bc9be048
bcfccc45
be021dc0
3d3b2a06
bf383f5b
bed57336
3eb99321
3cc696d4
bf05e0d8
bf188714
be17f055
bde4c843
be696d56
3d2127ce
3dffdbcf
be3eb182
be93444b
bd4829cd
beacd905
bd79dd54
3d9b0db2
be863a87
bf34ae50
bef31938
3f60f565
3f2f3821
bf09a604
bdb86334
bc26fed8
bd8b1edd
bd10488c
bf07198e
bf31e7e9
beeb66ea
be0ab83f
be8dfee0
bf5e07bb
bf175ada
bed322ed
be6ddf75
be9f3cb1
3e8c5098
3dd1f618
bed35024
beba9e58
be02e62c
be054d37
be3cf463
be8934da
bf3b46c1
bf6bcaf8
bda4d3e9
3f0ee7e2
3d788386
be24a53c
be122364
bcd42fad
3c53dff1
be8bcdaf
3efed5ea
be21947e
bf44e630
bee22321
bea8b9f3
bf2259cf
be154d08
be5750d2
be7cc668
bc4283ec
3e008ad5
bd92192e
bf09052a
beae0da1
3e451da3
be889697
be6711b4
be84bcfc
bec7de86
bf27f84e
bef8724c
3e9bbb2f
be96853d
bcf136a5
beacdf51
bb77a14b
bd3af6ef
bf0f0ae2
3ea5af12
be8069a7
be118bd8
be8364f3
be39edf8
bef9ab2f
bc74db7b
be1f2fc5
be3e44a1
bce66af2
bc1daa5c
bd8eeea5
beb5535a
bd87f50d
be62ce05
be481495
bef563ba
bf01051a
be87dd17
beee7962
beeea47f
3e8739f8
be263859
bece1ac3
bec6af9d
bb19b2ae
3e7ce7b9
bedf3b8b
bed26a27
bf9291ca
bf0a8bbd
3de6c7e2
be1534a7
3e138873
3e35bd23
3d0b3fe7
be81b9e9
be1b0143
bd87d22b
be8f0087
befaf755
3e5c9b41
3e096663
be8f09dd
be1a41f3
beb2381a
bef7d3d0
bea3e8b8
bebd8eed
beb596c7
3e0d7ac3
bf8430fb
bf760367
3c5bfa48
bc3c1787
be803a6b
bf68d7ba
bf823590
bee747aa
3e9f7cd2
bd07f24a
3e37ce1a
3e308dcb
3ea0e1ea
3e3c8075
3ee6c95a
3e2ab364
be847de7
be1726f5
3e88e73a
be941e06
3da0a1ab
be751518
be059a6a
be5a60ef
3d9a53be
bf0d34af
bf2ac4a1
be9334df
bf2d069d
bf7a712a
3d42ebc2
bc4de079
be7b3959
bf4f5989
bf90116d
bf2b88dd
3e7e22a7
3d3c4519
bbe98334
3ec60c21
3e9fb6ba
3e7e1d48
3e28e4e0
3e18ff8d
be3f7c5e
3e35fa8e
3ea70b70
3ca0c635
3e5261bf
3e0724f7
3df96a6e
bda0c946
3de2fd02
bcf1f47f
bee5d4b1
bf25cfc7
be2f4982
3ec76f4e
bd12493d
bd3acbc5
bd9ae080
bf39e539
bf0090b5
be1ea762
3e9eabc9
3e4c72a9
3e8d1bb4
3ec750da
3e0f30f5
3e0431f9
3e1caa11
3e88a16c
bd0a6f0e
3e81cd1f
3ecd38b5
bd1436a2
bd9a8ef4
bd5b2f4c
3e023fe1
3dc2d4ee
3f681154
3ef03a15
be48b81c
3eca2b88
3daf3644
3d223377
3d1d26b6
bcd4082a
3da4b859
3c093764
be3a1064
be3aa873
3c09ff62
bb6d7ee8
3edc68a0
3e23a6b5
3d52d61f
3dc9ae52
3e3d7ccb
3e6c151f
3df9e7b6
3e1a2c81
3e57a8eb
3da975b8
bddb94b3
3e840aef
3e301c9c
3eb1cc46
3f5b2c4c
3e8a08ec
bf023728
3f5c3395
3e6ade52
3e23835d
3d8728eb
3d5f3067
3e4d8880
3d11b620
bdc24adf
bdf4caa9
3df17adf
3eb4e2f6
3eefaede
3e0eb748
3db5af65
3ea53b03
3d860cb2
bdefa2f5
3d4d797a
3ec0bd40
3e6ff351
3f06666b
3e8fd975
3ebbdeda
3ed7079d
3ea7d8e5
3dd2c07f
3e8c3ad2
3dd9ee90
3f8b5293
3e8183fa
be6cde7e
bc639ea8
bdaf6276
3e9df198
3e16b658
3dd1427e
beaa67b3
bc838c02
3ea205e9
3ecac192
3e251cef
3ed02a34
3ea5e2f1
bdd77b25
3e001f71
3d7da874
3e5391ee
3e258b3b
bce54550
be5b1c60
3e329b55
3f034657
3f119ac4
3d1ed812
3e704859
be1ccd56
3f23975d
3eaa9a39
bb9614c4
be3a734d
3bb07c1e
3abbfff9
3ceac1e7
3e5244fc
bebbd9eb
bdee0467
3ec4613e
3ddda1a4
3ec94bdf
3d1f64ea
3dc33583
3e9fbf69
3dab3ca0
3e85d990
bd1251b2
bd99df4c
be852cc0
bebc5211
be3e6501
3d253053
be2334b9
beb75606
b9a805e2
3e4c5472
3ecc8858
3ddc4aac
3eb0cd06
bb77ed10
beb1f8ef
3e0e28ad
3d2fa6f7
3f1febcc
3e06824a
bdf56c19
3d8ccd08
be10d3ab
3d329088
3b961ffc
3ec24e66
3e797ff6
be56afb1
3e03ea01
3db6864b
3c999ba7
bebd2dfe
be5ca36f
be8d7195
bede7adb
bdb4fea9
bddbc684
3eaaf933
be19517c
be46cd25
3ef3d9bc
3d08d3b0
bd9d3826
bdb42779
3cb7b57d
3e0f52ac
3dca0ef3
3e0b6486
bbca7331
3ceda7d6
be2afaf3
be8ac796
be6c8423
3e7ecadc
bcc03ac4
be7954b4
3e3fba32
3dbd4817
bd634316
bea62aed
3d7c416c
3cfcac91
beb0c92e
be600fda
bf23db6a
bf1baf37
bee4f1e9
bf70efaf
3ec8ef8d
bd102af4
bcc59c96
3d88a8ac
be315b86
3e501ac0
be9f8a61
3e24924e
3e3f536f
be6d5991
3dd95572
be548aeb
bf01f564
beb222cf
be1b9955
bde46ff2
3e444507
bdfad2fb
bea4f1ed
bdf749e2
3d2199b5
3dcc5477
be929bb5
bef26897
bf0bbefc
bea7025a
bf0e64cb
bf9c30f8
be9cc1ed
3d33b20a
3d332048
3d75ff52
3d9d3b60
3dcf56d2
be8c88d7
bd83d39a
3d8fe123
3b38545d
beab555b
beeaeba9
bd81efa9
bf3de5c7
bf1db4a7
bef02bdc
be35f17f
be030e27
bc62d0ad
3c04f72c
bcb99bc8
3e3c5dd5
3e2a40b5
be063e06
3e295086
3e5caaa4
bf217628
bf477832
bf1b4937
3d0330ae
bd32dabb
3d6dbdde
3daf137f
bbf4efe0
3dad03cf
bed8d9e7
be61208e
be0c7956
bf053834
bf1ac3fe
be8dc630
bf5a99a7
bf81de42
bf14034d
beab555b
be52fabe
be5116ef
bee7fa91
3d49dca0
3d3e5a76
3e82a700
3eb112e4
3f4db8e0
3e7689fc
bee0cdab
bf3e8bf0
bf115497
3d9a43bd
3d859d67
3c9a0f3c
bd8d4c87
be04d02b
bd2338f3
beba5bce
3eee3581
3e22cb53
3dff364e
3ed831f9
3db9abe8
3ee09650
bdfbc101
be88efa9
be23ec4d
bed77176
bea43ce3
bf6b77fc
bf138088
be3dfa53
be232276
3f1060ea
3f06e83d
bca48f5f
be030bbb
3e413a8f
3e00bd5c
bb3dcbe0
3cefec84
bd8b2ddb
bd2a895b
bd854368
bbad3264
be04ae80
3f2622b5
3f1510af
3f1d41a2
3f151532
bf0dacdb
3e89ba8a
be1d29de
be583b5f
bdb24d2c
3d154d6e
3da35c3e
bede8dde
bf4f5e1f
bfadd1f4
bf6d0f78
be8ea48c
be1d1827
be2ae96c
bec48a1e
3e0c31d7
3e4099cf
bc88f814
3da53e3f
3cbeedd8
3da36a3f
be545933
bde6c6f6
be8229f3
be516b56
beada259
3e670870
3e581bbc
3e20c6be
3dded01c
be9f5088
be8228e6
be9e8e15
3e644ead
3e82cd9c
bebaf687
bdec3009
bee76f12
bed9ead9
bf078cf4
bf0c0a6f
be8f2344
bd9d82f6
3ba20db0
3d485362
bd9ee010
bbfb27a0
3ce1e944
3d067dda
3d0eac08
bd8aa822
bdb90d9f
be053599
bded9233
bcfdf4dc
3d454a3f
be0ccdef
be50be53
3e8c88f3
3e727eb8
bf0e1deb
3ea8e669
3eba08b3
be5d42c8
bebb1778
bcf35cb5
be4c5087
bee716ea
bed87f56
3d513cf1
3d2dc108
bda30085
3d189b38
bcd4249c
3d845957
