3e9303cf
3d7054a2
bf0677e4
be223a54
3d7fc114
be867b3d
be126c90
3c5bf738
3e282bb0
be008942
bc3875e2
bdab7fbf
be733263
3e32bfe1
3e775ea3
bdb382e5
be405e3d
bf1b44b0
bf25cd18
3d046d51
3e7f3988
bd1c8a75
be47061a
bdc036bb
3ca7d6c8
be882a1e
bf01b3b5
bd7f3816
bed5ff9b
3e9cbe63
3d2f9204
bdbf5ad8
be66171c
be01469b
beb64e89
3f441348
3d5d86ff
bd40a14e
3e0911d9
bd3b6236
3dc4e75c
3dbd1717
3d5f73d1
3cc06fac
bf06093f
be9518a0
be20fc2a
bf2a9beb
3e88885a
3d5eff57
3eb685ef
3e32dd67
be794ce4
bc917d07
be44e332
3da16190
3eab5d18
bf074061
bdf0da3d
3e343864
3e2cad96
bdfdffaa
be7d0969
be82b0c7
3eb25b3d
