bd8c86bc
bf30cedf
be8ac0dc
bd1fb107
bf12d327
3e6f7fc4
beb41835
3f145fbd
bce799f9
bf354cd5
bd9f400d
beab5dd2
3e5abdab
bde0339c
bc9d7259
3d3e7a84
bf0966b4
be9c517f
3f04295f
bd81b161
be881163
bd0b2b94
3f00a68c
bcba9b0b
be007486
bf53950e
bf67d6b6
3dd67436
be1e3b80
3eddcc55
bd6a515b
bd860f0a
bf1ddba1
3e74e3ec
3da14435
3f079a58
be39cbb4
bf346330
3f1d597a
bf01f2d8
3e390df6
bde1f297
3e96d163
be419073
3e2fa3ba
3e95bb2d
3eb16537
bee4bee1
3e1f2906
be8d5048
be5584bc
bdb1176d
3e474a3b
3e2d6d1b
be0d9851
bf313405
3e7a7121
bdfc1d25
3e37afb0
3cffb3e7
3e374d34
3db17cf9
bdc2a050
3eeac4c6
3bcc2669
be3aeab9
bea3d044
bf2857d7
3f10e8d4
3d85ad8c
3f755e4c
3e878d12
3d92c864
bdb8034d
bed4ea30
3db7fe0b
3d342b74
bede1638
3dde6039
3ca1b89c
be51e3c1
3d2ef0c1
be6c95a2
bf00adb5
bc20b98a
3e02efc2
be62ff17
beca7658
3e74e1a2
be2bc925
3e1194a0
bde81d08
beb34cfc
befb2a12
3dae774f
3e4f93f3
3eae2f9b
3f556797
bd50f056
3e2c1e7c
3ead7072
be4bac69
3ee2e728
3e84c587
3eb21b72
3ee28662
3e33994f
3d0f3786
3d8a82b9
be8fb7a9
3e9835ed
bea2609c
bf2ae305
3d73bf7c
3c996864
3d8e8983
bf02b216
3e47c180
bda7cb3f
3d4426fa
3eeb7cf3
bda2d028
bf2240c3
3e47fa09
3e377166
3e9a0c4f
3db21d0a
3e5316c6
bd330736
