3d835575
3d09f271
bda72b58
3f212f58
3e4d9af6
3e0f7d86
3e152c7f
beb9f8ca
bee64b99
3d2d61f3
3ea966e3
beef030a
3ed86fd3
bf1bd560
3dade906
3e81bc94
3ea32519
be64ba48
bf0c7efa
be0fe39b
3e1ea5ff
3d89ee29
be806b8b
be01ab37
bc0c838b
3dc52dbd
bf3ceda9
be676dca
be90b20f
bd4710f2
bcfa76e2
bea0b402
3d5c0aec
