be14d78f
bf0a859e
3e4d9a36
3dcc795d
3edbda17
bf4324bf
bf6ce2ac
be7614f1
bd0576b6
3e31cadb
3e7e7d9e
3e088696
bf0abdd9
3cecd59f
3ba6e28f
3e94ca52
bd19accf
bc11db41
bed11f38
3e858417
3d0fa1c3
bf0a23e2
bf4cc7d6
be1dcd21
3e24f051
3d6f57f3
3e819487
bea8f12c
3db19355
bdf52974
beab72e5
bd9c1e8f
3ebde57f
bd0fee5e
bdd6d904
beb9405e
3e867a4b
3e89d77c
bf983a43
3e69626a
3e27f1ba
bcff3f2c
bf8c1473
3dceff8d
3deb181d
3df7a903
bdd93137
bf873649
3d2142ef
bda2878f
3eb2702f
3d364872
becf94d8
bdb4b3c4
beae56d7
bd83b52e
bca0b43c
bdafd003
3ebabd72
be7fe4c4
bec75027
bc92c1a7
bf39f178
bf16e2d3
3e21e43b
3e2adf80
3e8531bf
3dbd2348
bea95a73
3e8ae2cb
bf477164
be8ab507
bcb89479
bcad428e
bea8d0ab
bd996c22
3e20969f
be5c6aea
3df20b28
3d8f6d0c
bed77d89
be395702
3eec7e79
3f151c4c
3c702b87
3da0957b
3e59a874
3e349c54
3e69beb7
3e3c60bc
bdc6a2bc
3d7d31a0
3ef3f7a1
3eea1187
3e3e3124
bec42e6d
3e285291
bd592dc5
bd01cc2a
bc6a7479
bed34358
3e59a083
be2bce1e
3e2749f8
3c833de9
3db8b811
3e80e003
3db8c72a
be36afcc
bdf8b3fe
be3ebe97
bd2e0e06
3e989da0
beeac574
bcba855b
3d98a468
be3cfcec
3e5af5bf
bef8c558
3d746ee8
bee7f655
3e665f68
3e585ea3
bda51b65
bda21131
3e5aaafd
be98092c
bf32b4c7
3e27fe90
