bf37cfa0
3d407215
3dce337f
bf0ae962
3ea7543b
3b74e53c
3e4d107a
bd36b7cb
be815b81
be8897f9
3de96e36
3dc77f1d
3c87e4b8
3ef9c091
bea2fd64
3cf7fc5b
bbcfc313
3d75d29a
3dc7b64d
be077c6c
bdde7243
3e807c34
bc734445
3e64b73b
be353174
bde72fba
bef60a68
bf718fad
3e0703bd
bef5da0b
3ac3443f
3eb73799
beef3969
3cdf5176
3e111ea0
be163931
3e9d66d4
3d0c48b8
3dc0f804
be4e330a
bdffd1f9
be8c7993
be46e238
bdb928b9
bf1f4852
3c8d7ede
be9617e0
be2cf6f1
3ebe0fe0
3e535a3a
3da968a4
bea9a9a4
3ea0d81b
3ea5c25f
3e9427b9
be3eecc7
bde9179c
beb6c363
befbd7bc
bed9560d
bf220b3b
be793605
bd13bf9f
be37544e
be70c466
