bcfd69ae
bd2f4840
bda3f072
bd53615a
bc8a35a0
bc856544
bd9305e0
3cdd7c08
3d4efad2
3cb47414
bd24a0e1
3d1fae4c
3de0437d
3dfaac0d
3d85d053
3c270720
3da5c6b7
bd4489b9
bd9b85ee
bd1e464f
3cf134f8
bd7339b0
bc6d34c0
bcc049ee
bcf8042a
3ce80d3c
bce057d0
3d828097
3bfb6290
bd020d9d
3d6e2dea
bcb7bf10
3ca653f4
bd8fe576
3d17dbfa
3da3b374
bce8266c
3ce59558
3cf33b4f
3d980058
3e7c2f2b
3e3f8fb2
3dc71c4b
3d3db896
bca794e3
3d451183
bd318ab8
3c5ddb07
bc230279
3bf2e765
bd271421
3cb65eb8
bbb5f9f0
bd817741
3d892dd1
3d878513
bcf9abc4
bd1128b5
3d4d2b6a
3becd642
3d700c2f
bd730263
bb447d00
3d9a9204
bd3a20fa
bdbc45f8
be22a48b
3e4392da
3d9b863d
bea76d00
be544099
3dac6177
3e94bcfe
3e991680
3eb2e7d3
3e1d311b
3f0c4227
3cec3767
3cc3c9d6
3e487857
3ce6a48b
bd474e3a
3cd8372c
3d7e465a
bd225491
bbdc51f0
bd964b19
3d0064ed
3d5cc585
bd9befdf
bf09836b
bee5cb83
3cba0231
3e0edd54
bec37fba
bf279693
3e667d37
3ec21306
be6a09ea
3e858eb4
3e9aaf04
3eb28794
3ee0cfac
3dfc379d
3c0958e4
bb4fee84
be9ac092
bf041626
bdbff83d
3e375c78
3e89c15b
bd86b214
3d90b753
bd109176
bd0f460b
bd06fb5e
bea1ffff
3d989a6f
3df03c13
be3a9523
bebe7feb
3e1cdd74
3decefa5
3dc39196
bd850bac
be89bbbb
bd97f8c8
3e51be05
3e4ac2c5
bd173130
397164e8
3d64f59b
be92727d
be008cd7
3c1c532a
3ea06271
3f0b3ced
3f5c6f80
3f227981
3a063900
bc75e008
bc764498
bd19a8fa
be21283a
be4cedd6
3df2e0ba
be5345a7
bf0ebbcc
3e08d20b
3e9f68e3
3eb126ad
3ea84a65
bc8d9b48
3db45332
3d3f452b
be81a643
bc27efc0
3e0b7277
3d4d6a6c
3bb32763
3d8dec7b
be993d43
3e93e2cd
3ef8e768
3d8869e9
3d8ff4a5
3e19a0fa
3da50686
3d818049
3c3ec483
3f1c0f9b
be9e1576
3dbe2e1a
beadd659
bec89fd1
be4b0e7c
3dd16c25
3e1a43e1
3e5a0d69
3e7fcc80
3ddad864
3d95d356
bce7c58b
be5dca78
be1e4cf3
3e1e3cc2
3e8e6136
3e25ef77
3eea3f07
3e52471c
3eceb527
3e9529db
bebea075
be8f469a
3f091504
3dd93ad6
bca448e0
3ccee075
3f1a933c
bebbbda0
bea99412
3dccbccc
be5b1044
be4de296
3ab28586
3ea5d7bc
3ebf248b
3e6d920a
3db0fac8
be59e8a1
3e435424
3e19cfb3
3e0e65ae
3eba9946
3f2aecaa
3eada9a7
3f336254
3ebc5b8d
3e8d0003
be293412
beb3b9d4
bdb00eba
3f5224a4
3d96f2a8
bd43bf07
bd6bcf4a
bebe07a2
bec6e5bb
bf2015ea
3ec652e7
3c7afb8a
3dafb560
be96ba89
bd46faab
3e1a2d78
3ef0f2b5
3db57835
be204b0a
be7a8f20
3db49a46
3dfd0c9f
3db5f963
3efc9b76
3ef3a4b7
bde59c78
bd9e5a40
3daf749f
bcfa0e34
bee4afe5
bee8be30
3f19a4bb
3dd281eb
3d873c1b
3d042805
bf3bb96e
befc8648
beaa982c
3cd1eecb
bd788358
bec6c6b4
3c734fa2
3c935c66
bd98234c
3e476ae0
3ced6367
bf355b95
bf67c887
bf806fe3
bf8adb08
bf89fff7
befe0744
bea43593
bf6692f3
bf2e5dd1
bd738506
bdca0645
be59c80c
3ecca007
3eb9f241
3e34aff3
bd81310e
bd1bcb6e
bd9a730d
be0ca67a
be1b22c2
bcfe3de1
3c9a12b2
3c03aa8c
3debc7f3
3e8ad654
be0511aa
be6af7e1
bd867942
bf0b6835
bf7c284d
bf5efdff
bfa368ca
bfb84e01
bfb58689
bffc0002
bf9ac840
bf5723a9
bec82095
bf326802
be170f06
3eb46299
3f284ee1
3e253d16
3d7da5be
bca83f64
bd96561b
beea658b
be96de35
be389ef6
3e242439
3dcbb11f
bd1b6c22
bde760ef
bee01269
be7792e0
3e587f99
3dc71306
3d8c3379
3e835c78
3de4d4c9
be242587
befcc9f5
bf949eb5
bf8950df
bf4a5eb0
bf958c61
bf91bcdc
beec9927
bd0c79ee
3ddce437
3d0e2db7
bd26f0ee
bcd59ad1
bcad4967
bdeb5ece
bead3593
be1903b5
3e27fe12
be058e42
3afe6d9a
bd7ae117
bd28f4b3
3dcb59cf
3e0b6997
3e8a9307
3d45a270
bded7115
be4ac506
be1a166d
bceeaf8d
bde79c7d
bf1f3ebf
bf14ca0d
bf956c8b
bf6fb523
bf12be40
bed7f8d4
3c176626
3d82a6d9
3cd0ef5c
3ccc0644
3d227696
3b563d3b
bdd6103c
3e722f3a
bd9fd8d7
3e064204
be685657
bcf85e44
3e9d44c0
3e5e0c17
3dde1110
3d09ced4
bde8c2bb
3db03a99
be76a653
3bb45a1c
beba7bbf
bdfedda4
be6e420a
bf02188d
befeb94f
bf1b3416
bf2edabb
bf03f184
bba1870f
bd2c0a2e
3e821769
3ce8194a
bd2f0add
be7b8099
3e9fa8d7
bde640b6
3d704be9
3e972bb7
3e117abe
3d9641ea
3e323a9b
3c83b9f7
be0c5c54
bcccbce9
3dce3e47
3d1e65e5
bde853d7
be71c85f
be20a305
bd864882
3c6f6663
be35553b
bec92823
3d7d73c6
beb512a4
bf1bfa38
bd98a337
bd8ec03a
3e9274f8
3de594d6
bd7f7983
bece81a3
bdb25c55
be599224
be5acb17
3ce095b2
3e90fe8f
3eb13cfb
3e5a920e
bea814da
bda6bdb9
bd137ee2
be6442ff
be1dc084
be2ecb38
bdc2bab1
be2a4da3
be827f23
be3db1cd
be3f4576
bd1d9d21
bea866d3
bd58be19
bf0c5dec
3d8abdf6
3adf1691
bc88cbe0
3d3b5010
3dd65ae4
beed11d5
bf1fe45b
bf0f7c32
bf2fe082
bea780d1
bdddbc5e
bde72f73
3ddd49aa
be2d7622
3dada042
bdc05af9
3dda076a
3d159d5d
bb91c578
3cbce571
be6974c3
bdc9a5c5
be289f53
3e9c85dd
3e36f34e
3d31fbfe
be3f396c
bf0bab0c
be8a8c3d
bd94a307
3d96df1d
3dc4c052
be0c5cbc
3dfef736
bdf72c8f
bf0dbbb0
bea5b4b3
bf362607
be9f91ee
bef69bd5
3ab68136
be22a020
be33bb7d
be645b5b
3e330d88
3d2848d9
be568d56
bd0af1f3
3d9d7c62
bd218488
3d52c1ad
3de67fc8
3ba127a4
bd611109
bda5dd33
be3b5785
bd2d3d77
be06dde4
bd527fd4
bdaaca3b
be2c704e
3d1db993
3ea8c4dc
3d4a4808
be73d40d
bdb744a4
be5afff8
bedf089c
beae155e
bf187b9a
bf38c828
bf3838c3
be15a51e
3e164658
3e197d2b
be3d3665
bdcef0f9
be301f06
bd6e47cd
3eb3798e
be4e82d3
beb41e83
3f085ea2
bef81d03
be3ebdf5
beb270d6
bd9daf01
bd2c9716
3e9f86d1
be2d1695
3e8b021b
3e9b7d50
3cde6881
be32c8c2
3d9c4ecc
bf0216aa
be6b4805
be89e333
bd98fae9
be39da16
3dc83584
3e8f03d9
3ea432b7
3d1c7325
bba0ab5e
bc97d77a
3e339dd4
3e901a44
3e46e9e4
be089283
3f084ceb
beee2d05
be7b5dfc
be583ebb
bcb2341c
3d5ffadf
3ec10893
3d9fedb1
3edbefa3
3a4bbe4f
be8556c3
be06db7f
3e4fe236
3d399693
bd23c5c2
3e0bad25
3e0af504
3e503507
bd6c9cf2
3ea7b634
3e94fe27
3e29184e
3e068214
3db473e0
3ded51d1
3e77e417
3ee6838a
3e2d1fe5
3f1a8abf
bdc6fb14
bdef184c
bcfd8aee
bd7c39c8
bcae4760
be86005d
be1b6884
3f20b3bd
3f2d86bb
3ea97e50
3d9ac30e
3ed13f61
3e97e5d5
3e520ec0
3e2405dd
3e4590bb
3c9fc895
3dc241af
3e9d8836
3e897105
3ee4a196
3e97f215
bd6ec1cc
3ec2d0bc
3e96fe93
be625a1d
3ec79ad4
3ec5e4ff
be22cad4
bd80f07f
3d1971cc
bd3cc14d
bd6b1e60
bed829c6
be2331a7
3ee1c2e4
3ec28798
bcd5a0d1
becb16df
3db9cb27
bd080327
be039d57
3e870f0f
bc996067
bea68818
3c518b25
bd96b0ae
bd9cfacd
3eeb0491
bd06ebfe
3de2c075
3e5779aa
bc98641d
be97a8c2
3e8a722e
be733468
beabe576
3d67ba72
3d975ff5
bd790746
bd892ce4
3ed0f05e
be0d1e9d
3e71e22a
3ed732da
3ebb98fd
be1cac60
3b06c410
bd9fdede
bbb8b491
ba606cad
3c59fd21
bb2387a5
bdc787bf
bd389a74
3c7d7004
3e02eb45
bcb76027
be5b32e4
bd0a7fcf
3e6115dd
3e2f188f
3e4c7629
bed19845
bed6e7a6
3e0d4ccf
3d51ba0e
bd65d985
3c5fc590
bd0784ae
bdb535d6
3b2f8b36
bdf77dde
3ec2420b
3eb0c838
bd298656
3e7ef7ce
3d7ff785
3b5ebc28
3eb21cc1
3e46b825
3e53d164
3e17c869
be5da330
3d342260
3e979ed3
be0ddc88
3ebf9809
3eee3472
3e4702e2
bd694e54
3d9364c7
bdf224c6
3d1f7d10
3bb7a660
3d9564d9
bca2a7ce
bcf26cfd
3c8e5f9f
bf45fb43
bf42d61f
3e43bad8
3f263908
3d32b7d4
3eb28a36
be3ce20d
bdd6741c
3e87f646
bdb0bd46
3ddd72f6
3ed0d129
3e738dbc
3eb2155c
3f2e6fea
3f3f1ce2
3f0d180a
3f382f53
3f844b39
3f37813f
3eaad057
bc92e07c
bc906494
bcc090dc
3c61f798
bcb17bf2
3d8739e3
bc0f1dc8
3d6e96c6
bd12da6e
3c015873
be3f812f
be40903f
bcfe9be0
3ddba96b
3e1830b1
3e97c311
3f0199a8
3f0f8348
3ed37ad3
3e14788e
bde71d7c
be82f393
3ebfd5b3
3e6a615c
3ecc8b94
3f013634
3e2a81b6
3d8bcfb9
3d3bce26
bd6e025d
bd175af8
bd109113
3b9da930
bd88cd40
3c460358
bd2639f6
3d93c7fb
3c9fd977
3d81b406
3d17b129
3d82dfad
bcc802db
3d79073e
bcdba826
bd10a2b5
3c2609b4
3d1d2508
bdb2831b
3d870b3e
3d950207
bc22977b
bcb62aa9
bda4cfaf
bdaba579
bd69a658
bbdc7c20
bd4947c4
3d769f36
bd7a43ce
3e7646b9
