3d6235f9
beef5d6b
bdcec40b
bd2d7ae9
becb7189
3e4cd9a5
3d8432d0
3e80f475
bedc88f1
bea0b596
3bb32fc2
bde66f76
be8bfcc3
be6b74c5
3d5414b3
bf1923a9
3e8db622
bf0edeb0
3eafd2b1
3e9ed07f
3dfb1c41
3e6de521
3ef84da2
3f635835
3e30635f
bda66054
bd6ef388
3d49f471
3e216784
bc499574
3df5f443
be802889
be5c7ddb
3ea58e0c
be6642bb
3f396d25
bd857062
be839091
3f29353d
be553c04
bdce5fb3
bebb44ee
bdaae769
beb9fbeb
3edadd34
3ed39dd7
bcb507d8
3e10a50e
3ec58ef3
3e16ef9a
3d028948
3d45ac65
bdb98d6b
3d8a5f74
bce005a3
3ebd2e5c
3d5d0943
3e9ec8ce
3d92d2fc
beb6c93f
3ed9d481
bf1ff724
be929029
3ed7754d
bd57ee25
3ea2af8a
3c03720b
3ea89d9e
bdc545ff
be8e300f
be933da7
be28ba27
bd6a8fa5
bf03be36
bf122d0c
be8be6b0
3b2402c5
3e1bb4de
3ec16026
3e8a8313
bf35d548
3e8ad7a2
bf57ec12
be80d7ba
3dc60903
3e648e6b
bd899122
3d9b7465
3eaf9b54
3ec7a222
3e333400
3ddcf63e
3d851678
bee3b925
be0cb4eb
3e741180
bddf57ae
3fc679dd
be98ddc4
bee5bbae
3e6404b1
be04b242
3d18aa9e
bebe32d0
3d02fada
3d02d24d
bdb2e249
3d5e37f9
bda6b26e
3e1afa1c
3de7c3f5
3dbaee32
bd429169
be352d8e
3d16fad9
bf08db4a
bf0448b3
3d5ec482
bd1dabe1
3d740c10
3e8b4da2
bec97b26
bed94225
be52ca3a
3e59b0fa
beb9e24d
3d33d927
3ee0e8b7
3df4ec5f
