3d89e5af
bd87e560
bd4b41a8
3ccc4904
ba49d400
3c465b20
3d46902a
bb3a9280
3d6e4e96
3d4fd876
bd67be1e
bbe0d300
bd84cd57
3bbd9267
bc1d5764
3d8f49c7
3d700a5e
3cb6a7d8
bd22e8fa
3baab480
bd8a5451
3d6764ea
3d4bc53e
3b26ba20
3d881a01
bd8c9a6b
3befe710
3d9ce9c3
3d02420e
3ced3590
3ca34730
3b893210
3da52271
bcc58b77
3e6b875a
3ebf880c
3df78a61
3e6d4544
3ea5ad7a
3df8a04e
3cc28755
bd88d865
be5bf197
beb47f83
bee54ffa
be20dbd3
3eac7ef1
3ef9bb88
3f29c351
3eb18fed
3ecfa6f5
3e8476d4
3da3c16f
bd0467c2
bce6269e
3d0e3022
3c01a298
3cd861c8
3d91ff79
3d816532
3d54d047
3d979e3b
3e43ae2d
3f1e41cc
3f119308
3f605536
3f607ee1
3f01a408
be905984
bedb27f4
bf39a0f4
bf47a191
bf5f710b
bec7b5d8
bea027f9
3de66a35
3dd30ce5
3e390cbe
3e9f2828
3f161bfb
3e6202e2
3d750723
bd84ee9e
3d2bfdf4
bd7050ba
3d44b442
be98510e
3e5694ce
3f57de22
3e9414ee
3eb94cea
3eebb8fc
3f1f0810
3e5933c0
be1f419f
be8c9e05
bf332f9c
bf869b8d
bfa9ec2f
bec0d50f
bbb6639c
3eb4e246
3da343e2
3e65ed0b
3e97d478
3f27fb2d
3e92ce40
3e883e87
3e49dc3a
3e6af62e
3d63070c
3d802001
bd16192f
bd2e6c75
bef05ca5
3da85a9d
3edcd2cc
3ededf6c
bebb0896
bee89d48
3d1fe3ef
3e854572
bdcca8b8
bf125cad
befcd241
bf754439
bf9acae2
bb8955ee
3d9ba9e6
3da8a186
3dbb4224
3ee39d4a
3e473dac
3ec1156b
bc8b81d3
3e3e9a7a
bf1ec871
bf6edb60
be25b285
3d04adc2
3cc4beb4
3c9f143c
be4b402b
3f2e3c0b
be242eb4
3e096a0b
beb335ef
3e3dde84
3e4af310
3ee2ccd3
3f2abb65
bf0bc8eb
bf99fa13
bf9b2292
bd94cd21
3e8dacaf
3e2901e9
3e157c6a
bdfbe020
bd405267
3e876144
3e4ff6b6
be3a0a07
3e60aa45
be2177c0
bf9485fd
bdbac01c
3d1107dc
3cbefc5c
bd91cd34
3bb408e4
3e2e0162
3e4a4b37
3e83c724
3c84324e
3ec4481b
3e7a7ce4
3d57b5fd
bbfde75d
bf9291fa
bfb2bf35
bf914898
be320abc
3f18697a
3d022ba6
be9a8b41
3cdb9d77
3dfae537
3ef37ec6
3da442dc
3e18e47f
3f2ea874
3f5384bb
bf04dad4
be31db71
3d4b1f5b
3ce8f5a8
bcc66b60
bde03c2a
3b97d492
be4bb830
3dd59527
bc247951
3e90e444
3e3bcd97
3d870f74
bd41869b
bf446956
bfce4bae
bf1b16fc
3f0d97d6
3e9c7be5
3e222c3b
3e529f60
be135f0c
3d144287
3e8d9d44
3dd558ff
3dc1ed50
3ded42b2
3e86cbe2
bf62bd5a
be4a0162
bdf7ab96
bd1b48a5
bd7945d4
bd89ee14
bd200afe
3e8aeed1
bdbc8575
be7d8059
3e153dca
3e4fc325
3e881545
bcfaa446
bf6a1a27
bf81b069
bde7cbec
3e4e0905
3da613df
3ef54947
3dccaff4
be9c5d9f
becb2c8d
beb71fdf
be0f5705
bf7ae694
bf5608c8
bec14dbb
bef28d33
bc20cff3
3c9b9a20
bd488a28
3c760f81
be6b6f97
be07164b
3e87fb91
3e0851ec
3d60d319
3e24cd06
bde4b17f
3e2e18db
3e272b09
be931d21
befab285
be30bced
bb849570
3e874349
3eadf35b
bdcbd092
be6ff97b
bebfdb47
bf8fb985
bf57e59a
bfa6f9fd
bf8b014e
bf794956
be9aa21a
3ded283c
3d786df5
bcd2c718
bd7d7c43
3ea9fce7
be5d7b9f
3e7ec8a5
3eaf1a47
bf03c389
bdcd05ff
bd7f08f8
3e6b8592
3e6ce8ea
bf0ae3c3
bebebd78
bdcce32b
3ea4a636
3d81eab5
be1511c1
be3d4793
3c95eb56
bf3bcbf3
bf7999e4
bf83f6be
bf8f1b3c
bfa2e7a2
bf9e7953
becde6a7
bb2f3d0c
3d21a6da
bd69beff
3c896aa4
be4e521c
be7d80a3
3d8f1d7b
3e156cb8
bdc69480
be143d89
3e9727da
3c88c5c4
baefa40a
bee723b4
be250d97
3e40e455
bdd4971e
bead3103
bdf6092f
be816b80
3d9b34ec
bf31aeeb
bf0f77d8
bf02c373
bf3f2ef1
bec4494b
bf0ef29b
bf1427ad
3db4808e
be65efa8
bd5798e7
3e1a20d5
bdc8b891
bdbddf27
be0457c1
bd1397c0
3e450cc9
bea40fbc
bd235d8e
bbe52f09
3e36878f
bdd13bb0
bda3c52d
3ecdae6a
bec77791
becf571e
b9888b13
bd2ccbc7
bda0bc43
be7d2836
bdb44a23
be0095da
bd6ef59d
3f092261
3ebd48a4
bf52499f
bf19a4ac
bea2601b
bc1fa8cb
3e081875
bdfd5d76
bda05484
be9006b0
bcdc7d32
3dcc9871
3bedf1f3
be903512
bc52a9fb
3de2afd5
3e09b7e9
3eb159f9
3e8abbc5
be2b4da8
beb4dbf5
3e3bd8da
3e21692e
bdce2e14
3ec8811a
3f02a3ae
3eb6ca2d
3e1a1f84
3eca88ac
3e95be83
bf35bc93
bf81b99f
3d049e7c
bda1921a
3dc4e5e8
3d6ef131
3ed99d56
bdb2e904
3e189f5f
3ed45ee4
3d885bec
3e057407
3d748f21
3db040df
3e20f5c0
3e175e2d
3e7b8212
bd9caee4
bb93e54e
3e973933
3eaa3266
bdbc8cdc
3f05aae8
3e205e25
bdbe95b8
3cdf76ba
be84cadd
3f0f03b3
bf06463c
bec6ad35
3d4bedb2
3d944a83
3e166969
3ea684e9
3ebc583b
3ec727e8
3e3cd83d
3dfa00ec
3e8f810f
3e834b2f
3b1c9347
be3a9df9
3d47c168
3c0b3de7
3e9ca91b
3cf44316
be4d77ed
3d02d359
3e2202ac
bde926de
3dde9090
3d3e3966
be009318
3eca0b30
3e977859
3e823dfc
bd94bae4
3e3dabb2
bb659108
bd0bcffc
bd7465e7
3eb1ac1f
3ecc00b3
3e58b49a
3dccb6eb
3eaade8c
3f2c8f38
3e32a607
3ce35f48
beaa58bb
3cae991f
3e600987
3e3f5aab
be2e1d80
3de9fbe7
bc3f2f1f
bd90f07e
3e5820f5
bdfb37c4
3e240eb5
3e088f5f
3e9e5f23
bd94b8a3
be1055c2
bd050cd8
bdd6e4ec
befc47b9
3cf4a0a4
3cc67387
3edb808d
3eb25ade
3eb25c9a
3e06f7d0
bd7504f5
3e08117b
bd36d258
3b40a7f4
3d651547
be3b9874
beb15960
befb2131
bea1817d
3e45ed8e
3eb40f16
bde4925b
3d33b0d6
bf16c8e8
be84522c
be850000
beb27623
3e25cabf
be0d6ce1
3ed35627
3f224f56
bf048e12
3c0f96ec
3d010ef8
3f1404d7
3ee9540f
3e630250
3f276031
be3674c4
be2aad11
bf0b9c26
bd5ca38f
be80f1db
bd21b27c
3d85c894
3e741ebf
bb2c6191
3e10a9a4
3da707c6
be0372cb
3e5c4b19
be800d6a
be7532c1
beb24085
bebbc19c
3e824975
be7824a3
bc50698c
3e820b9a
3de47761
3d49c5cc
be860d8e
3da72916
3dd4e3a2
3df33561
3ef6c114
3d98b26e
bd6e2ad5
be08331a
3e46fe03
3c83d62d
3ec4f79b
3e7d77ed
bd2f3de7
3dfd5d51
3e056190
3e4c3def
be39f3fa
3ef745e3
be7cb2b7
be057734
3e01ed75
beb24221
3d883c0a
bdaddadc
3f1a7797
bcc5d05b
3cd67302
3c5f4378
be8b18ef
bdbd186a
be322973
be65c3e9
3e824452
bd3ea846
3def2299
bd7f7305
3b7e5279
bdc248e0
bb717941
be8b0e6e
be2a5e6b
3d46618f
bdd153ed
be1e0d51
3dce5ad9
3ebe1a5e
be3af167
bd8afd28
3e8a94d4
3bf666c2
3e5c5e6a
bd334153
3e93b5eb
bd0d158c
3d864c49
bd7862ec
bd930fc3
be9f2bdd
3e1c9203
bf1204b0
be4ffd4a
3e0ff676
3e35665a
be7af7f7
bd82709f
3bf658b4
bcb81f3f
3e104c40
bd7264e1
bd866036
be0db0ea
3e0f2050
3e96758c
3deb7d46
3d804e4f
be480bb2
3e9b5a43
3f196c07
3e3e4d9f
3e98d84e
3f489296
3e224afc
3d73fe1a
3d91cfcb
bd0701e3
3d9297c3
bdf091a1
bec112df
bf13db72
bea69fb4
3e472eaa
be4f164f
3b5e76fc
be006932
be3d8a92
3eb92eee
bd4d5763
be0c9866
3ea945a8
bdf237cb
be4bf5ca
be60096d
3d58f998
3e116069
3f0dfbdb
3f2a07ae
3ea2cae6
3ed971e0
3f72c557
bc29ab8f
3d7d739e
b9f45e00
3d8b99db
3d505ba7
3d65d531
be78d376
be2794e1
be144975
be91bc40
3bfafdb4
3e8f3f33
bedbc6f0
bce6f2d5
3e7dc7f6
bee54048
bedc1c4b
3c6f93b7
bdd1ba57
be96661a
3e46a859
3de9f81c
3f0366b9
3f09f6b5
3dc72345
3d97f3b3
3ed1854a
3f25756a
3dd218f8
3af84140
3ca56dec
bd1ad1e5
bbd905d9
bc0314b7
bd31be94
bc4ed0cb
3e97d854
3ec8f955
3c3e8568
bdb63dc6
bf90a1cf
3e573767
3e8a54f3
be4c1c5b
bbf388bf
3e14021d
3d554ada
3df57d8b
3f055a80
3df1347e
3e5a928d
3d7de66d
bd83db1e
be231291
3e99abc2
3e00404d
bd394d7f
3bf434c0
3c88f6a8
3b581c60
398f0500
bd805328
be099779
bdf6fc47
beab8ad0
bef523aa
3ee8f277
3eb4330b
bf1ab227
3e4b6199
be61c948
bea969f3
3d8ba0f4
bc707609
bc8abcc1
3e0120e4
be9bd201
beb43af1
3e931edb
bcb04168
3df1ec42
be506a6a
3e19ef20
3d34c55e
3c9e9bfc
3d825543
3c6babc8
bd2e84f9
3cc84ddc
3d8311b1
bb8ffae5
3d74b71a
3d032550
bcca233f
be05e135
becf8b1a
bdd7b423
be376e88
bf8f202a
bd781f73
3ee61057
3ead7836
be8d5c0e
bf950553
bf1cc72d
bf525d60
bf67af31
bf38ce98
beff2237
bf1b1925
be646330
3c405018
3bbebe20
3d8ed731
3c6507b0
bd794e24
bcfd5252
3d9e2f2b
bd96dc9f
bc4ae1e0
bcd73001
bcc04542
bd95adbc
bda4f9f3
be011ad2
bd6b5a54
be0961bd
be105351
bf415927
becc394d
bedeff33
bf097bc6
bf2021ff
bd5b199b
bd4e9b3b
be587fb0
be67ad6e
3d8c8374
bd9fe7b4
bd4d7796
bd3dd5b9
bd611b2c
3ed22ee8
