3da026d1
3d06aa0e
bd981cbe
bd9eb9b5
bd9e761a
3cb78ecc
3d8c79ab
bbf49b40
3c985440
bd1b40a7
3d818191
bd2d6f1c
bd93b992
bdb4cc17
3d20a98e
bd89fcc7
3ba77140
3d920e91
3cf05494
3b05bfc0
3d9776a1
3b68eb60
bd91ecdd
bd9603c5
bd1d12c7
3d96f0fd
3d2eebd2
3d5f0fe6
3d506b8e
bba45100
bd237149
bda0dec9
bd8c25b4
bced9958
3d88e843
3d43ea3c
3af00100
bd8784ac
3da20a74
3d759bd5
3d8e620d
3b8dd6c6
be11b5e3
bd8892d0
bd29da5b
bd82b61d
bcff42d6
3dfd68dc
bc5f2a1e
3d8515a4
bbd8acb7
3d86a259
3d953b0b
3cdfa6cc
bd371ea0
bd0cf00d
bd1c9b71
3d0d0bee
bc9597dc
3cd7ee87
bd580ab8
bbb3f349
3d5164d7
3cfe483b
bc2673bd
bdecb7af
be26c8d8
be7b68f0
bdbcfa47
bf080972
bf27cbf6
bf45bea7
bf2438b3
3b055f54
3eff2b96
3eef804d
3ef310de
bcef7d0a
3c65a070
3da398e8
bc80abf9
bdcf6a7a
bccafd52
bd1c2b9c
3d9b295f
bd20af18
3e5ba9d6
3e8aa21f
3bf7b6a1
3dda9335
39de4d74
3e53617a
bec2f0cb
be31053d
be234e03
3c277751
3d9babc9
3ec78c5e
3e8c68ef
be047753
be24716e
bc81a278
3eedd17c
be839f8e
be1232de
3cff9a1a
bc85a321
3f18d34e
3e566fe1
3dd81960
becb8c40
3d893479
3d69a606
bd5720d5
3eb0f407
3eaf17f2
3d99cc57
3e930a46
bbc53556
bea3f0d5
bf066f51
bf0ba2a7
be8d101d
3e04daac
bd87b89f
3f304f26
3f22bbef
3e1ac1ea
3e819ca5
3e725641
3e7eceab
3e41f2c9
3d722915
bbf2f798
bc98cc45
be3e3102
bf1299f9
be59e43b
bf14af31
beb7f446
bcc14d14
bd46d95d
3e7706d8
3e8d3d21
3e155c63
3d55ab82
beaa4b1c
beabdf49
3f158feb
bc9b0cb0
3e7cdb6c
3e1f722b
be451a30
bd25a743
3dfde185
3e10ce9a
3dcdc5f7
3ea78ad2
bdf81680
3c37ee23
bdfc2759
bd0c46d4
bd24cd86
be008b6f
be710df1
be482f81
bf0e9fb0
bef8d393
3d3b1336
3b9b1d98
3e8e9376
3d90bff5
3ec2c31b
3f1ed323
be87f611
beb4944c
bd616cd1
bf68136f
be84037a
3b87ffda
bccf6ec2
3d84242e
3dce94a3
be2cc02b
bddbbd5c
bd63e88a
be35cf38
3e3ee54f
3ef129e5
3d7456f0
3df0538f
3eece40e
3e8d339d
beb2323c
b8d160a8
bf046f18
bba55770
be6fa052
3dce75bc
be69e05e
3c3cf951
3ed55185
3e30206f
be0b509e
be803d27
bf20d1fc
be9041c3
3e0de452
3e3da767
3e4fa20b
3e44620d
3d020798
3dbe92ec
be666cdd
be9a1bf2
bd79d935
be11c424
3d6bc243
bd6efac6
3eec2f41
be80b1d7
be87ad4a
3e42fa5a
be875c16
3cc7a5f0
be49df46
bdf94afc
bcba3461
3f2eb256
3ed9b316
3ec1793b
bd652275
bdd707d4
bf2489b2
bf035ecf
3dbe8af2
3d0faf78
bd95b928
bed2927c
beaef40d
3c4cd017
3bc6606c
3d8d1ab4
3cb861bb
be8aec27
3d38b2d9
be239ae3
3dea7b86
bda41c06
3eb4179d
3dd9932b
3ed2e71d
bde06572
bdf531b6
be896ddd
3e84ee14
3f25e5b0
3e8bbd56
bd3ff79c
bf04a39c
be916dd3
be800110
be0c7086
3a7e5bf8
3e559044
3da56584
be0dd8ce
be86187c
be185749
be5763f7
3e09de75
3e8c851e
be0e4678
3e358f15
be72add0
3cc16eb0
3f09c825
3e54fd31
bd4da57c
be2063e5
bcf5799b
3d291fa8
bd2c6ddb
3eb40ea6
3efc7a0d
3e741a6b
be5fb07f
be68af55
be98bc7e
be34b26a
be4e2b9d
3eaf7542
3f6dd648
3e6c9793
3e9d978f
bd09f292
3dd628fe
bf0672cd
bdfb3ec5
3d84ce81
3e1c079b
3e3d3ac8
3e62e741
3f2a0f88
3f03e00b
3e3eeab6
3dcad14d
bebb57f5
bc8a268b
bd81b7f0
3f22e07a
3eb9986d
3dc31b92
3ebc4c34
3eb6b509
beaa2b15
bd97f996
be573076
be14b5bd
bde3bf01
3d982eb3
bea3de2a
be64760f
be86742f
3dbe8ff9
3ae2b856
bc4fd813
3e26c3ce
bdd4e3ba
3e516d8b
3e5339a4
3f227e60
3e967237
3e1f22c4
3ec3a1ce
bdf9a38c
3c2e6958
3cd2b928
3f32783e
3ec2dfa2
3ee0439c
3ea66760
be322d7e
bda21ecb
3c2ae8f8
3dcf346d
3ccded4f
bdb885e7
beb593da
bdda99ac
3e63528f
3db18674
bc6529a3
bcaf6a4d
bcf86c00
be7fe430
bd7b54ee
be27b2a2
be3d54ec
3d948816
3e820d49
bd35d36e
3dd9563e
be62b4ac
3dee3e6a
bd047de2
bdc4446a
3e177e8d
3ea2bd6c
beb8d43b
bf2c50fe
be84ee2d
3d9c511f
3e14edf4
3e964171
3ea1ddbb
3d11a966
bcffe124
3ec137b8
3e68e592
be1fdf9c
bdddebe8
bea9d9c1
beb5c807
be96dd05
bea3665a
bd94595d
bdbc63d1
be123383
bd78e768
bec11e4c
3dbd25fe
3cbee290
bb82ae67
be680664
3e5b36a2
bf13d722
bed80dd4
bf06cdd7
bd4ab196
3dd033f6
bdb7a8bb
3d90ef95
3e334afe
3e20a9ad
3e546b5d
3e9ff647
bd4d37fa
be7e6491
be072976
beff7290
be92fc5a
bec05cc8
be1f204c
beb81ff3
bf26dfae
be4d0152
3e630220
bca09ccf
bcc90490
3d50f67a
3772a000
be5bbaec
bde7459d
be14854e
be6e5066
bf64a879
bf2b5b22
bd07a387
be1873db
3e8b9601
3ea6af7f
3efc7147
3ea30929
3de30214
3e51a78a
3d8b8696
3c287f28
bdd699d0
bee79ea3
be90f181
3c9bf99b
bdcec213
be36adb8
bda439ec
bc884c58
bd891b2a
bd5d6a49
bd610ec8
bdd8ebeb
bec420ee
bef13779
be144584
bdd0fe42
bf6a3300
bf8344b4
bf7af05a
bf5e0cdf
be0c406c
3ea829fc
3ebad788
3df91b46
3e521059
3e9fe4aa
bd972783
bda1a265
3d7cdb63
bf1bc32e
be3486bc
be13a0ef
3d7262ee
be1057f7
be240c86
bdfab94d
3e1b471f
3d164cfa
3d92416d
3db9c209
3e16fe29
3d5932da
3cfb1278
3e883abf
be713080
bf3a44ca
bf230d46
beed7546
bf14f96f
bde2e713
be21d594
3e06200e
3e691f1a
3ec3dee0
bebc5088
be06c681
bea10b58
bef6bcdc
bf043ef6
be88ecfa
3d993c7f
be1d10eb
bf51cfa6
3e818c9a
3e8f6047
bc863a6d
be776dde
3c91a1bf
3e998a5f
3e786531
3e254cad
3f13acc2
3ef3b1b6
bd92bf31
be13f640
be917c8f
bdbaa04f
be187c4f
bebe1930
3e310e78
3e794699
3e911766
3ddded7f
be2398d1
bf21e356
bf318f00
be879de7
be449fe1
3e085f3b
be7fe073
beb60f75
3e8d891c
3e7ebc8d
bc1f1ffb
3d6035c0
bf09755c
bd521bdf
3e0ed52c
3e3a35bb
3e3cda9b
3e472fcc
3ee5c4a6
3c88c5b7
be345b2a
be8a618d
be84d7fd
be9b111e
be47f84b
3ea6db42
3e527a5c
3e8c59be
be79f8a4
bfa05f3a
bf6ab6e4
be008e4a
bcfbc245
3e17ab68
be845f8f
be6e5b18
3e98bbfe
3e9abb79
3dbde76e
bcff0d64
3d65de5f
3e8682cd
3e83b654
3e65ebcb
3e63d11b
3f0deaa0
3e97f604
3e669524
3dc809fb
3ca726c3
3ca34748
bdec46ce
be07a915
3e041606
bd069cff
be1e75e6
bf226f31
bf7e4fbf
bed388a6
be98d9cd
3b47effb
bd989f09
be79e2ea
bdd7950c
be889f37
3e7756c2
3b8b2af3
bd6f2dc4
bc7f9aed
bd75e558
bcf79539
3db10806
3db617ed
3ede757c
3d8810b7
3e4e416c
3ce31d2f
3d944427
3e09ac2d
bebf09df
be2f1a52
3e91bc6c
bd331b68
bea3be4a
be543b4d
be9af394
bebba3ac
bd7b4628
be3d932d
be89f64c
3e2672a8
3cd589ee
bdb547d6
3e511982
bd3f4f6b
3dafc66e
bd5e639d
bea7e5df
be98f47e
bef62217
bebedbbf
3eba6f9b
3de63b07
3e880985
3eca09db
3e46e687
bc8f0bb7
3c84ed4b
be19125e
3d33f65a
beb1db7c
beddedee
befc99b0
bfac832e
bf336302
3de5361c
3e80c271
3e6841c1
bd587c81
3eacd3cc
be7f4fdd
bd14736e
bd9a3fd6
bcca2286
bc7bfc68
3ec17284
be184d34
bee28f18
be93d1e9
be17b35a
bd518396
3e9aca3b
3e412aca
3e390f05
bbee74b9
bdd856b4
bebe906f
bedf10fa
bf201e52
bef11ae1
bea64b4e
bf7d8548
be017967
3f252254
3f0e7bad
3ed327e6
be6af418
3e1061e8
bec3e705
bd1f2375
3d86c4a1
3c86615c
3d6cbdde
3e8514fe
3d5f62e1
3cd818b8
bddbcec4
bdf8c464
be5973fe
be60ce71
3d163db3
be64c9d6
beffdf92
3d556789
bee2a65c
bf27a4bc
bebc1636
bbb92be8
bf22af4f
bf19ddea
3ec7c703
3f5b8ed0
3f207ed1
3de550a0
3e83bf19
3edf65d8
be1a9a38
bd99dd3e
bce9809a
3ce72218
bd262af0
3d9bf52d
bda7c3bb
beb2ff19
be8e6b55
bf03790c
bf0d5187
bec84391
be53415f
be394953
bd4a60c8
3e2c29c6
3e58b35f
3ed1660d
3eff9b35
3f462cba
3ece158e
3db5eb9f
3f631ecf
3f72125b
3f17feca
3c8efc51
3ece4bfb
3e36de12
3baed080
3d79145a
bd8f10c0
3c8f2f58
bd2d177d
3cdba940
3e129587
3ee06249
bea059b7
be6c8265
3ecd1797
bd2310b8
3e88ce86
3e8db8a8
3f187d1c
3d16f078
3da8b577
3f3f1166
3f454d9d
3f865c35
3f70b48e
3f1dd39d
3f2d7831
3f23be61
3f31b06d
3eaf7347
bdfab6cf
3d749049
3d915b95
3d8e8801
3c019700
3cd6fc60
3d3ec686
3d3948ca
bb0ba940
3c8cca60
3d484dfe
bdb7a6fb
3ca8138f
3c937a8b
3d426055
3f190303
3f2df55d
3f826bab
3f5fad68
3f4b8064
3e9eca48
bd023ada
3f1f34df
3f512646
3ebee00a
3e94cd41
3e966e0a
3d21d00a
3d4e1e6e
bd98bf86
3d48902e
3d932529
3d607bf2
3dc2431b
