be1ec919
3da5bc3f
be69a438
be79528f
3e98b977
3ef4e426
3db5b58d
bdb2254f
3c6ea683
3ec1e119
3ea7cf79
3f302030
3e14f7be
3e2b6a52
bf096c1f
bea441e7
3ed022f0
be0f6a68
be2e102e
bd3de268
3dc2a88e
3e6e4dae
3dbe46cd
3e4ac60f
bdcc07a2
beaa7425
bd52d0ba
3e74a673
bdde9946
be32cd95
3e7c0162
3e34b134
3e89837b
