3e98e129
3d514afa
3daf3768
be8791c8
bef9417d
bd4e3e70
be822e96
3ec7d7b2
bd9d5282
3ea6ff04
be55237c
3edb54fa
bd5e888f
bd09097d
bde6776f
bdd12eaf
3d891fb6
3e3f888b
3da5202c
3da59cc8
bebc90db
3e9bb771
3dd643e0
be3f8f29
be1290dc
be7cf4f6
bee52fbe
bde4fca1
bd4282af
bd675e25
3e5de783
3e35d26c
3e3eb800
