bcb87b2e
bf78099d
be994710
be041407
bf02dfbf
3e455b38
bd487127
bea0c8a3
bd4adce1
bf46cb49
bf4dddcf
bf882449
3da57dc8
bb070d79
3e0054b0
3d94c52b
3c06fa49
3d355a06
3ec99539
bef131e0
3df744b0
be3377cd
be9d2c70
3d8eedad
3df720f6
bf0371dc
bf6a06b9
be1a5520
bd07ecce
3eb26c67
3dd756b8
3eb2b0d5
bf25bb54
bd74ad6a
3dc087cb
3e23b076
bddfc356
bf457b10
3ee1e87e
bf02f941
3e327e86
be3203f2
3d2c1f08
bf10b49d
3d91e7a5
3d42f76c
3e906676
bf9b8b28
3cf48506
bf12ca9a
bec69c73
3cd3fa64
3e6089f0
3e96efe1
bcd634f7
bd3d3c33
3d9d62a5
3eb338ac
3e0f897c
bbc90c5a
bddaab19
3e0f3e4f
be779ec0
3f0f4a6e
be876a7b
3d7f9d1c
bedd33db
bf633731
3e9f066a
bde86e4e
3f2749fc
3edaebfb
3e072c5a
3db42f52
bec34bd2
3e6166cc
bcb8e113
bf64c10c
3e0de34a
bcb6cc76
bef1816a
3cfdda9f
3d93014a
bd5c6d49
bd864523
3e7d6476
be893ca5
3ec7d0f4
3e1f8986
becb5b7e
3e287b81
3e8b2c07
3c992898
bf044d01
bed5b2f7
3c9d722b
be07f41a
3e1aafcb
3d7c07e2
3de50339
3ecfd9bf
3e852424
3ed817c2
3ebf23c8
3c05e8f3
3dc0e1c4
3d966c59
3e1ff071
3d87892d
beebc8ff
3f0c4f2e
bf5cb5c1
bd6fde57
3de760fd
3d992fa4
bde7021e
bf0aba8a
3e441891
3eb129ab
3ee41438
be2cecab
bf05cd98
bf5c7282
be6490c6
be0ce441
3cb62601
beb0a753
3edbf42c
3ded48cc
