3d80bb21
3cd86d50
bc751180
3cde9cf4
3d45fff2
3d36d24e
bc9d7eea
bd00ddef
bd9e9509
3d06374e
3d92a087
bbaf3e00
bd81c4a5
bd421096
bda4720a
bafc8140
3b596e60
3d8027e1
3d3a56b2
3cd00ed0
3d6752e2
3c4cfff0
3c53d518
3d1215b2
bd3fea85
3d661176
bd9a801b
3d85e017
bd99f323
bc93f158
3cb8aec8
bb037420
3d18351f
3c2752b4
3dba0309
3b90d9e6
3d156599
3b6d8d1c
3e015ae8
3e0918f2
3e0b2fcd
be479994
be28d119
bdf84951
bc5ad430
3c9f7427
3cf8f4fa
3c19bbdf
bdef7ad0
bd5b3f1e
3d89421c
3bd9847d
3c1c6b60
bd9302b3
bd738426
bd05645c
3da256cb
3c35dfd0
3d81ef45
bd184487
bd2df3bd
bca12af0
3d111e32
bdfd0933
3eb2c5e7
3ee00cb3
3f005efd
3ecb090d
3e86c1d2
bf0f0341
bd9358d7
3e07ac14
bce7befa
bec5af57
3c66ea7b
beaa2842
beab279c
bdc46d0e
be16d647
3e878d58
3e829b3a
bd028e87
bd96b188
3cd9ebfc
3c094018
3d5b0f7a
3e7a8cb5
3e895a3d
bd61187e
3d75f4c3
be3a7005
beb37457
3e84770e
3d20b979
bd3ec14f
bde9c7c9
bedd18fb
beaeafcd
bf4a1d59
bf333bee
bf0074a0
bece7a0d
be5e8901
be955922
ba44e47c
3e89f0d0
3e820d34
3f172d48
3d9f3118
bd979f42
bc37c2c9
3b9b3920
3c5b6870
bd895673
3e99b14c
3dcfe165
bde6e35f
3e1d79c6
3e0cbe81
3eb0b08e
3eb6697d
3e9fcc9f
3e67d1d3
be3a9a34
bea5f49a
be25c685
be0808bc
bd3df77c
be124bd5
bd62bac0
bec34f4d
be0f6b3f
3e2d7211
3e22bd93
be468456
bf04ad5b
beb2b10d
be443074
3ea5fa18
be7e9184
3d8b0ce5
3c5d60c8
3e8c9cf2
3f34a645
3f1f521a
bd4cb411
3ea74961
3f32cd42
3e5801b3
bd273071
be7c28a1
beba0587
be441c4c
3e17ab90
3ce24585
3cc472af
3b835b6b
bc2917fc
be024cb9
bd86d967
be9b525a
3e1e29af
3e24cf51
3ddd6d6b
3dc087e1
3ec4dc14
3d8f6243
be53e012
bd54670a
3dc7df7c
3e6f78fc
3f678f71
3e822bbf
be3f1778
bdf10a2c
3e21c348
bed325be
bda6b877
3e8ca11b
bd376de0
be60dafe
3d6c5802
be0f9454
bd5a51f4
be5d6619
be3b546d
be5c3fb1
bee53d42
be2fde08
3f003f8e
3c63e907
3e630b7e
bedd9db2
be57ebcd
3ec0112b
bc8b414d
3bddae52
3ea8781f
3ea5389c
3f109e1d
3f06d396
bf51cf77
bef853af
be12c637
be1df2d6
bdc52997
3e18833c
be1a6c78
bde9d473
3bc9c15b
bde8c3ca
be4a5f81
be3ef4b0
3e58dc28
3c9281e3
bdc05993
3e7f415f
3ec03dcf
3f0bfcda
3c9bd881
be980e50
3e1c8468
3df23896
be64766b
bc79e222
3e89846c
bd3b0c5c
3d80453d
3e2248eb
becbceb5
be5b0ac3
3dc20de7
3ded5d95
be1ac8df
bdf32ce0
bdec782d
3c9ef65c
bcc0f506
3e0ec3ff
bdeee16b
3a9033e8
bd8d89e1
bdb0109f
bd987178
3d84f845
3db60335
3ea867c7
3e830993
be2a49fc
3e48a716
3f2d4ea5
3df917a4
3d9e5376
3df2d4e5
3d2a9982
3f1e8d40
3e285d3b
3f1b9abc
3e07f752
bda34d16
bc0971b2
3e580a1f
be4bc570
3d2a066c
3d99cae0
3e508db2
bd13f213
bc829897
be7280b1
3e140636
be906d55
bebe4b96
3e581a36
3d6615b2
3e520912
3f354dab
be228da7
3dc1bcf7
3f43e870
3ebef4f0
3daa4d9f
3e05f317
bb89d5cc
3f002cb2
3e8ae219
3f154ef3
3f0fa9cd
3d1d5f6b
3e8f0010
3d8eff15
3e3b6ba8
3e8bb3c2
be017ed8
bc9c9794
be91d0a0
3dd07f0f
bdcf5daa
3e6b0b0e
3e2b244c
bda05561
3e42713c
3e858a04
3e88b933
3edf23a6
3e424efb
bea44f64
bed7ec1c
3e81e513
3d812977
3d840496
bda3178e
3f04ffa4
3e315d19
3f050899
3f145f71
3e4928dd
3e6d6647
3e96803e
bc22ddeb
3e8b7f16
bef8e28d
bef0702b
be1367e9
bd4481cb
be445c16
be27ac0e
3de88e6f
3d5055b1
3ee5222d
3e7653a0
bc9008c2
3e9596e6
be1bece2
be06043f
beef3660
3e60261f
3d8cbac1
3d8fa411
bd84e255
3e297ccd
3ec29a10
3dbdc423
3e4170bb
3e8b3dfc
3ddbbe35
bdc38d08
bdb314d2
bf2c4c7b
bf2f4697
bf20deca
bdfba24d
bc6a9815
3dadb07d
3e09781b
be5681e2
be0fe3ef
be63b1c8
3e3555c8
3e601307
be85f65e
3e5cf00d
3e43237a
3d1f8ae0
3f13a494
bd10e088
3d9b14a7
be2121e9
3d86e86f
bdf17709
be93cb0f
bdb40db0
bd50170e
bd9ff80e
bdb50dd0
bf3ea71e
bf48da09
bf319eab
3d48f424
3ed1c8b3
3d8d2043
bdd25958
3e7a6a9a
3d57b685
be979d87
be358ac8
3d39c500
3d10c842
be0047bd
be5d17c0
be805a8a
3ee6a3a8
3f0c5bdf
bda21af3
bd0c635d
be116007
be0765af
be883843
bf135f6a
bec0c9ad
bf1dc51c
bf4f5339
bfa2c902
bf7abe43
bf10556d
3df7984d
3edd3c88
3e9e19b7
be10d9da
beb1504d
3d8797d9
be594619
3e8a2d7d
be2ced80
bea1c9d1
bdf8e0be
3de45c3f
3b9b5857
be33f12f
3f6af96f
3e6bd74f
3d0e6693
bc99149a
3e88b5b2
bf5445af
bf3e9cd8
bf1f0204
bf581455
bf87bbc4
bfcb60a3
bfa05f05
bed750ee
3eaa255a
3f00b9e4
3ed98ba5
3e750416
3dd5df79
bde67c7f
3c8a637e
bd0c31fd
3d2d5988
be09b9f4
beb0a385
3e7abb92
bdddea45
bcccaf13
bd878d13
3f04c876
3eda2c22
3dbaf4e6
3e86658a
3f0e3b84
bf4740f9
bf7c9136
bf7f9a0b
bf86e16a
bf87271a
bf30fab6
3df1fd4a
3e0fc124
3ef597a5
3ec3ac59
3e998ae2
3e32194e
3dbb8c70
3d90861c
3e3b49f6
3e814dc6
3e49caf8
bee65aae
bd64f1ad
3d3eb931
bd5b064d
3d52e318
3f01a0d3
3f214b72
3f01f12b
3d5fb8be
3dfd8431
3eaa134c
bed5e05d
bea1bf6e
bf1f8d1f
bf1336be
beb44887
be4b10c4
bc50a880
bd5ed0f8
3ee62b9f
3ea83b7d
3eb48343
3e3184de
be0e715a
bc5dd6d7
3e476cf8
3c09fc7d
3e0700c0
bd05a2be
be3c3645
bc2b8915
be49a5f5
3ea0ca10
3f45ddea
3ed7697f
3e95c131
3dcd98c1
3d73765e
bc89a4db
bee7ea52
be1da114
3d100cfe
bf1aa110
3d8e1378
be8674e3
3e188b67
3e8941b9
3e303823
3e0826e7
3eabb9b2
bdcf0aae
3de54333
bd0227a0
3de2bc7c
3d0395b0
3e61e458
3e98bf37
be83746d
be4dda3c
bea9a913
3e46b4fa
3ee62c1a
3db21d8d
3e6a6aae
bd968b71
3cd5e5ee
3efe8889
be14a269
3f1ef834
3df65370
be4972fc
bd0a88df
bd6367f1
3e893ee2
3edc6362
bd8da6f8
be0810af
3e8c3b87
3ea5638e
3d52db8f
3e5c0836
bc96403c
3db451ed
3e187361
3e07b75c
3db90404
be8cbb21
be0fe6d6
be64b5c9
bd2c8102
bdfc1b27
3e38e9d8
bc268ff8
3d40ade0
3f2b76bd
3d819d96
3f08b06f
be5f9fbc
3e041443
3e9a789d
bdb3dfeb
be3aac06
3dd9e722
3dd3a162
3c7f3cc7
3e4109bf
be088115
3de4f148
be7da98a
be1344cf
3dacb396
be0002eb
3da0689d
3dbe72be
be07493f
3e61d031
bdb2ef50
3e65627b
be0deb2b
3d256f65
3dbfe9cc
3db130c6
3f48a4fd
3e9413fd
3ea6a810
be89d6a3
3ee8154b
3e7416ae
be8ef36b
becc2e29
3d8d5101
bd81c02e
3df30cdb
bdeeb12b
3d89c608
bd011bc5
bdd32032
be956451
3cb40a44
3d089c0d
bd825931
3e788947
3eb152d6
3ebefacc
be945d88
3e3d8193
bd5ea017
bd162627
bc22e9fd
bcd5a6e4
3f0fa05b
bc79b446
3d3fa6a2
3e2f4ef0
be343aea
3cac37e9
bd2fb672
be8ab7be
3df5987d
3e88c666
be0edc9a
3d6bb3e2
3e1323db
bc7a5203
bdfab0b5
3d84b7b7
3e8f27a1
3cae3fb9
3df8ac36
3e99fe9a
3e9b7367
3e2c464f
be6c87e2
3f01be88
3e1dc58d
bd5e5b32
bceb73a4
bca27e9a
bd40e55c
bf597758
bebb4e08
bdd7005b
bdb51bac
bcb5dece
bbe00fc2
3e925cdd
3e50ba59
3ea61e10
3d63446e
3ec7b29b
3e67107f
3e9dad4e
3eb2d1bd
3e1d547e
3da3af5e
3c3ac356
3dfd88e0
3e53c03c
3e7485c9
3ea506b8
3e40d6f3
3f0a07f2
3e6fd45a
bd54aa95
bbebd070
3d7b79a6
be12e805
3d001b0c
be2e73c2
bcb2d467
3e0abc9a
bf1de648
bec35477
be8cba62
bd07505b
3d4e8dfb
bd720b46
bda75be8
3e834423
3eaae68a
3e48abda
3dc7008b
bea7a8e6
3e98684c
3e602b78
3ec1811e
3e440a24
bc78ad9b
bdc26e53
bbc33a05
be77f037
bd30b061
3da121df
bc9d4a70
be7a1dce
3d1a26b7
be20ed2d
be43a32a
be36205d
be94d1eb
be2284ab
be9c2f3e
be34ab98
be01b717
3ea1af87
3d8474a7
bc0547ea
bd1d3cff
3e818246
be75fe88
be4cf9a4
bd96555c
be929c2e
bf0a5d8c
bf16b438
bf015197
bed2713e
bebfd079
be4093ad
3d2f17b4
bd46374e
3d472afa
bce548f0
be1435ca
bf82d4a3
bf6439ba
bf24f626
3eb5afe9
3eb9dfc1
bec08fab
be29371f
bc8f0cb9
bedf22a0
bbb040da
3d62884f
bdd6f891
be91a7b5
bec30914
be1ed7ad
bca05786
bd2233aa
bebf56ed
3a42f694
be2f59fe
bdb449e1
bd9a5239
3cb278f0
bd981118
3d3d90c6
3cc9b384
bd92aae3
bd0fe4ea
3e26c38d
3ec00ea8
3e92b167
3e1a1351
3dd03040
3ed55e15
3ea18878
bdf0fa0a
bd5d974e
3f02477c
3eaf6af5
3efddf4e
3ebea4de
3d811927
beef24b2
be4c2b8d
be8558bb
bf475162
befa41ee
bd7021c3
bd87fbfc
bd5f4ed4
3d4f72fe
bd8bca20
bf104e6d
