ba3a6c00
bc913870
3d7ca7ea
bbbe4fd0
3d12495c
bd7a52fa
bd8db7c4
3d81821b
bc62bbb8
bd85f88f
bbded0d0
3d8419f1
3cdf959b
3d172a41
3df33c69
bcec52fd
3d14c1c2
bc8e0844
3d1764e8
bd372c21
3d2a120a
bc63ba78
3d892af1
bd13d928
3d9a8e3f
3d8bfa5d
bd9162b9
bd622cd6
bd782276
3c348798
3d0c5226
bc8720f4
bd6d980b
3d7cddf3
bdd4b721
bd9f9d62
bd91e588
bdf3128b
bd81d97d
3e2574c4
3b87d03a
3c01466b
bdfdbbde
3d3db113
3da19b24
3e3f6a9b
bd2e7a37
be371954
be045ba7
bde921ea
bdfa652c
bd86c942
3bb349d0
bbf7c800
bca8b612
bd7245ee
3d84af2b
bc35c9d8
bd2f1fa2
bd0523ce
bd590abd
bd9fecb7
bda96a17
be7a6e17
3eb1a50a
3e7254c2
3eb23d70
bed4e6a5
bf1cb795
bf299e6d
bf3abf83
bf52ac41
be63a5d8
bb8796bd
bbc20e20
bea9668a
be3c5b9c
3dd72629
be3f29d0
3c28d45e
3ee4ff1d
3d7a9b78
3c94ead8
bda3b440
bd8f2fa7
bd93f1f0
bcf1357a
bc354416
bddc2712
3f02b0fd
3ed3199c
bd1b91d5
be8055c2
be3f5da3
bef0b217
be45992f
3de46c75
bdd06297
beb7aa03
be98f9b2
be7a8859
bebf964e
bc4fcecb
3d90dc32
bdc55f4a
3e57ea48
3e28be4a
be3beb6c
be3e2059
3d5fa718
bda182fd
bd8e6106
3bab4990
bd7b830a
bd1c5043
bc96b4e3
3e239b57
3f126fa8
3ec3ef9d
be062599
bdd198f0
3d2b0f86
3f106fcc
3e157e58
3e1bc755
bca6ab2c
3de35059
3d038668
be4bf8cc
bea44c9b
bd8de27a
3e06aea2
be2fd300
bf04d10e
be5eca76
beafb5f7
bd21fc1b
3e8b9f8a
be25951b
bd9e3fba
bda482f6
bd83104c
3e2b0dad
3e76ed2e
3e5ac6e2
3ee1c14c
3df4c37d
bdb1476f
3e4a4fe7
3e7278fd
3e55ba47
3d561076
be5164ad
bc6c8424
bd82935f
bdad9171
3e81ae5f
be837277
3c0114bd
3e929f87
3dc203fc
3ca13e9b
be0ea019
bf075c0f
be6e0a7a
bcebe798
be429ccc
bdbb50a0
3b8f9690
3d553bdf
3d8eed71
bed4b7c7
3e3947aa
be7a2097
bd55c4fc
bdc19a83
3d553f97
3e8b1f5a
3dbb067d
bcd45f67
bd73fd34
bd56d81b
3d9623a4
3dd744dc
3e895d28
bd86a360
bdcc4bdd
bc317f30
3dea400a
3e01c73f
3e3ee48f
bf041618
bf7ce609
bea5dad4
bea90d7a
3db47dd7
bca8c778
bd06e23a
3eb7c425
befe6e74
be4fa828
3d0037d7
bdec16bf
3eb3836e
3e6d3f3a
3d850f7e
3c96a355
be251550
be5eec68
bd0ff6ff
3cef7ae4
be9367bf
be09d327
bd7b1458
bb5b6b4f
be03091f
be0a9555
3bde0546
3ea9d467
bed56c71
bf2dfc76
bf3e8703
bedb66dd
bca7862a
3c374650
3f0bd5c4
3e8bd527
be1ca3eb
beb7ca42
bed36f67
be4ef73f
3e9d75c4
3d915ada
3c62c1c3
3e84652c
3f074e38
bb2db4bf
bdc12fb7
bc6a8ac0
bd4d5f5f
bcd1de8d
bd8d4c60
3d64071e
3d47e527
3d5bfe4b
bd143726
3d00a299
3eb344e3
bf4247b4
bf9e03e1
bf480ec8
3d7d3952
bd399b91
3ce5098c
3e79bc65
3efc2411
be987d01
bec6c0fd
be314f8c
bd9f1f2f
3dff2b87
3d7955cd
3eb61e59
3f0d3a96
3ec14aca
3e4e8dd1
bcec8cdc
bdcd9bc2
3d0933f1
be2ad4cf
3dc372b1
3bf2d533
bea7feb9
be34ae8e
3d9e9a6a
3e9123d6
bf1d7929
bf50bec5
3d9ebc76
3ea7d5e0
3c60d778
3be6826b
be8b0d60
3ea7cf7b
beb5e051
3dce5cb6
bce84946
be35b260
3e9acc9e
3ef76d1e
3ef475b2
3e1f8334
be58e904
3d496ba9
3d198743
bec3c556
bdad57f6
bd468ca9
3eaa02cd
bd10747f
bd316dfa
3e18652c
3e18ceaf
be7693cf
3dc3d1be
3e1f5f65
3e9e40d6
3e7dadff
bd64bb7c
bf0374a7
befd0c80
be734bfe
bc93ec13
3d385fcc
be7815ee
bebc785f
bca5dc8e
beb84516
beea3f25
be9808cb
bed732d0
bed28927
bef09fbe
bf2ab8b1
be9e65bb
be5041bf
3d59f14a
bdf5922f
3cb68b6d
be05bb65
3e2c46fb
be82e74d
bedc7a28
3db48835
beea4363
bede0e4c
bd8c3233
bd6de1f9
bf214e2f
beeae163
beb23678
bf357d08
bfab4939
bf675618
bf925995
bf9c4a7e
bf7e1fc5
bf578d96
bf9c2b32
bf9041cb
bf08a564
bf22dded
bea85a2b
bdea59b6
be7284e3
beaf8bad
be43cc11
be5076d3
bd3a51c9
bf170c54
be717e55
3f15b81a
bdbb3764
3d491396
bd6a8fb8
3d6845e5
3ec07a4d
bf1043d8
bf580e30
bf913d68
bfa276b1
bf7d2623
bf8d3e6e
bf96df39
bf52efed
bf20ff97
be2a1af6
be3e60ea
be9512ff
bedddd5a
bebf42f1
be40ed51
bec67e3f
be2e0520
be8f85f4
3d54bcee
3c72bac5
bcd4e78c
3d8ee132
3f0a8e2a
3ed6b55b
3f132200
bd7b17a6
be4c5c7e
be33475b
bee8b930
be102eba
bf91f0fc
bf52b012
bebd4002
bf1c9f50
be2f4d93
3c2f63d8
3e96b3aa
3e78a30c
bcd00076
3ccf416b
bd2f120b
bd67324f
bd91271f
be984026
bdf2129a
beaf8663
beb4a031
be07c887
be059b23
3e815e5e
3dfd0f11
3e381b2f
3ec352e4
3d4f355e
be6f35c4
bc68c019
3e9769ec
be83a58e
bf025327
3dd140e9
bb76d4c5
3ee60c8c
3f142597
3e99c542
3ed4d925
3e40009a
3e3a0bb4
3d304357
3e23d4d5
bcd62b1d
3e27866a
bed4d8fc
be43c5a5
3e5fa83a
3e247f88
3d3cdf84
3d7e9f88
3e9471fa
3d948fc8
3e7a4088
3ef3e18f
3d654092
be2f849e
3e2d7416
3df163ff
bf0466f0
3df8f95c
3ed4b130
3ea4ce8b
3eb664d7
3f2275c8
3eaa5fe5
3eac9ce4
3dc5a10f
3d9039f2
3daf14ff
3e2005d5
3e1e20db
3e58d963
3e75815a
3e98ff61
3e97a61c
3e99ad5c
3e28f31a
3ed1814a
bd2d824a
3ed6f388
3f3f4ef6
3f0fcafd
3c8fed24
bde29720
3e8e4e93
3e650a64
3d7d2ed0
3f065aec
3e692615
3d5ccad1
3e8ed79f
3ec6d69b
3e120e14
3dffece1
3de83d2a
bd29cbf2
3e8c7feb
3ee06acb
3d919dc5
3ddf6556
be5b41bc
beab48ae
3d8faed0
bd258dde
bd87b523
bdbd8966
be6c89bb
3eb6fc95
3ec764ec
3f259b18
3ba82335
bcdb740e
be47afb7
3f2c5aab
3e20d88b
3eabd9a3
3d0c117a
3e27e5c2
3e6f12cd
3d3b942a
3e3de423
bc16f1e6
3e095d54
3e2bece3
3e48d5d4
be4d4acd
3e709da4
3c90bb70
bb3d274c
3c1c7a42
be57231e
3e038155
3d2f669d
bd7cde73
3e3c7450
3e656601
3f4efc66
3f241fa6
bda39a8c
bded9718
bd8cb0d0
3eb70da1
3d8a82c0
bb98ecdf
3d5062de
3d83ec36
3dff0892
3d7b575e
3e7f91db
3ea4bbe6
3d20ebc4
3c84e1a9
3dc2abbe
3e9ed684
3e81dfd0
3d390737
3d2319b9
3e011998
3e28abf3
3e65ff43
3dc9b588
3ee7180f
3ebfa9e4
3ee39a7c
3f36665e
3df17d89
bd8980b0
be1cb929
bd6dd0d5
3f195e82
be3a0779
be92863b
3d7f30f6
3eb7b4db
3ec0eadd
3e50cbbf
3e47811e
3debdd28
bd803119
be28cb4d
3e7abc68
3e8fe5b5
3e7fe419
bd0117d1
3dcb4db3
3dba08bf
3c2523fb
3e1265ae
3e37b4ba
3df586b0
3f0d1d57
3e71e013
3e91013c
bd86118a
3d1977ac
3e27b2d1
3d006275
3ed87047
be21cacb
be044b9a
be266318
bcde9d7d
3e28c001
bbe1b08f
be350107
be39b317
be7e07a3
bd66fac6
bd390b24
3d682f37
3e22f190
3e669806
3e347e2c
3e374c4f
3e944532
3e9ebcc0
be108cf3
3beef262
3f5966e3
3f0ad585
bc76b791
bcead23a
3c936a18
3d82d698
3f1e5907
3d34996b
3e23256d
3e58d627
bd7578ba
bd373925
3e0a3c30
3c058807
bdbf7978
3d9083ce
3cdd4e89
beea6f9c
bef0e08f
be6730f3
be8db775
bd944616
bbbeecfe
3e36ded8
3e290ccb
3ed0ba30
3e1addf0
3e03fd27
3f1f4167
3e451a01
bec36cf8
bcd4f032
bd5ffc5d
bc51ebd0
3d23cb77
3da1c3ac
3e7afa53
3e1907dd
3e1f9105
3db30d87
be946abf
bec0d04e
be0771ac
3e412268
3dc50c3d
bee99a45
bea93f64
be150dff
bdcb9221
bf1e01a5
bf2f8520
bf0bf303
be6f6b84
3ebd445a
3e9fb7d1
bd2c0d5d
3e6d2d65
3d4e2ea5
bdcab176
3c8559e0
bc45ba30
3d8c6d47
bcceb09d
bf30910a
be13b657
bdf1ccdd
be84624a
3eb3be56
3ec4aee8
bde8c1ef
3e30dcb7
3d823da0
be84c938
bf2d8e27
bf32c430
be812adf
be8cb707
bf7068e1
bf8faf51
bf401775
bf29bde3
beb51ad7
bd9f90bc
bf4323e2
3eab015a
3e9bce31
3e9d6d10
bd10cef1
bd3cd610
bc9388b8
bdfae145
3f21a856
be19cc30
becad72a
3e4e5622
3cf82641
bf0515ff
be8ebec9
3f27d8d3
3dc7489a
3eed04eb
be1cce1c
beaaf992
be9746f1
bf13d404
bf6de8c1
bf5e3d30
bf5df4e0
bf29e05e
3db1b011
beb6db79
beb5ff8c
be6fcb2f
3ea36abe
3ea2befe
3aa18a40
bd979a09
bb860490
bd1bb43c
3d633d2a
bf44b8c2
bf6c295c
bf3df21c
bec9e128
3ea01d8f
3f386c11
3f62c9dd
3e3660ad
bca76bd5
3ee7adc2
3dc43d41
3ea5a88a
bf4e3c4f
bfc3e91c
bfbd7387
be128d35
bec1226e
becf8241
bf08aaf8
be9a246a
bdda3526
3cb4275c
3b2ac5c0
3c43a140
3d43d0ee
bd928229
3c1e7e00
ba653a80
3c671f86
bd542b1f
3ce5165f
3e3a2522
3e06cf35
3e938a1b
3f371ef1
3f11ce4e
3ef275db
3e28e753
3d23aea1
3e8b35a1
3e69dfae
3a2ba3e0
bd1aff20
bc1f5885
3c98aacf
be25fabc
be877b54
3d99cefb
bd851f50
bd3a0d72
bd405e63
bccc28b2
3eb1969a
