bcb38146
3d144db2
bd9cd388
bd2c6071
3d00ce8c
3d83a58d
bc9b0848
3d059386
bd2ae142
3d09f718
3ab41180
bd622e28
3d294264
3d4e5c5e
3dcf668d
3d45f72c
3d7ba762
bd3aaaa3
3d3c597a
bd8a3b9e
bd982b91
bd8b50f2
bcfe2358
3d4b5f7a
3cb82c7c
3d184936
3cce313c
bda26c09
3d912953
38cbd400
bcc59f06
3d90f7bd
3d0b22ff
bd979dd4
be97489c
beb92d82
be8e9b5c
be469de0
be09d894
be0b686d
be943bc8
bd11c9ae
3e6e8001
be8065ad
be0ed705
be4056c6
be4531a2
be137953
be3ae197
bdb8cc7a
be5ba853
be3d7410
bd2b7dc7
bd11b6f0
3d4ce01e
bd352923
ba178280
3d3fdd9a
bd7045e6
bebd264e
bea6d6a0
be257f65
be5e9c45
bebf0d03
beed3836
bf3d26f1
bf440611
bf67dab2
bf87a1fc
bf736f1e
bf31d4b6
be5da10e
3e2076f9
3ec8a8b4
3e9b3848
bec0864a
bd5815f4
3df9c7bd
3d5fc1f7
be5f4719
bdf4d3d9
3c508b7e
3c80a964
3c90cda0
3d0be186
bda371b6
3d8e1fc0
bee7bfdd
bef9d7eb
be00a164
bf22cdff
be5d6c03
bf0584b7
bf86bf6a
bf1c3acd
be225584
bf5b4e63
bf922671
bf3273b5
bf39acc9
bf035417
be1c5906
3cb00b02
be366958
be487bbd
be8190a6
3d604c97
3e3e5760
3d9c0b77
3d70f4aa
bc8b7ae0
bcd97922
bce0296c
bd970f7a
bca1a334
3eb5f3b1
3f6321d5
be30a901
be57e4cb
3e3e1f87
3d990b20
be793e9a
becf4aed
3da05144
bead52ac
bed8ccee
bf03c4e1
bf02059e
bf00e504
be715657
bd87bbf2
bec65e8d
3e60fb6a
3e7f6203
3f24ee81
3f45dd30
3f6a7dec
3f13a7dc
3d7e4210
bd556764
3d8d78dd
3c5e91e8
bd5c28e5
3e7684f8
be0732f9
3e038398
3b116d74
3ec0da35
3ecbfbef
be91d615
be7619dc
be1af91f
bea370da
bec4645c
bea49101
bf150b3b
bf1beeb0
beb936b9
be96a69a
3c87a325
3d94c622
bc2f911c
bdcc33a7
3e9e61a2
3c36c603
3ebfa2b0
3db13f45
3c913425
3d8cca25
3bbe0e2a
3db1c3e9
bd950d9a
bdd026cb
3e2e428c
3ee24304
3e122a14
3e06e0a1
be76bd4e
becf4958
bea44bd5
be01b174
be300807
bdf184be
3d56c9f3
3ce5a694
3db8be01
be819e1c
bce2c381
3eaadfbc
3df3a618
3e8f272f
3e3fb6e8
bed713bb
3ee005d7
3e896c91
bdeae8db
bc181b6a
3d0e11a3
3eab722e
3e3be372
3dab83fa
bdbabbb4
3e426afe
be064d26
be354b50
bee6c169
bdc834c2
bd40b641
3e010030
bbacee41
3d4d306d
3e79612d
be0b06ae
be9ffe21
bf0755b4
be60a30e
3e601535
3f16e891
3ef6161e
3d28852e
bcbc9482
3f223c6f
3eb54c60
bcbcbfa1
bd8b7ced
3dae0805
3f158315
3e348068
be8344d5
be6785c9
be1388af
be9a375b
bdce22cf
bdad868c
bc1f9ad5
3ca6aa53
3dbff10e
bbd0ad66
bdbbe428
be91db2b
bd830d53
bdb6b922
bea539fb
be1434b5
3e322fce
3eccabdf
3e335363
bdefb4b1
3e267564
3e9c8863
bd482f81
be33450a
3cbf4e68
3db3e95c
3f5070a8
3ed43d00
3ea71acd
3c210ac0
be6abf47
3d367054
3e391cf0
3e7c67e3
3dd848b9
bca795a1
3e4bd8b9
be6465ae
bdb1ba22
bed7e10f
bd0f7c94
3d2556f5
be0c70f4
bd2a5dea
3ec616a8
3ea70915
3d9fdcda
be770dac
bda384cb
bcf5c9bf
be4c1364
bd25b31a
bcbb0b3c
3e5a4b5b
3f560ff3
3e1df6b8
bd0f2855
3cfbbe4d
be80dd17
3e90b8f2
3e5db8df
3e91fcef
be27e88c
3dde0507
3c59709c
be947480
bebac6cc
bf4f8349
bee45a6b
bd5aa319
3e818d9b
3f06782f
3eb402c2
bdbe12b8
be88e147
bd99a562
3ec26dec
3f31f561
be86c33b
3cbee414
3cbd5537
bde5a3b1
3e540031
be1bea63
bed46fbe
bca931dc
3d6e17f5
3e8f36da
3e236964
3e77a6de
3ec93da5
3e39b121
3e8340fc
bd95181e
beb6cdc2
bf5efc1f
bf11085b
3d431a0c
3eab2841
3f01a210
3e931081
3d9c5993
bdeb6959
be85f177
be90fb31
3e5cc537
be17fdc1
bdc9c557
3dc8d2e7
3df6537b
3dbcbaec
bd811d94
bea2fd30
3e8819bd
3b2fb255
3d2b5cbb
3e060f00
3e828df7
3e707149
3de937ab
3c43d587
be0ff3f7
bebba043
bf510e61
bf01d938
bc15db15
3eb36bff
3e98b5b4
3e758ee9
3e9b1731
bd0b15a8
bf18f175
bf387a31
bec785a0
bda43907
3d66cbb5
3cb067b8
3e0ee301
3eadfc69
bcd8fb1a
3e5037d0
3bd3f1b2
3df19e99
3e9e6c0b
3ea2a58a
3d38e826
3d170e1c
bcf24b0e
be946802
be17ccfd
bedd3d3e
bf1e5555
becdc4bc
bdd17f4b
3e0afe61
3d9573d2
3bfb0b89
3e84f20a
bdbff782
be85d850
bef8c2a6
bf135f2a
3e92074f
3df0056d
3c6e581b
3e5c9583
bd40ef4f
3d96714a
bebee9b0
3e6b9075
3e819b02
3d7c58cf
3e698f8c
3e93313c
3e52c34c
3c290ffe
bdb5bba8
be45da50
bdb0cd64
bed11834
bddff93c
bb5d0e40
3e6a0283
3ee3382b
3e8af3fd
3d9d5b3d
bee8ad17
bdf593c9
3d357dde
be9d4f4f
3f3df061
bcb2a408
3c7474b9
3ce050ca
3eeae191
3e2bff25
bea5670f
3e41639e
3e4c9a49
be2a4c60
3c540552
bdb00ae4
3e866ff1
bc5bf135
3d70467d
bd834eed
be2131cc
beae122c
be581db6
3c2fcc90
3ebe2478
3ee49fdf
3d4e545a
bdd97bda
3d8c8d0a
bd46b89f
be7734a2
bf0a53b3
3e5722e2
bd80fdd9
3d9428be
bdba7e78
3ea5baef
be50fd53
be899095
bdc74031
3e80dab0
3dfd0247
3e4cea53
be3d4701
3d83afc6
be2b20bc
bed0fbe3
be11567d
be991627
be843aed
be74c644
3e3fb75e
3f118e90
3e69271a
3e2b1238
3e429413
bc10f5d5
be10b0bc
3e7a3a6c
be986678
bdf02839
be2b791e
bd58669d
3d9e2263
3f107446
beafa225
be994008
bda950ed
3eb5e136
3e9d75f9
3e7e6174
3d157648
bd24521d
bdfd72ee
be66db36
be52725a
be80a8c2
bd8ff050
3b925dcd
3ec3a1b4
3f15c815
3ea451a7
bdf7b983
bd16150e
bde4fbf5
bed7bb7e
be866943
3e92a2fa
3ec1f37c
be2c483e
bbe4ce9b
3d3b8da4
3f3f3b23
3e7c1c5b
3d45ab1e
3c6e59fb
3d8ec836
3ee3e13b
3e98487b
3e073594
bdb72805
bd15e6ee
bceae20f
3d870ee8
3d29f0b4
3db45560
3df95d04
3e89a191
3e9a51e5
3e27bf3a
beb9e1f5
be9117b9
bd7f7a4a
bdd81ef7
bf0dd67a
beb1297c
3dbb3c41
3d3ccb6f
bd82aec0
bc19756f
3e56278f
3e2cd9e2
3e2715b4
3e930e0a
be1a9ec6
3c8ebcd9
3e1cf98d
bdafd489
be330d1b
bed83e53
bf06c4ec
bd408e5e
3e3987f9
3ea26d61
3e1738a6
3bacc3aa
3e7f3494
3e827f6b
be6cf8c0
be8fdba3
bec4bf90
3e141b9d
3d9085b5
befe860d
bcf60282
3c0f4ef2
bd9de266
3da6321c
3e1d3ec4
bd71353a
bdac32b4
be930a66
bdab0804
bdf76626
bdbcc0b9
be7baf69
bf164238
bf09202e
bf032afa
be713834
3deb831c
3ebc2b5e
bc105f87
3e179368
3e780489
3d7d1f22
be184c86
be7d2ff2
beabdfe7
3ee8f246
3f22c3a4
3e760107
bcd217ec
bc8bd93e
3b8e1694
3cf4e2be
3d3a2956
3dc60665
bd6cdde9
be321cef
bf10f4bd
bec1e267
be608b96
befdb505
bf24de03
bec02e7f
be826d1e
3e61181b
3e957610
bdf901ba
beb804e8
3db87968
bcf07adf
3e17a371
be31341b
3dee85b1
3df13002
3f11841b
3eadb9f5
be028954
be807a7f
3cc9cbce
3d5e906e
3d2adcea
3c7a7a7c
bee1dc95
bebeef54
bed1162c
bf81e865
bf6f9da4
bf69eb75
bf613115
bf7ab3d1
befe3b70
3d51a87e
be259704
3b9a532f
be711d24
befc339b
3d7d5164
bdf35688
bd893c97
3e1dd082
3ec1b962
3ee05b43
3ee7075e
3e0e30d9
3c10f2e7
bef63edd
bae6c9d6
3caafd60
3d56e17e
bd83895f
bd81f961
bec535e8
bf04fa95
bf8833ba
bfa8b195
bf8ce732
bf22a8a1
bf0d23ec
3cdd65f9
bd00f61a
bdce79e6
3e73ea2c
bd478809
bec75aa7
beca4acd
bdb7f5c7
3dd780f1
3ec902a9
3f36f89a
3e43a7ee
3d08d82b
3f0a34e2
3d3925ae
bf0f8867
bc80eda8
3d26db56
3cf9ce1c
bccde4fb
3c3318c7
bed8ed59
bf11b3dd
beb56fc9
3e776deb
bdf6692f
3c9150a0
3e42b5ab
3e463cd8
3e722f70
3e356760
3e230df1
3c0d7e44
be600498
bde8e72a
be652a80
bcbc1af2
3ed2310f
3d873869
be9bb13d
be56c7c7
be0fe116
3e8ed00a
3de5af05
bd40f64f
bd8f984c
bc1fd6f8
3eaa791c
bd3c5ff3
3dbba388
bd08135a
beecca81
be220c9d
3e9e6799
3edfde10
3ee494d7
3d684986
3e4a7eb2
3ea93877
3ec1bcdf
3d7d67bc
be12d02b
bec3b380
3e48e8e3
be42a6ab
bd874941
3e2aaedc
bf159eca
bf0b2f32
3de8d3b9
3dea4425
bc98d047
3d8b0463
3d26cf9c
bd9f2660
3d4fbd2a
bd3e3eba
3da9d662
be5428f1
3cc8eb9a
3e0441ff
3dbf2a8e
3e385734
be5c522a
bf015d16
be41cc1d
beaa3582
bf07317b
bb990a9a
3eba6101
be394681
be3f101b
3dd10617
3d93c069
3ec8507a
3e93782c
3e4307da
3e2c4da0
bd736a6e
bcbca21c
bc148318
3c925ac8
3ca574a0
bd14112a
bc22dd80
3db22998
3dea4867
be2eb539
be59f0b0
bdfb0da6
3d183cce
3f36bdfd
3eb28edd
3cad8d3c
3ede9141
3f3d950c
3f4b3fb3
3f5713b1
3f07c9c4
3eb500ce
3f1ea543
3f074941
3f0974e7
3ed08ac5
3ea19ac9
bd325dc3
3c169b68
bba3c860
bc26e4e8
3cd761d3
