3c9a489c
3cf81e28
bc4f1388
bd8661cc
bc0f2470
3d81d12d
3cf19cc0
3da054ad
bc8cfdbc
3d14052e
bd61b932
bc1e7580
bb8fefa0
3d4ce3c6
3d1639e4
3d79bfd2
bd07e414
3d48e8ee
bc3327b8
bd87f03a
bd9630a5
bcbce7a0
3d888c57
3cfcec5c
bd8bb3f6
bacf3080
bd80b3b2
3c4f9ac0
3d9b358f
bd089a56
3d3ed1ca
3da48ba7
bcfb321c
bbf7ba80
bd9e5641
bb2cb9a0
3c1ad738
bd380591
3da35826
bc8fe7ef
bc718988
3d2da92a
3e8773b7
3e833404
3df464d6
bb9d9fbc
bd06fbfe
3d128ba8
bd23dcdb
bd205970
3d4c7a72
bd1cd683
3badcb80
ba6f8280
3d85f257
bd84580e
bd68cad6
3d276af0
3d2ff626
bd1cea0f
3d827c24
bd12911d
bb0aefb8
bbb82349
3e084ea3
3da8fc09
bc13bfa9
be07e850
bec59b00
be71a166
3e353d5b
be0ff236
3d809f40
3ec4651f
3f186ebc
3f16189f
3f228ade
bea9129a
be8f9a3c
be2fb97b
3cde9115
bd35c8b9
3d77ea6e
bd23f899
3d153454
3cb64848
bd9a6beb
3ed9c1fb
3f420c28
bbea5b72
be02fa4e
bec7652f
3d1b2445
3ec58fad
3dfdb54f
bf092d42
be9467a0
3e144778
bdbc8a66
3e10aa9b
3e55a17f
3f1bad24
3f12a867
3ce2825f
3f276805
3ea58220
bef0456f
be6beef9
3e028d86
bea69d85
bcda01e4
3c78c030
3d3c5852
3da5886f
bd6eb2e3
3f0b57a8
3e165412
3e8f4c61
bf2aa7ce
bfaceec4
be8a8ee0
3eef1c8c
3e8c973a
bf635ef7
bf432a90
beaad316
be97877c
be9d30a9
3de13ae8
3e8d1ac5
3d2d261f
3e59e636
3ec9e6cf
3f1a3ebf
3bd37233
3edccb6f
3f2f6e7f
3eea5fa7
bbe5cf9f
bd68ce53
3b761040
3bc45440
3d3f9a1b
3ec544d3
bf23fb44
3dd03ace
3e8c7723
3ed1f5a9
3f2f8037
3e78edc7
bd314490
be8e9df3
bef22f30
be3d7b3c
3ec75de0
3e422e90
3dc95be5
3da83afc
3ebd5f1b
3e824162
3f1b3f02
3ed286f7
3e0999d0
3e319297
3ece3a35
3ebe2ba3
be04297a
bc89a254
3d0d85ae
bd81d1a4
be88b15b
bf1dcde8
be59c549
bcf6c6ad
bf05c23d
be33b155
3d9cb17e
3d97019f
bd57945f
be314e2a
be44ad90
3e2f986f
3e4814ed
3e92afbb
3e463ff9
3f252f88
3f2ecce8
bdac8608
3f1cd3cd
3f033822
be3c7b66
3e2b0748
3d399e13
3ea8a1af
3c43495d
bcdcfd0e
3c5c1046
3cc4d4bf
be0c17f9
be28b353
bf18f4ec
bf47ec4b
bf1cc715
bf196415
beef3722
be2ee3ea
bdf03ffb
be55fe65
3dc2e016
bc0e99e7
3de6d0ae
3e67c0b0
3e0581c8
3e7b05ae
3e49cc14
bec070ab
3eb61793
3e87b14c
be57f7b4
bd482746
be9098dc
3dd9e457
3dec6e78
bd46ae65
bbb34f89
bd2f7ea6
3e1be65b
3e4b702a
bed8f4c8
bf1359d2
be602153
be800d8c
3e095f07
3eb6502d
3dafaef1
be7e19c9
3e2e14d2
3e95d666
3ec50cc2
3dd9b03f
be8d79f1
bed49c7c
bef0adb2
beb6501e
bea49721
bef25ec8
bdafa791
be8ba2f9
bed39ebe
3da9ac09
3e0544a1
3d00cb90
3be08b19
bca8f0dd
3e7df7c2
3f7d9106
3ebc4f52
bed621b5
3cead57f
3e82ef1f
3e7ef85a
3d2cfc80
3eaf62b0
be99be3b
3def6da9
3e93c7b5
3db8646f
3e20e9c0
be7edbd2
becc4713
bf16c802
bef5c9f4
bf35a08a
bf0936ed
beccb62d
be66798f
bee432db
bcc935dc
bd958058
3d0dbb8a
bda27cc1
3d36ae9d
3e828be0
3f34e18a
3f0086b7
be90cc1e
bdf87047
3df0fbc3
3e5ef60a
3d241a39
bf1e0704
bed6cf57
be8695ac
bdbad88c
bf048cc2
3dff7eb0
3d4cb54c
be05e8fe
bed2b695
bf0b528b
bf8a14e4
bf72235d
bf20dc6d
beb0a71c
bedf5fb6
3cf34515
3d677f8b
3d8d591f
bd2dd2b9
3d848415
3edae337
3dc55a25
bde497f4
bf2bc346
be6f5ffd
3dbfcada
bedfa347
be55f4f9
be43891d
be41b04c
bf38e137
be853810
be7d7e3c
bc0ab217
3ddfa34b
bc9e0c53
be18f51e
bee1eb7a
bfb7dd47
bf538fc4
bf410ec2
bf05dc3a
beedf46d
bd999bba
bd8af5e6
3d62857a
bc9868f0
3b99de80
3e4b5e12
3d204ecc
be0b6851
bf95abdf
bd07513a
3e1d2ecb
3ddc4eee
3e142ee3
3e2465e8
be857291
bf3d15ed
be81e992
be83d997
3d847c2a
3e2057ba
3ccd090a
3e943946
be858839
bf4f6b4f
bf551630
bf538f86
bf2df55c
be881cc4
bdafdabd
bca6a5e2
bcb40532
3d2956bc
3c2bbdcc
bce4860a
bdce87bc
be837981
bef527c8
bdb85099
bcab50f4
3c917a4b
be1cab7d
3e0c4296
3e34ea8d
beb86efd
bf567f54
bdd6c2cb
3e60feb2
be65ea18
3e38489b
bdd075a3
bef56700
bda2ffd1
bf699744
bf67f936
bf0a6d75
be9b8830
3d113615
bd97b7a9
3d23b4e4
3d97afff
3cfbccf4
3d3e7684
bd1bd7eb
bdd38b4b
bdbf0926
3df90931
be377fad
be2340b5
be39e98e
3de26065
3e8ac0ef
beeacc1c
bf4ebf20
bdd225e3
3e9470eb
be5d7372
3e0e5522
bcc2aeba
bec180e7
3e08dac3
beb73411
bf77421a
bf2c379f
bed49ff4
bb251161
bcce4838
3cb67650
bd45c19a
bc6052e0
3a864e19
3cf29233
bd06b160
3cc1cb08
3ea0f4aa
3eadae6c
3e263e6b
3ed951ba
3d42c8f9
bd9ee30e
bedef701
bf2add68
bd919426
3ea5f96d
bd7b5271
be062dd0
bd255f24
bece4f58
bbe5a4f3
bddc4b5f
bf6950e2
bf471f7e
bec3016c
be8d9f2a
bcc78c4c
3d7b3a56
b946dc00
3d596472
3aeb2d1d
be9978b1
bf262cf2
bf1261da
bc98f47e
3e8cf71c
3e6e254e
3ec28310
3e3c6770
be6b169e
bf884723
bf7e5f0b
be2b45bc
3eaf3698
bd8f561d
ba81e002
beabd238
bf0d84b4
be6c8054
be07ca23
bf34828a
bf5dd2f5
befcc420
bef66406
bc29424b
bd63f574
3d9b988b
3d00154b
3c5b4cfe
be43d18a
be673706
3e1623ce
3e4799a2
3e4f0de5
befff856
be388695
beb5ec44
beee6407
bf789c2c
bf3a31e6
be70effb
3e8859a9
bd37b5b9
3e8494e6
3dd21d73
bf0054b5
be21dfdc
bdd598cd
3dc96dcd
be56ce15
3e40f56e
bf889556
be61b054
be90035f
3cadcc6c
bd72bf69
bdfc8509
be67d842
bec46c73
3e835cce
bd4f6855
be419c69
bea3c606
bea1d108
beb98d0a
be7c013b
beb83196
bf32757a
3db30cbb
3dd15439
3cc7d792
3e1768d8
3e811537
bda53ab4
3e1cb601
3f009124
3ecf217e
b8ae699f
3e4c1257
bf7f3ff8
befde15a
bec4187d
3cca7abc
3e0ccaae
3c71b367
bea0f33b
beb0a577
bdee14d6
3e030083
bea105e1
be5a8d34
3da04988
3ee8183a
3ec3381c
3bb621f1
bea3ff37
3e31be08
3ef62c81
3e8ef3d4
3dde975d
3e555663
bd82d358
3ef66a06
3f22509b
3f00a49a
3ecdfa77
3e19ab64
be5bf02e
bf187142
be5a33fd
3ca0fe60
3d6a28f7
3d1f9a31
bd8d9cb8
be4e084e
bef3ce66
bda0712a
be4934ed
3ba67c3e
3dbe303f
be09dce8
3e0efa38
bdd01f14
bec04c63
3e9c4db2
3ee1a4a8
3e6de4a0
3eb0803a
3ef44212
bc212e3b
be93c390
3da39a9b
bd431db8
3dbe5334
3df93006
bd7fcd3a
be8e3d89
bcabe602
3bba52c0
bd89c2e8
bc0e7f49
3de9c53e
bde7e5ea
bdb8081a
bd4d2543
3e49d6dc
3e4e8e1a
3d5071f0
be355a75
bdb3158a
bddb4fa2
3e2e241a
3ed04d5c
3f07d972
3e833da2
3e9b2300
3eabc52f
bdf3d8ef
be9efacb
3efa693b
be925da5
3dcdb5b7
3e7f746c
3cc29e96
be019ba1
bcb7a742
3bb24470
bb981620
bf522be3
bf33a521
bece3e39
3e598880
3e81366d
bd675d30
3ce96f19
3ed81a93
be4fcbcc
be6149c3
be455a0d
bd8b4edf
3d4b9790
3e566d78
3e712634
3e6cdf95
bc7bdfa2
bf0a93da
bf19070f
3ea5ca50
be509fa3
3f02f233
3ec4a720
3ef412b8
bd2eb5bd
3d404832
bcc7f9b6
3d040edc
bd8a2a32
be0f17e2
be171209
bedc8cc5
bb2a26d6
be6e70d0
be4f8b04
3e0fb8a6
bc368355
bee4a3c9
beca4e4f
be291436
bce069af
3e0ed728
3e414c38
be495b09
be9dc980
bf21f8d5
bf0516e5
3e79b5aa
3e349aa4
3e943165
bf5051e8
bf0d250e
bd3656b9
bd08afb0
3d9f531b
bc5b0038
bd475505
be525eb4
bdb9b76d
be81f0b3
bedced6c
bf05e44c
bf420803
bf40c5d1
bf1c1870
bf63912f
bf3d32b6
be8225ef
3d996691
3df0c55d
bd931d15
3e497cf1
bdc9ea8f
be6ecb27
bd3f235d
3f26b82f
3e9aa3a7
bea23023
bea4bab0
beb42146
bcfcc92a
38daac00
bd812f90
bd8f6d4f
3a864a80
be116ea6
3d6d5e80
3e9ae57e
3e9d4b16
3e72e477
3e7b6b11
be04db74
be81f3e4
be9c6c1e
3e75845e
3da0b9d7
be6ce91a
bf28b9ce
bed1437c
becb659f
3e81efa0
3f45af9e
3f528055
3f1d2fba
3f0e077b
3e3497dc
3d494038
3d6d6a82
3d71dbb6
3d6f80b2
ba60f080
3d5d538a
bd610697
3cd30570
3d6591d2
bd8513a7
bd52ad74
3d278a02
bd1875ef
bca5a22a
3e8aef8e
3f159de3
3f763145
3f4f2f44
be0fd9bd
be8580b9
3e097b5d
bc049cbd
3e987f19
3eb6ad0f
3f625c39
3f01b2bc
3e2d37c3
bb8275be
3d8a385d
3d480f92
bcd70bbe
3c531148
bc877f14
bd1ebf77
3cfb14b4
3d3c136a
3d8a74b9
bd9a665a
3d95922d
3bea3170
3d6eb2ce
3d1ffe84
3dd2f419
3c51e586
3c9f29ff
3e85abd5
3c8b02e7
3e4172c1
3e4acb0f
3efd91e9
3ed98441
3e87eb21
3d4056d5
3dad4ccd
3dd9928c
3ce45458
bc779b08
bc716dc8
3d3edfce
bd49aff4
bdcdf51a
