bc5035e8
3d870943
3d6d8756
3ce7be3c
3d214968
3c0f2488
3d109746
bd82aae3
bd38dc2f
bd1e84e2
bb5349c0
bd4c4396
bcb16cbe
3d71274e
bc578d50
3ce8dc28
3d2f8106
bd1dfa4e
3c859430
3a2fc800
3d033bd0
3d14b00a
3d7ca37e
bd55b664
bd559c2c
3d8a6949
bda51a1f
bc1f6ad8
bd19a9cd
3d3cd396
bbbd7930
3c69c050
3d9ad677
3d9784c5
3d6511da
3d9529d4
bd019dc1
3cd7fc17
bda3e1f3
3d4efd56
3d82913f
bd29c4cf
3d900e47
3be276e3
bd476304
3aa696eb
bd5c80f8
bd9284f9
3d524e3e
bd83a097
bdcbad80
bd36f24c
bda3c832
bd186df0
bda1ef54
3d803e4b
bd23d0bb
bd5f9f35
3d7c2bce
3d9bb16b
3d832337
3d8cb209
3d79c728
bc26fe8f
bdc7e3be
bdef248c
3f09fbc6
3f1d9114
3f06a776
3ddb9735
3eb20087
3e9d5be1
bdd658ea
bf075672
be7dfc7a
be4cbbe3
bde13c62
3d6df325
3d405dbe
bd962037
3d2f86ca
bc14aa86
bd4443b4
bce6c0ce
bcc3658a
bda3410b
3f0c3a8d
3f068117
bbc9a330
becabebb
be9f20df
3ee494a2
be427d14
bedd2100
be7da63d
be5e6390
3ec20f32
be354e0e
bece5950
be735d62
bcf11711
3d9b6a9e
3e668a66
3e7fa4a3
3dd71280
bf9fcee8
bdd84cfd
bdc6547c
be37b412
bda2cf50
be25c70b
bc2cd320
3d1e3812
bc49abc8
3f1f91d5
3f0be516
be554013
bead5135
be8aa78e
be860e5d
be7985d0
bf297982
bf4a6ed2
bf50024d
bee65783
be05cd25
bdabbe11
3e04fc11
3e09fed7
3ecaac09
3eb99f3e
3d1074cb
be48d401
bf1cdefc
becc89d1
bf091dd0
bec33e84
be659014
be319d51
bd87ffe9
3c4be5a8
bcd394e2
3f11479f
3ea7b419
be4208e8
befc17ea
bee09249
be27d8e0
3efc892b
3e53e3bb
bebc8d4b
bec7c2d4
bdad32db
3e39db2d
3de71786
bd6cbc80
bdc7445a
be92a369
3e935dd3
3ed14763
3e3925a9
be3ed8bd
beeda9a8
bf0e9da3
befe1e4d
be0d3431
be1c535e
bdd85a41
bd036e15
bd935a38
bedf3088
be3688f5
be365cdb
bf2f5938
bf8738dc
bf17726d
3e77e32d
3f2ab9ed
be1d7d89
bdae2d02
3ed4a907
3e8bdc13
3cc28e7c
be364469
bd44722b
3e2d6773
3d92da4c
3d1af594
3e05b37c
3dbf8276
3dd33981
be9689e9
becebc0e
be43bf34
3cf8caed
3e0761be
3d9c7d4f
3ccd9fa3
bef85529
3db6da09
be44d537
bf20bd33
bf8b992a
bf017633
bdaffeb1
3f0303d8
3d78da91
3eb04978
3e180c0c
3e3298cc
3e9d10f6
3cef8324
3e669b73
3e04f54f
bd0f3741
bed4a561
3e9db6ac
3d80483e
bd1f4822
becb314a
bf2ca9f1
be748dd6
bd271ce4
3d284030
bd11ff44
bcf15f93
bf06060b
bd1f2760
be79b1df
beb58570
bf20f96c
be1a0e0e
bebed22d
3d95934e
bdf05482
be483d14
be2855bd
bdbe811e
3d4190e1
3d503c63
bd22ba9c
be051b7b
bb9e04bc
be70287f
beb8c84b
bf443baa
bd900333
beff4a15
bf5040ac
bf0f52b7
be19e85c
bd87f85f
bcf0de8c
3cd68f19
becffb0b
3d5284ea
bef69847
3b2a16d9
beec216e
be4366cf
bd956d52
be6ad413
3e3727b2
3dd1b362
3d07fce2
bc9e3354
3dab7f6b
3e561c78
bdceb2e9
bee8e0e5
bdc9e3a2
3d3152a3
bf33d6ac
be924fe6
3e35b2d8
be5532c3
bebf555b
3e3192d8
3ef86567
3f4aed2d
bd90c105
bd311b53
bee1c467
bcf650b0
be7cc542
beeebd7d
bf364603
3ec43595
3de53536
3e4b3165
3f1addc3
3e7d8e0c
3e182f4e
3ea1dde7
3e9072eb
3e50e137
3d06e666
bebfdf5d
3a27cacc
3e71058f
bf48a026
3ddf132d
3e826b92
bc765963
be1f5767
bd8d033a
bd3c10a5
3eb071fd
bd484263
3d02c225
3d145efb
bdaabe21
bdbd7bdc
be80f82a
bf48c435
3d4bdbf7
3e17aa64
3ebaf919
3f19f3bf
bccf3e9b
be85f441
3ecf03b1
3e4dec23
3e37e85d
3d523bf3
be92d833
bc98675a
be01d4fd
be853f8d
3e6d8de3
3f0a05ba
3e48576c
be9ef2e8
bf3b42cf
bf4f5a68
3ebcab39
bca3fa1e
bc703ed8
3ba08338
bdda72b3
3d8e2aeb
beffbffc
be23a80a
bcbf7919
bea2f9d9
bd69d4c6
bdcaf736
be129db8
3ee1b02e
3e93ab7a
3e587e75
3e36e323
3e14faae
bf257e7e
be053f42
bef1b918
3d5155db
3e953a62
3ee4128a
3df60b4c
bdb9a0f0
be3391bf
bed61599
3f6ff96a
3c11af46
bcfe296e
bd701403
bd560474
3eadcdb7
be9288e6
bd047402
3dd08f8a
be83c2a4
3dc9f7d0
3e1f39e0
3ed9a3ae
3e7f9dbe
3e362491
3ec0cf9b
3d6d9673
3e285f22
bf3e9838
bef4b4a9
be5fc94b
be0659d9
3bb9c1da
3e714e31
3e9406ee
3e8094fc
be22898d
bf9326a7
bde7176a
3c89ba74
3b77c060
bcbf5c3e
3d06f0f9
3ecafbc8
beae734d
bf032b43
bdd0ccc1
be52997f
3dca0a03
3dd01f55
bdcca49b
3e287cfa
3d6d3471
3e8cc801
3e6b5a41
3db134b5
bf235dc2
bde64125
bd189374
be6fde6a
be379e20
3e5ba7de
3e6acc92
bcfced2e
bf088fb1
bf3bd4dc
bd89f505
3cea012c
bd7976e7
3e05150b
bb9ddea2
3daab2a9
be7bd645
bea0acea
bf4adf43
be666259
bdb2d284
bdafd1d1
3e564843
3d18abb4
3e94fd55
3d2bf0e8
3e721a48
be93e72a
bf250c71
be9a0e17
bf1fc227
bf7640fd
bee898d3
befe4fb4
be742cd4
3e5608b9
3ded81f3
be5679b4
bedc1531
bd0b3d70
3da8df08
3de93289
baac19eb
bdcdd4f3
beb32027
be2f60d9
bea56ef7
bdae082f
3e8bb016
3e89c337
3f0cb9b0
beda8d33
3d5af500
3deb1cd9
3dbe2b69
be946499
bf96c43b
bf2d34a6
bda5f404
beba65f5
bf4ae84e
bf09ed4c
be2b706d
be981d08
bf05a0ec
be151bbe
bef4bd96
bd05f44a
3d1ad8e4
bbc76dfd
3da11dd9
bea76c51
bea4b7fc
bde47aee
bdbcf0a2
be252790
be298006
be300136
3d8091a9
be02336b
3e63feda
3eef92e2
bd8d1503
beb7059e
bf3b6807
bf178f43
be001376
bd9af310
be929e2d
3de5a32b
3eb5a1f8
3eb453c9
3ed0762f
3e86da98
bf241de7
3bc20bb6
3c820e24
bc00aaec
3d35f814
be9d773d
bf19c67b
be89f5e1
bf06fc4c
bf16a12c
be46bc99
be4a196b
be349778
bd34c663
3eba99ca
bbc6baa3
bf4afb93
bf23b6f9
bf6314bf
be8a3caa
3e169964
3ca9f0e6
bec52830
3efc4dff
3f4be47d
be2a9ad1
3ee6fc67
3f1363e3
bed33f93
3d973ee6
baeadca2
3e878297
3e49ebbc
be6ebde7
beed5b7b
be531735
beaf53cd
be795d21
be25e3da
bf36bac0
bebe4efa
3d92eb68
3e336d78
be8f40ab
bf3b2759
bf3c2b47
bf30bd18
bf09030c
beb6b13e
be3e009d
bee8469d
3ed915b5
3e8902aa
be8ece57
3f04544a
3deefc5f
3ceb64ea
bd2c9ee1
bd87ecbf
3dbd13aa
3e085340
be814c3a
bed1ff2d
be4a5ad8
be2809ab
be4da9d5
bec08d2a
bec9a541
bc0a6f23
3d8f4738
be844fc6
bdc206a3
bedcbd28
be17aaa2
bea38813
bd18120b
bde1ca3e
3ef51248
3e755b51
3f001c3e
3df305c1
3dff07db
3f0cb5b2
3dbdda06
3d32bddf
3d7f89e6
3d813fc4
3b9ea77e
3d121b45
bed1ab84
be8aa477
bddc5680
bd0dc94e
bdaa1fdd
3e0f0730
3e545499
3e1a7e86
bc5a48ed
bdbe6924
bda8b2b1
3cb18668
3c9aa471
be7ee7ce
3dc946c6
3d12a3a5
3efae69e
3ebca43c
3e8fc872
bee7feeb
be3bba15
3cec8db2
3d01e576
bd1fc771
bc56fe75
bc3b9df9
bd36c2e5
bdf182a4
3eed8c99
3ed60364
3e02716c
beb777d7
be6e6ae6
3e567b49
3e8f280e
bd28545e
be6c4d94
be9a7378
3de758eb
be85b827
be92eec2
be32b42c
3e3b726c
3d78ec2c
3e1a9de1
3e9296ca
bea0958b
3f186e6f
3e42451c
be690885
3ed142dd
3d6cbb6e
ba9aa5c0
3b0c3420
bd489a34
be5680b7
3dd4a693
3f3d79d3
3eca3d6e
bee3dd02
be38c37a
3d4a2d7e
3df73e1f
3bcd2c47
3d589d01
bcfb6e7d
bdddfccc
be905fde
3bcbc13e
3e0eeaad
beaa83e8
bf2bf57f
bee8d4b2
bf853a49
bf36224f
bd382481
3e9eb577
be29b35e
3efbd14e
3d148aaa
3d40194e
bd07f85b
bd5c5a51
bd87a41f
3e423384
3ca6e3b8
bef6a437
be8798a4
be2c7a6a
be5f52e7
bea219eb
be3e9fce
bea8e6e1
be0e2bf1
3e12c7a7
3c382016
be7148c0
3e9e83ba
3cbf41d2
be3d47af
be85a118
3be84cbf
3d07e029
3e9debfd
3e518122
bc8981b3
bc45613f
3d3b8cc6
3d80c759
bd02c958
bcb11a2c
3d1c3bed
bd529b3e
bd95e66c
becff70c
3ee30da7
3f012a23
3e5ad233
be340c5c
3e06b3f5
3e1eb28e
3e8a8bd3
bec31167
bee524b9
bdcb8b54
3ea1453d
3e4152a5
be629d1d
3db2e720
3bc666eb
3e861639
3e88bd89
bd4c89d1
bd862e17
bd1e8845
bc05dfe0
3ad64980
3d851959
3ca9975c
3cc482a0
bd1ed627
3e00ed97
3e52f849
3ecb45b2
bea2281c
3e776e5f
3edeef89
3e1c0608
3e415d29
3e8f4709
3f0ad4a1
3e8cab37
3f0d3db2
3e8f50be
3e93d35e
3e7c94a3
3dad6bd4
3b82672d
be0caaa5
be2304ce
bc84e4b4
bba01270
bd9ba97d
bd81c976
bd608ce7
bb9e8b50
bd733bf6
bc7a84b0
bd9908f8
bcab87a2
bce9ca60
bd2b02c1
bcb34641
bd1e2fc3
bd9d1122
3d90282c
3f19158f
3f13d552
3e56b209
3e0139cd
3d9b2f7c
3e231668
3e80e931
bd69550b
3d308091
bd51ba4a
3d38c7cf
3d8ad68f
3d953d9f
3d7eded6
bcc4beca
3a409780
be4ec13d
