3d27d9dc
bd4894fe
3d9f1e5f
3ca654ac
bde1e002
3eb77151
3d4b228c
bf1cb86f
3ebfa6d2
3ecdbdda
3dfce052
3c8a5de7
3e3a24ff
3e50cb52
be83d715
bea271d3
bf311157
3d5fd1ee
be35c794
bee7642c
3e085131
be50eaf8
be0a526e
3e597c0d
be61d490
3d301fe4
bec175a2
bec68b58
be9f0f54
be82ecc1
3e1f3ec2
3c4e53d9
3eac7615
