bda1f79f
3b2b2080
bbe8ae90
3d8d75f5
3d5e50ea
bd446f96
bd94d52d
bd20cb38
bd875651
3d8f6503
bcef10c0
3d01724a
bd399fd8
bd06f30a
bd618c04
3c9769f4
3d518142
3d8777b9
3d989b03
bda18b28
3d958d45
3d84c9cd
3cb13a54
3cb9687c
3c5274d0
bd091876
bd9f2d33
3cc88e44
bd711bdf
bcf806d8
bd4c1fa8
bceb4514
bda0b415
3ca391e7
3d0dad12
bd433925
bcb846e3
3d2b847b
bccea052
be0c51a2
be45bb70
bd6afc63
be22b379
be308473
bc07b2ec
3da60d98
bd141228
bb6b89ff
3d5196d7
bbee2ff0
3d4dd804
3d27e769
3d5680f2
3bdd1cc0
3d99ad0f
3ca26260
bd760c20
3a527d00
3c731eb0
3d46b376
bda2fe58
3c9814f1
3d5bd999
bd945bfd
be34765a
bd69cf1a
3eaa8bb3
3eb3a301
3ed37a1f
bdc1701b
bdaa6faf
bec91b96
bf1478c3
bf1f6a95
bf246860
bed42f42
bddd838a
bd6e5679
bd507b4d
3c999e48
3d512f62
bce5070a
bd53eef9
3d9b9463
bd06ecff
bb26dae0
3d4bfb72
becd23e4
bebff5a6
be0cd57e
bd25c58e
3e1da0d0
be86a549
bef8f507
3e6d1a1c
3edd8b56
3d41c892
bec66cc2
beac7439
bed0ecf7
beef0fef
bebdb967
be73a191
3ee3ead0
bcda178d
be7ffef4
bea59378
be54be5c
3d440c11
3e045dba
3ce6f04c
bc53bf30
3d19156e
3d9317cf
3d418cae
bee4a7dc
bdddb142
3da1b035
3f199fdd
3deadbef
3cd1494b
bec577a4
bee9d978
bf60da28
bea00a44
3e08eb6c
bddf2819
bc9701bd
bc235220
bd4b0392
bd18c60d
bbfb256b
bded4cd7
be115844
3dd0510f
3eacf765
beaa38f5
bd4dc581
bdcbb9d7
3cdd49a0
3a4bc400
bd1a74f1
bbc5db00
be7b3cc4
3e8c18b8
3f87857f
3ee4abd1
beaea68a
3ddcaa30
3ee041ec
bde53591
be6ea134
3e098b6e
3e8c5585
3c1d597b
bd1829b4
3e1674d9
3de6a05a
3ec0eb02
3ea1b123
3eec1c1f
be0cd177
bee9a23c
3da2ac96
3eb35264
bef32cbd
bee7b4f8
3d094c8b
3c89ab38
bbdc8559
3e9fc34a
3f4dad8f
3eb53af5
3eb3b651
bec431c3
be4eba16
3e0dec61
3ef0fe2d
be8cf6bd
3df00df7
3ee154df
3dfbcdb7
bb13af64
be3efbfb
beab58ba
bda30172
be500deb
3d00cb57
be28cb4e
3e0abb71
be20c436
be0d8143
3d526c0a
bf82f72b
bf1ea2eb
bd98b6ba
bcf39b9c
3ea09c0b
3f139d6f
3f5a3f38
3e1cf7de
bf11a83e
beb769cd
3d67cf69
3d56ee4f
3eba0049
3e636c9c
be5c49e6
be026bf9
3d6e0f50
be8078dd
be8cd50c
bcdf4ba9
bcb1366a
bdf217e9
be053239
bea22667
3ec389a9
3d753cc5
bd03d443
3d1d6586
bebe1f85
bf8744bf
bd862b13
bedbc1fa
3ed8c563
3f112629
3d485803
bda233b3
be673267
3b091df3
3e57ef07
bd1c4023
3e6456d5
3e4b213d
3ca583f1
3cf39146
be4f7108
be894dec
3e700529
3dc2e741
3e6c39b1
3ddb70fd
3e228ab1
bd9295d2
3dcb3836
be2a71cd
3e11f62d
3c27bbc2
bec4c7ca
bf070594
be66b658
3d325bc0
3e7b18d5
bf06a4c4
bd99ed29
3c489a3d
3eab4ef1
bd80afd0
be4783bd
be01658f
3d65aee5
3d30e79f
bd5d1785
3e7615c6
bd588b89
be2231b5
3e92f099
3d7c98fd
3e1001a1
3ed4c1af
3eae21ee
3d5b2fcf
3e7d2428
3e9e619f
3d6b3dcb
be98d5e6
bddebf77
beefc2d5
bd99de1b
3da76036
3e93a092
bd7cd4bc
bedc4e42
3d1a05b3
3e5c166a
be2d2221
be0708ed
bd656ca6
bdb7053a
3dd8ff30
3d9e479a
3dd772b5
3d0bb5ef
bf50d135
be8d2d0d
bdf7cd08
3e33dbc6
3d9cf217
3e64d311
3e7f0e5f
3eb14595
3e4c23a7
3dd03e29
bd0851d8
bde887cd
be39645e
3d77163e
bc329c22
3e9828a6
3f07499d
be8ca5ce
3b8d752f
3eed07d8
3e496424
3da1dcc3
be15e877
3eb034fb
bdb4a586
3e620e6a
3e8d5b73
bede9ba5
bf8068bb
be3191d7
bd2dc407
3c949598
bdb79116
3e2142eb
3e15980f
3ce4fcea
be911dd3
bdad787d
be6b4eb8
3da0ca74
be847ad5
bd90b10c
bcb42263
3e3de0de
3e8647ee
bd936dfc
3e15bf50
3dc4be4a
be181b07
3e92210a
3e315c5e
3cce84a7
bc06f022
3e4ef60d
3e629a95
bf5f92db
bfa29be0
3c4894a8
3e1295d6
be6617fe
bd543223
bd4814af
be3d8c0f
be610f5c
bebd93fc
be986381
be95f4e5
bdb513d7
be18adfe
3c054ebd
bd121014
3e88b23e
3f03a607
3e4d9770
3de93866
3e5f1494
3d461e21
3eca06ea
3ec5a1a5
3e16ae34
3dc39b0d
3df56f42
be2ee6e0
bfda63c0
bf40823c
be4960d4
3d82f9ba
bda8f310
bd0e4569
becb4df1
be0b4111
bd8dfb07
bdea412c
be90b865
beed7e28
bead0070
3dd4b33b
3cb6fbb0
bd8e7e5b
3e031db3
3eae2bb4
3ee9df17
3e026cef
3ea4b5f7
3e7574a5
3ea4a768
be3f0f77
bd5d294d
3dbba19e
beea9192
bfb81270
bfd76f77
be958c1b
3e256a82
bdb90510
be01c887
be229614
be4e79ff
bed58276
bd0f588f
bdfc000b
bf5315c9
bf5dc648
bea58098
bd49b83b
bc8f2130
3d1613f0
3bc9d4b1
3e84fd50
3ea92a03
be421e3a
be3931f8
bee256eb
be0133ac
bf2bf92f
bf280f9f
bf7b9fb5
bfa84037
bff5da3e
bebf8a5b
bd244e6e
bcc68a1e
bd540f2f
be86ce95
be22d364
beff40be
bed4cd7c
bd2a2893
be0688d9
bf601d5d
beb92145
3eb03ef8
bdd0bdc4
bd430303
3df84681
bd82bb52
3e6a15d2
3dcf6045
bf099324
bf23d79f
beaf0343
bf8b2730
bf55c4e7
bf9ba7ae
bf509f39
bedbb166
3d9b3353
3da7e683
3d9766d7
3e42e5ed
3e0e7668
3dfc98dd
3de1dccc
bde4e7a6
be98ea0a
be989153
beb17881
be8501ab
3da00607
3f210ce4
3d20bab4
bd10e917
3d8997d9
3d0a07ac
3e88ee02
bf2a66e2
bf807331
bf3807d2
bf618c0c
bf90b35f
bf2e254c
beca8597
3c7e7f0e
3ef2645c
3e1ae715
3dcd9f78
3dd726cd
3eb59af5
3e952013
3e81ce73
3ee5e721
3eb760ac
3e00850a
be36b098
bc1363db
bdab203c
3eae1b87
3ee36641
3ea700de
3ec78394
3efd5005
bd448dac
3e3a9fcc
bf65f288
bf4e952b
bd81829a
beb797a9
3e350115
be1adcaf
be18f7c1
3d4d7647
3de23af3
bc78e683
3e12d91c
3dc7195f
3e8fa40a
3e275ecf
3e34ed5f
3ee90ca4
be7e7e76
3d11abc4
bdaba767
3e3fbf92
beb013aa
3e6076fd
3f169a09
3e5d4da5
3ea0184c
3d087220
3e6148e4
3f36a57d
3e1c1d57
3d52b607
be7f5916
be8085ba
3d9c4448
bc00593f
3d246d94
3da6b36a
3e8343a3
3ddde0fa
3dc520f6
3ed48e5d
3e5bd11c
3c97e2fe
3de3f313
be3118b0
be061f75
3d74503e
be986883
be01ce35
3e34b560
3eaa896e
3f4fee2e
3f2b5d5c
3bbb14f8
bd194582
3e2bb66a
3f6efd61
3f1e1f36
3c25dfd1
befa26b5
be372259
bb9439bf
be3fb6f7
3cc76f06
3c4adff5
3ecbd989
3f1881c2
bc86bf53
3e51daed
bd8fa70d
3c0ce24c
bdf8a7db
bc38876d
3e37332e
3f04d98f
3e81514b
bd8a0f63
3e86bcbe
be40665b
3e54d609
3ee21f7f
bd0b3fce
bd089b64
3d5afbbb
3f5bb738
3f15471d
3d2546e4
be59dfd2
bd201888
be90a3d4
beb79b82
be4f935f
3e6a76a0
3f03a766
3cebfd65
bd9208d0
3e191f99
3e21feeb
3e864585
be89b64f
3e33e34b
3ee69c5d
3eb8af70
3e68165f
3ea2e349
3f238495
3e288272
3e55e263
3e042d9e
3d2ab213
bc2239d0
bd0e2081
3f169076
3dad00d8
bc77f906
bed9d127
3ddbca1c
3e9c9477
3e020e25
3e190e68
3cad02f0
3dd97b31
be41af9e
3e86d55d
3da10eda
3e92ca6a
3eb05f3f
3e88580f
3e912d2a
bea8fba9
be0fe0f2
bea0f8fd
3c9762fa
3ecd9e9e
3ef9a248
3e91e9ba
be85241d
bd997dd7
3c490760
3d3a6726
bdaa68a3
bf476be1
becd1757
be8f9a89
3ea107df
3dc5b873
be739679
3dd5c77b
be478729
be7f4fc1
be6ba019
3db40bda
be9102f7
bcbce0fd
bdeeb4c1
be32c65f
beae4f05
be92a6bc
be82069f
bee1401a
bd938133
3e85cf2d
bf0ace36
bef253ed
be8931da
3bc39210
bcfdf58e
bd5d7b20
3f0952f4
3e56caf7
3ef77754
3e93c633
3e985c8b
be765a46
be07e0d4
3ab311b9
be11aaf6
3e1592b0
3dea0f75
3dae880f
be832dc5
bdf8e523
beeba15c
3e882dd3
bdeb13d6
beb88053
bf0165d9
bc9383f8
bd6349ec
3e777526
3f179c6f
3ed29468
3d7d8d02
3d8b1491
bd960fb4
bd21b111
be5c83a9
3f0467f9
3d84d2d5
bd28fc92
bdf472e3
bd0b46b1
3d655b2b
3c965ab5
beb11b40
3d3756bb
3e174765
3c9f182e
bd8f10e0
3e5c9b00
be4e7d78
be848235
be844adf
bebebbbd
bf10d6c9
bc322867
3d4bb2c4
be1bbc26
be02a9a0
3d59f368
3d06ae7a
bd9adcd9
bb4efe00
bd9a34f2
3d979b01
3d5ed922
becf44b9
be4964b8
3d599c8d
3ebea568
3f02fecf
3e6dcfe2
bec432c8
bebc59a5
bef0e00c
3f3b4c93
3c52e8e1
bea7e7fb
3e3e7f2b
3f06d2d7
3f85f24a
3fa3ae04
3f2acbd5
be866685
3bb9176c
be44209c
3d27d20c
bc93373f
bca51bd8
3da05863
bce341ea
3ccb21f0
3d0b46aa
3c6e0298
3e8c40db
3eaecf10
3ec0932d
3eb3d4b9
3e856926
3ea56184
3f0046d9
3ec71795
3f16ad37
3f16ce63
3ed54243
bec54e3c
be95fd0e
3f09af4a
3f01a722
3e8374c8
bdd7c291
be83ddf6
bc4255a3
3cd23588
bd9e599f
3d214812
bd67d068
3c1726b0
be33874d
