3eaeb101
bebbb21f
3e22711f
bdbe2e2f
3e3aafbe
3e4aeb9d
be5d3156
3e72cd50
3e911061
3e9f2e23
3db7471b
3eeedff4
bd915ae9
3d205244
3e27968c
beef5950
3d71cc91
3d3f87ba
3cd061a4
3e1eba13
3d2a82b2
be1783df
be28e62f
3e687664
bd6b199a
bd86f43a
be677f17
3ccbc2a1
3dbf1ec1
bed1eb78
3d1606b7
bedb6f9a
bb8792ac
