be29551e
bdb71a1d
bea6964f
beda0382
bee3d823
3d2a2660
3dae9686
befe2017
3dba3a57
be906017
3ea0ab72
3da13a32
bd9ced44
be15c5eb
3e3f7ca2
bf17b70f
beec06a9
be67182e
bf3c5310
bec153dd
3cbdb1a1
3de83f25
bf3c27f3
beebef94
bee92349
3d33737b
3e5283c3
be16969a
3e5b4de7
3ac27370
bd9dd267
be988aa9
3e19afec
3c524dae
3e2446f5
bee892b8
3e89e3af
3d241789
3e94be7b
3e061811
bc4fc87d
3e0aed85
bdfb2854
3de2339b
bf209ad9
3d65a959
3ae0dea7
3e4ac12a
be9a3335
be2f2644
3dd12d0b
3ee8b38f
bf08e902
be5e636a
be84afad
bdbb71d4
bbcd3605
3df96109
3ee8b40e
3e3a07f5
bee806da
3e885dc3
be34b7a9
3e01169f
3ec23ab4
