be419b26
3eaf8d49
bdc5b719
bee8a448
bef5b3f4
bea38709
bdf8f9cb
3d97352c
3da70df4
be89e1e3
3e5f1c73
bdd1076a
3e0565ab
bce45b30
3c817bcd
be2e1b01
bea72e20
bdf5710c
bd4fcc56
3ef0c91f
3d08b189
bce53f5d
bf2077fb
bac487e5
beb5fff0
3dd7c8d3
bd545e37
3d1e42e7
bdf58ceb
3e6d375b
be80262d
bec5007b
3ee78255
bd38ab77
3e90e4dc
be8b111d
bdd283e0
bf0dd984
3ec0f423
3de67c26
3da66df6
3ea35d39
3db89cb7
3e4e28d6
bec58a44
3e76f204
3e68fa55
3e88cdc4
3d4f81a3
be89ae7d
bd1ed981
bcf59fa1
3e87010b
be01c616
3eb66d94
be8a8aa2
3e9c205c
be3c881c
3e92af18
3dc6a528
be314e8e
3dfcd659
be8903f8
3ecb8517
3ecc4565
