3da5df05
3cadf1f0
bd69520c
3d8a44c1
3d1a3c30
3d4a7c8a
bd38e0e4
bd6f136c
3c7de090
bc0201a8
3ba85d70
bd181d02
bd5d331a
bd4462fb
bd84b6bb
3d0bac7c
bd7925a1
3c9d00cc
bca0059c
bb9ef4f0
3c957670
bd3abde7
bd1a4776
3d21b3d2
3cd585cc
3da2c943
bd5611a4
3a4e7380
3d5c7db2
bccb244a
bd58dd80
bd90577e
bd12d8a5
bd828872
be2c73de
bde65095
bda4d56d
bd823232
39b72a1a
3e1e80cf
3dd477f4
be720bca
bec5b697
bed76545
bdf88b19
3d2b2c47
bd0f62a6
bde35aae
bce5ace6
3d80efa3
bd9e56b7
bda1e6fe
3d1d953e
bc828bcc
bd94ea20
3d2ce7f0
3d22cc6e
bd8fb9ac
3d4ca45e
3ee40da2
3eaabc45
be3cae57
be350436
3d65ae84
be5e7119
bee65963
bea7b64e
bf9436a5
3d72bc5b
3de33f62
be548dc8
bec7eeb4
be833e1d
bf09dcb5
bf084822
bea12499
be2ef0f3
bdedcdd8
bdb9280f
bd86d015
3d8bb565
3cb0cbe5
bd5e5c3a
bc54de10
3cfae810
3c34bbc0
3c120000
3f273042
3f168c22
3dffb444
be55920e
bdac210c
bae4bf5e
bede04c5
bea704e0
3d9810b3
3f093064
3ad7f2f0
3e363ebc
bdbdd460
3d5ceb6c
be2a268c
bee38018
be71a766
3e0ad6bf
bddff0e6
be4165a2
bf26e11a
be93e36c
bdc62a30
bda56ee6
bc8d5efc
3d55cbaa
bcced010
bd931c61
3f3907e6
3dd37a9a
3ece4871
3f0bbae8
3f227eb0
be09efd2
3dd10130
be3bd34f
3cb51dd0
3e9eef71
3de05b32
3e6170f9
3ead77dd
bdad66a7
bd91ff78
3e42fc78
beb64377
be6b79f6
bcb4f53e
3eb5249d
be98c585
be1307fe
3e7d7a8b
3f0b0a1e
3d932dbd
bcde68b8
bd95504e
3d288aee
3f244cb9
3e83a795
3e8b23b2
3e8352ac
be35f03a
bde30264
3cb72883
be30bfb1
beaebbdb
be5dd955
3dd63d56
3eba0f45
3dae633b
bea7220e
be1e7416
bb0acf35
3db03164
bdee447b
b9678389
3e8c8ccd
be6dc631
3e8ed549
3dabdeba
3f1b0a6e
be94c2ad
3d47275a
3bf9546d
3ce03344
3ee6835b
bd75d7f7
be3235ef
3cd151e7
3d82441e
3d52382e
be875710
3e87e731
3ea97d19
bd646574
be44d8d9
3dc51451
be490d51
bde02c03
bcbba4f8
3e80992b
3ca9f2b5
beaa6156
bc1130a6
3ee8b841
be78de0d
3e6dc64d
3ec4214b
3ee9b5d9
3cabb6f8
3d5fe1d5
be1a3842
baa996a0
3f147ba2
3e7266b3
bebf894c
3e917487
3ec9d56e
3e0a8348
bba820aa
3edaffb1
3e68d08a
3d12f114
3d34f8ae
bccbbfa3
bceee416
bd6e75e0
3d9e56a2
3e961364
3e81fe56
be2aec0c
3ec58d06
be86605f
be37660c
3e800b7b
3f135451
3ed5d04c
3ec9a94a
3f776452
3e8764b5
3f1a5ac8
bdb770dd
be0779b1
bdcfd551
3d45f53e
3d7bad0b
3eb44892
be2ec6e2
3e74b33e
3d4eedd4
3dc5e154
be5da32b
3dbea242
3eb1480e
3e8b03ea
3e9e4ac9
3f0febb2
3d3835ad
be377a32
3e4f9a6e
bddfc0e0
be07ab19
3dd31e32
3e946b76
3de19717
3dd3d380
3cc96b2e
3e1e49ba
befd60f5
bde6bd30
3f074a86
bbca1899
bedfac7e
bdb67386
3e3f961d
bd4bfb64
bd733eb6
bd7e101f
3e03adf0
bddedd51
be4352d9
be830b4f
3e0535b9
3f0373b1
3ee3a01a
3dfb5029
3e44be43
3d460fbe
bd80b027
3e95e8fa
3eec49ed
3eafab72
bf10f109
3dc8284f
3bbe182a
bd99451b
be0fceaa
bdc9731a
bdc9d60e
3e905b68
be6eecde
3e1ed8a7
3be3bdc3
bf1995af
beb173c4
3eea74ef
3deb2c33
bd274a7a
be8b74ff
bf0c5356
bebd8952
3f13a21e
3ee23c86
3e4c30cb
3ea64ede
3ea274c6
3e8e4342
3ef9895c
3f492a02
3ec45f56
3e4b370c
3c05dc4f
3e08112a
3f677483
3e188fc7
3b826cda
be6eba70
3de2aa2c
be093e97
3e67ecd8
be4569b5
be9db296
bd967131
3d472f18
3e825c87
3e0e087b
becee566
bf9b8d4a
bf963cd2
3eb868b7
3ddc68e9
bcbb6e17
3e0fbb2b
3c5db0d4
bd50dc8c
3e3c07fc
3f13a165
3e82f780
3eb7085a
3e0f6686
3d5486d2
3e144e26
bdf6a174
be269fc6
be419f6e
3d4986d8
bea5f295
bd80a31c
bde905d8
bdbc0320
3e057fc3
3dc20f18
3f2590c0
3eba5f0f
bf541917
bfc9a609
bed45a78
3dc22440
3cda67ad
3df99262
bc947e5b
befb4871
be24fb22
bee66d15
bd6074b7
be7c7bb5
3e4e3ea2
bd6bb45e
3d42cd32
3e647ce0
3e9ccbfe
3deda7e4
bd30ede6
3dbf3164
3df94a22
be0a8f65
bcebea08
be3f80cb
3e887cae
3eb1eb1a
3f335326
be11b195
bf529dec
bf83ecde
bed2f93a
3e0d5a86
be9158ab
3dbb7db2
3e906990
bf00b85b
becac311
bedcfb0b
bd7d5471
3d81dcfb
3e90463d
3d6bad9c
3db87e26
3d9221ae
3e3f03c5
3ed40f36
be8df749
3c38fcdc
3dbf1b54
3e93518c
3d74e937
3d960f86
3db8f132
3eb45b77
3ef1e026
be43029c
bf1afaf5
beec3dfc
be4cf6cb
bd14ba27
be871e80
3da03eec
3d98a8d5
bee9aae3
be559f45
be54eeb7
3e6007ac
3e2f763a
3e4c0dce
3d637dfe
3e01ae19
bd95d144
3dbd6442
be230fd3
be33c0c8
be18ddb2
3bdf2657
3f167c71
3d8b883c
3e65f4a9
3e802fba
bb93870b
3e4a9fac
beb9d8ba
bf7f3b43
beb430ab
bd57e3b7
bca139e0
be085edb
3bb4590d
3d178c89
bd65a923
3d55de8c
be8f8e7c
3ddc411d
bd626a39
bea93b48
3e00e7b9
3e0ad2ef
bd07340e
bde7220f
be8bb0fe
3e15acc5
3db1ad77
be22897c
3b4afe63
3e66dfc7
bdd1631b
be214591
be78410e
be8429b7
bf45d2db
bf256985
bdd4defb
be0a3284
3ebb5954
3e04246a
be49ab9d
bcae6026
bd34e6c1
bec8baf8
bf26c7d7
bde8bfd0
3e8a52f8
3d3fc69b
3ef77b6f
3d16d8da
bdd0d660
bea8c3f0
bed004f2
3e84ec0d
3e2a5042
bd24c935
be3820a8
3e539a93
be286233
bd481eb7
be3c876b
bebe8d4d
bea1745b
3d681681
3e4ab3bc
3e5e7fac
3e95c009
3e09daf5
3dfa6b49
3e3a6b49
bdd14de1
be7bf971
bed3a94b
3d87ca14
3f0cb25c
3d268203
3edc1039
3ecce5e7
bce163bb
be303ce5
bf222fd6
3e4fe2b5
3e179e8d
3d8d8c6f
bdc945dd
3e808a71
3dc9c40c
3d74740e
be2e0545
bf51deeb
befa8a0e
be76e5fc
bd533aa7
3e77982e
3d3156d5
bd802609
bd92cb6c
3e8b7644
be48e71e
3c2e7c98
bd3081b0
be42476c
3f0b253b
3cb51b77
3e10ca7f
3d645c2a
3f203b17
3ed01954
be31ba9c
bde2772a
bdfc2b6f
3de0d1b6
3d753e5a
3e2119d6
3e65f054
bdb18241
beb13066
be988efb
bdb3b842
3d930bbf
3e6a1320
3ded09f7
bde89955
b9305908
3e2e6445
bdc49741
bd2af2ea
be1e8fbc
be5b507d
3dff5275
3eac9797
3e5ac2f5
3d907a42
3d68d42e
3f35a43d
3eeae703
3e3b620c
bf227d2d
3cc8fdb1
3ddab6a1
bde704da
be251d43
3df68caa
3cc6315e
be9117c2
3c73e988
3cbd0b8e
bd4bd72d
bdb9f944
3e195312
3ceed41b
be4baaf2
3d7929ac
be6ee614
3c0b54fa
bea128f3
3d8a61cb
be596ddd
bc7dec9a
3e62d925
3d115a29
bd4ae49a
3de14ab3
3ee1bea8
3f145784
bf2a3c68
bea07cd1
be5f76f1
beef2b53
bd688450
bda60444
bdcb3325
bd612f7f
bd4d6df3
3e7a24a1
bd982c14
3e91b061
3df48da9
be7d5755
bedfc80e
be2a725e
3e3c08c0
3e091355
3ec9936c
3edaa7a8
3e89115e
3ea75dee
3f401e94
3cb3330b
bd7322c2
bd8d36d8
3edfcbb5
bb5fa29a
bf214855
bf43762c
bdc5a197
3d38e7db
3e16c820
be101ec6
be42969d
bd3290a9
bc7162a4
bcbaef0a
3e168e6e
3ed9961e
3e2b5b59
be3ff975
be8effe8
be70239a
bdd163b0
be86443c
3e82024c
3d20035d
3e36305a
3e972ab6
3ed7715b
3d54e4c1
bd6ad85a
3cd62a24
3d88daaf
bf12ab6b
bef537aa
bebaf156
3d4cfb90
3eb35b0c
3e963525
3dc08783
3e774305
3c2c1eaf
3e5ebcae
be5e0f53
3ca38852
bdf5f4ce
bdb2a5b8
bd9724fb
be97c010
bebb8df5
bf16205e
bf545e77
be1ff585
be423420
3f25e7db
3ebcbd29
be000272
bd74d11c
3d644cfa
3d5db546
3e94e322
3d968309
3d54d093
bdce7adb
be425922
be72ea53
3e58044d
3e4bdea2
be037639
be66b18c
3e830f98
be4909dc
bee4e158
beb490fc
be50e6d0
bee79e02
bedcb884
bf38fa97
bf98b9b8
bf53118f
bdc07aaa
bf0afca8
3e0f3367
3eaa5932
bda5e5d2
3d5ced5e
bcf3d896
bd3c0008
be7c617e
3dccc050
3ee78e2a
3d5a204e
bdcaf4ed
3ca2f636
3e7909e4
3dbe4ca9
beefcbad
3c7b27ad
3e62a874
bd41b046
be11be0d
3d385e2d
3ed797ed
bc1eef40
bebc60bf
bf0e4bdc
bf363ed5
bec8aede
be4a8961
bea22000
3d94925b
3e10b2a3
3ce03ea0
bd6f6042
bd965eba
3d897a67
bcb399b0
bd546724
3e68092a
bf078241
be8cc681
bd7a727e
bc05df54
bec727fe
bed236e7
be889577
bedd0e85
bef1b9f2
be01aa3b
bc5f0f9f
bc156d48
3e4f8499
3e895379
bd665879
bef6e3f9
be94551b
be1fe779
bc57c8b6
3d31db4c
3d95431b
3d8bfa4b
3d6a34c2
bd0e4c33
bd9d01b6
3d424ef2
bc3a9d50
bd89d2ca
3df64516
bcbc8b22
bc70021f
bc05bbb7
3f0e6281
3e1d74ed
be64c1d1
3de281af
3e84cab0
3e4c60b3
bcbe965b
bdff0079
3eb14732
3e286b14
3b25396b
3dac7dbb
bd8ef94e
3d554d11
bcf48284
3d3123a4
3da32c7d
3c81b8a0
bd39159c
3df456d8
