3ce6e39c
bd72ba82
3d76fd6e
bce575c2
bd402d75
bca4d092
3d8b005f
3d908ae1
3af15500
3d7cb3a6
bd16a037
bbd81a60
bd606ef3
3e018f72
3ddc0a6c
bd40b222
bc79c958
3c244388
bd85955f
3d8f4b5b
3c6ff6c0
bd06fc34
3ceda574
3c9bdc4c
bd91caa0
3c404920
bd2321b2
bd4d5dbb
3d73fd7e
bc89456c
3d161972
3c519848
bcb3429e
3cb9480c
3cb43754
bccb4a6f
3d5e0925
3d43419b
3e993bdd
3ecaa40f
3e8aa7e5
3cf48053
3ea4dc42
3ed627ca
3ebc7d09
3e64cc9e
bcd6c928
bc7d1c55
3c5ef1e3
bd38a73e
bdb8e670
bd6cb6d5
3d43976e
3d1d25d6
3d7bad5a
bd9f4ebd
3d9c38d9
bd9eb006
bc292c90
bc94079c
3c357a98
3acfcc47
bc8306df
3cefab30
3f36e7b2
3f3fc9d6
3f72ca46
3f839801
3f140d2e
3ec99952
3f1658ab
3eadb1e5
bd148132
3bc7fc18
beb1c7dd
bf33e88e
bf11bf55
bc9ecfc6
be173548
3e383f8a
3eab183e
3e34abe9
3c822080
3d8a26b1
3d8c3527
bd8e5293
3ecb8165
3e9695ce
38a6dc12
bd9305ec
3e4bdf0a
3ee6538a
3d0408c7
3e9fcca8
3cfe1e8f
3f0b8adb
3f38c911
be0d25fe
bda3bce0
3e24af8d
3ea765d5
3e1dcfc1
be9dd41d
3e2ea904
be434f70
bf890d88
3d68bb19
3e320cbe
3e6984b6
bca5f26d
be6905dc
3c9c1430
bd6a67b0
3d24fde0
3f106e1c
3da9432a
be3469b1
bee36586
be6e492a
be0ca812
3e9ae825
3e9be519
3ebb6c85
3ec4a66c
3dfa6895
3d822b6a
3ed390c7
3dc60924
3ec96da0
3e83d9f9
bddb14c8
3cc2943b
3e8f583b
be3d2d12
3d161dfb
bf562288
bf1fa85a
bf06f26d
be62963c
bd64eaf5
3d7ac1fe
3d3a7612
3eee3d9b
3eb2fe2d
be9e826d
befdbe81
3e838530
3f199073
3da89d42
3e4c1297
3e0de325
3eb62bfc
3e6a5f50
bdde99d9
3d982b43
3ca2bbf3
bde1b73a
be8bd062
bea07d88
bdb48ee2
3d0e0b9f
3c60f9b0
beb854ae
bf858920
bf2dd9ae
be1ea30c
be8c7aea
bd93eafd
3d97555f
3cec4661
be341e00
3e3ee91c
bf155e7b
be0fbe01
bcba7f5c
3e8d4ff2
bdf29a0f
3c94fb83
3dd52279
3d2ef939
3eb996d5
3ed1668b
3dcc29e9
bc9af58e
3dad82e1
bd51b076
3c05e85b
bdff3892
bd5ce518
be596de2
bf114dfc
bf838f5d
bf777606
be4e72f0
3cbfca7f
bd930809
bd6ef086
bd915018
be19880b
3cc3bf42
bf29a8be
beae48f5
be48c83f
3ddff394
be03d527
be35eeac
3e8836e2
3e95ad5c
3e44930d
3ebe3cb5
3e0b69eb
3db3087d
3e303ea7
3e559733
3e936f23
3e4da55d
3d04ee9f
bd7303ea
be4ec12c
bf14a9a4
bf742e64
bec335c4
bc72edd6
3cad167b
3d8dc88c
bc61e28b
bdfbc168
be619e3c
beffb418
bf1ff12f
3cc58ffa
3d040c0f
bdfd8694
3ef270c3
3edf87f4
3f0a3f6d
bd162e6d
3de26970
3eb811f3
3e6bbbc5
bbb58595
3e4f3ed3
3e5a4ed5
3ddd6445
3d808e43
bf60a7ea
bf04a27e
bf1cf564
bf3e2309
beffa362
bd063b3d
3c089138
3b410f60
3dc7aeda
be0f340e
bde78cb8
bf00dba3
bf07eba1
be273ba9
bda9dfd0
bdc82651
3efef6bc
3e77eb31
3e2eddcf
3e3a2396
beb2e93f
bd8a8e52
3e1d9f1f
3e2f289b
bd9a6633
bc96f227
be87f949
be84d457
bf5415ce
bf15f710
bee48c53
beccebd0
3e3234d9
3ee8e953
3f228c96
3d9b2749
3d1d4e5f
3c8f34d0
bda79931
bf014680
3b75df93
bc9de4f8
bd87ce69
3da73b21
3dedaf71
be5f8dfe
bf40b4f8
bf2dd176
be9394f9
be347eaa
3e6602ff
3e94d727
be32195d
be6b6649
bee35b96
bf360037
bf4486d1
bf0fa2fb
be7f57a2
3dfa4417
3e5bd709
3e9f60a8
3f160425
bd2b6322
3dee2b55
3ab79b58
bd9bf797
be306274
3d90a580
3ddd20a4
bdab7c9a
beb9a66a
bf1e7664
bf8446d8
bf1bf86b
bf3bc4f1
bec1ba98
3e59f925
3e071eb9
bc753721
be9949d6
be82849c
bf2294d2
bf4143d4
bf127fb5
be8f1c78
bea74aa2
be25d6ea
3cd0f6cf
be829153
bd8362ca
3d5b70a2
3d16cc03
bca5e0aa
3db28486
be4231a1
3d8874e2
bedfc9d5
bec8ca87
bf613795
bf85c3d6
bf71f44d
bef0eb3b
bdcf480c
be8216f5
3c08faae
3cddfd06
3b420bd1
be9503cf
be398d58
bf7c81d5
be68c014
beaf8adc
be9af07e
be4612e7
be30eee0
3dbb57ec
3e99ccf3
be8e75e3
3c487d5d
bd8c2140
3ec12738
3e92ebcc
bec67b8f
bec432a4
bf72bbd5
bf442955
bf782f7b
bf3d0a18
bdc5bd1c
3e980715
3e2febed
3e5d4c89
bd0eeae7
be0dd72c
3ddce66f
bdbdf104
bdc0a71e
beb64fc2
bf152061
bcb5fe98
be52537a
3cdc31df
bbad0f5d
3defa574
3ecd4638
be5d6d7b
bd79b705
bd823892
3e030ad5
3e57c1ee
bedb5f79
bed2526f
bf207d12
be40d61f
bea69a4b
3d9a1b72
3e9c310d
3ec832c7
3e19430a
bc9b937b
3e079520
3ce6c5eb
3e20b638
bed0f8dc
3db4752b
be89ceeb
bed4c239
be93d95d
beb38f46
3e30ea06
3e226649
3e9047a1
3f407bbb
3d56df5c
bc8e1038
bd733702
3def52d6
bed50a66
bf32b50c
bea54a86
bed58bad
3d2453b7
3e159347
3ea1f667
3e79d22f
3e8b12c3
bdb10fea
3ec65bdb
be67d2e1
3d95fd62
be3915a4
be8eeeb3
bf7d572b
bf1e8a70
bea4a1ec
bd09bb71
bd42e19b
3e3855c9
3ca1eb69
3ed2f1ce
3f5a8057
3f77b6fb
3d97d57b
3cf92ff7
3e484024
bf1d4afd
bf525a8d
bd1cb1ad
3d7b2442
3dbb58cf
3ea6d3b9
3ec86c05
3e8377fd
3e791902
bde147aa
3e6f8cde
bdcb73b1
bd9ec521
be888818
bf54cf42
bf3067ad
be40ed33
be0305bf
3e4b1664
3e81386a
3ec05151
be7a55c4
3f32e526
3f5d13b3
3f8352cf
3d92b3d9
3bc00334
bca57a3c
bf3ec853
bf4e6e46
be464a60
3ea45630
3e93a1b2
3d6901bb
3d9c3123
3de32d6e
3ca25224
3e2566fa
3e401cbf
3e946979
bdf2fde2
bee69bff
bf17f660
beb17b06
bdb0f075
3d194ce0
3e4eb9a3
3d686fd4
bdde0974
3ea25734
3f9e19ea
3f1ba9d4
3f91c27b
bbbfc93b
bd8d9d8b
bc5d2628
3cc4d256
bf14c584
bdf13835
3ec9648e
3e8f9554
3e7465fa
3e7e82b9
3d3bab63
bd9d3453
3e24a839
3ea69f3d
bcf1b7b6
beff2d2f
be3dbe98
be497f48
3de76d0b
be2076aa
3eb57891
3d4ff1c1
3ea281c3
3da11f49
3eef6c8d
3f6c772e
3f02717a
3f4b8ff5
bd992c76
bdbe11be
3d49cb0e
3e6bb042
bdd578f0
bdcc7566
3e12700a
3e6c532c
be800c70
be2dcbb7
bdb1aa04
3e15fdaa
3e75faa0
3ef3d6e3
be885556
bf13d523
be7b7836
be40f588
be42d0af
be5afc03
bd9e6c4c
bc9fa54f
3e0b897c
3d62ba55
3da1e706
3ee42126
3f2061bd
3ea282ee
3aad5c80
bd34aac0
bd147b49
3ec8114c
3d1cd659
beb4dd15
3cf40f27
3e03eb86
be68fb29
bd6ffd35
3de307d9
3eaf4bbd
3ed38ec2
3d10885d
be581558
bea0e949
3e0cdfe3
bccfb683
bc206b17
be524092
bc2f7194
bdc6b61e
be96fa2b
be8596d5
3ee9f7ce
3f13bdc4
3ef423a5
bd168da4
3db05df7
3da77c7d
3c6d6153
3eaf096f
3e9483e6
beb92c40
3c07e9e1
3e3b9a10
bef48e29
3e61e4a8
3e0c64b8
be0a193a
3d9144c7
bd66ef4c
be1aea3f
bef19771
bdb92028
bdd40abb
3e0b7f2d
bc49ad61
3d77ed0c
bcd68de6
3d1443c6
3e7cf1d9
3f7ab69c
3f0681c0
3ec89909
39b51700
3d9cad9e
bc46f5ba
3e963542
3e44fcca
3f28e64f
be5487c3
3a1b8f3f
3dde7ac8
3dcc591e
be12aae8
bcc7b60b
be577425
becde2aa
bdd3f371
3eb5eeff
bf0a89f3
beac28e2
be2ac508
3f07930e
3ea4e5aa
3ede0467
3f063ec3
3e24cc58
3e9065b0
bd52fa1c
3d5b41d9
be1cb353
bd0797f0
bd884468
bda31f50
bd239cf0
3c70d8fa
bec6d74c
bec7f387
be330266
bd786514
3e7cc7e4
3e23b128
be943944
3e692399
3e96efe9
3e15db84
bdbb4a8b
be94384a
be9fbfab
bf169c57
3cb9c8bd
bd17f9ac
3b7f3926
3e1e2def
3e50bd51
bd96c47d
be3302fe
be96ec2d
3db24f7b
bd964484
bd313a73
3baad200
be2160d0
be3f0852
bf3a6e2b
bf07e43c
bda3bf9e
be06dcb8
3e07f552
be90e041
bf475fc7
be8db2a7
be6f620a
beae534a
becc7f08
3c419e6a
bef78030
bf6ed5be
be853ce4
3d8a6faa
bbb743a1
3e7ff28f
3e3232ed
bf13fb57
3f012ad2
3f2e1b8b
3ebd3345
bd9bf07e
3d14b51c
3bb90710
bc9efd26
3df51b10
3ea33d6c
bd829fab
3e2f524b
3f0860c6
3e932566
bd7cdada
be27e419
3e908b6c
3e3500d3
beae0ff8
bdcd9603
3ed47455
beaa2072
bf0ef23c
bdec95bc
bf3ca646
bee66394
bd8e32e1
be9d28f5
bf1914df
3e9260f1
3eb5901f
3ebd2f75
bd1a0b8a
3d9684a3
bcfe6c58
3d4fe96e
bcd52e49
3dca60b6
3ebea5de
3f0dcf56
3f282797
3ee3022d
3ea941e0
3f1b6375
3f3ef3e7
3f43ccbc
3ec6c35f
be66b86a
bef32507
bf193880
be91e47f
be845e91
bea77913
bd4833c2
bdcd92f4
3cf18293
3b41b713
bd9c0d32
3d699651
3cd42e78
3d6fc6de
babe0080
bc8b6794
bcb6578a
bd84bf1e
bd167bfa
bb2a3a40
bd93b7df
bd964cb8
bcc279da
3af8542a
3d621e26
3eb32290
3e031eaf
bce3cf25
3d9502c7
3d803260
3d51da68
bc87cd01
3d1ce3c3
3d2bb51b
bc54bc28
bc454430
bd647bfe
bd971537
bca31862
bd7f8428
bd81d3da
3b4e7d80
bea97ca4
