3d50a642
3d87852d
bd6ab414
bd6847c8
3c64aa00
3d903f99
3d163924
bcf93632
3d83ed97
bc455238
3ca93630
3cab74f0
bd49171c
bd82f8fa
bd8e80a8
bd9f0bd6
3d1f41b0
bbcdd4c0
3d971c7d
bd54428f
bb033ea0
bd635788
3d844b01
3c93fc38
3d9a9fad
3b976230
3d4b87be
3d284b12
bc59c280
3cb54de8
3d8b27df
3d99ef0f
3d81c25f
3da0f485
3c8eb502
3e1f0e53
3dcd7f31
3d11b45e
3e06ae82
bcc74540
bd658ab3
bea20e62
3e10f7eb
3ea6ea07
3ecf8ead
3d3c5116
3e5d1b8c
3ec1691e
3ea5ab33
3e3b5b5d
3e2a2ff5
3db804bb
3c92a7b8
3d86907d
bb7aea20
bd1ecb88
bc5b1c48
3d76b98a
3d8e3772
3cf3871c
3e21642a
3c392535
3e197a06
3e9ab3a2
be0daccf
be246483
3e5473d9
3f2da295
3ce1ee90
bea5398c
bf21d5a7
bc4cea14
3f00e64e
3f3b91b2
3f2a9031
3f6e5a3f
3f7d51d2
3f173c2c
3ec30b61
3eb56013
3e8cb654
3e128cf6
3d8ea4b3
3d9beae5
3cc6056c
3d690976
bd1c9f53
3e135021
3ebab842
3ebb6c37
3ebd301d
3ee18832
3e6cec62
3ea720f9
3ec85fef
be9fed92
bf3e02f4
bee49fad
3d64b63d
3e965cb0
3eb94d2e
3ea40625
bdfc8b88
3cd92732
bd93b87a
3ec39ab4
3df6ebef
3e076171
3f5db9c0
bea7f79f
bed1af75
3d7260f6
bd93e09c
bc71f381
bbc496f8
3dff390c
3e0435a4
be15610e
bcd63123
3e55d118
3ea8e572
3eeb7eb6
3f178f9f
be7bba41
bef96513
bed7591b
be7bdab0
bc8ec7d9
be1f39b0
be2651dd
3e35dab4
bce9643f
be016f54
3f4e1f01
3ef70305
3f1b4045
3b49b9eb
bf27245e
bed53658
3d135175
3da42287
bc7180b0
3d0c9932
3e94893a
3e67fd60
3e22f6e0
bf08c900
3df16681
3e152522
3ef8bcf0
3cd58c8f
be9c73fa
be96141d
be98b281
3da2c01a
3c98fc40
3e68b407
3e8e79cd
3ea61a92
3e01a1af
3daae180
3e0d3af3
3e9dac61
3f4cb1f7
3e935fec
bf3fd10c
bd3fe161
3d41ce44
3d008008
3d633fc7
bd47977e
be725086
be284835
be32dbf8
bebe2ed2
3e3c36f9
3e003ee7
3e5617ce
bd96ff05
be64d695
bd0556b7
be97fde7
3d06d74f
3d9b66a3
be378aec
3cc167ff
3d86da1d
3eceae1e
3edbb0d9
be4bc11e
bda66c63
3d1c4299
3ea55231
bdc1f3da
bc860228
3dce2f73
bd9ba0a8
be07a457
3edb31bb
be412238
be3dbee3
3ea7b9b6
bd9875a9
bdad0900
beb48255
be2c838b
be268f62
bdf35b34
bd82d545
bdd07329
3e2dd7c3
3d5ed9c3
3e63e009
3e99bbf6
3e6c0a5f
3f0c703f
3e8f3e21
be3ce325
be2a7f67
3d0df430
3d95324e
bf09d51a
3e58afad
3d9a66ef
3cc5a963
3d9f1c75
3ee9bfa0
bdbaa383
bdd5b288
3c89beed
be8f2ced
be22e46f
bd7a05f3
bd49f870
bd6f7cd4
be456ec9
3e6fe0fe
3dbe24f6
3c2215de
3d9c96bc
3e18a8f7
3e628eb9
bf03551a
3e3bec92
be06b3ba
bf028193
bf70c2c5
bea5bed1
bdb0a12a
bf54e152
3d89e693
bd13e1a6
bc9d97bc
bd11904c
bf3a2c69
bf10c0fd
bc38a0d6
bec85b72
be4e1f6b
bdfb96d1
3eeecb3c
3e2eea65
3cd0f45d
be175cce
bd60cc97
bddbbb83
bde439ff
be37d9fd
be793f4a
bea54203
bf0ce63f
befca210
bf106c5f
bfc45403
bfb71fa1
bf727ec4
be3f81be
bd5e18f2
3dbdd1e5
3d0d3c9a
baa38840
3d81997a
bf116dbb
3ddfe58b
3e3f98a7
bd3b0663
3e07be5b
bcdd3ccd
be0a9c0b
3e6702ba
3dec9afc
3a8549a3
3d9fc08d
bd188fb6
bdfa36af
be5c5d3f
be8e6470
be640ae5
beee71e8
bf101d33
bf9b2263
bff1d73e
bfc04dbc
bf9f52ae
bf507ea2
bedb35c6
3d753189
bc02f944
bd980ce2
bd5f0a62
be7fa0e7
3e9b49ad
3d643e70
bc50c857
3ed9ed9b
be91888a
be2fc3c4
39f86e79
bcc976cb
3de725af
3e84f314
3e26d557
3d18a82d
3dfe52f1
bd6c8488
bed28c57
becf9ea1
bf02fee2
bf415587
bf5ab7c3
bf8b6664
bf94c478
bf5facd4
bf22ac8e
3e08bc20
3dc5685a
3c76dac7
bd8124c8
bdf0b039
3e55c7d6
bd84f2a8
3e11d6fc
3e6c80c9
be3370b8
be1857a5
3c2fd6e2
3dc237a1
3dd45764
3e159837
3cebe6bb
3de6ce03
3e234548
bbf139e7
3b6ed6de
3e3c6047
be705b01
3cece73b
be5259ba
3e0e902e
3e84cf24
bedef146
bf232e29
bd758cdd
bd9acab4
bbb61c26
bd3a5cc3
be3356e1
3ec56632
be2e4463
3d245ff9
3e8622fc
3d780701
bd1a197a
bdf3146b
be6e2e1a
be4e9b45
bbc6a2d6
bdf92ebb
3e112dc5
bd6d4725
3e009574
bdc77506
bd80c5b3
3d2942fb
3e8da8ac
3ef1580a
bd441514
3e290df4
3deb6bbb
bf800fce
be32de0c
be92c2e5
3e384a69
3d362856
3d2d9141
be6168cc
bf02a42e
bedc25d3
bd90e349
be2b7d8e
3d4ce056
bbe2a438
3ba52382
be82c070
bdaa5dac
beeb1b52
3e264265
ba6ad0b7
3e5cfa2a
bde98a30
3dcccb17
3f2321f8
3ec62736
3e9e7b82
3e52bb98
bd7b2cab
3e81ebd2
bec4ef28
bf41c52a
be18519f
3d307db2
3e3617fb
3e5cb400
bea0f25a
bf3c0fc9
3dc88e63
3d9f8521
be960bd5
3c82e017
3cdd1fc6
3d77ef3f
3e0ef368
3e44e0a8
beb6e048
be0d90f5
bea9c24b
be98bd4b
3e732909
3e5db045
3ed16d31
3ec5050f
3ed35874
3e834efc
3e6110af
3f02fa87
beadc36b
bf631779
be4403e3
3ceccdf0
3e23e285
3e2de4b3
3e11e6a8
bf09c1ae
3eeae128
3cafc0ba
be7ac6a2
be8aeee6
bd931088
be2653e9
bc1cef10
bdfb18ac
be7adf86
be8762d1
beeb82c6
beeb225a
bddc68a0
3da21468
3f182ba7
bd3d0dcb
3ca805fe
3eb0c4f0
3c1d0185
3f25109b
bed64712
bf802c92
be9cd27f
bd92a5ba
3d3f7e59
be0d32e6
3f11e95a
3b693a57
3de42943
bcbf7132
3db44c90
3e3b8719
bdc5305a
bdf00f42
be32f5e9
be66c2fe
be082ef1
3d114015
be8b1d74
be8638c4
be85137c
be89fffc
3ee28a11
3e34205b
3f146848
3ee96c86
3ea712e7
3e938958
bf2eb38d
bf205ec1
be3a16b6
3bcc6045
3c969498
be2227f8
3f5ca359
3ecfce72
3e4b9775
be626f8b
be1bf8bb
3e4154d7
3f189d68
bca0e42a
befe8e05
bd8f7443
3dd04b20
3e3382e6
3d9ff8c3
bd6e7c6e
be3df9b4
3980d1a7
3e84f8d3
3e0e6686
3e427ec5
3e8a54a4
3ea5360c
3cbfda83
3c80d16c
befd2629
be364211
bd2a796e
3c9626a7
be31de80
3f646268
3ec0e9a4
3e1bafae
3c919dfd
be0687ab
3e0f0181
3ef811f6
be00746a
bcea491f
3e28c078
bda33efb
be8e41ec
bc77039d
3da00167
3eaa15e2
3daf17e7
be8591dc
be445be1
3c03a906
3d0d5624
3ec6e1be
3e0a0f54
3ec91571
bed6a71d
be2cfc9b
bd9e7c0b
3d9619dd
bdd118db
3f607ad0
3e8bbad9
3e104125
3d990e97
bb99774a
3e00f473
3efbaa05
3c844164
bd8fd215
be423fa5
bbfacea7
bd052d9d
3d86174f
be1e466b
3eba83dd
3e14f221
3e5fd1fe
be416276
3e2e4b94
3e096cea
be4007c7
bee7084e
bf092a52
be8faa8d
3d41317d
3d47b0cb
be05e285
bea9c1d9
3f17af04
3aec333b
3baec2cd
bdf8997b
bc0ac6d0
be77490d
3d86ab18
3b10e8b4
3e2d0c88
3e012881
3e82c381
3ed192e2
3da463ae
3d59104e
bd19d65c
3e69012a
3e9a9687
3e75ae8a
3ea1ce36
be0a731b
bed3d27e
bf29a338
bf077626
bec1bf35
bd40c6ce
3c6c3529
3c87f0f4
be589cac
3e88c41c
3d3bac38
be3d81cf
be823545
3e80ae25
3e651863
bd3bb978
be553410
3de9efbb
3d8777e9
bd5514ae
bcbcc487
3d5e3663
3d3a8414
bdf736e6
3e644ba4
3e710755
3c4104a7
bd8efc22
bca049b9
be8ff4e4
bf78312b
3d5d5088
3e2e37b6
bd168d39
3d425096
3d72165e
3e1aa0ee
3dec86cf
3e02cc55
3e02e3f2
3d9b54b9
3ed6d29f
3e00d8cb
3e6caa20
bd700733
bd4e8ac1
be6d1710
bdbae552
bd891e86
3dae7bab
bc3f3741
3cd990a7
3e925399
3d105514
bea110b5
be05283c
beeb9798
bf814360
bea1b9d0
3d554f0a
3ea9e77e
3cbd83b0
bd2911b5
3d0beb96
bcdbf75f
be520e71
3e7a346a
3eb466ee
3eb73169
3f07533f
bd5be964
3e529719
bca9dc4b
3dcdc7e7
3e5d8d60
3e8c7bc3
3e57f812
be1afb2e
3b7032fd
3e6389e5
3c08130f
bf2ae889
beb06d56
beb72614
bf0e9eb8
bf2f101b
be44e5c7
3d806031
3db520f2
bd459de2
bda40f3c
bd122304
bd5853dc
3cf83f60
bcca6704
3ccd8883
3edcfb81
3f517052
3da8e2d8
3f0c5469
3eff7362
3df8b7a0
3ee81f92
3ec0755c
3e83410e
3eb0ad66
3ea432c0
3dd13e1e
3e536435
bf077d75
be0edd46
3e128fac
3ed382eb
3eab3b36
bcaceab5
bd1b525b
bd7c04b2
bd8b2600
3c8c1074
3d788796
bd316b6c
bd1c9162
bc5e932c
bc41727d
bdd2a46d
be20f8ff
bebacb3d
3f012323
3f3fec7b
3eac83b2
be93ab35
3e645e73
3ea4ee87
3f38cfe3
3edddb68
bec39374
bf4b5312
becc4b0e
bdb62053
3e541d07
3e8aed9b
bc81b6fd
bb002345
bd8811d8
bd98b130
3c0cc7e8
3a9ceb40
3d827a43
3cbb18d0
bc5577c8
bd4c2781
bc172ae8
bd314b28
bc280b55
3d3df70a
bd019595
3d12e326
bd6e22d0
bc2fdb77
3d497261
be97c62a
bed607b9
be7018e5
bdb52a0b
bd48e392
be1b4115
bdbbbb32
be442ec4
bd2bdee7
3d5c25ba
3bc5e730
bab9cb40
3d3731be
bd4dcf5e
be01e26c
