3db33bc1
3df63678
3e831b7f
3dca2bb5
bf084cec
beec322a
be0a009c
bd087817
3e3f2833
beddc32d
be55ea29
be749dd6
bd4d8b7b
3e04844b
bed67d52
3e9bdc87
3e55af94
3df6c16b
3ec978d9
3e8c7b42
3dc2bd5b
be7701e7
3c59d849
3e8e780f
be8b5ae8
be04fb10
3e32ea1d
bd38011d
3e8b5cbb
3df13ea6
befadb3e
3e969b7b
3e9720a1
be5360e2
3e1e09cc
3eb5a4e9
bf5beef7
3dd0a42a
be13a107
3e29fb3d
bf665aaa
bcd0244b
bdf77054
be6830f6
3e83881a
3e12a71c
3e7b8752
3e786381
bf1438b2
3dfcf2b4
be6d44fc
bf431ec2
bd270d4c
3c5a0ea8
bc89f10c
bf072856
3d1805f7
be05b6be
3eb38c63
3e961d1a
3e517562
be85654f
3e93043d
befe1679
bed1aa34
