bc38b73d
beb7a7fb
bddfbfa8
be2ff7fd
bebdd66e
be6a9e5c
bf1e25c7
bd8a23ca
bf07d6d4
bda9b6f7
be857cec
bebde0e1
3cea9939
be119e5f
3edd442d
bf7adef7
3d69ed09
be92fab7
bca39eff
bc851080
be569a37
be9a08d3
bc1e8ee2
3de04386
bead6ca1
3efeff14
be914f7c
3ee87dc7
3dcb76a9
3d129ebe
bcdf7b69
be405d42
3d976432
3dd4bb3b
3ee4b496
3f73942d
bf1f13d1
be4c9845
3ddd0b30
3e20389c
3f19031d
bf5076ba
bcdf3f92
be1edac0
bf1f23cf
3e101ea5
beae3297
3e98588c
bdc7fdbd
3dd0de93
bbb6f5c8
3ed669a2
3eecabf6
bf49ad92
bdf83353
3ebbb0fd
bec0b07c
bdd32dc7
3e64e715
3e1916d6
3e41c9b5
3e45086c
3e3d923a
3e391f21
3e13ff78
be9a7454
3da7ec16
3e8cd955
3dcf73c8
3ed5a5ea
3e827763
3e57472b
3d4893bd
bf447918
be1ad00d
3de29cc7
bf16e653
bd09a822
3bcb516e
3ddbf5cb
bd445704
3e8a0612
bddf7fe8
3dcea7b3
3d2efa0c
bf452a51
3e00d2ac
be9703b2
3f04526b
be7c1094
3c410f07
3dcc059b
bd6a17f5
3eb2efaf
3d886772
3dbeba32
3ed0179c
be9b790e
be4baa5d
3eb5560d
3dbad57e
beb8bd01
bb2114c2
be634755
be4daba6
bf0a488a
bd1a2726
3e8b2c7c
3f0e1c68
3e7fd38f
be35e893
bed1f9cd
3c8be6b5
3dc1bc75
be3f7a84
be44ef49
3f414e0e
beee831a
3d9d8de0
be95aac4
3d9c6c25
bd448dbb
3e382c79
bd802160
3dda93c1
beed4187
bd671658
3f879882
bf3079ec
