3ce5480c
3ca2a13c
3c10dff0
3d928825
3afe2880
bc0f0888
3d17fa12
bd294630
3cb39d58
3da382c5
3cde409c
3d1946ee
3c83c1c1
3def2f06
3c629027
bb1a44d3
3c66b1b0
3cc85678
bcb6e660
bc6086e0
bc8884fc
bb7d72c0
bd99e7f6
3c98ae7c
bd2b837a
bcf26df0
bd5d7f23
bd503894
bc324a48
3c339348
3d5ad832
3d006416
3cc8c3ea
bcb0e784
3e7db15d
3e04c30e
3e30dfa4
3e398cc2
3ee18526
3f0c3d9e
3f1f4a48
3dbf9e5e
beba74cc
3e8df497
3e74f13d
3eeed061
3efd623f
3e5ee601
3ec0c0e1
3eab5dd6
3ebb8acb
3f010f12
3d1de9d2
3d06a4ba
bc5ff5e8
bc23ec00
bcc6a0f4
bd9f69ec
bb6c08ed
3db858ea
3e31442f
3e0bcb3b
3e8a4063
3f0a01ac
3f5094bd
3faf0557
3f5879b9
3f5bdaf3
3f5f1c7c
3e7a85b2
3e2c66e7
3d89c1a9
bcc88835
bd7363ce
be599e2c
be28838c
bed9951d
bd823ac7
3e172a39
3eb1509e
3e86a9bc
3d84f2d3
bd55e8ae
bd341cbe
3d49a25e
bb8204f0
bdb3c17e
3cdbb699
3e49dbce
3f369891
3f89b2c3
3f731fbe
3e6ea339
3e0e9db7
be7a95b1
3f0a72d8
3efa3e8b
3ef18e16
3e8bd6ed
3e9065a7
3ebc59ab
3db8feef
bef9d43c
be923b07
beee7b86
bea77cee
bea09837
3c11564f
be017a41
bc1ed948
3c2a9d1a
ba65b380
3d02031c
3d3b6072
bccb7962
beb065ca
3ecf4313
3ed657b8
3f598f6e
3eb51ae6
3d32eb05
bd13d8a8
3ebb821f
3dbad556
3e21767a
bd2c1591
bdb0b20a
bde348aa
bdfe58b4
beeeabe5
bddd973f
bea1482b
bf2a5404
bed23a62
bf150233
bef4ccb0
bf02bc38
be842987
bd716733
bd3b4461
3c3106c0
bd5f8195
bd83476c
3dc1af40
3f1c9ff7
bea20e83
bedf2de0
bda352c8
be1ae3a7
bee73090
3e14a350
be002385
3dcd020d
3d85929e
bda3292f
bd84a249
3e3ceeaf
bdd74a0b
be732185
bf2fe89b
bc30ee8d
bf6737cd
bf28fb03
be8a20f3
be601e4d
3d499c48
bdb6d5e9
3c03b38f
3d2eb866
bccaf7ea
3ebd24bc
be37e507
3ee78d13
bece6793
bf0e095e
bd9d212b
bece9df9
3c298597
3e85d586
3e1ed2b2
3e96b06f
3ecbef93
3ee5a769
bd037a5f
be26de66
bf506e81
be733ede
be92adce
bf091605
bfb423ad
bfa9e8cf
bfbb5f81
bf7fddea
3e1bc324
bc5a47be
bc4560fb
3d07fb88
bc247923
3e0003a5
bed738d1
3ec2f7a1
3d94778b
3d1a2eac
3da71447
3c55508b
3b8c2a48
3e0df2b8
3e5488d8
3c387319
3e5ba444
bd092a02
beae870b
be72ea2a
bf16c9f6
be9ee8eb
bf087437
bf6462c6
bf43c048
bf7c0e60
bfc4a060
bf805282
3b2c94a2
be4af660
3a71b2cd
3e8c7c1b
3db07c52
3e905ee2
bf158492
be96a874
be657800
be271adc
bec81eb3
be40d785
bcb8f67e
3e2a0315
3e29b4c1
3d6703a2
3e2a3c73
bd834fd6
beb355ca
be211c51
be39ed06
be3071f2
bc5b3580
bf0f7322
bed96e08
be8afa55
bf48cde7
bf3e581f
3bfe5b51
3e4a8667
3e0acf74
3d623d0d
bddd15ca
be50341a
beeecdad
be25e79e
3e3efa5d
3d46809d
bc93477a
bdcce1d8
3da97ec0
3e547229
3cf63656
3e0824ac
bd4b4977
bf35a93e
bda59055
3d0b0976
3e81e32f
3e87ae48
3e5ea558
be338b94
be9ffd8f
bea528b5
bdba6762
3e758da1
be88c72c
3b1d6d3e
be1c5b57
3cce3319
be499df2
bf2f3813
be3c7132
3da7ef54
3ebf0731
3ed69b43
3e64f5cc
3ba915a7
3d416bf8
bd8037b2
bf09cf03
bf150754
bf5c54a1
bf818153
bec2f741
bd4ba31a
3e6ab635
3eb08e1e
3d6650b1
bd1ccbb7
be6b4640
bf064180
3e6b48fa
3eb549a0
bed784a5
be98fce7
be09f230
bd00282c
3e08b21c
be4e1af5
3e9bf119
3e52b5ea
3eba3300
3ead4eb2
3c9bae0d
be691ce5
be51d0b4
bea7e701
bf3685c8
bf8efdf6
bf7e739b
bf01949d
be384863
be115b53
3d00a184
3ea65717
3ee219fb
3e9161aa
bd9cd9e5
3e038a5e
3ecd9f1e
3f3eea69
3e33601c
bebe2fc2
3ea5a2c3
bd802bac
bbdf7b6c
3e3cd313
3cb37e87
3eacbb70
be38db06
3e4e22e9
bead8a06
bf13a3b7
becdcdff
be286883
bf127678
bf2ddb72
bf22036f
bd4341ab
be46483a
3dee65ab
3d8c5424
be61ee44
3e89d8a4
3ed2d472
be117e3a
3d64f46e
3e7cdd52
3f488d8f
be3b36ff
bea62e3b
3ed9b8f9
bd093ee6
be098d92
3e8aaa67
3d19a719
be21b078
be3d4ab5
3da6bcde
bed52680
bf0af173
be86599c
bc2f4dfd
bded467d
be215de0
3d19100a
3d02d157
bd128391
3e864844
be2c69a5
be33b1e8
3efac131
3f010a28
39d3ed5c
3cec457a
3f0efaea
3ec3d6f0
becfb38e
3d08a151
3eba09be
3d256fe9
be0df72f
3e111d94
3ed1b256
bf00182f
bef9283f
3ec956a1
3cc71fc4
bcb6f6df
be84e762
beb983e1
be878d61
be1bb2c9
bdaabef1
3d40b87e
3ea4bd5f
3df94f74
bc97c928
3e8acd0e
3de0e560
3eaad5f7
be35567e
3eb043fa
3e5e1481
bc9580b4
bec9a09d
3dbf89bd
3dce20be
bd55a478
bd8c472a
be2e4a19
3f02409b
bef868bb
be378806
3e9d983f
3d864574
3ead0430
3e638a8b
bea5f474
be6d92a7
bea7f947
be495657
3cbb11f8
3e0b9df6
3dc60383
3b49a5bc
bd928499
3e037c2b
3e998f08
3e018c41
3d67e1a6
3d27d644
3d4b33ad
bd441d27
be1d50d1
3e610ae3
3d2b9b3d
bcf866a5
3e8cfbd6
bb95a1ac
bd487cf6
3e9371dd
3ea54cc1
3b831e1c
3d990b54
3e44eb69
bda0e9e4
bd5b7f70
be0132be
bdf15ecc
3e3070d3
bc158624
bdabd2ca
be2b8de0
bd9ea4cf
3e37ba5a
3d7f1772
bcc37926
3de0f5f4
3d521190
be849591
3ec00bdf
bed47d80
3ee28194
bd3be3c4
bcff8984
3ee616dd
be01f06b
3deccde3
3f02b87e
3e379a9c
3c5db44e
be15e956
3daa6282
3e5da1a4
be375a68
be4cda93
3d110015
bda307d1
bda740fe
be40e879
3d8042e3
3e1e2d4a
3d518d8e
3d9fb832
3e0c56d6
3e16f377
3e11a164
be035caa
3f7fb875
3ca3cd34
3f20ef3b
3d534c65
bbc295d6
3d4d650f
befccc46
be42edb7
3c6e705b
3e5adb81
3d841873
bca13c46
be0f3bcc
3eab4896
3edd96ae
3e5a8219
bd145f01
bd334442
be55746e
be5ad6b0
3d84b7ca
3dda2341
bde4d293
be4de8b5
be015beb
3d8cffad
3e9a56c5
3d7d6b7e
3fb90e1c
3e9d32a3
3f0ba4c9
3d4eb2cf
3db62943
3d98e2b4
beb09031
bea8c54b
3d90e3ba
bde23c33
3d21740a
3d915e00
be2609d5
3e2905fd
3f094f38
3debdb38
3d01596a
bdb61395
bebe3acd
3d45c0be
3dc028bb
bc8989de
be3e6eb0
bc29ee0e
be8529fd
bea9f0a6
3e31f283
be4b65db
3e89af9e
3f1aa0db
3d1ca354
bae22a00
3dcfcd9c
3ec8fb88
3e18c4fb
bef64e3b
3efd7bc1
be972941
3e093dbe
3df764c1
3e1445a3
3e6bd1ea
3d148f77
bdbcf7f6
3e9f3208
3d95593f
3da03f96
3e5fad62
3dce775b
3e00ceef
be43b2f9
3ce45582
3ec073e3
be891f42
bea0fc76
bdfae15e
3f23bc42
3ecd7c75
3d8736b7
bcef0274
3d501d6d
3ed7c023
3f113f5d
beeef17b
be191d9f
beacea87
3d2bf47c
3e08e8ab
3ef21ecf
3ebad08b
3e703d21
3de2dd6c
3e599554
3e23b04e
bbafcaeb
bdc994f8
be8fecb0
be14cee0
be41c86d
bd5dc976
bdde6b6c
beddbe40
bd829415
bdc1e388
3d812a12
3dd25d86
bda3a536
bd05eafa
bd407d79
3f0c06a0
3f302abb
3ea165fa
be452df1
be35a6f6
3d6afa31
bd0163ff
3eb74f5d
3ef54a49
3e2824d3
3e676609
3e7c9331
3e00fdcc
be1b588c
bd63f7de
bed853a0
bc8d1ae6
3d343790
be599e14
be8159f1
3d99cf4c
be62e9f1
3d92f6fe
bf36c9dc
be27bf61
bdbd9a77
bcdea0ba
3cde308c
3d9bce43
be876898
bf209c8d
3b849345
bec0d86c
3dca4e4f
3d7be057
3e9c3923
3ea538e2
3ea45155
3cbecc21
be60951c
bde79fe3
be4ed088
bbdee4a6
bd8e2d15
bc758511
3e437742
bdb5a2c5
bd85a705
bd7bf5ca
be1730f9
3e4c9a08
be8a6619
be371751
3d7df4c6
bd233e00
3d592aa2
be4150ea
bebd362f
bf882eef
bf6dd31d
bf73692a
bf0c0166
be7fd31d
be922e28
bee8c09c
be68ab07
bef1ccf1
be8adbd6
3dce9a85
3e9cb8ca
3e71ca06
3eeb2277
3f3ce231
3ebc2f1d
3c2488d5
bcdc8d27
3e50f7b5
3ee889e9
3fb4c7d8
3e769aa3
3df64dd4
bd49099e
3da2e1b7
3d188946
3e879e31
bda8adb0
bdf55317
beb65b74
bf34b824
bfaedb80
bf9709a4
bf9fed06
bf8e85fa
bf56fcb3
bf80d170
bf3cf77f
be2d85a1
3e5107f4
bc04a2eb
3f0a5c51
3eca6b54
bdd64438
3f6e4759
3f510da9
3f3b5f63
3f01568d
3eeb1dc7
3e5b25a1
bba03f99
bd98888d
bd868f7c
bd0eff45
bc2cccf8
3c726929
3df4a9de
3e81e7bf
3dd6d647
bea02d5d
be3d4b91
be842e4e
be0f86c6
be9c2489
be8aba2c
3f10adf2
3f043559
3e84537b
be1059d0
be5c1335
3e8b3065
3efced52
3f412c1a
3f15c9a1
bcb35f6b
3e87ca70
3e8fd186
3c83fd8c
bce24128
bd820761
3c9d8ae0
bc853a5c
bd778bb7
bd84d043
bd8db4c1
bc978371
b9d05b0d
3ac94f26
bd7c7df1
be1ab802
bde6f280
be653f64
bdb2ab9f
bdb4b67f
be5db108
bec1eb62
bdf15e95
be84f146
bdc2ae21
3e55d86b
3e973be3
3df662a5
3cca0a50
be197c4d
3c3c0bf0
bc4dd268
bcdcedce
bc516540
becac63d
