bdbf5afd
3e27e412
bebec0b9
bda4ff78
be05243a
3ee51cdf
3c87fa15
bed76ea4
be7c4b93
be08439d
3ea4bd67
3d70c93d
3c92b577
be41354d
bd886bee
bde5f92a
3edebf1a
be87c28f
beeb9512
bd90fb33
beca1757
3ebb1c34
3f3e2b5e
3c782b48
bd298935
3d369731
3f0d0c42
3e2d5860
bdc7b987
bdb3bac9
3dab7277
be0a07d5
be02e3df
3edea6bd
bde4438c
3f2c435e
3cf9d3f4
3f37d485
3dbc062e
3f435e35
be5e0cf2
3e798868
bd949d99
bd7383f6
3e00fbd7
bd3204b2
3d4243f3
3ef3a975
be486b9c
3e4af57a
3d82b138
be86aae2
3eade8ea
be81417a
3f019365
3e53016d
bdf1c9d9
3e84aed3
bbd6dba9
3d32a448
3f0fc82d
3e25ab05
3d96e831
3e8d41a1
bed38721
be7215bd
bd8123a8
3da9237a
3f3da924
be282770
beee856d
3e45518d
be4502e3
be3d8338
bd9b3b59
be687e68
3d6b2a21
3e8b984a
bcdf7ed7
be7056c6
3f3a9eb6
bde4565f
be20fc05
3ba39672
bd7b5310
beb92aed
3ecb2b6a
3ee798af
bf373a3e
be4b6041
3e225129
be188b43
bc80ccbe
3e810c5e
bcb27b63
3e7bb8da
be595dbe
3f281c37
be419cbf
3dcd5b40
bdd79432
3df74f77
bdffdff4
3ea94cb1
3e80dd26
3e0cb613
bc72be1c
3dec8df5
be27abc6
bceca008
3e007999
3de78302
bc8238cf
bda0a0e9
3d8d8917
ba67531f
3e4cbcbd
be5d6301
3e130423
3da7c72d
3e48ebf7
3f83323b
be7a10b6
3e9e8058
be3f6e84
be8acabb
3ed1048d
3f76a9e4
bf4c1a3c
