bce7acb8
bd84f2c1
3d6d1bfe
bd819443
bb20c960
bcf0acea
3d05332a
bda4e6cf
3d5512c6
3cff1714
3c678820
3d92a615
3c1bf59e
bd788f12
bd7e9916
bc858628
3c8b1294
bd2357e5
bd4972dc
bbbde510
3d6d575e
bd9078fe
bd2cdcb4
bcb4b2d0
bc89ee00
bd314749
bccdc9a6
bd1f4218
3d061318
3b5d8360
bcca8902
3d19d144
3b8c0e53
bb86719f
bd735a43
3d0f66b8
3e3ef4b3
3df37c2b
3d560f09
3e0ed8cd
3e8b77f2
3f03ab8e
3e921b54
3e627ba7
3e714f8b
3dc968a1
3e431a9a
3dbf661c
bd610916
bd0fbc23
bd4858a6
3d66a908
3d174704
bc3d5e58
3c3f0010
bd8665c1
3ba2ecf0
3d2b5b10
3d2ebae7
3d5a7181
3dc2d07d
3ccf3045
3dca7f62
3e65b5bb
be51cbdc
be98198b
be265491
3f0b6e56
3dd41a73
3ed24db0
3f222d50
3f6aad8b
3f5bd1af
3e9734cf
bb728d12
be6252f2
be93d9ad
3e47613e
3e18c625
3d73c693
3ca2b281
3cd23569
bd6c9657
bda13081
3d35a1ee
baa81440
bd1e1769
3d83e117
3de131e6
3c85a58d
be408233
3ea6e35e
3e0dcefe
be2a5ad2
bce4f873
3ed1b449
3d084192
3e98b383
3e4056cd
bd49274d
3e528206
3ecab11e
3f4c99d7
3f14e793
3f1cd63a
3eeda300
3d0d411a
bd6925b4
bcf4a640
3d322043
3d3ec2d2
bc49a6d8
bd882932
bcc7eaa6
bd76058f
bdb85fac
be55f9da
bdb0b520
bdf27f4c
be860878
be4d1182
bd97ec16
be61163a
3efee978
3f01933b
3e9b52d5
bcbf75b8
3c99cc02
3e3cff0d
3d8adca9
3e869687
3d92d891
3e5b71a6
3de0a3fb
3e19619f
bf15b8ca
bebab61d
be2b8872
3d2862f6
3d9485b9
bd40f392
bd9d4d25
bd415994
be8c0b3d
bd724c9f
bf6110ed
bf11a7f1
be86d842
3cfad8e5
3cd7f431
3e3353aa
3ed9f4ff
bd201220
3c7b8e3a
be692a0f
3db810e3
3dae307d
bd819a76
bd87fabe
be2d235e
beb5fab0
3d949f0b
3dc41e59
bd813c0a
bdb9cc40
bd359dc0
3e00999b
bddee175
3d915393
bd406efc
3e255c97
be9349ef
beef1580
bf1d40c8
bf3d56b8
be1efdc9
be9c426e
bdec0f1b
be51c3ea
3e04d3bf
3dc76f9a
bde39e4d
be06f34f
bec8ea73
be3b895f
bea51793
3d2e15d0
3ebb3dbc
3d3fd882
3bdf332c
3eb0ef43
3e57754c
3eb33d70
3e8059ce
3e4e90c4
be1b1876
3d12320a
bde15f17
3dd1feff
3d954e30
bea88db8
be966711
bf1df405
bdd7a582
3e9ed32c
3e5752b6
3ec6add0
3edcd2e5
3eadd2bc
3c048090
3d8fe52e
be1ee74e
bde4a02b
be8b34ad
3e0ac432
3f097978
3ea7caac
3f16e55f
3f05ed55
3dd1fb63
3ea3d7ff
be540a33
3eda75fa
3e359031
bd9aab52
bd435a4b
be53d91f
3d304266
be93dfaa
be859879
be729019
3cea340c
3d9b8ef8
3c438e01
3ec0753b
3f06cd03
3e0e6611
bdade533
3ca84027
3ebd7208
3d904515
bd8ed848
3e0ce2d0
3e7e0fe5
3e58c9f9
3f055da3
3ec81c92
3e535bb5
3eaf8384
bccfd12a
3ecbbe5f
3d168feb
3cddbadf
3d4be518
3dbe522d
beeb6c6a
3e03b565
be404001
beee091e
be0a6aa9
3e15da59
3d40c276
3dd7cad5
3eac9291
3e5f306d
be746415
bf0a9c17
bc9d214a
3e52021b
be3178a6
beaf6cc2
bed03326
bea23c53
be9a7d80
be3dc097
be5b5999
3ed0a94a
3ed3593f
3ef638f0
3e970112
bc534c2a
bca7a6c0
3f27f46d
3d1e6520
3dd3330f
3e20274d
be314846
bea39fda
3d37e50f
3e54067c
3e32ca19
3e9ca38a
3e9e488f
bf2d5b38
bf9c9a81
be811b78
3e388765
bdeb4a19
be9091dc
bebbbc63
bf2af051
bf28aae0
bec8b719
bf51dc29
bef58a98
bd31885d
3e5ba1cc
3e31ae7b
bcc8a3e9
3debc86d
3e987a5d
bf44c4c3
3db1ecf2
3e745818
bc75f952
3d091e6e
3ddee0fc
3c48230f
bd21a5ed
3dfb1212
3ea47f68
bf6486b4
bf26ba32
bf02b689
bc81433f
3ef2b1eb
3d29f68d
bd8dba04
bf13fcc3
bf48c6f3
bf3a8e00
beadcbb6
bf20cdd2
be9c6b08
bdc72b6c
3ced1220
bd022db8
3e1f7369
3e8930af
beb6dfbf
be1fba0e
be143b94
bd042f41
3de75868
3eb79007
3e9ce97b
3e52fa1e
3e7b8b17
bc567ccf
beed09f2
befd6c01
bf5794d8
bf058770
bcc4d1c9
3c2cf8ce
bb20c1d7
bd906f66
bec72a80
bed74a49
bd8e7bf8
3e059e1b
beb79605
3d8998bf
3db61656
bcbdefb8
3e1d20dd
3e22d062
be8228b5
bd3f447b
3d12ced6
be2d1c3e
3dfc57cf
bd9a57e7
3e9a9755
3e272284
3e7900e2
bd116463
be8505c3
be93ac21
beec767f
bf0dd6c2
bce430a9
bd6f7549
bd240914
bc5236b7
bedd5440
3e35502b
3cc588ee
3ee98bd0
3d59345d
bd88eddc
3d8c012e
3e80f4de
bca0f071
3d925d45
bf3631c1
3e625255
3e90297f
be6047b4
3e2f35e4
bd9af4cc
3e3cc362
3dc4f12a
bd04fc18
bdde0ec7
be857118
bea9e173
bee8736c
bd11c571
bcbb0230
3e6f98b7
ba9fe262
3edf3b9e
be3682fc
3f18ae5d
3f2dac52
3f4efb52
3dae6d7f
bd287d52
3c845722
3de9427a
3bb02f49
3e290c9d
be2c5df4
3d79d80a
3f1ac758
bec2d7b2
3ce50f9d
bdc20f06
3ed5a8dc
3edc7a7d
3db2ce01
3e3ba937
bd545e4b
bf272e0b
bf5b2e68
be31f421
bde01c99
3eafed48
3e5e2f10
3d8b85f1
bd5617b2
3e05d5c7
3e18e305
3ef096a9
3de54d60
be7a46d6
3d0b3a70
bc8a2ece
3cef6a28
bd94502f
be6ba132
3d1be36c
3e02feef
bf0475ca
be8713fb
3e462eee
3e1e481b
be12ecb9
3d135e39
bd41ef85
bdea2b56
be15e3e8
be6d9f27
3d3dfde7
bd6833f9
3d62faa3
3e456437
bdce09f8
bcdc369a
3e750445
bd5444f1
3badc133
be737b33
bf47fccd
bd86e7b5
3c4aada0
3cab115a
3e8609ad
bea61cb7
3d733a09
3e165641
3e7b0ccf
3e8850e0
bdda79a2
3d7a89d5
3cf9b60a
be630486
39b2874e
be929668
be9fc181
bf4dff89
bd8d56ad
3e3abdf0
3e7d739d
3caacedd
bdafca29
3d2a2300
3d35c497
bf0cc132
bdc0c0a3
be84c7bd
be871c4a
be6b1cd4
bd019981
bdd0eaff
bc14aa84
be8f30fb
bf01af77
be4097cb
3e64ea43
3e8db695
3dd725ab
bcef4608
bd886d77
be62713b
bdd56064
bf0fbea9
bf304cef
bf231c0d
3df847f0
3e2f9888
3ed45a3b
3c0d764c
bd631cd2
3ebb57ab
3db3b197
bf3d3f20
bec37b15
bf3597bc
bddbc84c
bdd6b2d2
3da04a2f
bd9af013
3e2b7791
bf31a957
be938258
be1e6bbf
3dc2a244
be60c262
bd9ce5cd
3c2f538c
be97307c
befb9f78
bc356984
be91c84d
beaf88aa
be6e12cb
3dc94c36
3e76c82b
3ec5fcc8
3e5e3866
3e4afa6c
3e450569
3eccf032
bec7239f
be085baa
bf0c3ca9
3dee1c84
bcc49210
3d288dbe
3cdaf6c4
3e3f77d8
bea2f342
3df0e3b4
bd56b26d
be2fa8ba
beb25dc8
beb8aa1e
3d3906e6
be0f9e8e
3dc7c2ef
3ebec7cc
3dfe654b
be3d0d8c
bd507bcd
3ebbc382
3cf93cb5
3e5a71d7
3e4d48fe
3e69bc5f
bdd73789
3e54f2b4
3e799d26
3e91cee0
be55e19d
bd8730c7
3d439a3e
3d2f9d22
3d99728b
3dd891f1
be136e92
be02de80
3e9967dd
bda24a47
befe4659
be2e916d
3e1302d3
3c092807
3b63ac2c
3e483b0f
3df150f7
3e9c4d39
3ec0f9ab
3db8206e
3c077ada
3e74d730
bd488578
3e7dc21a
beaf05d0
3e2c528d
3ef8f69c
3ed165e2
be716453
3c62af3f
3d01ca95
3c805094
bcbdb4cf
3e200c60
3f01f088
be12c851
3d0c0222
bd9a9e94
bdc6618b
3e113318
3d6c094b
bd41df11
bd6b941a
be2dd371
bdc24764
3e30da1d
3e4b1f0d
3e786db1
3e5c12ea
bdbeb230
be514130
3e2ff59a
be933e9a
bee2b5d8
3ed90877
bd2cb67a
be925e47
3d85851a
3d6868b2
3bcd5d80
bd32583f
3e11765a
3e94f38f
3ed5284f
3e170e21
3ea67cde
bd9d04eb
3eba26a5
be1cd86a
bc83f641
3e3f9e92
3ef28fda
3e391ed8
3e976ff0
3e01ddba
3e306739
3e0e207e
3dccb87c
3e9c3007
be4fd4e1
bebf011e
bea45a7b
3ed6c923
be1fda38
bda604cb
bca64be1
bd3d5f87
bcef8a02
bcaaea28
be1562d7
beb98e6a
3e5731d1
3ec5f0c1
3e130251
bcf3a22e
be19f399
be6a9c31
beda78a7
be510b3e
bd65db42
bd834790
3b6e6dfd
3e99fa34
bd33d988
3ee1b8f8
3f0d1354
be666736
bf23c764
be384ecd
bdc57c8b
be29b710
bd3a8866
bdcdd6c1
3da32295
3d7f255a
3cc9cb94
bbea6030
3c868c99
3d975c47
3e6aa85d
3ecfd19e
3e252d16
bf015e40
be779e4d
3bd620a7
bf6d6faf
bf0be149
be6e156b
be83e48a
bafbad6a
bde4b0ca
beb032b4
3e0dbfbf
3e95b445
3e229757
3e8abd8c
3e8f9582
3e9f72f4
3cba199d
3c812fc4
3dc547d5
3dcfbffc
3d59297a
bd29c799
3d85b793
3d217516
3d8d9cd7
3c58651b
3d107cb3
bccca7ae
3e03c7d1
3ed43e00
3e063065
3e1d2507
3ecd1330
3e853784
be55e8ea
bd5b471f
3f06b350
3ec915e3
bed26aac
bea6f84d
3e134ab7
bee3336d
bd737cdd
3cb1980d
3c7455c3
3db5bf88
3d668c6e
3d5b4f3a
3d94f1dd
3d07f006
bd5b92f5
3cb375c0
bd8143d2
3d346166
3c52aa48
3d3c0106
bd19407b
bcb4e971
bdab4910
3d215b9f
3c9bc55d
3e319725
3eab3c4f
3f25c6f7
3f106fa3
3eb7c78f
bc0f39d3
bebb1e1e
be19d95a
bd4c7830
3d0d58a4
bd8ac1a2
bbd11bf2
bd359797
bc6e5830
bc320870
bd100444
3e0f5a8d
