be824e57
3dfda420
beb4244f
3e81b7bb
bef6d811
3e24649e
bd815c76
3e042189
be8b991f
3e31d7d0
bd72d989
3e55d301
3db4984b
3ea2d5ac
be00a998
be3a6705
bf01eecd
bab5d177
be15fd12
bef9d33e
be09d938
bdefcffa
becc3e07
3e218cb6
bed1e277
be828803
3e6474f8
be319b1f
bc660a18
3dba9f56
3d7172db
3e7a79b5
bebee980
