bc82d9c4
bf88ebbf
bf57c91f
bfad58a7
bf72b0a3
3d393f17
bf0be86b
3e239719
bf1404b5
be8bfa4c
3de7f48d
bdd5e360
bf89dc3d
3c9ab1b3
3cf56749
3e4d668e
3c94975d
be1b5479
3e89f28e
be6dcb44
bdda828b
bf609aab
3cfe72d1
be06c86b
bf0c4d74
3e855e87
3d8eec7d
be119f44
3d20f59b
be402430
bfa888af
bd56f883
3de9b9bb
3d0c566a
be817183
3e23dd4c
3d9d9c8a
3dcfb642
bf082fd6
bf9f9533
be19dd35
3e12caa4
3e1685b7
bf73f6ca
bd33ea3b
bf939f7b
bf62b5be
3c0d9a6d
3e2c6fcc
3dd0d7a1
be808f78
3d5f4034
be8b1b4f
bf3345ce
bed31507
bf90d160
bf45c745
bf86a85b
3d0d8500
be9f96e3
bc0c9c39
3e7148a6
be5cc9d6
bec9ba3b
bd206d9a
