beb6ceb7
becdd374
be95d6fd
bbfc6e81
3dde9617
3ecfc2bd
be34213f
3e9b7061
be54920d
bde8e322
3ddc129b
3d56d963
bc889c4c
3eac72be
be6e83ac
3d74e804
bef0a718
3eefda9b
3db08637
be50ca4f
3d7805bf
bcc40105
3dff52ab
3eb59824
3ea4ab37
3e63d5d9
3cba0bf6
3e5d665b
3e381138
bed2dc63
3d991aea
bda085e9
3e0fafae
