3d5273ba
bda332e9
3cf686a8
bd8c170a
bd271c72
bd83bfdc
bda20809
bd957ba6
3ce0d84c
3c3d7618
bd12b0d7
ba13dc00
3d87e568
3d2b1490
bcefbd84
bd91ebd0
3d043cee
3d177fbc
bd8fdfff
bd138b79
bc7c2c58
bd73bc66
3d33c6fe
bd72580a
bc122428
bae0e900
3b8bf970
3d5df94a
bcbda1e6
3ccf9b30
3b894870
3d7839f6
3d61ba66
3d8ab191
3cad9a80
bd0b124b
bdae2fb7
bd1debcf
3d21c790
3d109e5b
bd36e8e0
bdb3c286
3d054f81
3d7aff64
bda61506
be2ff6ad
bdc7a612
bd992f4e
3c424ebb
bc52bfec
be6d42f6
be589123
3c660db0
bd744b85
3cb387f8
3c7097a8
bc943a64
3bc33a80
bda2abdb
3d68119d
bd3eb082
babd7a8e
3c0a25e6
3c12a68c
be4c4b2f
be5e44a9
bebfd68d
beea18b6
bf3e07fb
bf4ab999
bf21f757
bf4cae50
bf4944bc
bdd2a08b
3cd7c407
3d4c1c50
be9053e0
be00be93
be968882
be34b270
bd625aa8
bc6e6a5d
bd90ad9a
bc64a728
bd420b86
3d9fa129
bd0ba076
38e6eb31
3d354d0c
3e549969
3e0b28a0
bd92b21f
bf08fe88
bf221ef6
bf9b5439
bf5d3fbc
bf0c07c1
bee384c4
beb37afe
3e4c3e71
be4c5747
bf5b87e3
becda3f6
be50ef1e
3e902e53
3e64fdc8
3f1feebc
3f4e5329
3f09fe04
3f17372b
3eff7f96
3d7c4be2
3d4d3efa
3d30ff00
3b85bede
3d8559f7
3cd0b285
be2c2db6
3d628eec
3ea160d8
be7d4af4
be3f8f27
bf0476d8
bdd9b737
bec32f8c
beb2fdd3
be1ff9ba
3bbd94cb
bc372476
bc7a14db
be7cd118
bf02e630
3d3f749d
3dfe7c56
3ee9aa9a
3ec07a66
3f03e0a5
3f3cafa9
3f1bc840
be8a05fe
3d1dd2aa
bb6d1140
bc994f25
3dd73e8e
be3cb255
bf2b2f63
bf60cfc9
bf039cce
bf180f39
be2dd46f
bd659afa
3e6c2784
bd881596
bc9ae8dc
be368914
bdb4d1c9
bdc629ca
3ec4d00a
bd8960f2
be31acc6
bd5bdc03
be1eec06
3ec8ecfd
bdc52e5d
3e2c56d0
3f12e84e
3d5aa7dc
bebc41a9
3c2932a8
bcc57bef
3e2fa8be
be113ca5
bc8566fc
bf1eab93
bf3f0a05
bf497000
beded272
be04ffa9
be4a56f9
3dd75acf
bbf3a17f
3d90adcc
3eb02c1a
3e2db031
3ea84637
3e901883
3ea9e426
be47db6b
be7e31ca
bdeb0d38
3e7f1db3
3e9874e4
3e88b771
3e5147ec
3dc4573f
bf139817
bd159b6d
be47adff
3d1c8407
3c770fa5
bee144e8
bf3b9d8b
bf86958a
bf3286fe
3e0a6581
3d5d68c6
3c234ad0
bd8e732f
be804e90
3dd600bd
be52039c
3d75de90
3b70f125
3ce5738f
3e720da8
be0f26ae
bea64d85
beccbebf
be0ffdb6
3d761c32
3c486b4a
be7e1a85
3ec659e7
bef0ddf7
bd9bc5d9
be0b022b
be2ce095
3e8b95b2
bf632e10
bf3e8ced
bd837713
bd523db2
3ee406ca
3ee76378
3ebe0444
bd3d1156
be1d8e0a
3c282010
bdf9a5b4
bc8a2216
3c22ac4d
3db901a3
bd92ba2f
3d8c60b6
3d29c048
be94b029
beb7bf40
bebe1c3f
bd9c5ebb
3f13a2b8
3f09d854
3ef830ff
3d02d1e9
3c956ed2
be7441b5
bbc54d00
bf320b39
be1a98bd
3e78687f
3ed8861c
3ea9ba2b
3ef704a1
3e8948ea
bdd80e5d
be583d98
be9ee720
bf029906
be2e9744
3e499695
3e9fa374
bd36a87e
3e2b56a2
3ee0c205
3c1a6503
bed76680
be9f590c
3ef330c8
3f01d328
3f51aef3
3d337443
bda01c02
bd13b8aa
be7c7f6a
3e521430
beaa039a
3e683e36
3f133380
3e8fbdb6
3e7ad269
3e00439b
3da6ecd7
be498513
be6e12a1
bf23feda
bf370148
bf413a68
bd80f901
3e2435ea
3e2ecd94
be0a9227
3e39ef02
bd8490b2
bd440e51
be027912
3e4bed8f
3ea1ffd1
3de4caf5
bdea415b
bc7ff6d0
be2cc392
bd94449f
3ee395ba
be2602de
3e4daafe
3ca0ec6b
bcb3192e
3c803de5
3dbec358
3e9f0923
3e20901a
3e6edb9e
3dec657d
be63651d
bf532a0e
be5f8611
3dc529e4
3e0a3cc9
3d04425e
be50ecca
3e8ecdd7
3e09f9e5
bec2e642
bd968ad5
3e41c258
3f05288f
be647027
bdee1417
be411b51
3e2df107
3f251270
3c975dfd
3df7b263
bd1cbf18
be2b059a
bd0ae0e3
3dda5645
3de3bfdc
3e07bb15
3defe5b2
3e9c9dfb
bd82315e
bf23ffcb
beeb81c6
bd9f6c42
bcc275c4
3e23b878
3cb857e7
3d37eeb5
3ebda3ce
3eb58432
be6a3152
3d3ad945
3e35a36c
be829f27
bc951eab
be8c0b5d
be4e77d9
3eb50daa
bdbb007d
3bb79ecf
befa3907
be6e1938
3e06c7e0
3e2da065
3e3977ad
3e8e6601
3ebe1237
3f0fb275
bd3c7137
be76eecb
bf164e5f
be9e87a7
bd9f870d
3db4d866
3e9ac8e7
3e677ec9
3f18870a
3e814e18
be9d8207
3ec45cee
3e52ae95
3cd31495
3e1750d4
be200ff1
beba481f
bdd4bdcf
3e8b346a
bdfc3f8f
bf008c5a
beea206d
be8878c3
be496053
bdb01d82
3d1cec05
3e11aba7
3ed878ff
3d9af6ec
bebc2e37
be920ffa
3cf08ba4
bc18ff26
3d883a94
3dc168a6
bdca568d
3ec6a088
3b8a443e
3ea4ceea
3da98e40
3dc37f1f
be0de6e3
3df4bca3
bd1bc13e
bc8b3a50
beb267c7
3f1a68a5
3e47a8c1
be8ab9c0
be23625f
bdd4a393
bebedd76
be8e88ed
be6769bf
3e0692e0
3e9f15a1
3e19d666
be8a3220
be962f14
3dde8120
be947eec
3df046ad
3e095f7b
3c69d4f3
3e7799a1
bd27ac3b
3ee378a8
3c35fe1b
beb4e178
be0df825
3cea4ac4
3dc8f7eb
be293f06
beae9c48
3eb6cc03
3c9f9514
bd6a8a3d
be87fee9
be033545
be91ef4a
be946fb4
beb6456b
3e86720e
3e000fda
3f005fb3
beb890b2
bed25cc1
be824b89
be692ed9
bd822537
3ea37c42
bd97110d
bd9bfd3d
be222618
bd5cbf8b
be80b635
be214a97
bd84febd
bd05c9e9
bd2b7f86
bd0ed3ed
3e75e402
3e2afa9b
beb1b1a5
bdf65018
bf107343
be703eac
bd8673e0
be6839a5
3e21a153
3e00a51f
3e9e654f
3e51eb46
3d56f69a
be0e84b1
bda2ccf6
be3a5e6a
be5073fc
3c0d34b7
3d9472c0
be848708
3d9669f5
3f1eaa03
3e27d8c0
be77dcea
bd75103d
3d5ff7ff
3db0be93
be5167cd
b9efe22e
bec14254
be3ff6da
3e0e9977
beff941d
3dcaea5e
bdaec4c7
3e943193
3e178c92
bda9809e
be05b2db
be002cd2
3de14a01
3dfd0376
beb6fab4
bea9b2ab
3c5f3c7f
3d1e1196
bea72cc8
be71bbaf
3e857b1c
3f5912f2
3ece0821
be587275
bdda513e
bd72da3c
3bfff2f5
bea2ff1c
bd94fad0
bf61c4c2
bec0b4fc
be7dd1f6
bdf1c83f
3ead2a4e
3e0eb610
3e996221
be754ba3
bdda0f1e
be71fcb8
bd815b01
3eb0b476
3eb7e333
3d1f444e
3d7f616c
3e39427c
bdfdbe71
bec9a6de
be1c84a7
be08c274
3e82a3cb
bef2b2c8
bd55f47d
bd811b3b
bd873364
3c3208d4
be81cd61
bcf196f5
bf257720
3ddafa90
3de0047c
bcee6c9e
3d4b12f5
3ddb0367
be159101
bc14069b
3da4e278
3d85aba8
3d4b3760
3ec6045e
3e36f369
3e25aeb9
bc0f5eb4
3e4e6482
3d842a6b
be3ff3f7
be2b517f
bd105470
3ee5c517
be99fad8
be41b3d5
bce1ad6a
bc94f00c
3dd4c33e
be8003f6
3e75d477
bf0894fc
be084400
3e81b795
3d8b8a02
3df4085f
3d8ae72f
bd8def2e
3cead27a
be08cf36
b8ecbd24
bc8f8604
3e1da82c
3cc7934d
3e18f174
bd314a3f
3db0a635
be9c713c
bdeb377e
3e671439
3e52d1ce
bdc50ce8
bd7f5c12
be53c4f8
bd1803ae
bde6afce
bd3855a9
3c2cc434
be994cfc
be8f4d69
bddfbc36
3ebe2e8f
3e96af48
3bd04961
3e3026e5
3d121402
3eae9e14
3ee691fd
3e485c93
3d032ec4
3e4d8393
beb432c3
be807923
bc693c18
3e780e94
3da3005e
3da742c2
3ec7890f
3e37db4a
3ebf8214
3ece61be
3e2465d8
bc904939
bce43470
bd161968
3dc08645
be525390
beaaa318
3d49a8c7
3e6171d6
3e1b0c5e
3edad736
3ef81de9
3eda3e57
3eb51e51
3e8fac3f
3ee8e6a9
3dbcc144
bcfa2627
be2dd20b
be62c44a
be9a0856
bd862f05
bea5647d
3d49f19b
3e905aff
3e911a35
3ece569f
3f25057f
3d5194f7
3d4bec6a
3d2aabb4
bbe01fa0
bf2842a8
bddb63e6
be294be5
bdf411ec
bb43ed07
3e96f66e
3f211a68
3eb80fa2
3e995b20
3dd58248
3de9fbb4
3e7a61d0
bd71ac0a
3dcb6965
3e9d2c64
be3924fd
3ea38cc6
3ea19415
3e5f8ba4
bdde197c
bd8bd7a7
3e835e50
3e0bf8b2
3dd4d09f
bdd3f10b
bc022b70
bd73ac66
3d7fcace
3ddd1ab3
bf07b12d
bf19e9f6
beaca264
bdf48e0c
bed97019
bec155f9
beaec963
3e23dde8
bec909fb
be77b941
be754c1a
3dbeff64
3ed4058e
3f541273
3efff22f
3ef4d7c0
3f171c41
3ed5e06c
3e9ec4f4
3e5e9a3e
bdae5ab9
3dc75e85
3d1c6205
bd3a7f7d
bc83b710
bd8bb3e4
3da06959
3d616946
3e555cfa
3eea47f8
be9bef84
bf03b70a
be9ce972
bed06bfe
be74a300
be839389
becda2f3
3e0520a6
bf2b47da
bf0b613a
bf78cf2b
be6c0790
3bdcabb1
bd57298d
bee19f09
3eae01e2
3f37b2cc
3dfb6a4a
3dad53eb
3def4dae
bbacd4f0
bd5f931a
3d781012
3cf9e724
bd559b6c
3d13da36
bd511f7b
bb7d8feb
bd345dda
bd830591
bdfa9039
be0e154a
be749931
bf272417
bf036d72
be366950
be5f222e
bf081992
bed80371
be57ce34
be96e162
be32c6fa
bc0a6943
3e1c5570
3e539852
bd93acc6
bcba6799
3d3fc266
3ceca858
bc212b50
3bf2ab30
bee78868
