bd2701f3
be95aa6f
bde73b40
3d29131e
be4aadb0
bd7e28ff
be4c345e
3d6ab27d
bdea3e69
3ea92a16
3e86e67e
bec49a5d
3e90db97
bd67cb09
bdd90fbe
3f13e3ba
3e2485d8
be317139
bd746e75
3ee8acdd
3e488782
bdadbc7a
bebf3d01
3e1877a2
bd85de50
3e822185
3dfbd021
be6a5474
3d6eaa98
3ebe1e12
3ceeb68e
3d8c16df
3e97b838
