3d608482
3d3cf7ba
bd36b896
bc82d630
3d573212
bd7511ea
bd4d7517
bd5ed060
3af39340
3b42c600
bda042e7
bda5e373
bcd32532
3ca7315b
bb325f2a
bd9ba1b6
3c326358
bd925b51
3cc616b4
3d5377b2
bc873278
3c8fb760
3d7abe36
3d6a1e76
3d8df3fb
3cfb0224
3da4ad87
bcd2f84c
3b8ba610
bd781c94
bcb1a724
bd9bd7f2
3c07c868
bd805b0b
3da181bd
3d74a9d5
3b5d5736
3d44f783
3d972f12
3c9622b4
bdc81da1
be290013
3b4d2399
be102357
beb0490a
be44975e
be71542e
3dc07d18
3d5fb03d
bcdfbe0d
3d225da8
bd3ba8dd
3d8a4715
badb1080
3d271268
bcc01c6c
3c5adcd8
3d87d359
bca235f8
3d9fe77f
bc84d165
bae1f8eb
3d614db0
3e518259
3f125675
3f554325
3f4c82c3
3f14c559
3e97dc86
bed22ada
beb36c3e
bed8645b
bf460bc3
bf362c66
bee0955c
3f4059c5
3f0ad116
3ea7d960
3d85ed00
3e26b5f9
3db378df
3d86a9ec
bd88541d
bc9e99e0
3c6556c8
3d9ebb2b
be1ff20a
be493b3f
3e4397c7
3f1b1638
3f17a0e8
3f08443e
3eacad81
3d9949d3
3d4530a3
bee5851d
bf43128c
bf8b95a8
befb1576
beb42958
bf81d144
bf57cfec
bec56fc8
3e701d13
3be77302
beb0ecc0
3eed46b7
3eed50df
3f59825f
be14d2bf
3cb73d5d
bd71d2db
3d663dea
bd4efe66
be75ea9d
befaf1a3
bc4bb5b9
3f437023
3f454dcf
3f3afa54
3f593018
3f050105
3eb9d1c9
bebac40c
bef6d8a1
bf1ee925
bece6ae3
bf0ce1df
be711213
3e9abc74
be5955b7
bc4cf862
be8d369e
beee1a11
bea406e7
3e5a6c7d
3f0a07f6
3db34866
be61d2b4
3f1d172e
bd23274f
bda0ab62
be047036
be794aef
3f2970ba
3f999f5b
3f0768f0
3f15cdfc
bebd9367
3c5e36fa
bdd15175
bf14bea8
bf8b8c29
be89dd43
bdf91788
bdc146b8
bf00743f
becd99fa
bceacb85
bde4c1ba
3dc5f46b
bdbcc560
3d410cbf
3dbc0613
3f1f4432
be751402
3eec32bf
3f18491e
bd8f5c99
ba2e2e38
3d6a23fa
3f35919d
3f3ec86e
3f7303cb
3ed2579b
3eae2026
3da2a5ce
3e6d9acd
3c2af9a1
bf2714ec
bf90cbb2
bf352540
bec0ad41
be807db8
bf05c187
bd911554
3c980dfb
bc28af69
3e53c6c2
be481fea
3e8db8c9
3ee4f094
3ea53b74
3e6dbc1c
3efdee27
3f116bf5
3d9e5279
3d76b72a
3c86a3d2
3f70d914
3ec3ff49
3f55b3d1
3e981da3
3eb43a16
3eae08c3
3ef1a684
beff23d4
bfc74985
bf7fb057
beb517fb
3db62f5f
be184be5
bd4c6ecb
3e72327c
3d9e2a73
3d704b57
bd367a7f
bca1d238
3eea65fd
bde009dc
be28dbff
bf069023
3f3cde1a
3f1d2bd7
3d39cee0
bed7d6a9
3b023006
bd1e9355
3e0510e5
3f27f22d
bd3e2465
b9f937ce
3ebe6d85
3ced7b9c
bf536e62
bfac1581
bf88db7b
3e31555f
bd77f472
3d99b895
3e6e5091
3e7f8224
bcf68c22
3e1cd72f
3e1e2b8f
3e8bf404
3e7e501f
3ead2de3
be4ba64f
bddc36f7
3edc2703
3e02235d
bd9526ed
bd9b837d
be54032c
be0e20ef
3e677733
3f143a65
bddbb1c3
3e1a32d3
bb730c9c
bf0997f0
bf5a616b
bf91a238
bef73408
bea7c616
bdf644f0
3e8719c6
3f322513
3da8f9d9
3ed4f266
3d89d4b2
beb1bed8
be8af4d4
3e1de2e7
3e863869
3f27c46c
3e1d6809
3eaf91b4
be640d61
3cb7f89c
3daf4855
3e96bc78
3e028858
3eb75721
3efb6b2b
be1fb721
3e701116
beededd6
bf030bb8
be0644fc
bf0519bf
bee1751e
beba82ff
3e774cb5
3e84bcd1
3e958451
3e24da4b
3e93dd73
3e29b631
be021063
be8cd768
3db08e5b
3f15e584
3f261f64
3eb68a31
3dbf3d5e
be607d5d
3d3890ea
bc65b3f1
3ec74867
3db19282
3f031dbf
3f54f773
3e958e05
bd020d59
bf22e256
bf0fcdf5
befcbd0c
bd5752f1
bddfd245
3d58255e
bd91d906
3e4cac99
bdbc6643
befbbc79
3d5e1c54
be80fa27
bf68277b
bcd23f2e
3e171471
3dfe7898
3dd0b134
3efe37ac
3eb15223
3e9aec8e
bcab5090
bdaf8e7d
3ec58c85
bd1a87a3
3f1a1aa7
3f4c9762
3e976603
3c375c2b
bf5714c6
bf113221
beca702a
be64c8d9
be3f7cc6
3e775c56
3dea9db7
be9c7978
be66b0df
bea123b2
be55937c
bf670f72
bfaab269
beb32e80
be93d118
beef94d8
be935afc
3ecbefd4
bd38f46a
bcbb1b86
3da5b570
3d9da909
bd842beb
3e157a3d
3e8d1204
3e70ce14
bd983918
3e19f5ee
beb930f6
bf07c931
3b7427a4
bd91dc87
bd4c9982
3ea4bde4
3d5a3f1e
beb31ad5
3cea0894
3e8b9325
3e4ef885
bea9226e
bfb71e36
bf1f9777
beb3a225
3f058934
3ebd2bdd
3e9bfb1c
bd9a0a5a
bc5111e0
bae68240
bd1f90c6
3e2935f5
bd3bdda6
bea50730
3e0afc34
be9ba340
be873993
be979ae8
3e9d445e
3df9c5db
3e02ddd4
3e21abed
3e8b1a6c
3d1cf11f
be6beb6d
bb1bf69b
3e01f1b7
3e5c958e
be4a42a1
bf0d764a
bc373095
3e39faa4
3e61faeb
3eed65fc
bb03a476
bd864940
3cc4d527
ba80e200
bd89230c
3e7e3227
3ad6f687
3e737786
bf0235c7
be40a02e
3d4a8303
3db61bbf
3dafcf22
3d8b1f10
bd281679
3e2586ef
3e3ea9a3
bdbb6f2c
bd9a367b
bca32611
3d56f18e
3d7b7d37
bebf3908
bf248734
bea38778
3db233a1
3eea4d00
3f23b546
bdc84613
bd73b2ee
3d774687
3c92b524
3d58acbc
3cfb3dab
beb7e4be
3df5838a
3d45fbfd
bdee8746
be229c41
beae8591
bdb1cf64
be88a8a9
3d334751
3e25dac5
3e950538
be2f9e5f
3e54353d
3ea6c6bf
be7ac8a3
be7b531e
be1599c5
bea33f3a
3cd4374f
3e97fb1e
3ee14c82
3ec8f269
3dc836fc
3e077357
3b5e2375
bcb88818
3b6a3fcc
bdfc2394
3d3afe79
3e67b437
be3aabe3
bdeff6c2
3c7ec5fb
be206850
bdb1f5bf
3dfa3026
bde8fb24
3e237ca4
bd6910c8
3d5d3b9d
3d9b5e8b
3e8c5a71
bef952dc
3d87e321
bdcbb0f7
be8a88a1
bbd5e049
3d3c1a86
3e358bc8
bd1beb46
bd4f7147
be8d0162
bd6ab1af
bf3ba395
bd7c45bd
bd038fd3
bc723d3c
3ee4a2ba
bec30eac
bebd1216
be1ad335
3c8351b2
3eb733da
3c40f56e
3e24f94c
3bd23f87
3e4da752
bd8cd8fe
3da5a946
3e361fcb
bdd372c2
3d1fbb36
bd67732a
beeb70dc
3cef9710
bca047d5
3ea85cf5
3cdf32a6
bd5032e0
be8a0317
3ebd0e6c
3a987977
bd1a102a
bd2880fc
bf308177
3e4c0d43
bd844002
bea000d2
be0a8bb4
bd9cc5a9
3d0894f6
3e5cf92b
3e3518e3
3e3edc5b
3deddae1
be2fd070
3e2fb550
3e93c3b9
3e68e65e
3e879049
bdde0323
be0a9538
3eb004fc
3e8620b1
3e95dc6b
3e98014c
3ea6a2a5
3d965d30
3e9ab3ba
bcc8d8c4
3d139da9
3d85c8c6
bf450ce0
bd1aa1c6
bc612877
3e2cbb62
bda08a74
be0512a6
be5b6fc6
3e7a44b5
bc20d11f
3e19f5d9
3dfb2d42
3e4e8f09
3e39d180
3e50fad8
bd2d7512
3e134d0d
bf38481c
be22d767
be827370
bde2f037
3e2de27c
3e3ae465
3eae0f52
3d810fd3
3d7f7b31
3dd9c98e
bbe3dca5
3e1a854b
be7f84c0
be89c051
3dff6536
3dd5c33c
be11a1eb
bdfd1754
3e6dae16
bd6ded66
bcd85b98
3ee052c7
3e24655f
3d174a12
be3d4661
be0d3614
bee192e3
3e622a21
bed05d68
bf140738
bf2200e8
be8105cf
bd563cf3
3e9309d0
3f04a9ab
3dc4a37c
3d3c44a6
3dea5352
3d9671ca
3dce1654
be155097
be72ef72
bebf27ca
bec04feb
bf062417
bbd849fd
3cf24a50
be76aa6e
be453815
bdba9ac8
3e861766
3e0baa7f
be2dc1a9
bea1949c
be1fcf34
3f062a6a
be9faf17
bed1617a
bf0b826b
bf26499c
beb6388c
be08e403
3eb4c9c0
3e9d31db
3d4a00ee
3d0fbed0
3d922bbf
bd5aac9b
3bd6b0ba
3d97b97a
3ed4f479
be6b9be8
be84b542
3e47d9ee
3e15c87c
be405a98
3c62fbee
bc9481d6
3eaad001
bdaf43d0
be6a47d4
3e528b47
bdac9a18
3dec7a30
be27165c
3d6a2c77
bdc1bebf
bcedcf0c
bee5dc9f
be6b0294
3df00059
3f0a6cb0
3c59d198
bcf00b60
3b5a8f20
bc928208
3dc819b7
be24aa76
3e57e6a8
bf04ce5d
be4b29ca
bea55fc2
3e915699
3e01e5a4
3e11f7d5
bd00850f
3d86adc8
bdffa39e
be5a0035
befa98b1
3e6be48b
beb45283
bea18ca6
be46b859
bda7121f
3bbea6ca
bd040d8e
bd69ba5b
3b348840
3d970573
bd7aaffd
bceb8f76
3d4e2b1a
3cfd1714
bd581f09
befa8cd1
bf3e70ea
bf0b3de0
bd9af2cc
3ea3fddc
3ec7ad08
bebcc670
bead3781
bcd57a7f
be87ad3e
bed6418a
bf20aa9b
bf01ad9e
bd8a8e36
be782d08
be6d408c
be8e1a72
bde81b7f
be2e3b6b
be4c7883
bdc0a243
bbcf4960
3d06eace
3d10b81c
bbf8cef0
bc7d1630
bcde7fca
bd4781ab
3d20a0e0
bdb7ff64
be3964f8
bf00cc05
bdfc21e8
3e19bfe0
be4b6354
be398b6f
bf9418f5
bf8a2121
be65c7c3
beb59c68
beac5b59
bec2e047
be3acc93
bd85507e
bdce20bf
bd75f5b3
bd991a6b
bd909d0c
3cbb9f40
bc82c6e5
3cfdd514
3d25bf58
bd8a4b84
3cce7e3c
3cb71f84
bd92a855
3d564406
3d2c51a4
3cf8f6bb
3c7ba9cc
bba2dae9
3b3ad1fe
be0fcc27
bd038fbe
3cdb67d1
bdc3ff16
bd95cd85
bd31a931
3cabbdc6
bd252d6a
bce7cdcc
bd749b36
bd305be4
bbe14555
3d312d40
bd94c71b
3cd5fa9c
3d369a4e
bcbc6dac
3c088360
bd2d045f
