3e72033d
3e23331c
bd5e2f19
be2ed908
3ed72250
3e39e091
be293ec3
3ef26df4
3e6882c2
3eaeff80
3e563e2a
3eda37a9
bdc9a572
bdaf8e3b
bdccfd86
3eb3884e
3e513e84
bec2c531
3f394473
3eb2d8f1
3f088a7c
befbbcfb
3e387451
be87d8cc
3e278185
3e266e3f
be749f39
be818778
be82e946
bdb989f9
3ebc30fe
bf1107f9
3d14774a
