3eb92ae7
bd47a7b9
be7cb16a
bf1902ab
be83f100
3e212462
3e03defd
3df57480
3cf52444
be2d1f50
3eb591b3
be1e6775
bec7c834
3e17e41e
bda8d30c
3d8d946c
be8b6b93
be2aa2c2
be2277a6
bd4e6160
bc477c6d
bace008a
ba3b05aa
beb50d20
3b75c04b
3df42f1d
3e3f2db8
bd20e5ad
bea0604d
39bc0b77
beac080e
be47bea1
be89551e
