bddadf9e
3d2dc617
3d7a4819
bb893e14
3e43c0e7
3e2dbf9b
be8863b6
3e336972
3e63c084
3a7ea403
3e7741d6
3f1b2651
beefbf4f
3e08a35d
3d594f5d
3e920e8e
be9a4799
3e12c75b
3e566bca
becde0cd
beb2ad3c
3dbddbf5
3d262fc9
bdf5b65a
bddef496
be731974
bd1c8a65
bdc2285c
bd848bee
bdde9d67
bd2dcfcb
be5ed7b8
3ed4907d
