bd16952e
bd5ae6a7
3ee1f09a
3e059438
bdfe10c0
be878d82
bf18427f
bd938433
3ddef0c6
bde21594
be601517
3d9b1253
bda79d68
3d5cf7ba
bdd76390
3e5b7587
bf429020
3e3ced7d
bea84724
be10649b
3e94d564
be1f0404
bf57c2cb
bf28faac
3e4dfa5d
bf392a1c
be2f3523
3e01e5b4
beb08541
be5b2cbc
3e1f233a
3d7d7d1d
3e134b74
3ebc9d0a
3e5d26e2
bec1f1e3
bd956f87
3c2332d6
bf4efa14
3ea1da6a
bba7a550
be52e267
3d1c636c
3af43c54
beb1c976
be140b1e
3d77d842
bf27f169
bc6dc014
bd8061b6
3e4987e3
bd0ea961
bef378a4
bea0b6c4
3e5785f0
bef73027
3d786015
bf212a26
3e831c4a
3d7b4585
bf031c1e
bdbb2d43
3c641569
bf3489bf
3eb93fc6
be9475ae
bd88ff2b
bda457ed
befed5cf
3e1f7969
bf23f3de
bde518c0
3ea47edb
3c39ac90
bf32a753
3e3ceb25
be700ab4
bf0e1e46
3edfa43c
3dad38b1
bee67f9e
bde5223e
3e80fbca
3dfaeb7a
3d9817b4
3ee80589
3d672420
bedb5023
3e87d05a
bef5e7bf
3d50a71e
3e21e611
3eebc543
bf5a57d3
3e3f119b
bef5debe
3dab1737
bd39fdc7
3e8e7b03
be305806
3eb00ba0
bde1838c
3ea944c8
bef654c2
bdb8b2e9
3e38b543
3d413376
3d0fb877
bea7f88c
3e751b60
be4894fd
be67db0b
3ecd13af
be9202cb
3e3a86d0
bf29587e
3ea1b9c1
bd1e6657
3cb73eba
be05941f
bf57d1ee
be9dcddb
3ba852c8
be69b930
bf140409
be6ac2f0
be9d6ffb
bf602fa5
3e83e68a
