bcb9c637
bf0fc149
bea3b207
3e69639a
bd994870
bf17093a
3e57e7ce
3d3ed26d
bda97875
bf727657
3da59e83
3d93c396
3e52e26b
bec6c668
bf547789
bf3e9024
3db5f1a6
3c4917f0
3e666724
3e108974
bb300170
3e9062c1
bdac190c
bd974b74
3e1a8906
3eaa9b2c
3e9b61a9
3dc2f723
3e0bf859
bd76f6a4
3d2d0abf
bf28cbd5
3da8f89d
3e27e9d7
3e8ac977
3eb084ca
becdc975
bef635b2
be2e1946
bed4a38b
bf2c02b9
beed4377
bea28e45
bf0a258e
3ea96f1b
3eea5865
3e3345f0
3ecf333a
3e246d93
bd39d9be
3e22eba6
3e45f4de
bf980348
3e27699f
3e11130d
3d5e8bb0
be343e81
3e869a13
bf138a37
be31b737
bd79021f
bf056fd1
beca3928
3d7c6fa1
bd3eaab3
bdf8abf4
bc84e384
befb4f3d
3e270631
bf7dca01
bdbe61a8
bf04adde
3d97ade7
be4675c5
be6bc5a1
bef38b8a
3e57749b
be9a1b53
3dd9ce40
3da1ff36
bec60953
3c862009
bd2baa3e
be88cbaa
3da943fe
3e37633e
3c496535
bebb37fc
3e022810
b91ca128
bdf89963
bf1e17bb
3e34c110
be1b8100
bf065f05
bd973329
3e1567a6
be83efdd
beffed1b
bf67eb81
3d56625a
be8f37be
3e906237
bf1caa9f
3e6e8bea
3e00d157
bf8958b8
bf00ad6b
be3e1e3a
3d88b896
be95ec19
3e99d3b6
be2196f8
be8ae2e2
3effb409
bdd34231
be7466a4
3e37d70d
be990f02
bf886ea5
3e5d8bf4
be859431
bec0e9c2
bf094f72
3e91dac9
3de64541
3e70a41d
be22909a
3f418f6c
