bd2c6737
bcab6002
bd15cf4b
bc82fd1c
bd9157b6
bd1aa671
3d64bbca
bd538fab
3ba97880
3da05103
bd4fc8c0
bd52e58a
3d4df3b0
bd577081
bc64e50b
bca94ba3
bd32056e
bd3a193a
3d08ce82
3d92cba5
bc62ebf8
3bcd13b0
3be6d490
3b1f7aa0
bb106180
bda16184
3d4e59f6
bce5b192
3cd6cc50
3cac6760
3b0d02c0
bd63c5bd
3d665e05
bd657425
3c1283e8
bd96477c
be1e0d32
bdaa528c
be041b2f
be7397e6
be82a39f
be687a33
bb2fb259
be5427ab
be8ebc9f
be84af8b
bdd711bd
bdec1862
be83422c
bee33fe9
bebc77c2
beb1b252
bd855339
bc2a8790
3c2e8130
3d0b605c
bda1d7a5
bd1b5f0d
bd8e633e
bec36f6a
bee1f517
3d393527
bdf71478
be139daa
bdfcfc9b
befab3ad
bdfe1650
bdfa597d
beaf8144
bf34f37c
bf282d95
3e57c627
3e007eaf
3e17c2ba
bef22b89
bf6b7662
be386d8f
bd9d8b2a
bde4fbba
beec0b01
be1a0d1d
3d78552d
bd9187a1
bd334329
3cbe6a68
bd9b548e
3da28bb1
bec9e873
bec6453c
bf0f5598
bf43ea6b
bf44dbd9
bf8a892d
bf406b48
bed7e81c
be07042a
bf5715c9
bf3eb333
becdcb7b
be84f7a8
bd76a5c6
3ed50791
3edd6352
3ede0c8e
3f14599d
3e8a0ac9
3e7ff19d
3e5067d7
be1b335a
3d113267
3d14ad7d
bccd577c
bc9ac642
3c40e610
bc95c189
3eb2f909
3ed921ed
bdeb29ec
be7865bd
bee808a7
bf68c245
bf20fbfb
bf215eb8
bf0fcdb3
bee7f4b6
bf0c2598
bf9fdfab
be6292a0
bd96260c
bf20c417
bf1b412f
beebf169
3e1616c7
3edf0481
3f088219
3f3e621d
3e1091dc
bdf58731
be8cede5
bd39499e
bd953ee8
bd271e7e
3ccb22bc
3e2f1ab1
bf16c26b
3f09cf8d
3f01709b
3e8fdbd5
3d6bb7ad
3cc5274b
3e05e59a
be6d903f
be8be030
bec01b9c
be108044
bdec4399
beab0981
be55a6f9
beb0bdcf
bf17f8d1
bec5c676
bdd142d9
3e0fdfd8
3e8ab9b5
3e8d206d
3e113e89
bf3472ed
3b54fba5
3c873d88
3c9ca9bb
be8f74da
3e980f69
bf1c629c
3e2e31fc
3de4627f
3d2fe71b
bc3cc738
3dfde464
3f02c068
3e61147f
3e0c4988
bd164a58
bd7a7c22
bdbbf753
be5d13c2
bd82d69f
3d4baef9
3ea643bd
3e2cc1a4
3e6dffe6
3e7d9581
bb145d77
be24feff
bd09ba56
3c758b35
be46116a
3d0e7d46
3e31035a
3ce0fec3
3eca74b4
bee3bedb
be607eff
bea6d70f
bf1d9432
bef222e8
b9badfed
3e3b2da8
bdbbc589
bd72d2e6
3cf27ac0
beb54e0a
bead76da
bd951ea4
3de5e62c
bde0eee8
3db0bcff
bcd7ae1b
3e554656
3e539274
3e247f5c
be647c7a
bf04e901
bdacefb2
be4be29d
bf994ae9
3e880835
3ebc38eb
3e888bd4
be5fe624
bde01ac9
3d8a5e19
be3aa983
3ddbe6a5
3e9bd8d3
bd35c83f
be7e194a
bc7351c7
3e110464
ba72c513
bda5cc1e
be0b82bf
bda009d8
3e9893b6
3ea92f25
3dcbeebe
3e488c14
3e505ae6
bea9a2b1
bb0422ae
be0a9705
bdd2c953
bbe0ad07
3d87fe85
3e8aa134
3ec83a69
bd840ad0
bcacb647
bd0e480d
3eab6bbd
3e22a974
3ddfdbab
3ecf2f80
bec5070d
be246ff5
3d0046ef
3ebb5230
bc8f5032
be96db23
be9b5adb
3e3f88e9
3e279bd7
3ded2478
3e0e3141
3a8bf7ff
3ee0b31a
3bc2105f
beac96fe
bdbfe7d7
bf298b31
3cd94803
bcf87171
3e7ac393
3f01e1f9
bf1fd7cd
beb93186
bddc4ea2
3def4770
3d1b7beb
3d8ee060
3dd97aa3
bedd1e81
bea2b2a6
baf3ee9c
3c504ce7
bf22e64f
bf057105
3e15a1be
3ea2165b
3dc1902f
3e8fbf9f
3e76e512
be6e781f
3ccb38cc
becfcd61
bd528ab7
3f05e743
bf48e0f3
bd512dfb
3de6f7ad
bf958cff
3d12d0b2
bf13fd1d
be48e0e8
3e33805f
3ec3181a
3e0f1ed7
3e9a7510
3984125f
be341ec4
3e388891
bd998ae2
bea6d97d
beb0759c
3ccf5f8d
3edb560a
3f006af9
3d6b7d8d
3de71672
3d55e53e
be0078ca
be3615fb
be6846fc
3c892c23
3e8d4096
be78227c
3e077f11
3ddea2e2
3dbbbfcc
3d687e8d
ba8f1907
be131b27
3e1a23e3
3ef36852
3cc11002
3e9d57bf
be50aa24
bcca27fd
3e48bb9c
be834e61
bee456ed
bea42140
3f0a348d
3eb07bd6
3d81680e
3e87db0b
3b199299
be4d1f97
3d7049ad
be96cd6b
be2854f9
be85b488
3db6c88c
beb3a2f5
3e1c649a
bd949fe7
3dcafcce
bb8c8e95
3e9d7700
3e9d2f2c
bcf11a6b
3e50c102
3f1a1a63
3ece5631
be3e33b4
bde3101b
bdb1d1df
bf20538f
beae7f2e
3e96812d
3eb9f45c
3e9c2581
3e9ac415
3e36b4ff
3e83c385
bdb0256b
3dc48c6e
bde20bdc
be91dcf9
bf82309f
bd7f3f8b
be8b6fce
bd9267a8
bc265598
3e213af2
bd4ec65d
3ecec2ae
3f03d8ad
3d8e30ba
3d398a33
3e7da2a8
bdafde17
be388b32
be3cc846
be60a755
bf060672
be1befda
be640021
3c7bda6d
3e7af84a
3e37fff2
3e2799e5
3eebbe81
3e008f54
3e085609
be0f30e5
bed9bab1
bf25c486
3e8e397c
3ebb5307
bc811d6c
bd8094ff
bd44e23b
3ddea594
3f257bf2
3f45a775
3db38d32
3ca48fab
3e7cbc0e
3e6e1ec4
be0ac5ba
be8be0f3
bba31f5f
be13be84
be2ba4f7
3be5580c
3e060c7c
3d79e490
3e4348d6
3df1da7b
3e7aa440
3d230048
3dee8cf4
3e3ea000
3df1960f
beebb660
beb3b691
bdc1b709
3d12488b
bd0cc749
bdaead85
be2352d6
beab2acc
bd567749
3d90e32a
bc835a3c
be4419e6
3e4b1d5c
bdd22d70
3c99e293
be274d28
3c43cdd4
3e393059
3e61103c
3e7f70c3
3d89860a
3d944488
3d23beef
3e5e2e9a
be05c4c3
be236b2c
bd998910
be91fb02
be858d16
be0ee892
3eb43178
be84ae63
bd99ff55
bd25c945
bd43f740
beb0fc41
bea8d0ca
bdb4f16a
3e86a5aa
bd61a975
3ed27488
3e6d30d1
3e8a8691
3dfb4289
bd7a230b
3d155cca
3e4f4b84
3dd3824d
be31ec84
be146209
bdc1cf84
be46cbbf
be4ec8ac
bc9b78c8
3dc6e69d
bec8c0f9
bf26eeaa
bde6767d
3d86adce
be971381
3ec74672
bcae7d5b
3e98c3b6
bea029de
be88560f
bed212c2
be81c9a4
bdd0ecf9
bd2da21b
bef58e90
3c629b96
bcfe53fe
be336316
3d747331
bd332c76
3e0eefac
3d93bcb2
3dcd9ff1
be374d64
be5c5638
3e0bbf53
3cb1ba00
be670e7f
bf43808d
bf6d731d
3e925c57
be124225
bda7dc54
3bc68586
be62abda
3d87ba06
bf042860
be06e922
bee81713
be93782d
bd98ae00
bd01daf4
be0aaa80
bf0363e9
be6fe475
be285772
bd58cb9c
bb91b988
bdf61c2e
bdf5b2bb
be411a64
beb945a3
bd5d31de
3e0e57f4
be854fc0
bde88cc3
bf14b474
bf0fbe9c
3ec29fa0
be54eb28
bce8579a
3d4ade12
3d6b9a49
3d112190
bec55a97
be6aab8d
be8f7d46
be8975fe
bf16f73e
be851995
be8a61cb
bea7df1e
bdf4475a
3db3b6f9
bd386ac5
bd54bcd9
bd075ef1
bec8f31f
be997aee
be39a99f
3db6bfb6
3e140978
be85aa83
bc91eeec
bde55ca6
bedaa019
3ebb2d76
be9ad380
3b3e4b3a
bd0978fc
bda28094
3e469ab6
3ec19372
be048fcb
3e83c9ca
bc539c29
bead28a8
bed6adaf
be849095
be6fd3e7
bdeaafd2
3daa4491
3dab3c96
bdda74ab
be5400e7
bd23c19a
bf0a53c0
be403f31
3ddf2007
3ca6575c
3d1b1737
3acc4d74
bec747d8
beb9edf6
bdae3098
bf1f99c0
bd987eeb
bd23b7c0
3cab7cf5
3dc73ca3
bda8669e
3e66d0c9
3edc4a57
3ea57985
be5b7d71
3cce9f20
be04355b
3d79ea4c
3e5415ca
bd53c29c
be26ff70
becad3e6
3dc340a1
bea25e8d
bf25a77a
bf0f012a
3e70dc23
3dca7ea8
3dbfa345
3eb2d7da
be5b97ee
beef0cc8
3eb8f5de
bf35aac7
bd86d1d8
ba0d1000
3da02dc5
be9430e5
bee85bea
3e7ed979
3e6149f5
3f060d97
3ec092ca
bd4739c4
be837389
3d9faaba
3e63c3a9
be8e5ca5
bde22bf4
3dba03c8
3d635511
be91ab0a
bf729edd
bf455012
3cdb3786
3ecf4171
3f0c9f94
3edbe7b3
3df4c697
3e658824
3efecc47
bea5c35e
bc08d588
3c845abc
bcc91f2c
3e89320e
3ced9fe6
3f2910cf
3f828c8f
3ea4283c
3e7d7c5e
3e70dd84
3d333c43
3e8e980d
3e7d0d86
3ded9373
3e70db29
be032a03
bd97f7e2
bef1f24d
bfacaf54
bf9ad743
3dd83eda
3f6162b8
3b0d9aea
bb8363f2
3f27900f
beb82e62
befcb00c
be91f076
bbf95a20
bccc6892
bda3b208
3eaf668e
3f8211be
3ee651fb
3e044796
be1e31ca
bda9981f
3e90ba0f
3ec66a62
baabb87a
3da85805
bd78f142
be665caf
bed2b13e
bf04849a
be71d884
bf920338
bf3f1253
3e99699d
3f28b654
3dddae2f
be0dbd39
be27ef73
beb23f91
be5999cc
bea2a31a
3d2b9a84
bd66c564
bd7dacbe
bb295900
3d47b0f2
bf2616e6
bf0f083c
be8942d1
3f1bb4ec
3f4643a7
3f355568
bf0e49c8
bee94568
beca03e1
3e2d1edd
3ebe74c7
3f2c4fc7
3ec7140a
bf316c24
be9bfd9a
be42b634
3e0919d1
3eeb394b
3de34978
3e71ac7e
3eb4a381
3d9cd18a
3d9952a5
3bafa620
bbbf77e0
3d8701a3
3d5d1d86
3ceda7b0
3e97d88d
3e6cdea0
3ec709ba
3ee13502
3ecee556
3ee2392b
3f81041f
3f3cab67
3e605293
3e076800
3f3295cc
3ebaad45
3e3cf85e
3ce37b68
3e9dedb9
3e43754c
3e8df569
3ed81f96
3e1c52e0
3ea17624
3d35ca1a
3d8fc88b
bd9fdffd
bd836c8a
3db12295
