bdf68209
3f2e7325
bcf35b64
3e47c661
bcacccac
be87bc38
bedc16fc
3e75acb2
3ec8e26c
bf0231e3
bfa9c235
bca88b6a
be37250c
3e63a7f1
bf50a93e
3ccd32df
3d38cb73
3e0a380b
be8730a0
3dd8ed72
bee86173
be8dbb99
3ddacf0d
3f00ca4f
3c562d2c
3edb2349
be955d0b
bf11d041
bf547e00
3e834b96
bf53ad71
3e6290c6
bf0738e0
be306031
3ea93a58
be1c5195
bc73bd30
bf67245f
3da2e810
bf1bca1d
bed43994
bcc393c7
bd4a2ff7
bf5ce439
3e9d70c5
3e8d760e
bba827e7
be2ed387
be2581ca
3e2c4770
be9adc1d
bf83343b
3e91d689
beb79702
3e6ffa25
3e1b66f5
3e074f4d
3f273a2c
bf91bd83
bcc54578
be74fba0
3e754db7
3e7e5ee3
3da95ef4
bc02014a
be8851dc
3e596a29
bd102153
3e2e2ceb
bf14cb82
be817691
3ecff70f
bd71db96
3cdd29af
bcea97af
bc9fc1b4
3da241d4
be9f8e32
bbee7f50
3d4262b7
3eb2ecac
3dee9d84
3e253643
be972cef
bde17a68
bd1229fe
bf4baecf
3d127081
beaa5a92
3f0073a1
3df6e236
bf0f0f19
bf372b28
bd71daf9
3e1bdc72
be9531e3
3e529d5d
bf21ecc5
bf292d9f
3e1994b0
3d949eeb
bdd1a550
bc7b4872
3f02bc95
bcc9c9dd
bea93813
bdd080d1
bf95ffcb
3ef80ed3
3e379baa
3e3e674b
3d8d8caa
bea15e50
3eca3244
3d54e4f0
3f29d8c3
beff6d21
bca55de0
bdc32e83
3e032819
3d9d08c8
bf561001
beb7aa98
3d56ee67
3eb4256c
bde2e920
be853e8d
be97d394
3e7a4561
