3b00f320
bd58b6da
bc134180
bcdd39b0
3d39538a
bd9c16ce
bc5ac278
3d70acb2
bb18df40
bd1e3113
bd9a2c16
3d75f0ea
bc667788
3bb072b0
3d707e7e
3d15212a
bcd1e15a
bd59812f
bca27bae
3c915568
bcc8ffbe
bccb9290
bd15da77
bd581533
3d73c326
3da4a42b
3d9bb30d
3d9cbbbb
3cc983cc
b8ffa000
bd21674c
bcd22572
3c3f216b
bd66564a
bcce86fe
3c0a88b6
3dae9d4f
bd1df94e
bc101c02
3d1c1600
bd20a601
bdde0a1a
bda69467
3da5d600
3da6e0e0
3df76f13
3c068d52
3e32f96e
3db5f4a2
bd9f3995
3bc36160
bd4365c9
bd88c788
3d124416
3d18a790
3d0941ba
3cf63ea4
3d9a3ddb
3b3b9b40
3d897459
3de4b870
bd79c68c
3dadaf0d
3dade68a
3e5e5502
3f17f8d2
3f0e5e51
3e0a02a0
3de82ed6
be938f78
bf7bb44e
bf79f136
bece962e
bdb22e09
3eac8af1
3f10f427
3f0cf8f6
3ee80c5b
3eb5fe35
3d660cb2
3e044277
3d90bf5f
bd796a5a
3d4a931a
bd1049d1
bda1e50f
3c6a27b1
3c8eb42d
3e4a45be
3eb5a5cc
befa821d
bec619a1
bef9a88d
3e4d2a0a
3f703f7c
bda7d907
bd65385a
3f35834c
3ee4ebfe
3cda9cd9
3edfb77b
3eb0b67d
3da7f1bd
3d9f239d
be2137b4
3dd6a0aa
bd177c5f
3e084c21
bec5b7c6
3dbe5e8e
bdaf21b0
bd36e19c
3d101c4c
3d6611ce
bd88119d
bcc619b7
3ea47fb6
3e3330d6
be472605
be7a50d5
be5bbce8
be2f9e71
bf225c9e
be2c4241
3e8d48cf
3eaaa9c3
3e52772b
3dd5bb32
3e58d575
3ebb3323
3de52af5
bd702cd9
be5425de
bd8da1bc
3db3dcc8
bd9c0b85
bf23c844
bf31081f
be566da9
bd331e56
baf4b0c0
3d52ba5a
3d9128b6
3e350907
be143339
be4a8b4b
3db82631
bdd725ef
beac2971
be975160
bd981913
be84ef99
be4fac70
be65f6c5
3d9b2090
bdd12a47
bcea264b
3e2c7c80
3e09e62d
3e837039
3e111e9c
3e45275d
3e41fca2
3e7878a9
be539c0d
bf67b39d
be975f36
bcabfd5d
3d01a86e
3d63f092
3d11084a
3e32d535
3d31f783
3dfd4641
3de88a19
bea2c224
be966e05
bed242ba
be8e16ad
bc5afb0b
bdde8dec
bd51fefd
bce18c82
3cf2c7fd
be6b6a8b
bc91b8b7
3d6691ff
3dcbde15
bd701cb5
3e8671da
3ce75a93
3dbf7a59
3d42c9c2
bf162007
be9c9f0b
bda1c60b
bda12283
3be42c60
3d6ac82d
3e18affe
3cbc7c8f
3da55bea
3e0900ae
bd2daca4
becd521b
bda92e04
3dc664dd
3c78825a
be3216df
3dc487b0
3ce4490b
bbe89a44
be01b6ca
be152d7d
3ebb0264
3ec1c5f4
bd50f001
3bbbe443
bd170deb
3e95f2fe
3e10a1f2
bf35eebe
bf7da775
3d44ea90
3d56977a
bbe41a10
3e4590e5
be6f3287
3f164ab2
3b98e07d
be6fc1b8
be438ded
be3b6634
be89441b
bed6cd40
bd83224a
3dc991a7
be0ffbd3
bcaad62b
be18b413
bdb632cb
be1d8a2a
3e1a45ea
3e8ce50b
3e1df1fd
bded712f
3dd094c6
3e1c0366
be334ccc
bea5cc57
befe2e66
3d27bc7f
bc0a24d8
3cdc0fa4
bd8c3624
bf3edc90
3f3c5031
3e17228b
bebf020b
be135b31
bdc8b145
3dd382c7
bc864ab8
bccce2c7
be9416d4
bda277d0
bdf6c574
be9971bf
be1b145c
bea80e7f
be0023a7
3da3ee8e
3e96261a
3e2f156f
3d5a0c6d
3e282a25
bee95e9c
3e041d21
be8d4807
3be4338d
3d52075a
3c48c8d8
bcca698a
3ef37048
bd96eea1
3e3b0d6b
3d7b000d
3d918398
3e06045b
3e34b5bb
3d861589
be09e034
bdfab312
beb358d3
3d56d80f
3e854f8b
bda7b7be
be856e73
be49f271
bf0804e3
3de11df4
3e06c7a7
3f005a89
3ed5e313
be4b2128
bd95bdcc
3f071bf8
bdda4abd
bd1362e0
bd4c2663
bd7fc947
3e921987
3e05a838
be6b8663
be834d65
3ee353de
3e3a5874
3eb86089
be3bc624
3db52780
be45645c
be863ce2
bebad806
be4ba702
be6f151b
befb8251
bdf101c8
be8b0c70
3cd0ca31
3e2ca0cb
3e3246aa
3e65477c
3cec6334
be0cbe8e
3f0cb288
3c7e183c
3bc4eb70
3d21c356
bd2a193c
be781ab1
3e88a4f6
bec2ecf0
3df8b58c
3dfe7c01
3e755161
3ed79c06
be442273
be87f091
be815d12
bda56ac1
be006ac5
bebc5786
bed5bb44
beddf52d
bea109de
be6a417e
be634a2c
be234f04
be443bf9
3ec7b498
3e6024cb
be337c3a
3effd39a
bcbc4d67
3cc9c060
bd31ca14
3d2c974a
be48e0a9
3ef247a7
beb4e20b
3e151fc5
be1ae343
3df99ce6
3e38fa42
be9d19c2
bf088f5b
bf03e2c6
be412b7f
be20aced
3d83c3ad
bef43ed2
bf6c69b8
bf3b5f9a
befcac59
bea43859
be9c9c7d
bea03825
3ea30e0d
3d2fc0f2
be494bdc
3dc298dc
3d4ff182
bb81ffc0
3c4fce80
3ca11c58
bf00ed85
3e8a5c8e
3ec6773e
bddacc12
bcf1a36e
3ea1b86a
3df5ee98
bf2cde76
bead7e73
bc014d8d
bd68d1a1
be609408
3e330167
bf0daf9a
bf4c7ef4
be878e02
be0963ec
3d5c0c7f
3cc2ca23
bd8d41c7
bc4f3ecd
be1ed1a9
befe8ec7
be31f852
bce79944
3cb9ab90
3cde8b24
be20a24b
bf516319
be3ee193
3e9d68f7
be7f6d6c
3e2cd057
3e95b791
3da25498
bf0b9345
be947b29
bd57debb
3de91044
3dcf58c5
3c8c9cb0
bf44cab6
bf0323db
3d710cd8
3da9e9e3
3e502394
3eb4b9fe
3d6b73d4
3ebe7998
3d76f98a
bf4a8c66
bdeb20fb
3e34b092
bda60430
bb8c3ecf
be1a31f7
bf4b4d0d
3e086c32
3ed856b4
beb842d6
3ecd745b
3eb8adad
be94f4c0
bed44a9a
3bfd064c
3e92015f
3e8e1ffe
be87727f
bf2004d2
bf90a824
beebd6b5
bba2e8a7
39e1cb42
bd8f5ccf
3de9070c
bda24e2b
3e0bae4c
be051eea
bf5b1c8f
be4664bb
3dbde170
bd948173
3d0ee507
be14e05b
bf430b69
3e6472ac
3e820c0b
be1c5ac4
3ee9aa22
3e7529ba
3c1e72f2
be3fb980
3d86ac6c
3e6af7c3
3caee05f
bf22a8a2
bf841583
bf03e49c
bd8fa291
3e8c1cd5
be86ab48
bec64a36
be27ee47
3d142383
bdcaf55e
be176bec
be9956ba
be7b3977
bc184fae
bd20f16d
bd3ae280
be2516b0
bf0d17aa
be8490fd
ba2011e4
be083d55
3e9ebb26
3f160a6a
3f11cc80
3e8d9f37
bdd0eae7
be122df9
bf112b04
bf64390e
bec8de44
3da680e5
3ec3297d
3ce7986c
bf1e1d51
bd44c6b3
3de676af
3e0ccdb7
bd579f3b
3f01d130
3e967e12
bdab8f61
bde2710c
3c9d00fb
3c58ddae
bde8b26e
beef7d35
3d20bb59
3e13bbf0
3dccfc0c
3e3e18d0
3ee36593
3f0f41c4
3ee7f7d7
3d4dd474
be903f90
bede5e1f
bdc2bc38
3e036093
3e2bc95e
3ea731f6
be6059ee
be2cbd27
3e10ec92
bc87b599
3d489ebd
bcb2ceea
3ed3c503
3e7e4fb1
3d290596
bb152b78
bd56a036
bc5a040b
beae558e
bd927e7d
3cd6bff8
3e6d9191
3e1a578b
bdea95ee
3d9ae51e
3ef3f409
3f111962
3a6ca8bb
be40dd33
3c1bde6a
3cb2def8
3e7b0417
3e3cf290
be73b338
bda38c93
3e4b8847
3e0c6b12
3e6d909b
be1be5be
3d8723bc
be51ae84
3d64e287
3d982dab
bd29ba86
bd7e46ea
ba067dc9
bf1b6e04
bd5a38cb
3d5d961b
3e350439
3e4a231c
3d32ddc5
3ccffbea
3e95b0ef
3e990450
3e18f58b
3b0a1349
bde24ec8
3ea8706b
3ed2bc17
bde6f01a
3dff924b
be100ad0
be03ea87
3b0cb48c
be3e6ab5
3df4172f
bca855b9
be6fd614
bb228574
3e409c9e
3da47eb1
bca00fd6
3d39180e
bf01de61
be9b601d
be5b1b96
3f044a38
3e9ca045
3ec9490a
3ea230a3
3f0b9103
3e3266ec
3e2d33c1
3dd043b8
3e93c23c
3ea105ab
3e3f327f
bd50ccea
3df1b29a
3ec295a5
bd43f30c
3c4b2a31
be3e65a3
3e510bb3
bf36faf4
beef78f6
bc8ac2cf
3e815172
3d87f777
3d829fb1
3d827735
3cbe22c3
be0c101a
3c9df35c
3ef44adc
3ee75749
3cffbc8f
bdba804c
bcc268a5
3ea751ac
bda0b2b7
bdd72e32
bd66da49
3d87e9e9
3e5bd9a7
3e66b42c
3f053bc5
3e88c268
bd83beff
be0bff23
bf055109
bf23bfc3
bf260563
bf0a5932
3cfa52d6
bd9a4de9
3caed98c
3d8afcb3
bc0287d0
bd3ad5a8
3d11e6d6
3eef2d07
3eed52a2
3f0bea87
3f231770
3f0cc07a
3e69607a
3cb9fede
3d063734
3d9b4a8c
be1c603c
be080657
3d8c1da1
bfa37e0e
bf84872b
bd85dcd0
bebfeaa1
bf30f8d2
bf3dab72
bf57e966
3def7d75
bcc58fbd
bd3e07de
3d7155ce
3d52fdf2
bd170974
3d923a49
3d91ac91
bdf887e8
be68d812
bdebcd06
3e0a977a
3d07f785
bd91d9ee
be4ac13e
be734643
bec148ad
bf29cb30
bf01bcca
be9c8222
bf052fc6
bf27d430
bf4c47ab
bf5c6074
bf5b3d59
beec4617
be9ebcf3
bea66037
bdaf8964
bda193b1
bd841d8b
bc2d75d8
bb1d2020
bbb8e620
3d183270
bd36bf1e
3d9479e9
3d475484
be817380
beef7e6c
bf007786
bec66ebe
bef5980c
befae6dd
beeb9b4a
bee750e0
bf099b13
be77dddb
bf096ac9
bf1d0e99
bf4ccb9a
bf526dbf
bd84fe6d
bd5e42ef
bdf55d9a
be6995ff
bd4f096b
bd66a0c0
3c7596b0
bc550a88
3c2491f8
bc99ce42
3d71e58e
3d0ca1b8
bd267dbb
3c56d7f8
3d17ff1e
bd939e02
bd0683fb
3d074441
3dac75ef
3dd87051
bce6e293
bdc35df8
bde4fd65
3d8ba9c9
3df1e94f
bd6ae3fa
3ba6cd91
bd8929b2
3d82fd62
bd5854da
bdf03eae
be2d1bdd
be0557ba
bd8c2d43
3ce2b740
3c717760
3b8fbe50
be9e3786
