bd1c1d31
3cc5fcfc
3d039586
3caf4314
bbc62460
3d1e2bae
bc568bc8
3d9b8c1d
bd5b16c2
3c6a4e08
bd51a930
bda29bb3
bcf6eba1
bdc86023
3c6dad21
bb782a5b
3d938763
3d804f3d
bc4ec6f8
3bf43320
bbd85800
bd8cb88d
bd4e9739
bc7e0520
3d849163
bd784ba0
bced6772
bc5db750
3d680aea
3d2922e8
3d9748f7
bd94f8a7
3c7ee832
bd740bcf
be542e64
bea6907c
be2046b6
be68c17f
be41e021
be531eff
becf4d73
bef201db
beb4d99c
bec2be48
bebde560
be01983d
bd74874f
bdebaf85
bd682f36
bde30f33
bdd7a5a7
bc612103
3d31f5f6
3d8a50a3
3c970984
bd223b90
3c062958
bd9ed986
bcf4f16e
bf50da6d
bf490913
be6917df
be6bcd6c
becd89b6
bdb16305
bc6cbb3e
bcdba398
bf88abb6
bdd15ec5
bdb3bdc5
be81bd31
bf3c6a83
bea2a65f
bd9ffdf7
be3bfc98
3dcfc347
3dbf3bd6
3ceea811
3dd5fad6
be3dc6c7
bda019fd
3dd9c4d2
3cc27c8c
bd6f8e06
bd8daa67
3d2235a4
3d42b095
bf794841
bf990042
be4264a9
bec7e0cb
bf13c5d1
bf0eea30
bd92e35d
3f1307fb
be08b052
bf16d798
bf864bd5
beddf7d4
be4fc515
3d4ce172
3cfe931e
3d9cc8fb
3ec2cbb5
3dd74c91
be7018ea
be27a86f
bde42e3a
be0f7bae
3f06de14
3d169137
3d69fac2
bd3001d4
bd5bcc74
bbd78c33
bf2e52c0
3b40e2b7
be3bc6fc
be350eab
3d2482dc
bdedd58e
bdf781ed
3ee61641
3e9d499e
3ed77e3d
3daa6daa
3e3d5306
bdef85eb
3e8752b8
be27d9a8
3e9ac952
3ef6ee57
3e0d9252
3e70dca1
be2836f3
bf0d2ae7
3e1d03a1
3f2a8a99
be1b5c51
bac963b1
bd9f8c77
bd4e15d0
bdb4128b
bf1b3afd
be80083f
be44f0a9
be16f4f4
3f171e04
3e8ce532
3d3f969a
3ee79f51
3dad517f
be48a0a6
befea81b
be3ce394
be5c9dd3
bee604ea
bf095a0e
3ea40ca5
3ebeb803
3ebf15f5
3e5e0d27
3c3d6c61
b99743cd
3e4aa52c
3f597aec
bf4c36e8
b894fc58
baad1bc0
3d962415
3cf9e6e8
bd20bc46
be7fc18e
bc5faa01
3f211e16
3e05be4f
be1a3bac
3e54d3bd
be8a652b
be9c0720
3d8cdfeb
be0c2a63
be4a58d2
bed3e24e
bf603706
bf2a223b
bd27872e
3ddfa9c8
3e8e868c
3dcab52b
bd15df01
3ecb45d4
bcb278ef
3e9e7680
bf2c6aa1
bebd30df
3d360782
3dc38bbb
3e3a303d
3e1a5b4e
bead114c
3dd20ab0
3f188e6d
3d93b2ce
bdea01d6
bec960a6
be6d030d
3d438fb0
3e58b1e0
3ec62ae3
be19dbaf
bf009882
bf604e89
be2fe2bd
3ec188a2
3e4f1090
3e26cedb
bd70ff41
3dad1545
be84c116
3e1552bd
3e42bcbd
be90cfd2
bedd1c83
3ca73bbe
3dea0d47
3f137e7b
3de6c358
3d66ff9c
3e19c98c
3e499ee3
3cc340e0
bf456782
be37f081
3e325ff8
bd42c2c4
3e482b0d
3e5fc0b9
bdc4314e
bf1cace2
bf3b4556
bcca1939
3e91de61
3d098c82
bd4bce6c
bd19affb
bc4c0afd
bec19c7d
3eb32569
3edba94d
be048bfb
bc969b39
bba68c62
3e10d163
3f03224d
bd2285da
3d388cd3
3e4f7b28
bee0b766
bebfd807
bdecf5e8
bc421942
bdb9e377
bd6c4865
bdac0b30
3d204ecf
bda9830d
bf91e0ed
bee2d29c
be33c19e
3e6a870a
3d14b7ef
3dcd38ae
3e8b8b46
3e505b3b
bf166537
bdb683d1
bf7de28e
beac3f4e
bdd70117
3d0eb9c7
3dbeec86
3f62f4c1
3c84e546
bec55f85
bd8dc551
bf6f7148
bf0d1e21
3deb89e6
bec824cc
3d8faae0
3e26af87
3d75c566
3db479b1
bdfe4dc8
bfb240c7
bf0764ac
3ea956c9
3ed5c7d3
3db0cbd2
be6b4b04
3e24c1ca
bdc28e27
beebadf1
be185cff
bf68bab9
bc579a84
3d55d165
3d14dd73
3e2e283b
3ebad6ad
be8409dd
bf14b8ec
3dce7167
3d9e32e6
bdb12f25
3d948a02
bdeed531
3ebd67e7
3e3b628a
3e0c43e0
3e9ce898
be2d4ef8
bf74612e
bcb66d8f
3ea2862c
3e770d44
3b3f5b90
bef3eaa5
3ddd4cab
bef1cd36
bed35992
bf0fa957
be8ffaac
bd488cac
bd002dd4
3d89939a
3e732be6
3ea37da9
bd95a311
be840a26
3edf5b4a
3e1d5512
3d01d702
bdae7022
3cf77f62
3e83bd15
3df3fb9a
3f37a4d4
3f2cf973
bf196731
bf0e8f6c
3df82546
3e7401d0
3e9509bc
3dd24801
3bb2b152
be6f8e00
ba55d6e2
be99073d
3f004db8
be517b66
3c94fe66
bdff3dbd
3d7fe6ce
3e02e1e3
3e734d63
bc718c4a
3e94f089
3ec82653
bd12714b
3ca8cf32
3dfd3d51
baebe98e
3d775c7c
3e8e46fc
3f03b0c9
be903df0
bf2777d2
bf04ff63
bea0438a
3e16f4a0
bcd14220
beb1a893
bec084a8
bf346478
bec6aadf
be8702e0
3ddef7e5
bd0792ba
be0b26d9
bd8ec68c
3da57bd1
bd876465
3e05834c
bc67d980
3f1a2aac
3f6871fe
3dc650cc
3e1c26a7
3e2a565f
3e8aca74
3e945eab
3eb0409b
3eb60d95
bee56109
beeef828
be91b7c1
3c815c81
3e2db92b
bd258020
3e230dc5
be6b46f8
be29f6a5
be812950
3e93defc
bea66b60
be62395d
be345e27
bd1d0152
bd51f31e
bdc68ac6
3ed4a510
3d1cd77b
3edbef35
3ed5da47
be49a780
3e3f5a2b
3e3b91d5
3cfbee6a
3eb157be
3e701aec
be2b5e56
bcd94968
bda5a162
bdf9a37f
be306183
3daf230d
be582736
bd15d2db
bd496335
3e5c66b5
3e91aeec
bde59d9b
bf26d3ed
be9ff3fa
bec3ef2d
bd904a5b
3d94bf6a
be4e4707
3ef2181f
3d83a38f
3ed1282f
3e0343aa
3e11b3aa
3e09923a
3e4bbaab
bdd61fc4
be02b67b
bdcac09e
bdeae448
bd38787f
bdb89a49
3e512b8e
bd6274bb
bda29780
bb3d245e
3e373f2b
be28d7b3
3eb9e851
be4bd9c6
be8c4f7d
be2829ac
be4d1d7c
bf04e670
bece6e97
bda17eeb
be35e94d
3f28e4f6
be0bb88c
3ee4900e
3e36ed46
3ec6d4a9
3e92cc9f
3dad4778
3dd58bc6
bee58acc
be6a9bcd
be55ca33
be1a4c2d
3e450382
3db5fd10
3e39ab98
3e7967a6
3e984899
3ef5bff0
3e8b8685
3f0a92ce
3e74fa89
3e7c279e
3db85630
3e7b091e
3ed28f57
bf0b1dbf
bde68007
3d8bf837
3f261703
3eddec1e
3ea13baa
3e837191
3eb2c063
3ec07612
be291846
bddf14d1
bf0c3129
be8117ec
3e7bc1ad
3e810ceb
3edd87bb
3e5f2d30
3e90d3a1
3eaa2f88
3e816d04
3e9a2e3e
3eba3b12
3e8e612d
be3b202f
be2c8ecb
3d8295f4
3e9fc177
3f00bf2d
3dc52644
bc6b8692
bf1034b1
3dfe0b48
3f4900d2
3e6cdb7d
3d86c10f
3e9cf01d
3c8d4a5b
be007007
bd7b226b
be161190
bd9c9ee0
be6470b5
3d8c7fac
bdd0b928
3cf691ef
3d9f95f4
bdc12223
3e117287
3e38ea43
3cdcc4c4
3f3d1d6b
3cab7af1
be0a5367
3eab7f14
3e9f9277
3ea52e8a
bd1e62bf
3d701da2
3ce5712e
3e06d3ab
3ec3293b
bdff4692
bea3ed78
3cd1a7d5
bd6e6f07
be458588
becf4a0d
be317309
be9e2d90
3e1aa9d8
3e26b71b
bdcb5e7a
be022ddf
3e36cb41
be98834a
bd8b7eda
3e4868b3
3e8bc256
3f034926
bdca82d2
bd79709e
3e59f534
3cee4c9e
3ebf44a8
bd8d5007
bd2ffbde
bdb013b7
3e025f55
bdd825f2
3d77584f
bd6172b0
bf006fef
be7bbfba
bde40f98
be769a1e
be93a217
bda6645b
3e0706fb
3c0e8815
be716e38
be5af296
bdaf4a11
bdbb1311
bc18b84c
3e91d60b
3ec6aa63
3f0a7c70
3e91c861
3e927ac6
3f08e114
bde90f09
3e017337
bd924b6e
3cbd5710
bda56a66
3d180928
bf0e9d2e
bedd3e64
be650037
3d933aec
bf000958
bf153a0f
bd83d4b1
3d9389c9
3f11ecf5
bdf281ea
bdf91ac2
be3318f6
be52f25a
bce59452
be1608e7
bdb731cf
be454f9e
3e20ec48
3f2555df
3d59b9f1
3daf97cc
3e06acf2
3d2b7a2c
bd76aaae
bd8f5cb3
bbd8a6b0
bd51adc0
bc47429e
be82a59b
be174ac4
bf21687f
bf5d0867
be1e060f
bd96ce59
be753f01
3deb415d
bd401515
3c20e3cb
bea1417f
bcd44d75
3ced4bcc
bd08377d
bead26f9
be3967ed
beb02412
bdf5af6a
3e5e5559
bf023a59
bf1e6838
3e0f8b3c
bc74419d
3c9fb548
3d3e212e
bd9218cc
bc9fcc10
3ca14088
bdd59767
bd828cbb
3b966e53
3d921053
3ea70a0c
be076314
be33ba3c
3b77ad3e
be4e0aec
3e1ec44a
3dd4e3d5
3e9655b3
bd88ee1b
bdcda7e2
3c2f684d
be6d4c52
be8c86a3
be65005f
beb3bdda
bf2109ee
bf25a229
bef6e9b6
3df8d52a
3d90ab19
3d11d06c
bc080838
3d91f4b3
bd99c52e
bdbc0d8a
bcac2920
3ec73f68
be92393a
3eb5ae49
3d397ea4
bc91774b
bcca0fc1
3ca48eb6
3e50e7d6
3d81e291
be73f970
bdec4186
bcc40328
3d7cb19b
3ecef45a
bdb26c4f
bf1d1360
bf0691e0
bf3b6a58
bf4aa7ec
befa9954
bd5f6eb9
3dad2193
bd486fb5
b9f66f00
bbd2bae0
bd432473
3d785de6
bd30f469
bd2be8e1
bef698c6
beb7ec3b
bf12f015
bdf971c8
bec07ca6
be879477
be2a5f66
be7c8b16
bf140eab
be3ec0fb
bd7f7e48
be447225
bdfae57b
bf2836c7
bf6f08b7
be987d3f
3e2b095f
bdeac563
be203081
3d5fc146
bd56c75e
bc413f48
bcabff64
bcbc26fc
3a897840
bd8095d1
bc6e8b30
bcd62d28
bdc82ab0
bdaf7bc9
bd5ca3db
bd6226b5
bef6dabf
bf205564
3cec3dc2
be598c0d
befdf984
be9b6e7b
3df3a34e
3e55a052
3e512d4e
bce16a1c
3e11f3f0
3ed76d3b
3f0d0a30
3e947745
3c9ae688
bcab7032
bd7becf3
3d5eac6e
bdc4d482
