bd7ac9e8
3dfd86c5
beae9a1e
3e715882
bee2104a
3ed8cab6
3e33a4a5
3e4335f1
bef68230
bdc3f574
3e64e470
bea07b7e
3eb54ad6
bec113eb
3e3278c5
3dd93cea
bedf0dc2
3e7e8e31
be5f1c16
bea61311
3e5f3f7e
bdfab0ab
3dca337b
bf20ffe3
bf884513
beec01ec
be6232b3
beec2b0b
3d26d32c
be8941fc
3ef73fcb
3d836d85
bda06f1f
bf59d403
bf27894e
bf2a0db3
3d29067a
be2367f4
3eb4ecae
bef286ac
3dd69f05
3d31d92e
3e90b286
3e0c4830
bf193c17
3ce74bcf
bc01bbaa
bf097b98
bb6e8f55
bef8a352
be202d4f
bdfe850b
bef246e5
3dc6a292
bd840b4e
beafafb6
3ea5ecb7
bf0d4ae4
3eb1e5ac
3e910123
bed823fb
3ed49778
be08632d
3ee8c5e7
bd26559f
bcb80b8f
bebe60a2
bf0eda5e
bf083e33
bd619f66
3f094976
beff684d
3e369595
3e9225c9
bdcd7a2a
3cda105d
bccb4da7
3e0a8587
bdac95b4
bf42bb67
bf2da4e5
be83c9bd
3eba431c
3e8a535f
bf17fd37
3d5f9950
3e104c69
3d5c1c55
3eb26699
bf835e9a
3e27c5ac
3e2660e3
be0bd201
bf02d1c1
bf2e55c0
3e658d1a
beb22d3b
bed8d553
3ea6b669
bf04e504
3f0b6684
3e2c08eb
bce04fd1
3d76e360
3d109415
3dcc3ab9
3e16a282
3e5a7e1c
becb8248
bf15e825
3d2de602
beba20b5
3c8b9131
3e2acc39
be78c84d
3e47db62
bf126487
3e1648e6
3e9d75f1
3e188e26
bf0842ee
be63b2a2
3d9a34e7
bdaa22eb
bf806d1c
bd852549
be94e409
3cf7f9a3
3e013c10
