bd28bf7b
bd047d0d
bb7feea0
ba85a7c0
39a31300
bc918148
bc9d9a36
bba1fc80
bd766356
bd900710
3c4558c8
3d7c46c2
3db3ca90
3e0b1283
3cd7f838
bda10f57
3c232ef0
3d847cdf
bd821504
3d85266b
3c782258
3d23392c
bbd7fef0
3d991997
3d60253e
bb2f5560
3d94fa97
bd120718
3d97e28d
3d173cd6
bc513470
3b0bb980
bd45159b
bd904c7b
3e5f37e8
3e658ff1
3e159767
3e430291
3e61a009
3d89b7f8
3e51a129
be90a5ef
bf12d441
3e7569ad
bc31416a
3d243c92
3dfe4918
3e6a0580
3e7c60d2
3ee00ea7
3ed6a34c
3e57b98b
bca4aa20
3d85376d
3cf69838
bd06e37c
bce69516
bd151967
bda09e65
bcd424f2
3c8651d3
3e20af8e
3e8215fe
bce3881e
3c1a1abe
3edf9591
bd8c757b
3e19517b
3ed54378
3f06aa3e
3ea5dc04
3e497c8b
3eb2e53d
3e98ac95
3f1ad0f9
3f371f4d
3ecc7100
3e722a71
3ec6fc99
3e932f16
3dcb5e1d
3d5ee1aa
bd8f300a
bc9eb712
3cd9bdc0
bd95d000
bd7eedc6
3dc2b106
3ec10613
3f0187cb
3f548fdb
3f121d68
3f35f88b
3f52e0a3
3eda0b94
bea30865
bed94b33
3e4197c6
3d71b1cb
3ddf8042
3dae485a
3ed10c43
bd1de743
be910eff
beb28fcd
be57ef72
3ec057af
3ed490a1
bc1b4a98
3d799d5f
bd3d20f3
bc170f38
3d9842bd
3d8fd97d
3d2fbd54
3e0d9c0b
3eb8ffb1
3f05a55b
3f267bb8
3dcd5fcb
beb1300e
bcdd6e00
3d07b717
be802f48
bdd3abd5
3e8a7b01
3dc2ca32
bd4820b7
bc37c309
3ec88d30
bd2fd3ac
bf321f95
bf1edbdf
bed70876
be325886
3e0eea4a
bd82dde0
be3d72dd
be6a3d4a
bdeb4a1a
bd130119
bd34ee5a
bd0e07b8
3de614aa
3efe3673
3e8bd287
3ecf39c1
bdc736d2
be0c52bb
3d9bad8c
3de41d2f
be8e9cc5
3d224f77
3b8ad424
bdf36470
be948db3
3e2a0e4c
3e543747
bef7fd41
bf2adaad
bf290bba
bf32c409
bf0dcf2f
bf249a8f
bf048a42
bdfc758a
bdc753c1
bda524a5
bd1e43ea
3cd5cef8
3cc6f163
3e6e9703
bea52840
bd1bd44c
bea22d52
bf42592a
bea24a5e
be9ecf98
bf012121
bd5e0205
bef0d926
3c4bb780
3e3d00ef
be1795d0
bed72f15
bfc1ae0d
bf534646
bec920e7
bf3c7671
bf0f5994
bf8babe8
bf8cc9ed
bf0139be
3c1d73e2
be974d9a
3f434761
bcfb1ec6
3e829d3d
3e536c1e
bd3b5320
bef15853
3dcb30e8
3e39c5d2
3e4a05bb
bd04244b
bb8a3285
beeb08ca
bf2d2fd2
bf2d7ebe
bf53e6ae
bef5d3ae
bf230b17
bec46aef
bf83c326
bec001f7
bdd7e147
bf3244b4
bf43a6a8
bf962ecf
bf256ed6
bea94d5c
be2675f8
bdd549ce
3f38eb72
3cc8109d
3ec31254
3ebb2b76
3d9090ff
3dffcaea
3f0faff1
3e804750
3d35bc20
3bfe2529
3d6d51a6
be5cfc9a
be622448
bec5521e
bf6b1a0d
bfa2e8b2
bf924f7e
bf5a4928
bf1f5dcf
be92c7f5
bf0efc82
bea13e40
be9ea46e
bf30d3ca
be066f87
bd9dfa54
bf076b45
bf2ff2c2
bf0862f4
3cb3f2c7
3e69aa8d
3f0fef35
3ee20627
3ee6769c
3e8df5b7
3cce60f8
bddfe8f3
3dc6dc19
3db1aa6c
be8976c1
3cb61633
3dc67be7
bec0be08
bf207233
bf2eea78
bee5312b
3d813635
be80d440
bf0eaf22
3d70426e
bdcd31cd
3d2ffddd
3e0bfaf6
3df6118b
bed8a047
3e7cad78
3ee87063
3c847035
3e902a3d
3f468136
be398be7
3cf38823
3e66708b
3e474a34
be0a6355
3cf7c34d
3e4c5e33
bd3c4728
3ed0daa6
3f0a19ab
3e4c107c
3e1c880c
bbb20667
3e38533d
3e4b11f2
3e126ab3
3db29ef9
3e9114a7
3ed14e55
3df5ea5f
3efab337
3ef8ccd4
3f1c046b
3ef5956e
3e3fe0fc
3e0d41c5
3eb796c5
3e4db3a9
bd912a98
3dc90011
bc990e89
be63f3fe
3defb809
bd5e1f66
bb8baaf8
3d540241
3ea95ccf
3e00019d
3e2deab0
3f2a0c66
3ed43790
3f1455ba
3ef576aa
3eece42b
3eb1e878
3e2bf809
3e2862da
3e6fe91b
3f199201
3f4099cc
3f0b67cc
bec7e694
3f11b79f
3d8255ca
3eb06313
3e305134
3e7655e6
3e023e56
bea2e8e7
bf096ba1
3d0df3b9
3eaf05d2
3ec29ec1
3dfbc794
3d4b1eab
be81d5c9
be109ae5
3f1f02c0
3ee78bf5
3e91d5b3
3dedc8e3
3e2aca10
3e2fb222
3e54d1e5
bb77ac86
3dc8189c
3dac0895
3deb51ad
3ed68495
3f8eb5f3
3f4762f7
bd86c98a
3e04b40e
3f055f51
3eadb75e
3ec63b57
3e14d468
be07462a
3cb8fca8
bdd97826
be97968a
3eb234f7
3e93c570
be6a024b
be18a6b2
bd6ebbc3
be0e4ac5
be353f06
bc21d11d
bcbbb5d3
beb8a3f0
bdad31ab
3e9488b9
3dcd5e9d
3ead76c9
3e85a9a9
3ef43f00
3f340030
be5ec0e7
3ce8e8a4
3d848473
3ed242d6
3cf3d04b
3e09ba51
bdb41ab3
be84dd92
be8dfd66
bdafab4a
beaee8bf
3cae2e1c
3d71ce53
be919b8b
be1f757b
be847915
be2341d7
bd4cc7e4
3dc1eeb9
bdba62f2
be907841
3d6c885e
3c14f6e9
3ea229ab
3e849940
3e06f3b8
3e8b8a2a
3e1baa98
bdb15669
bd2edd0b
bd46140b
be26cae7
3e67c684
bee4120f
bf00e5ed
be86e12a
be12162b
be75d98e
beaad34f
3db919c8
3e4daf42
be822204
3d200829
be1b504d
bdd99d93
be81cefe
bef35acb
3da6fa57
3e2b9be6
3e2f5005
3e9794b9
3e02b3e3
3cadab75
3e93a13a
3bc71fc4
3e1f7787
bc35e6a7
3e002005
bc30548a
be16f8d0
3e858bdf
3ed77e26
3c5bfc41
be2212fd
bdfadc06
be1c47bc
bd65c73f
3e9b8e6c
3eb652ca
be843756
3de97aed
bd801b4f
be0ee88b
beaff10f
bea5e204
3e7da161
3e8955b8
3e1253b8
3ec4b59b
3e0f95b7
3e43f379
3dd44837
be3e33ee
3ef6fcb3
bec62aa7
3ca11770
bc9f302c
be127b7a
3e7588a9
3f3bc7d1
3e9ebae3
bd139847
be708019
be9e25b8
bdbcee03
3d69d753
3d11d15e
3d67740c
3e950c08
bc5a10f6
bd80a90f
bde41fa6
bdb5a8f9
3e0c0cc6
bd0df65d
3e517e58
be210e55
be898136
3dba459f
3debc1d5
becef1e6
be64c431
beba6807
3c7cb6d1
3bf59780
3e8373a8
bf129209
3e9a3ada
3ea27f36
be40840a
bd465ee7
3ea50bc7
bc5329e6
3da78b81
3e775f99
3de73b43
3ea7346b
bb15dc44
39db7697
bd617c71
3e7b701a
3d4818df
becd0d1e
be2618d2
3def5f21
3e26580c
bdf9a38f
be9ce8d9
be79d1e9
be5094c3
bd73a2ce
3d56ec6a
3ef93614
3ec685d8
beaf1024
3e0ed849
be9eb0e5
3c23e860
3ddf446c
3d0c7d15
3b066507
3e03e345
3ec4806c
bd9455f2
b90c8db2
3eb0a9ea
3e8c4220
3c721bd9
3ea84912
bd44daf0
bea9378b
3e11c76c
3e89fb9c
bd4e604c
be952f2a
be0ed983
bdb0392d
bc3d6a59
3d57819a
3cc16894
3cedf49c
3e1cd20b
bd99ed27
bdcdba69
bf6eb14b
bea4dcbe
be125907
be8b65d6
bd5ead2c
3e7d44b4
3ddbb0f8
3cfc118a
3e6f5ce4
3ecbda16
3e5c0911
bdb483c1
3dfa206a
3dd2dd62
be0764f0
3e770b21
be50f951
be99a9f5
bf6d29d6
3df7e745
3e861d1d
3d946808
bc856df4
3bc7d890
bce42dd2
bdec7131
3dabbfad
bedf25e4
bf15172f
3e866eb6
3b884ec9
3ba345e7
bae56e32
3d259c76
be280779
bd8ec99e
be2cad90
3e43831f
bc8db6b5
bd435914
3e6ab99c
3de81537
bde913bf
3e48749d
bcb57af0
be7d2b09
bed2c545
bf215533
bf062827
bd8deefe
3d50373e
3d55b5c6
bcde0ed8
bdf014c7
3c30e150
bf090160
bdcdaa69
3e96275c
3d88496e
bde26b25
3f0444a0
3edb4fca
3e88ae59
be28bc98
be97e4ed
be235894
3ca72a6c
3d606b30
3c62299c
bc7a12f3
3d466591
3e078124
bf0cdf69
bf11ead6
bf31efce
bf1c782b
3d940a74
3a518780
3c654fa0
bda119cb
bd1602a3
3d5b51d4
bde8cf72
3b0d8683
3d8dd649
be7aeeeb
bea60e6c
bd95d8f2
3e8b3198
3e7a6b2c
3d504b8c
bd3385e0
bd5a549c
3e752b05
bd9cc97a
beba5511
3d0acd6b
be958d6a
be8bba99
beaa8886
befcaf8a
bf152b72
bf170539
be8a7ab0
bc9b2b80
3c484f68
bda5f7d6
bce42cda
bd4578d6
bd499751
3d7b1ceb
3dfe0a2b
3d4859f7
bf07a86b
becf58e0
beb5990d
be485035
bb26e818
be52fd7b
3c28358d
bd1490c1
bdfc954f
be11e577
bd5681ed
3ecf488c
bf0fb792
be79357a
bd95e6b5
bd5b090c
3df9e7c7
bea60808
bdac63c5
3ba8b7f1
bd9dbb77
bd3a87bd
bd0f8ba2
3ce41748
bc452d10
bd463c83
3c8f11a7
be7a81a8
bd1c9aba
3e9bde6d
be87c4f7
bf1b4550
be656f68
be7b467a
3e52fc72
3ddcf0d0
3e43e63e
3e8f0fb9
3f2cfeef
3d73b33a
bedd101c
3e6d48e1
3eba74f9
3d238812
3e9dec26
be9950ae
bd917287
3d92fce3
3d81dbaf
bca1b746
bca638de
bd9fb04e
3d7ab076
3ccd6de0
b7f9e4d4
3f1162ce
3f29389f
3eb4c010
3c21f38d
be2ac45f
3ec4d80d
3f81cc80
3eb962bc
3eb62611
be8f2635
3d944e4e
3f36aba6
3f1f48d8
3e9328d9
3eea70c1
3e66adc9
3ebc4e8b
3efcbb93
3e7eb7bc
bd42a4c9
3c4c81e0
3d3b8032
3d05b582
3cde56b4
3d88fabd
3c827ff4
bca5473e
3dee0507
3df4fb14
3e41f40e
3e99d434
3e9c4974
3e9832a4
3f4ff4c5
3f21bb9a
3caac0b5
3d66139d
3ec83ec2
bd0f14e5
3e43e52e
3e0d28ec
be7a0c5f
3daec1c3
3eeca78b
3ee16059
3f0a7a40
3edff9d3
3be1c4c0
3d9f87cb
bd9feb9b
3a5c6080
3e4ef9e2
