3d2e719f
be17b72b
be47b037
3dd510ac
be24c772
bf3d6d61
bde45c5d
3df7b4eb
3e9455ea
bea55972
bd1790e5
be29fd85
beac3a19
3ccd49a2
be0a7de0
bf5f1b22
be0e18f2
3d5fc0ae
3e10c3da
be185204
3e966bb8
3dd5782c
bec5f466
3e522473
3bf1e314
3d9634e3
bec53183
3e443d18
3d380aed
3db0d59f
3c8d4618
3db6820f
bda916ed
3edffd00
3ea350f5
bdcb97f2
befd4345
3e69a972
bd8f6299
3d199619
befd1bcb
bf0307cf
bed681b9
bdb827f0
3eb0b15a
3cd78ae1
3e84d193
3d48d7d2
3c4783de
3d419308
3ec3f2b3
3c9e2ef9
3d40cfe0
3ef26d5d
3e3bb400
bef0168a
3ed99078
3d85c325
bdd6f452
3ea47bc5
bc629e17
be3f3e11
bee2f0d6
3eb3c7a2
3e927ecc
bee0b7a8
3e2ee3d2
3df9f744
3e811417
3ea4635a
3f2aae37
3e553c15
be179639
bdea763a
3f17c2f0
3e3b56e3
bf046642
3e2810a5
bde3e4be
bd44ea26
bf011589
3e4bbf0c
bd61e003
be1065ed
3ea1d8a4
3e37d1b9
3eaf546b
3ddd782d
3dc02518
3e21aa71
beb44b9f
bf1d44ae
be14f037
bf2d572b
bf0f8b2e
bc813e5e
3e3a51bb
3de61ea0
bee48b95
3dd860cc
be66c710
bf96e8c8
3e229855
bdc01753
bcd733a5
3e37944a
bf73aec4
be225f33
3e542acc
3e6448a4
bcaa2aaf
be6a5ab4
be1bfeb7
bdc18a3c
3e31d3e5
bd2f6aa2
be0a0150
3ec32199
bf653b43
bf15b3dd
3e9f6164
3d9eff34
3e2f1f17
be0808b6
3b9bf5cb
3e2c85eb
bea10a1f
be9c6587
3ec63b1b
