bd97210a
3d97e20d
bd585cf6
3d88812f
bc337760
bd833522
3d58d012
bbd0bf70
3d2aaa2e
3d81aadd
3d99ed2f
3bb58d70
bd050c06
bc1f56f4
3c1103b8
bcfb5826
3c884cc4
bd1eaa3c
3d09ac24
3c66da78
3d346916
bcd1893a
bced2310
bc0c4540
3c846710
bba08ee0
3d39f6b2
3da089af
3d14acea
3c2c53c8
3d0ec452
3d142a74
3cfa6f46
bd064efa
3b9d8232
bcce4b0e
3d37cfd9
3b0d214a
3d8b88ec
3ce60558
3befcd8e
3e4137fb
3e4f16b0
3e02ef70
3d61a06c
bd85b706
bdde2b08
bc94f457
bde64580
3ce4d29c
bbba1c11
bd512e5e
3d8c044b
bd947bb1
3cc06384
3d2fdd40
3d92b86f
3ba105a0
3b811480
3d59a1c6
3d8cdd43
3c9c6b27
bdba8306
be087967
3e9ac294
3e78b6c4
3f29f3dd
3f4a8bef
3e81b86d
3d6aa80d
3ccebe6f
3d945d53
3dd2d0b1
3dad073e
becd28d0
bee2b645
bee220c7
be875b07
be51f8e8
bda46045
be058456
bdb1e90d
3be66a00
3d5d4b86
bd73610c
3d759b12
3d1affdf
bd3cceae
3d4e4e75
3d516f13
3e5802b8
3e7c1084
3ec69afc
be3caab8
3e52d8e7
bf202630
bf30e682
bdb53f19
be3891a4
be9e9cc5
bd8083df
bef5eac1
3eb179d9
3ce09739
be87eee6
be6dfb1f
bf217b83
beada8d5
be71350e
be0d952c
bdb1f00d
bc958548
3c485430
3ca8b097
3dc900a9
3e82824b
3f1e51a7
3e22cbb2
bed3f73c
be3fe87f
3f07549b
3e70d76a
3ecc1aff
3e98bcc6
3ebfd901
3e5f05b5
3e74fca8
3e1471af
3e9027aa
3d785176
bdfa8424
be20e8a2
3dd9caed
3e19c856
be9420f0
bea3e3b9
3ea07fed
3ea20c22
3bf2d33b
bd236946
3d6712da
3d26ad96
bd7209e5
3e55a316
3f248685
3eb5e010
3e0b8e50
3ecfb9dc
bd86ad39
bdad00d0
be238e04
3dd1733e
3e6c6332
bda4ed1c
be634b4f
3cd6023b
3d28fd35
3ead2616
3d3e7ed7
3d67df82
3f03d382
3ed9331e
bea07570
bf049c5c
bd1a8aaf
3f0ed3b6
bd956051
bd4daf5a
3d1a678a
3d5de0f2
3dd62d21
3dc77fa7
be0ff90c
be1c70fd
be2a3065
bdc88a48
bd27116f
bdb4c7a5
3e417307
3ee24ea0
3e91741d
3e1d3f83
3df67082
3e45c9ae
3e58b58f
3e882260
3d09a74e
bea7eddc
bc94faf2
3e206d66
bf2781a3
bdf71279
bf4328fb
bef5ce79
be53a375
3d6d3b09
bd0efa4b
3e66a64b
3ea52517
beb2780d
3dc77551
bb8e7e71
be62f09b
bebd3737
3e4118c0
3e1c9920
3e997c7e
3e181fc1
3e8b9ee3
3e965999
bd963eed
3e166d86
3d8c137a
be55e08f
be7e137f
bf00c905
bd3cfb8e
3d249673
be93a41d
be60f610
bf66c7c4
bf0b5717
befb7c73
be9e7e70
bd7c89e4
bdb69d10
3e85b674
3d161755
3dca878b
be7cfb07
be052747
3e34dfd1
3e37153e
bcc232a9
3eee50d1
3e09a55a
bcb294f0
3bef0e79
be16aec5
bdb5fe6d
be0d0432
3d4d3a21
3ed36bff
3edd18b1
bd8666cb
bd0433e3
bd4aa87b
beecb4a6
bf52f101
bef57bf9
3ed2c509
bd68c7aa
bd886900
bd8fde41
bf11815f
3e74e8be
3e332df3
3de06b2e
3e86ce06
3ebb0f95
3e85dd49
bdb15430
3df28f0e
3e12f225
bed4b572
be73085d
39ab915b
3e80c7e6
3ed367d5
3e9ce18d
3e9a2ca3
3e80f25b
3dacc87e
be80b52c
bef70a50
becd64f8
bf01e8d5
bd2ce11d
3f06ccdb
bd82fda2
3d99bca2
bd63e1d2
bf44b826
3eacd1a4
3e90c884
3e9fb8ed
3f012704
3ec0abdd
3f0e023b
be2721e9
bd9d30e0
be0aa33b
bea4fa60
3dacccf5
3e98314e
3e81514d
3ef577cd
3f3663b2
3e2807ac
be8a6764
be66390f
bee77839
bea355b8
bd073aed
bf1a2c34
bdc383ee
3e9c4741
be036590
bd6958e1
be5357c6
befa5a06
3f176c26
3e8359e4
3e73e92b
3dc0876b
be191c27
be50ba40
bef6e5c4
bcde12c7
3d5ad264
3e8adb37
3eb215ec
3f227dcd
3ea5994a
3e6c2467
3f0416b6
3e97b793
bec67aea
3ddc41f0
bf1743b0
bf0d123e
bea4099f
bf0eb53c
bf11a1e5
bdcbd3fd
be10cc40
3d036ade
bd775ca3
bf08867a
3e2daf38
3ea1c794
3e966380
be6f67b6
becd4a6d
bed6f5aa
be1d8eec
bd34e797
3f17719d
3e0c568a
3eb730d6
3f136d84
3e87efdb
be09e2ac
3e023f01
bf20377f
bf1a976f
bf75f4b1
bf50f4e1
bf39e5d4
be8d0398
bedfe22a
bede68c6
bdd1b64a
3e4cd5e1
bd676106
3a840e9e
be8c3ba8
bdf5fcc0
bdeca4d5
3df725de
be58b057
be832507
be3b77db
be372b8e
bdf5f5ec
3ed5739b
3e806844
3f0ea9eb
3e76e770
bdddcf9e
bd910d18
bee4af48
bf19e7f2
bf47aa6e
bf2b3832
bf5edfcf
bf27c5af
be0b749f
bcc082a6
3ccf2aec
3ebeecd9
3e86ea2d
bd039732
3cf7e20f
bd830e8c
bf046c8f
bee2c3f4
bed845cd
becfa66d
bbc4a041
be39ffe3
be0738b5
bf058e24
3ded11ee
3e598b07
3ea4a5cb
be60bce3
be768092
be852567
bf138ed7
be9ba621
be0ac6a0
bf0a2492
bec42f7a
bea49859
be9c4415
3d27fb4b
3f102039
3f01ca2e
be0fac9a
3d97c21c
bce687c0
3d8f51cb
bf2c5559
bf778288
bf321ad5
be249abb
3b9a3285
3eb5e3eb
be9e8be9
be9328b9
3cd6d244
3b4ec693
3d9cad0c
bd9ea80e
bed1e1ef
bdaeda28
be6b5bfd
bee2bc9a
bd97fcd4
bd9bb530
3d863cac
3e7f9e59
bdf6d156
3eae46af
3f1f195e
3ebde09a
3e5c121c
bcb7239c
3df6200f
3ebb5ece
bd70c014
bf7ad501
bf31f420
3e733520
3e5ceb09
3e4cf0f4
3e35be94
3d970719
beab6045
bed64a17
be81979c
bd4867d8
be780900
3eafe77c
bde1f65d
bbf2cf60
bebfd3ad
bde50b3f
3ee18b7a
3f25674f
3ed15647
3f5efe64
3f49197c
3f08f3ec
3ea1a0f3
bd416d28
3c96fe87
3eec8476
3eca5a18
bec78db9
bd438bb0
3e1a60ae
3bbbc601
3e3824f4
3e5a0307
bea30a93
bef0830e
bec4d240
be7e3e75
bed86fe8
bdaafb34
3e7a0ac4
3cfba7ce
3da8889e
bb2aa2b3
be4037f7
3d17eee4
3e69a6fa
3da9be62
3ea5c249
bd53d47b
bf0b2d31
3e4160a5
3c6edd5a
3d38029d
3e474a6e
3ecfef66
3dd65eda
3f0ea476
3e4e85dd
3cf9d7bf
3e3d0b20
3e3f84fa
bd3f490b
3d1388b7
3d638ba5
bdd0aa0f
be9962f0
bea7dcb1
3d5ed5ad
3e1ed85a
be486477
3e1faeca
3dec4856
bb9ae577
be168e62
bde6027b
3e09e5c7
3de0850a
bedebb47
3e9318c3
bd2af51d
be815631
3dcb4e9a
3f1074f7
3ead3d85
3f089e95
bd75b97b
be88aba6
becdcee5
3d057ee3
bd8d38c4
be402fc5
3d28c6c1
be90cc4f
bec25135
bf0602c4
be9c60bc
be353d56
bd83543b
3e59d2d6
3ca815ee
be78b969
be9e3781
bc07befd
bd9b182b
bd8f5750
3e56c5ab
3e7fc36a
bd63ef8d
be91178c
3e487f21
3f093241
3ee08c1d
be04310c
be1e283b
bea2f996
be9f294b
bcb10de3
bc9e9167
be6cbded
3d8bb5f0
be470e68
be8733ad
bf1856b3
bc3a28ed
be288145
bd5d8fdd
3d80741e
3e9824c6
be12f08a
bec3bad7
bdbaf4a1
beadb689
be789543
3e851836
3d7f828e
bd9f35ca
3dfaf352
3ef7d33f
3f16b555
3e8b6e00
be592b7c
bd87df2f
be4398f2
be906bbf
be85a80f
bea864ca
bebe429d
be0c66cf
3ddd986e
bd837f76
bde808f6
3da020bc
bbeeff50
3de66e01
3e587a7a
3e3a744b
3da5de65
be339e9c
be3dd213
bef1a86f
3db7a793
3ea1d271
3d17800e
bd322c7c
3d9ddaf7
3eb86b64
3f1ee5d0
3ebffe9a
be982c07
bddd9a14
3e4cf4ad
3db2df71
be0341a7
be701a48
be54af81
be9b2909
3c8af9cf
bc558bba
3d03cc37
bdc45b2f
be1eebf6
3ede30d3
bccdad74
3ea5d142
3e3b94d6
3d29cbe7
be03a53a
3e47ad61
3f330ae2
bd8235b1
bd5e3096
bd705bc8
3d5ecc56
3e147e87
3eddbffc
3e7b3912
3d1aff02
be64a31d
3dfa7ce5
3df95911
3dca8fae
be94dcf8
3cd992fb
3c57d0bb
3da9f14a
3e294a59
3e9b1a00
3d4a286c
bd179c79
3efd6627
be8b6cec
bd4d502c
3ec3edaf
3ec6f79e
3d58726e
3eadf931
3f19bd4f
bd860471
3c682b90
3d8303ad
3cd84ab8
3df12825
3edde2df
3f104073
3f822635
3f1dbe5e
3e8a8410
3d30b892
3df6c088
3e9e059c
3bdc2b89
3d8cf96b
beaf1148
bebe4009
bd2b09b5
3ebd989b
be875f05
be8a31a3
bf11493c
3b13e020
3e566f4d
3ec4ba69
3d972549
3e9bbc62
bda53540
3d764113
bc16f9f8
bb715d80
3d4ad006
3de3b148
be2fec90
3f2785c4
3f3bd225
3e5cc27a
3e8c7786
bd464f5e
3d42e782
be4d606f
bf0946a8
be802257
be3f3263
3b8668a2
bd92a678
3ece882d
bd0aa8a2
bd9e046d
be427fae
be1f7bcd
bd994693
be849646
bf1727d5
3e5efa69
3c6de753
3d218ae1
bd8dd22b
3c5730d8
bd84a7e3
bca7dcf0
3ccbd249
bc1e4b0e
bd9ea10a
be3a033d
be722bab
be70652f
3f2eb8da
3f0c0bc0
3e3fe453
3d0bbdbd
3f19b1c4
3cdca024
bef1e86f
be4d151e
3f0a9fbc
3f499d92
be032e73
3e797540
3f07bbc9
be446e00
3e136439
3eb9a97b
3d95dcfe
bcc70c62
3cd4fbd4
bd9ace01
bd9da865
3b6491e0
bd96c2c2
bd2dd197
3c24a568
3d73e130
bbc2374a
3e1a41c3
bd83f064
bea1557e
be1605f3
bd631b6b
be6c3d12
bdc91668
3e80ba27
3e378b47
bd0e7c81
3d53c468
be9f37db
bf023124
bf0641c8
bec804ac
be7aefc9
3d81723d
bc36a850
3d5b03da
bd00c55c
bea1a18c
