3cf72bd8
3d242a86
3d82119f
bca8e528
3d91a2f9
3da0d42f
bd6c8b44
bce1cafa
bd38a02f
bd716030
3d64b5c2
3c7f5558
bd825bfc
bccd90c5
3ce9f3f5
3c5adf7f
3cde47e8
bce15108
3bcb5f30
bd5b664a
3be031c0
bb99fe40
3cf98744
bd9b7cf8
3d6eb9d2
3bb09880
3cc54810
bd430281
bb9e7760
3cf1b1d8
3d035552
3da03eb5
bd8016b1
3cf9905d
bd80a41a
bd4bd50c
bd58cd76
bdbdcf9a
3e897127
3edbfd1a
3eccb42b
3ead6a68
3cdf1a87
bcc084fc
3ea35836
3edec980
3e25ed67
bc47200e
bd9252b8
3cebc2a1
bd2025db
bd519157
bd4ff710
3d4e3afa
bc7d6c90
3d10a64e
3d8a08bd
bc6d85d8
3d2c0dfe
bd52d714
bcaee640
3d8f1127
3d97017f
bd87337f
3ef0a162
3f51622a
3f73b458
3eaca3a5
3eb9bb67
3e8301a5
3e5b1849
3e2b52a7
3e271d0e
3ec43133
3e928011
be89a7da
bebf4584
3e6b3461
bbaa943a
3ed7f1cf
3ec1bff3
3d817dde
bd6361fe
3b7a9480
bd78734e
3d4a77aa
3ca3f6d5
bd9968fb
3d2bfb8a
3ee0a2d9
3ed7af4a
3ea7bb8f
3f48640a
3f7dd7dc
3f294063
3e9a5780
3dc44b13
3ebc285d
3cad7874
bdf27b75
3eac4078
3e59f69f
bcf4541d
bdb3d88d
be4d670e
3e71105b
3f16edc0
3f848f4a
3eb2e790
bdbb9eec
bdcad3da
bd000451
3b1696a0
bd87738f
bdd4c3e8
3cad6da8
be61594f
bd60bae6
be7c7cc2
3e103c86
be288a8e
be8d85ec
be9b798a
3d35334e
3efcf620
3e529775
3e072082
3e8b099c
3f053d95
3ea71d92
3e2769df
3f06d881
3e001d97
3e225d24
3ddb613b
3c34bfb6
3f0c647a
be6637bd
beacd711
3e82bb48
bd2f2305
3d16355e
3ce53171
3cd5497c
3ea201b8
be9bfb78
be813861
befd2909
bf0f1d48
beae3886
be32be05
3ceaf304
3e90f3a0
be04a02c
3e93ee7a
3e2b9b76
3d721b24
3c356050
3d7e2370
3e0b5ad1
3e7dc097
3dedfa66
3d9b59ac
bdeab9c4
3f10ada8
3e773e18
3eb16db4
3e9bb6af
bd87b1a8
bd9fd04b
bc0c117b
bd76365d
bdedf081
bf21c2cf
bf541098
be525d9a
be34832a
3dab3f5c
3dae1cf9
3e5797c8
3e9c3ab2
3dcd00e0
3e90023e
3e74c197
3d852f12
3df548b0
3e4d35de
3e5bcfad
3d8ca6a3
3eafe00f
bd39ee94
be4f8734
be9c890c
3e5e6490
3e8a267a
3e1a1400
bcc8e698
bd1eaf92
bd83a924
be8a237a
3e764ebf
3dc07ca2
bf157054
be82ef39
3edb1203
3d68935c
bd59f32e
bd83bfe2
be380992
3e070751
3d5d2a11
3ec19ae6
3d89439e
3d8ef027
3dcc1f0c
be0bd014
3ddacceb
3e60edbf
bd2fb5e6
bf4ea683
bd80472e
bded1a1a
3e8b6a2e
3d7abcfe
bcd968bc
3dbd486d
be99e76f
3e841222
3f062130
bea8a328
bef71b1a
3e1c71df
3e021d42
bde66bfa
3e436cce
3dacc518
3d621c8d
3dfb639d
3e457fe6
3de29657
3e240d9a
3e872a4c
bea3913e
bd699bcc
3df30551
bea3f75b
be8c0828
be513f63
3db7615f
3e467a04
3ead9fa8
3ea41c2d
3d0be9fd
bd31e56f
3eba6fb7
3e84fa57
3da6a9d3
be5d5c3e
be790572
3e2c9b54
bdc95d1c
bc78893e
3e3643ad
3de50092
be0aad8e
be9ade46
be3e16c8
3d9a43f4
bcb738f1
3c8ba759
be0a14b1
be08ba2e
bd8121b6
beb72868
be5b1def
3e94590a
3e8d5806
3ecc1391
3f2018aa
be754e95
bd3c0bef
bb0791d2
3e4e85d9
3e8e60d1
bda5ff6c
be30f366
3edeaa4f
3e55d37e
bc412dc5
be153fcb
be217a11
be44cbf3
bedf0020
bf4a81a7
beed91f8
bf03d49a
beb5c3bf
befaf4df
3d449815
3d1194c7
3de4c042
bc0efae3
3dcf7b5b
3ef25f7c
3e4b4d88
3e476bd3
3e293c5d
be13ba5b
3d1f440f
3e3f4ade
bebbd719
be2519e4
3daa8c0b
bb000c26
3e811c74
3e7460d2
be4812a8
be9202c2
be9eab12
bdd93afc
bdce8efc
bec554b7
bf134ca1
bf0332d4
bead57ac
bea66104
be3c0691
3e5ed84b
3e22bb51
3e55449d
bdb05eac
bf1ede65
bf044d8e
bc8a738f
3e17607f
3bbf4b40
bc125783
3d1b9df9
bdc0cbc3
be8d5072
bc49a806
3e5b7aca
3ea0eb3e
3e88c3f1
3aab9a8c
3e841602
bcce4816
3eac8ed9
3e1529d1
bea44e14
bed8b4aa
be6143fe
3e4cac25
bd38e78c
3d022047
3eadb744
bcfd7af9
3d8487b9
bf062603
bf36e0dd
beaeb9a0
bd1a9568
3d4df9b3
3e353783
bd46b74d
baa2cb9d
3d80800c
be4b4510
bf146097
bdc986e3
3dfd22e1
be100172
3e3b2153
3e811809
bd38c43a
be40d79d
3e2fca4f
3e665713
be8fbfa9
3cdb8c77
be09f397
be941a86
bd990f53
bdde0fff
bd75788e
be980ba9
bf6721e8
bf49c3d5
bf13b728
3e4865be
3ec87d4d
3e4fbb0c
3d6381bd
be34c0e8
bebc5c92
bc8f4772
be3f6dd2
bea30c90
3e5cdf7c
be1db63d
be1edc83
bd09a502
be85b989
be84671d
bda1cb93
3d35ce1a
3ba034dd
be23d098
be87a77f
be9f7326
bee2a80c
bf334d7c
beb50dfc
bf331d3f
bf6fa1ba
bf16b36b
bf04d651
3ee1df4b
3f16d0cb
3d4770f0
bcf46c40
bde68411
beb697f4
bde297e9
3ebbeac7
3dbfa6a1
3e47d727
3da69a7e
beb8abab
be8ab6f2
be468729
3e171e68
3e031653
3eaaa115
3eb58d05
be4b861c
bd0a3bca
bf018077
bed502e9
bf29b5c7
bf71834a
bf6f8664
bed12a43
be2eb0b2
be4a9923
3d357bf3
3ee3347f
3ed018d5
3b8b0660
3cd73ae1
bde9a71d
3cac9e56
3e261d08
3d8f2af6
be2ccd69
3e48da50
be018c7c
bca94d7b
3e5b04ba
3edad438
3ea1048b
3e222a76
3e1b8e88
3e376f80
be25728a
be98fd8b
befa02e9
bf15b76b
bf45cc6a
bea86a48
3ddee041
3ee36124
3d206f8b
3ea56420
3d812072
3f177e6c
bd58ab41
3c861d83
bdebf04d
3f0b80f7
3e8419f6
3d53f815
becc6c7b
be458d0a
3ecd0cc4
3ed415bd
b94afcb4
bd0a9cf1
3e88ee65
3cf9dfcb
3e00a933
3e5c8f5c
3d52d0f8
be305d39
be542b45
bee3795a
be29e969
bdc28cd6
3eb53198
3eb78da3
3ee1b980
3d5c72ec
bed8c37f
3ecb2cdd
bd1b2924
3d799e8f
be716e24
3ee8ea93
3e1e42df
3de3da7f
bc257593
3ddf4578
3ede7038
3e805e91
3e915896
be3c0163
3e568037
bcae9b88
be2a4f25
3da5c1b5
bdb6470f
be9ee88b
bdc64ab4
3c439886
3cc9b074
bcfb9d5f
3e32624c
beab2b79
3eebb239
3ef9d67b
bd7c88f3
3eb99ce7
3d6c55b6
3cb0395e
3ddefe8b
3ed875f8
3d7b5dae
3d2db343
be2f584c
3d2d7410
3ea0378a
3e682342
3da81b18
be8d4a14
bdc9002a
be206f2d
be419277
be16025d
bda3dfa9
3d8401a8
3e32289b
3e8b1689
3ea73eac
be523b43
bf0cd803
be0a970a
3d758387
3efe3340
3e6ac7b3
3e1fb221
bd812697
3d10175f
3da302ca
3f3a2c05
bea9d718
be606048
bda78c88
3e041158
3e2704cd
3e0445f8
3eb971a1
be192cf3
be33ddc5
be01f7aa
be77d888
3dcc3a1b
3ddba027
3e66c902
3e0f2cd6
3e6ab9bc
3e9865d2
3e911adc
bdb42b55
3ef5af84
3e433986
3f134bde
3e19ae29
3cc27db0
bc755649
3e4b53b5
3de24ad7
3f1bce80
bdc321de
be6d346e
3dff2ca9
3eede5de
be0b1bb9
3d9664fa
bdbc64bc
bde7322b
bcc3f610
3c6d68b5
beb3b295
bdeda092
bd364596
3d14752c
bdbe8fbe
3e9faadb
3e970bf6
3f02e9bb
3f65db26
3f89d226
3ea72866
3f06acf0
bce377c9
bd6b073e
3d036e9a
3c05f1f7
3f08a4ba
3f3c44c1
3f009322
3d883b35
3e81fdcf
3ee52a6f
be078c0f
3d707b46
be0dcc90
bda44a7c
3bb460e5
bcf79b43
3e0e3492
3d46458b
bd8acaa2
3e8cc52e
3d9b26dd
3e3ce4f7
3d401453
3ebfcd14
3edb5fe2
3f552754
3f2c3e0a
3e1a3dbc
be7fece5
bbd171b5
3cc104f8
3d8d7ae5
be0cbf74
3efefb17
3ec993a4
3e49dc84
3df84b03
3d8d7950
3c1e8584
3d95efbc
3e1a6010
3d66992a
3df1da4f
3e97a1d9
3c13dac9
bd882c17
3ea6c474
3db9f411
3d37f081
3e4d1fb2
3d9582c3
3b351247
3f1dd3ea
3f6e147a
3efce4ae
3d227f03
be5135b7
3ce00680
3bc61bf0
bd2339be
bd21d057
3e73c794
bd687f65
bdd6e475
3c9e96bd
3c2e8abb
3ec7d9b6
3eab0e76
3da88d77
3e87bd5b
3e3502a2
3e0f544c
bd8200a2
bc14a01e
3e9244b2
bd6a3bd3
3d437396
3e915f78
3e9a7c94
3db11bb0
3ca22946
becf41dc
3f012a51
3dc67030
3e518ece
bc12f840
3bedfd30
bd41fabc
bea4aa9e
bed604f2
becae0f8
bf2e43d3
3d93f606
bd73ca9e
3dedb149
3e50d684
3f2fe7c9
3eb1564a
3e5554d6
3e93ae2e
3e940238
3f20ec26
3ea83afe
3e062d24
bdac4d72
3d05ae81
3dae69a2
bceafa68
be75542a
bf5f087e
be9dfabe
bc03ec1c
3eb514a7
3d449f32
3a8c5d40
bcf15fa4
bbe55610
bd82edaa
bed7910e
bf0ab232
bf2eb234
bf0745a6
3e859ddd
be0aef7b
3e71ae4c
3df8f982
3eb3ce14
3efe5977
3f28db0f
3f453420
3d30e1ea
be1a56d9
bd867ef7
bed6600e
bee3e46a
bf2c7dd6
bee4bf7a
3d25f729
bcc3be76
bd521993
bd0e858b
bd8a5c2a
3d5cce9e
bd910de7
3b33f920
3d544a06
3d8497bf
3d890894
bd819e72
bd851da6
bd8e433d
bd4e6962
bcaf266e
bd95201a
bd9997cf
bd589387
3ce12b84
bd50e1a6
bdd100e1
bc771c25
be069ab8
bdbb36df
bd5865e2
bc41a9ee
3d74e30a
bd13ffd2
3d392ef2
3d4e28ca
3d1df5be
bd9231f9
bf1cf0a9
