bc66f960
3cfa4fbc
3cd6bda4
3ce95d9c
3d8a1b1f
bd12e1fe
3c101df0
3bfec950
3d4ad91e
3cd2de78
3d4741fa
bce1131a
3de5adea
3d300ab0
bdbcca70
bd41e526
3d63374a
3d35f8aa
3c9981a8
bc0fa348
bd147fad
bd62ecce
3ceb7c84
3cb8fe98
3be0d3b0
3d5002ba
bca0fcac
bd644d84
bd7180cb
bd38d9b1
3d85cf65
bd9492ba
bd00da59
bc315994
bdcb6b29
be01873c
bd7872c8
3ca80986
3e823c3a
3dda4125
3e4d72f7
3ea0b9dd
3c6df3b8
be30e75f
be220e67
3de463d2
3e670d5f
3dad109a
bd7b6d0c
bccc704f
bd98a389
3dff2be2
3d9b77c1
ba27f880
bcc604da
bd26e16a
3d26daaa
bc46d3b8
3ca127c5
3da026cb
3da58190
3d193223
bd1d658c
3deff32b
3d50b263
bf0b0a9b
bee5d546
3e8e9faf
be33d924
be14a054
be22bd29
3da46934
3dc42f4e
3e69bf36
be42ecd5
3e5026f2
3e421cf8
3eaa623a
3c7efaaf
3d84288d
3e07fc8a
3d6c852d
bcadf7be
bce5acf4
bd6b3966
3d0fcad2
be000d47
bcd2463a
3cb2d3f7
3e2c03cd
3a917c24
3e3e051b
3def9d0e
be07de57
bf02188e
be6a6ce5
beafb9c0
3cc98520
3e58f2f7
3e5a4d7b
3e17f1ab
bb8f004e
bdbe1811
3e79dc82
3e55cb06
bde6f2dc
be62c1a5
3ea7f3bf
3f178587
bdc0a9aa
3e8ba4b8
bc6d1900
bd7b790b
3bcad210
bd9d4ff3
3e314afe
3ed14c08
bd8e027f
3c878de6
bf17f557
be9976b8
bebff378
beff773f
bd8505cf
3dfef72d
3ee82c0c
bbadb1c4
3e0f2bf9
be878b7f
bedee58e
bef076ba
3eab1d96
bd0fe8f1
be98411a
bf254dd1
be759160
3e6a055a
bedace02
bceb8c68
3f0911ae
3cc0b0f0
3cf57584
bcb82748
be64cbe7
bf29b77e
3cdda016
bf35cb51
bef37237
3edf6c9d
be4d22fa
be231be8
be137be1
3dbba462
3cf2ed4c
beb7e097
3e3808de
bd5b28ca
be9f7094
3eca11be
3d27435e
be6c35ec
be22fcaa
3ee89c59
3f63ea03
3f0b95da
be67f40c
3f155759
3f004f25
bd014987
bcbddc64
3e53f05b
3d1f1cb2
bdd21e8d
3f1729b1
3df55078
bdc03efb
3e9e0114
3d896bd3
beaef4d2
bf0e1708
be1e6bb6
bda17588
be87e56b
bd2ffdc2
bd53f6f8
bb1e6f35
bcf00360
be97a96c
bf24fa72
bcab4060
3ee914d1
bd0c9883
be3eaabe
bd900552
bc3c972f
3ef30d19
baade962
3db19872
3ea2a644
3e2f9423
3e21fde6
3ea7a58a
3d8dfabc
3e904121
be105198
bcc28269
bf084453
bdee3d2b
becbf498
beab4dd7
3dde2660
bd85a393
3d3eb9e3
3e6c9ac1
bda44d1e
be867250
3dd0536a
bd707935
3eb45168
be9ddfee
bef0159b
3c936607
bde8f1b5
3eb79d9e
3d4cd022
3d85d884
be6c9626
3ed4ecc6
3e2b3b14
3ecdedcc
3dcc9471
3e90ffea
3e07e26f
bc292991
3d0364bd
3e352b9e
be4d8248
be208209
3e0c7317
3c190745
3d1fe5f1
3cef9ace
bf0bc31a
be8bab6d
be1cf246
be2d9fc0
bf07b914
be64d556
be5586e8
bf20984c
3dc913c5
bdc12736
3e16ea65
3e6288fa
3f5f6a14
3df5ce51
3edf1f7a
3e3e2a29
3e544670
3e952416
3d757b05
bea4f318
bd968635
bc4701ec
be69d11b
bde802f0
3dfce541
3da62aed
3d2f2327
be7eadfd
be36ceb4
bcdd48da
beea52d8
be759fd6
beb35f3d
3ee2d818
bf48296d
be639e9f
3f0b9e9c
3f32bd63
3dac56ec
3df8df93
3f6676a7
be8fd7f1
3e10d362
bd858b58
bd7ef961
bd18f70d
be851471
bf0cb10f
beae2309
bea01c12
bde385d2
3df6dfef
3eaaf707
3e119858
bdebb82d
be873c56
be419c0d
bc4a3a70
bed9f0dc
be80e901
3c12c5d2
bea9530d
be6bca47
3e5716cb
3e14106f
3f1efe7e
3e233168
3dc1b5a1
3f15e56f
bdee5a8c
3ed55ef3
3e82c519
3d694cfd
bd07e5f8
bd141ed0
bea7d6ba
be2ab1e7
bdac0b69
bc0738fa
3e3eabde
3ebe7489
3d19e4eb
be991231
bd4048e1
3ae6b288
be7afa24
be1c0c0b
3c463bb1
be87a85c
bf307dd1
bf0afa69
beba98fd
bf6bac42
3f14bb8a
bba68b5a
3dd98e37
3ec0fa4a
3e30270b
bc894dcd
3e38f915
bda79a9a
3e5e5905
3e56eda1
befe739d
bf0dee95
bd65404a
3eab6705
3eeb1c97
3df69791
bd0c5428
3d1742d9
be810c81
3ee955a1
beafedbd
bf0b1e04
bef8dcc8
bce71ae3
bed34f88
beb145c3
bd33401d
be4643fc
3f14e747
bcc0c371
3c1c4f1d
3ec9e0fd
3ebab92e
bef05207
3e226eff
3e208b8a
be56cf85
be535c59
bf087bd7
bd23b6d5
3e56c9d2
3d778fa6
3d1ad801
3cb61001
bdaa719b
3dca3a5d
3cafcbf9
3f0fa76f
bc2a5e10
bf18d76b
be5812b5
3f0c40f1
be1cec74
bedfd381
beea92e3
be9dddf1
3c9ab919
bd3329f0
3dae7138
3ebd8063
3ef8b0c7
3b91160d
3ede9506
bd2090b2
be9c2af6
be8e4a6b
bd6017cd
3ba6626b
3e51e3d5
3dbbe1a0
3da93dfa
3d784f0c
be2df170
3e2939fe
3e6e2d3d
3e73fbf8
3e5eb2b2
beca29f0
3eb0adb5
3ef28d88
3e5c1bcf
bd985756
be0e63d2
bf2dd147
bdeb975a
3cef17ce
3d8a485f
3ddb47cc
be23f15c
3d2d1fb7
bd9a6f4e
3d9449ac
be499cc8
beb6fc43
3d0b22c8
3ec1b498
3efa6987
3e9d00ae
3e51c179
3b8383b9
3cfdecfb
3e4a067d
3e8f89a3
3e227ecb
3de80acb
3cd52bf3
3e8f3c6c
3e646183
3ed09fe4
3e98e993
bcc1a470
be40f61b
be47e9eb
3d958898
b9dc01be
bdc6606d
bf27163d
bf06ecf8
bd60e404
be5dd2ba
bbef59d4
3d804da7
3e8a7cf6
3e874fd2
3ef23e3d
3ec7d07e
3e982976
3d9fb3a3
3d3604d4
3ea982e9
3e8398ee
3e7c16c6
3ea1a454
3e36ccff
be33a34b
be9360f5
be0bbd97
3ea32b6e
bf6398ea
bf49be5a
be7b7603
3d937139
3d1f36d0
be375e1b
bf2f4f51
bef31175
be955821
bdab877e
be5643ee
be679b54
3e88eb42
3f183817
3e98cb41
3e59a03c
3e1bd34a
3ea805a7
3d925951
3e575fc7
3ea801a8
3e693374
3eebe6be
3dfb1a4b
3ec9d688
3f083988
3ea1cecd
3df88ce5
bed0329f
3e1b61fb
be2a72cb
3e82a62e
3c230aa0
be2dde8c
be17d6e8
3e9332e3
bf1a2108
bf3e5bfb
bea4a22a
beb37d97
bd439aa7
3e2cd208
bdae28cb
bb894558
3ed95840
3e96060d
3da2844c
3dcb306c
3e486bda
3e2e03be
bb429a6f
be4dade4
bd59d2f3
bd099a8b
be1ddce3
bd8897fa
bea5adb8
3f49e079
bd00880c
bd680f89
be6ccd5b
3ec051a8
be98b0d4
3ea110e6
bf050645
beea673a
bd69276c
be0aea7e
be88f1e8
bdbb1640
be279769
3dcd5316
3ea7b039
3ee8aaa2
3b91e3aa
3d23bdc4
bea1627f
be8ab64d
be62d31c
bea54f9a
bf36a9e5
bf596f99
bf41259b
bed9d88c
bec1c041
3e2df748
3e34d525
bd157cdd
3e017a2b
3e7c9a48
3dc1c362
3e5bf9c9
bef81000
bdc8c481
3e9c72f9
bebd98bc
be0b7f81
bee04e4c
be9c199b
bc767d50
3e44afc9
3f018e4f
3e7f7b70
be1bb75d
be9fe3d1
bd5fef2f
be2b3eb6
be8ce852
bf3a9d83
bf05f033
bc0ba7e1
beb44990
bed9b2a0
3e931809
bda1b9de
bd43fb0e
3c4d6e83
be55bee9
bd82f6b5
befdf09e
bec35edb
be67ca34
be5218b3
bea4dbd4
bf2d4748
be8343d0
bec0f176
bcb33def
bdc19939
3d2ebbeb
bd9f325b
bda145d8
bef2bbfd
3c1369e0
be48d98b
bf166289
bf2c2b7e
becd756d
be520241
3e95d178
be7fb2b5
3ec5b603
bd4980c5
3ac57f7e
3d10af2f
bdce4bfc
be88a6a4
bed65e12
bf245ab8
bf0c05eb
be3ff8ab
3e02f939
beda9f94
3d062415
be5e9179
bd95064d
beac2a93
bdd50c21
badee2de
3db5e5c9
bbafcfce
be0bd58d
3ef9658b
be47f5c9
bebe8e1a
bf05a0e8
bdefa191
3e12de6b
3d0b4aac
3e80a284
3c406138
3c60faf0
bcd3aca6
3d346392
bd4e83b7
bea0c12c
3cf8d267
bedf494d
bf374551
bec8d28f
bd9004da
bd1b5b91
3d196cc8
3e71e1e4
bc7817b1
bd948883
3ce42944
bc87e0e3
3de819f4
beca659c
bd133c62
be3cafb8
bde6f206
bf246aea
bec6743e
3ef8e15c
bd9d21eb
3ee22469
3d149b56
bd7f1c32
bc4f98b8
bda125f1
3d060c65
be38c389
bf389cc6
bf8b6457
bf572f89
bf245fc1
3e055555
3e0f87b4
3e545166
be97bd4d
3d125c71
3e51a12b
3ea33f6a
3dacf40d
3f112268
3d2b1e42
3e0b697a
3f0d38e9
3ef22032
bf192caf
bf46e8d2
bcd70ace
3e793334
3df8c17b
bd303260
3d5ff5b2
bb9d0b30
3bff4c40
bd9cfd89
bd96e167
bf095ac6
bf7ac5ff
bf8838eb
bdb29693
3e690d18
bd96c748
becbf151
bf0ecab6
bec82384
3e9d34ed
3ea4b82d
3e8552e1
3e659fc3
3cecd7f7
be741519
bee2be3d
bf7d552e
bf831c0f
bed8c22f
be2cef29
3aa516de
3d8d072f
3b9425c0
bd62ade8
3d4ac8ea
3c906034
3d8c4c19
3cc522ec
bd04a63c
3e084272
befe8d99
3ebff16e
3ec2c861
3f4accce
3edc0816
3ec9027e
3de7a480
3dad75ba
3e9d94eb
bedda2b4
bf9a6afe
bf24a34c
be8f2d80
bee39306
bf27d8a8
bf123f7a
be849b01
bd4aec25
3d7d7b3a
3d4d412a
3d911fa5
3d779aaa
bc9d271e
bcedc380
bcd33108
3d088248
3d6cc96a
becdb991
bee502b8
bf01cc10
bea81dfc
bf2ff996
bf2b0f3b
be89bcd7
be474f71
be57bfc9
3e2a0f84
3e5db9c3
3f04a758
3f17a30c
3c7a5d20
be344dde
be2288ba
bd646e05
3ca735c4
3d042cd0
bda1accf
bd7cdb08
bd68d346
bf1be5b6
