bd9a951a
be1d6f16
3ded2c0f
bddc4b3e
be7af4b6
3ef9b3d3
3cdad024
bbba1c4d
3e422282
3e076d66
bf6814c1
3ef199c8
3e968cfa
3e1a11e0
3e8879e2
3ea9484d
3e6aa47d
3d7730d6
3eadcd60
3f38622c
3ec8a678
3e0f346c
be53ed27
be03918f
be6bfe84
bb9e6c5e
bef27078
bd9b401a
3e0b28d7
3eaad1e3
be76d3c8
bc338cba
3d5fe083
