be99b97d
bc96126a
bd34f0fc
bf415aa9
3d81313c
bef6bd89
be914e9a
3cff0e4a
3e6dc491
3f019c89
be8d2003
3e92063d
be2f439c
be76036d
befae0d5
3edb1764
3e574cd8
bdf94fb1
3eeb4fc9
3e4f3823
3e036d39
bce1c563
3eaba8b2
3d9d2271
bec03ca8
be8d47a0
3d46154e
3e82f2e0
3ea63088
3e5ae2d5
3d1f3508
be14ab00
3e663877
