3ea1bbe9
beaa69b0
bd940ef7
bd986b0d
bf1bea01
be5c3c5e
bcf84e66
3df51e73
be9e9ae7
3e0e3ec4
bd5f23c1
3d6e3056
3ef519e2
3e58299f
3eb27200
be050da4
3e85c151
be8fa86e
3f0dc4fd
bd068fa0
bebf6297
bd16f457
3d16c2c2
bea3dd0c
bd61c4fa
3e822ce9
3e117df1
3de77712
3ea81e0d
3cf9d57d
3eec7a43
be7b5680
3da69c41
