bf94b8cf
3cc2d1bb
3d312a21
bd9a87a5
3e10e962
bc924449
3e4124ef
3e0ef100
3e15c3ae
bf1fcf9d
3d80c17a
bee44250
bf330de4
beb819d9
bfb9d323
bf71167d
be534ac1
3cd1fc63
bed0fb06
3cd18ed4
be36d884
3dce0a35
bedaf8d2
bf7713fa
bf64c3a8
3e40ee29
3e5f7168
c01166cd
3df1aa3c
3d9538dc
bf84ae68
bee48fe4
be597b2e
bd8d5ba6
3e079e90
bf3417ef
3d2f4dfc
beb3946e
bcebbbc1
3de634bd
3e1e5191
be0e8398
bf042ffc
3c3c15bf
3d63435d
be8abe34
3d9c8fe6
bf25c209
3cc5ad74
3ddde8d6
bf2d86cc
bea3b56c
bd80ef3b
bb8b5912
beae066f
3dbf1851
3e468945
bf57fcd2
bedd240b
bfbd0a48
bf0bda35
be0c3de6
3e520aea
bdf9895f
be873549
