3d87a189
bc1acb08
bd597ac6
bcc5087a
bd9ffe48
3c82eaa0
3d70cf0e
bd7fab08
bd1adcb9
3cdbbb60
bc4ebb20
3cc3de7c
bd3b1773
3d3843e2
3d87b5ef
3d8f4d2b
3d996c21
3da4ade1
bd992fda
3bd460d0
bc037f88
3bac8ed0
3d802705
bd5dfc8e
bd9397d8
bd50222c
bc6c56a8
bd01b69a
bd7b601f
bd2c782b
3cba36b4
bd39551a
bd25abfa
3c0dd838
bd621e52
3d55c9f6
bd98ebae
3b99c841
bd9367b4
3cd99d40
bd2f2d6a
bdf80d3f
3eede532
3f07dcb9
3e762d48
bdc64f2f
bd4aaf7f
bd5912c1
bd9979b1
3d6e6245
3d62077c
bc50ce00
3cd6f2d8
bd727f56
bb4de980
bd956b58
3da5a0cf
bc851d68
bc977c74
bd565c9e
3cfebf08
bc1d1b68
bdbffcb5
bccb258a
be21fc11
bf1c9749
be059b03
be42d6b5
bf567d5d
bfb19d8c
be9c88c7
3ed76fc4
3f4f2c21
3ee6e604
3f03edfe
3e8cbfe2
3e6332ed
be3f3ae0
3c00f32c
3d0cda2a
3d1d0c8f
3ceaab74
bd989f43
3c942740
bd2842e0
3d5b359a
3c5e9efd
bd45e59f
bd585df6
3e275c90
3ea9d204
3e7a923a
3e185b8b
becadf21
bf07a1a1
bf8b0351
beb66f2b
3bdded10
bcc06b8e
bc9ca374
bb487bba
bf0afea5
3e565b0d
bdc42189
3db39602
be4d1879
bebf5c76
bef02469
3e3a8a5f
bde2ed8e
bd8edf51
bd815151
bd8c32da
3da0d8d8
39b3b42e
3dbe183e
3de09c0a
bc2809ed
3eb8bf09
3ed7d70d
3e1fb79d
be5c838c
3db11276
3e45f2dc
3c3c8da1
be9a9a30
3e73ee63
3ed9be28
3ea39dbe
bd1e22db
3e1578f6
3e1c080e
3e0c3e4d
3e8eeaff
3ddb053e
3de6ce10
bca56289
3e89fd03
3e42c0ca
bab7b697
3d928b99
3c92af6c
be4fcde8
bda27b4e
3ef53a90
3e9aad04
3f1add8c
3e97ad3e
be20a3b8
be345b85
be86b8a7
3debe374
3e1e31af
3e06d9b9
be0fead3
bea4626b
3e43d254
3de0d045
bda5a826
bd1d17f8
bc92d328
bdf28440
3e40b8f4
3e0f121f
bdf06ffc
3dfc71a1
3ece6377
bdd24d32
3d95dc6f
3ce4d136
3ecbf0d5
bed033cd
3cb7934d
bcb0a5e0
3e864b61
3dbac32d
be465d77
3d8d5f04
3c992166
bdd4c233
bc065008
bdd3df25
bd38afce
bd171d5d
3e27e116
3d1ad6ed
be201a56
bd8a7d53
3dacc664
beb7b7c7
3e0506c4
bac29e4c
bcf7564e
bce9fe31
3eca14a3
3e5fc1a8
bd75c36e
be1c5b62
3d4f6a68
bef92ef9
be4bba34
3a31842d
3df6c005
bdbe8ad3
3d6a3bfe
bd3b3c01
3e4cf748
bc00f030
bd9e7c18
be8b1502
3ddd5cbe
3d9ced1b
bd9010da
3d286a75
3d93d749
3e9d1882
3db29155
be9fa9a8
3e42eab8
3c497f47
3dc313bb
3f00fecf
3ed0badd
3ecf9dbb
bda14329
beb24927
be34bf7a
be9c4386
bf1d275a
be7848db
3e58ab7d
3e0bdf0e
bc91de71
3ea5c66a
3ead4adc
3d8d2d5e
3cf28fe4
bde06310
3daabf21
3d6228f2
be16ef8c
be42b8ad
3e5f51b9
3e85a6d6
be321e6a
bcd14da6
3ed8ce5d
3e8eaae2
3eab0915
3f251ba1
3ed97878
3f0b45b9
bcfd121e
bdd3100a
3b354786
be3de5c6
bf0da7ae
be581c55
3ed93f43
3e5c49f7
3e878ab0
3e41325c
be094ae7
3d182d3f
bdbe5e4b
bea91d47
bea9a5db
be1d7112
3e3d3696
be1adf0d
be653501
be70d750
be282821
3d7f1c96
3eb761c9
3e869c6c
3d92f0d1
3e80654e
be34125e
3d84e2f5
bd249ff5
bc9affb1
3dbe1ef3
bd971eda
bef10362
bdb282f6
bc4674b6
3e6ca259
3efdd477
bd667a1e
3e66438e
be15d1a7
3e0000ad
be4e7aae
be84594e
bde68bed
be7e3541
bc95e98e
bde0a661
be89c8f9
bd82dcb1
bebc846f
3d18b62e
3ec90797
3e86985a
bc7b05d7
3e8138fe
bd4f8a9a
3d6378da
bdb9fd2d
be271992
be59516b
bf1ce44f
bdcb23bc
be7d2932
bd6193fa
bdfe491e
bdd2c6f8
3d3cab97
bd9ba4c8
3f0e677e
3dddead7
3d5683a3
be733c53
bce6477f
3df27cb3
bbd6aaef
3c9a56e5
bdd6cd82
be029fa8
3de5a9b0
bd9621d9
3e5b9ba9
bed99a8e
3bf37f2f
3dad50ee
3cd0152b
bcab8137
befe8a1c
bf233ae4
bf7a0347
3e1b8e40
b8ab45f9
bebaa066
3d9f81de
3e8a880a
3ee0010c
3efa014e
3f10bdb1
3ea1ddf8
3e0b6ed7
bcc2fc19
be25b64a
3db70fe6
3d8918f5
3e037211
3e6f9096
be0127dc
bdb4f194
be86c653
bef00db0
becf3d39
bd86f207
3ce44583
bd05dc39
bd8ff645
beea3f5c
bda6527b
bee3b1b8
be0b91c1
bddec2b6
3cc3e975
3ead66ae
3e8dc435
3ec314ac
3ee57292
3ec419d8
3dd79898
3e601128
3d9e5fe8
bc89e6bc
3e2fc122
3de1139c
3e42b9a1
3e6d6268
3bbf9e9a
be26b839
bf1b246d
bf0af7d1
3da3d525
bd14880e
be172d59
3d8e562b
3e55eefe
bdd388c1
be73f59c
bf2e3690
bf9a9a53
bf452a1d
bedc6731
be82488a
be197927
3d8e42ab
3e3b9313
3ec827e2
3e25468a
3ea507bc
3d29d828
3d82fe03
3d845f8f
3d537f12
3d97e627
bdfdb74d
be48e2ce
3d63d5a0
bf00e665
be8f4e05
bd8ca606
bd99e39e
be16e93d
3d2ed7ed
3e6a010c
3ecf267e
beaad278
bf471404
bfadc260
bf9f4f24
bf81ca4b
bf325cb0
bf077684
bdfee3c1
bd761f72
3e961fe3
3e7d6fad
3dab049c
bc863d39
bda44238
be6f2bde
be4f1cc2
beb6d219
3d2281b0
3e178962
3d645369
be9a230f
be566215
3de93d90
be0f7a6c
be15fb9f
be2d781f
3e734334
3dd73ef9
be49c379
3df47cc6
bef7af4b
bf5237b6
bf6f1585
bf7fdadd
bf8bc418
bf3e3cf5
bf0664e0
3d56f5ea
3e8c32b2
3ee6dd3a
3df9c089
3ca80aef
be2c7f17
3d3f710e
be0fdc00
bd8aef81
3edcc7d9
3e8f8451
bd05f2f4
3e92a070
bbe0640c
be193ee6
bcb7d28f
3d6f9b66
3e9c829c
bdec1d39
be77bb55
3eba8693
be54514f
be8fcbd2
bf2396a1
bf42980a
bf4e95bd
bf970213
bf5de0d9
bf52a12b
bdc50791
3d6a876e
bd5f61c4
3e54cebf
be31eff9
3e472255
bd83a19a
bbf69927
3ea61829
3edc0715
3e87750b
be7e8214
befff118
befe18c4
bdc2d20b
bef5cbdb
bbe7f73a
bda96bea
3ea8b547
3ee18762
3dffc9ad
3f10c41b
bdaea495
3dca323d
bd869a72
bd89fd36
beae035b
bf4bdf34
bea5164a
be42b13d
be8dd469
3d5ed327
bde861ab
be07f010
3e79c4cb
3d840d43
be0ea390
be7b3b71
be809abd
be23e7b7
bd0f6833
bf11693a
bd92bace
3d64ccae
bf1286c4
bf1ab38f
3e359cef
3edfc75b
3f16bcf4
3f324a35
3ec698b0
3f0f1810
3ebda6f4
3ecb01e7
3da145ca
be860350
be1bcd10
bec6603d
be2cfcef
3d261968
3d0130b5
be3a2b70
bdaa42ba
bdba1cee
be6faea3
3ca86675
3d138786
3d26023c
3e49a632
bead1f44
bd98c21e
bda50493
3db5b818
beb6a740
be030322
3e9a4c44
3ee95ba8
3ebb8b53
3e4f01e4
3ee0c835
3e770d8a
3dc2faf0
3e1f3f75
3e200169
bbc67e71
bd434c4e
3d890b5f
3e4cc7cb
3df7dfc0
3c2aac94
3d9067e4
be0acc4a
3c496294
3e549b43
bb9c2f69
3dcb0941
bef3b7f5
bea36b9f
bd2db077
3dab7c8e
3d845c6b
bedc1583
befe715a
3ef752ba
3db7bdbf
bc897b73
3e838172
3e3118ce
bc7ee982
be2438fc
3e11cf39
3dbc6e76
3dcae8d4
3a9a8b1a
3dbb89e9
bdc3a096
3e2ff2b4
3e16d010
bdd801e0
3e3631b8
3f0b9ddf
bdcc5e8e
3d54cb48
3e854802
bd161aad
be3d289a
bda27558
3d915e2d
3db10d23
bf3013eb
bf2594c3
3e9b68b9
3d88b4f6
bec7ece1
bd254ae2
3ba42cae
bebee123
bc515b07
3e55aba1
be44f501
bd6e7fa0
3c3a815f
bb8d904f
3d8eaa88
3e8a1c67
3e75403b
3e79c926
3eb67317
bd511946
3c825f78
bdc192b1
be8d9631
3e48cce1
3bd3dca1
ba1abcfa
3cfd5a78
bd868d2c
3d74d97a
3e4515c8
3d9ac7fd
bd80879b
be4fe81d
be15c9d0
3e21db2f
bdaa80c0
3e3f41c5
3d2561dd
bd93e2b9
3e6bfc22
3e3e76ae
3ec0a7f8
3df17192
3dacf843
3ec4b532
be21c09f
be98e2bb
bd5117dd
be0a59dd
bf3cfb6b
bf39f9a8
bf103c9d
3dbf29c0
3aa8fdc0
bd1eb2b1
3c44aab8
3e2baa78
3dedf242
3e4b2198
bda622b7
bf02bf00
be3a9b17
3e1d04af
3e4dcfb1
bdff7092
3d4aa8ca
3e701299
be1c0865
3d79e9ff
be877165
beaffeff
bf05f3d4
be9a367a
be611ab4
3e2131df
3eec4fbc
3ea46ab9
bd0aaed4
be8e1317
be33eda7
bd26cec9
3d9043f3
bd869892
3d12318e
3da88aea
3cfbd890
3d5ad733
be314225
be88889a
bc898a0f
3e09e419
3e69c2ae
3e2ef914
bf179025
3d118d72
3eccc332
3db2d7c3
becae5ff
be69131d
be8bdbb8
be36e4a0
be51926f
bbc38c36
be41a9aa
3c00c474
3e8a2c19
bcb7db77
3dc2dd8d
3d94b63b
bd96fadb
bd97c8d1
3d0513d6
bd7cb697
bde29829
3e47c63a
be9d93ff
bf002830
3dc32192
be61f234
bed4a27e
befea383
bf3cc74d
be579221
bf47bdef
be9f3c77
bdf404e2
3e1d47ec
3e922eb0
3eff009d
bb639c58
be9edb1f
be929aee
be1901fc
bd7eeb05
bd91d1e8
bd6c04b3
bd069517
bcf9c5e2
3d7b0a4e
bd804ed6
bd803b3a
3b622d00
bd556b67
3d28b929
bcaca93e
be690505
be337d96
bed2b100
beab5b54
be98432d
bf2abb17
bec69377
bf04e7cd
3e71e982
3ebecbde
bdd92213
bdce4ded
be36b412
becf2c08
bc8d2fda
bdafed09
bd8b806e
b9990700
3c4e6cd8
bda13418
3da0c94b
be8b1bb8
