3d2020ba
be849e22
bf4b8576
3c098d07
bf6f5224
bf936a2b
bf23c379
bec11b38
3e583fd7
bed79150
be352dd3
bb1e1164
3dd11ded
beedd995
bdb750e8
3da266b1
bf793d98
be8d6de7
be80b553
3dbd3221
be1248cc
bf8dc524
3e26f851
3e29901a
3c842478
bf25aafa
be9b7158
be6967a2
3df0db9d
bd8b3857
bf7fe0d6
be749316
3b10a250
bdd2352c
becadefb
bfd46030
be41ad4b
3d1a6750
beca999d
c07080ab
3e12b0be
3da568dd
3e18810f
3d4c8b0d
beae7a9b
3d02419d
be4083a1
3beea3aa
3d9796d5
bf070af0
3c1d33f1
bf439c92
bf26a8b6
bc41c129
3cbce0a4
bbe0d31a
bcc192d4
bf7969c8
3d73e4f5
be5364b5
3da30ffe
bef28912
bf7663dd
3df1edac
be3cc023
