be900148
be9e197a
be8b66c7
be4ac41d
3e901736
bee0a77c
bd9b30ac
3dbbac8f
3e5f7a03
3ebd7224
be34f9c1
3e8045be
bd3d3acf
be9c8354
3e163877
3eb72417
beadf769
be844bc2
be04f40e
3e263960
3e7ce4cb
bdafa631
be0aef1b
3ec5c102
3ef98148
3e082ef2
be99629f
be8f6ae6
bf01a8b2
3d24b5f7
3d32c3f9
bcacbf73
3f220a5e
