3d47f212
3d7eed42
bd15d0cb
3ca438d0
3ca426f0
3cafc984
bd527966
3d207cfc
3ce74008
3c1e70e0
3ca84d68
bc586388
bdf86726
bd8ae23a
3d4fbf86
bd212744
bc50f310
bcebc59a
3d1fe372
3d715a1a
bd31fcb1
3c885380
bda4ddfa
3da05ce1
bda2e563
bd241460
bd9aac19
bda0fe5e
3d124a8e
3da08b57
bd559753
bd3d1f63
bd68650c
3d453bb2
3c97a655
3c255180
bdf6cec3
bdd0c211
be75da05
be2a3f5d
bdd5785e
be476a37
3e6bead1
3e1c8034
3d2b0d22
bd8b2c14
bddb998c
be743f81
be027530
bdaa5f34
3bf602c6
3c8806c0
3d903ae5
3d823f65
3ca00514
bd336732
3a993dc0
3d493086
bd8f3f14
bd279528
be0e37c6
be3010d2
bdea647b
bdfca869
3f1a4bc6
3f342973
3f3fcf55
3e4f0ddd
bdae61eb
be2e4181
3e4339b3
3dedbe91
bd87815f
be501957
be922631
bf020ab4
bdac0d61
bee1c34a
be9eca1e
be0a3521
bd739bd6
bcb14ce2
3d1acf8c
3d8482d9
bd3638db
bd6cd53e
3ea4a568
3e5e03a5
bdb6effa
3e89c8e8
3e99b590
3edfcc8e
3f1fc33b
3d9c6c7a
3f17f99e
3f2437d8
3f02cc37
3e37cd91
be0e058d
bd9675bf
3dfd0469
be7e9a0e
beebb90c
bf4e842a
bec7508a
be321c37
3dd439ce
bf2b0d27
bf0f5787
be095bbc
bdabf062
bd147f36
bd10e18e
bac5cf00
3eae4d08
3e11e7da
3e7f4c53
3e731eb7
3ecf5c8f
3e64d0ab
3ef5070a
3dba3297
3ea336e0
3f135423
3f05be37
3dc57c54
3ec359ed
3eb089d5
3e02d4ec
be124d5d
beba7a0f
beae2229
bee8b14c
3e02a716
3ec98462
bf3b0f9e
beda9a2c
be8db191
bd95e596
3c952232
bd8db7b2
3d8f4341
3dc17597
3e45dbce
3eb7e02c
3f3acaa6
3f59a9b0
3f1d8e42
3f11d036
3e342136
3eac58a3
3e993b08
3e99615b
3c40fbd6
3ecab18e
3e9663d2
3dca790f
bea68467
3e5fd542
3d3843e6
bf2f7d5b
be2ead17
be325884
bfb08da5
bee83657
be825f56
be0c36c6
3bf38dd4
bd9f1350
bbc82c21
3e06d564
3edce528
be78f0f1
3f2b62eb
3f15070d
3e8ec5ac
3cf4708a
3e22a002
3e20674a
bddae117
3db5a3ed
3e05e9e8
3e0be5a1
3d0b018b
3d2b1650
bda71734
3e2a3957
3e00c522
bf2f4a7a
be983e30
bf24ca3d
bfb32707
befe59f1
beb6cbab
be426242
bc8aacff
3d8f2853
3d9a4fa9
bd26621b
3dd6b7c0
be98ff12
3e74ce44
3e1e785f
3d92fd9f
bd931e0f
beae291d
bedd195d
befe8e1f
bef9c14c
be75cc5b
bd305044
bc2d19fe
3e69e6fe
3e952efc
3e5f6c60
3e4d0a94
bd2e92b1
bed420a2
bf29f145
bf407cdc
bee8db1e
3ea40630
bee1d1d1
3d44d3c8
bf5ccae4
3b600cab
bf0b5065
bed2b82f
be455146
bf4f0314
bf084035
bde8540c
be770df2
bf656afe
be6c3076
bed274d0
bed25175
be7ad95d
bdcf4b62
3e73dc61
3f16ea92
3e58fce1
bdc81e99
3d8ecbdf
bf15ce32
bf27a389
bef18290
bee9d9e6
bee78ec9
beed53d7
be56cfaa
bd66b6ce
bc6d5616
bdb9d252
bf042584
bea47536
bf165e17
bf06e8ed
bfa2726f
bf778f6c
bf34a682
bf275985
3d948f9d
be6379ba
3cfc453f
be128ffa
be3408da
3eb0c14a
3e93a55d
3dc3b1bd
be53cfa0
bda1f0c4
bf05ceb9
bf4f5105
bef1e23c
be7aff58
be821423
befabb7a
befbe7e3
beaacbaa
bd410ea5
bbaca45f
beb1ab19
be800334
bf3505b7
bf4a418c
bfb8eb73
bf80c128
bf563334
3dc3a668
3ef1624d
bd0d7b1e
3ec3b236
be1d191f
3d4214dc
3e0c740b
3eba9110
3ed8793b
3bb9ff32
be8dde16
bee5a0e1
bec58f79
bee54c53
be0eebb6
bd64bb9d
bdd0d7d9
be6cc311
3e3daabc
3ca924d8
be3b83ad
3f08b33a
3dce357f
bf58678b
bf174a49
bf665f03
bdcc592b
bc6f6fa5
bc9e4aa5
3f0b8667
3f046842
3e8f446b
3d6d7cf3
3dba6053
3e65f3c3
3e45f9b1
3ec99724
3ed2749b
3d4f3bb1
bf189292
bf260b91
bedb43a1
be0865db
3e7a19d9
3dfab08d
bea1433a
bf0bd5c3
3d83397e
bdc5978a
3f11f5b8
3eb2bf68
be98dccd
be7a32c7
bf16dace
3f09ef51
3ef00c8a
3e7a8211
3e927710
3e5aba3d
3ec95cde
3e102b9a
be8887a6
bde4dcdc
3d996ffa
bdcd1e89
3eb633e4
bd8da1e9
bf3a51ec
bf1c63ad
bf2ba8ef
3d5249c6
3f8fe41a
3f3faca8
bec96ab1
beed8c0d
bd34a1bb
bd464bc7
3db4714d
bedce526
3e7b55e6
be521cb0
bdeb81e0
3e10c6c6
3df58db4
3ead6ca3
3d75d9d9
be4d5d9b
be26a4cd
bc5675c2
bc4cde00
3d71db69
3e49c393
3e8404b0
3e39bb9d
be85fcab
bf0aa25c
bf26df2e
bf12188e
3e667ed8
3f4d7d14
3f52ac19
bd9c23e2
be913a7d
3d9ecadf
3cd3e48d
bd9811af
be88bdde
3eb75801
bbd6a353
3c6a38e5
3e33450e
3d9f8e5a
bcfed85c
bef41669
bed6b4d3
bd79cc11
bed791d1
3e081578
3e41d795
3ea29872
3e56b1c9
be62c5bb
be812976
be91dcd7
bdcc75ad
be749cfd
3f0eae9a
3e9951b3
3f426177
3f54b31b
3db2b141
3d353c8e
3cddbabe
3e0183fa
3e2365f6
bde63d7e
3e25ac76
be45b51c
bea7ceda
be0b29aa
3ba5c11f
be5a6ae4
3c982ac6
be122d40
be7942e4
be8b5cac
3d56759a
3ebf6fa5
3eb6c485
be74fa07
bf11936a
be48b9d0
3e262b71
3bd0e3f7
3d75568d
bde44873
3ddcbb62
3f559165
3eb2b016
3d53dee7
3e253490
3eb6f135
3e4eef57
be02fe2b
3ec3c33e
be621e7f
be06f952
3e333199
3df9130a
bd32ba2c
3da36ebf
be2dd348
be93ed57
be2a54bc
3dc5a037
3e11874c
be75182c
3de5895c
ba841848
3c674096
bc7d6dd0
bdbe1e1b
3d96d888
3eaf0b0a
3e46f141
3f1a8144
3ef1212e
3c28f3e0
3e067e01
3ea13776
3ddabc9d
be38e95f
3e29f1b0
3cc2cdc4
bdb114f4
3eb67fdb
3e28b08a
3e1a55ac
3c7bf7f3
be0c30f6
3dc33295
3eabbdc1
3d21fcde
be2a2d69
bedd2054
be56d82c
bda86dd9
bea90545
3d2d4599
be2aa5ff
be7c317f
3ebea97f
3e9c7a96
3d16f8b1
3eba4b61
be292736
3cace589
3e43cb8c
3d8a942c
bd98ca5c
3e5b249b
3ef03e93
be342d07
3eb716aa
3e364708
3e248d63
3ddb7c7e
bd76c480
3daf4a56
3db8b836
3dabb3b0
bd3a72c7
bdda7edc
bd8487b4
3cca2cf6
3db9b40a
3ce6b35f
3e452608
3d4059a1
3f7c99f6
3ee42683
be5ce19d
3eaa30c0
3cf5baea
bde2ea3b
bef8a1fe
3ebb4669
be3b2ccc
3db3308a
be131adc
3dcab5bf
be47403b
bda422d2
3da7a672
bd1af1da
3e0ae1a5
3e8268da
3dd8816d
3db0c516
3e0098f2
3d4fa8b7
3cde9cb0
3e81b389
3e3e1384
3e8c5859
3ec6d457
bd8c4097
3f4255fb
3e9b757b
be5ce850
3e73a43f
3cc998ac
bbdef140
becb852b
3e801c62
beb42520
bcc2b760
3cb2393f
3e8e2984
3d8d4ddf
3c2b6634
bd91024d
bdc3c8b8
bd1c2f08
bdbb0bed
be78b2fa
be11c73d
3eccd534
3df54a89
3d8c70e1
bdf48a0b
be847d64
bee0a5a9
3d9c2baa
3dc9f13e
3eb03c3a
3db32ac8
bd6d7a9b
bd71a193
bd081819
bd5ef367
3f25470e
3e3a889b
bee6ce7d
bdd432a1
bea70a54
be66314f
3c89ae8a
be22ba2b
3d4bffa4
bde1b03f
be95eb8a
beb2906d
be2e3d52
3dd060af
3ba63d11
bea67671
be4aa1b7
be4cc8af
bea54a33
bd9c277d
3ed70e17
3e73c076
be45cf58
3f174e5c
be516e43
bd98e3ef
bd15ebb4
3d9d7427
3f1fc169
bd6e108e
3d24474a
3d8c9e29
3e9123c1
bdf12f9d
3d96b949
bd39d87e
3e0ef3de
be3538e2
beb1f7dc
be84eda0
bdcabadc
be3dac94
bed3ce27
be79c497
3dd467b7
be1252cc
3d93116c
3f0e0b0d
3ee0472d
bd9bc48f
bda07740
be0cd9ed
bea58941
3cb205a4
bd2a2a5f
bd8eafea
3e1ebbf8
be46c5b3
bea931a7
3e048a19
3ee7faef
bca48532
3f0338e4
3d9a432f
bbb8e3f3
be3ef159
be231842
be2ba35d
bdf8f5a4
bc8f6417
bdc9c17e
3e09aef3
be562efe
bf1f830d
be0195fb
3f17c00f
3f00ec87
3e847ca0
3e795ee4
be5d8291
bdd13980
3ce5ade0
3c1854d0
3d37790e
bb0db654
3d137c35
3e3c1c9c
3ecb7a0a
3ecf423d
3f49ff8f
3edb5e53
3e1204b8
be85d3c8
beb80c13
bc245f86
be6da67e
bef30346
3dc5293f
bd7c742b
3f22e1df
3dbce3c1
beca8289
be8115c4
3f600760
3f847fda
3f8ec6a5
3f34abec
3edba70a
3e5d88d1
bda53f83
bcdc5e34
bd9fcc4f
3c1c8420
3dc64f3f
bd88125a
be5ef618
be8ebdda
3f163916
3f01a626
3f0140a6
be11138b
bee00424
bc6c85c0
bf25a0b5
bedbe582
be2c2b11
3e8829a5
3f0d1bf2
3e091b3c
3f144f36
3f3314fd
3f019438
3ed3f018
3f436114
3e422565
3ea6e35c
3e917aa9
bd988be5
3d1000cc
3c13f9c8
bd2f8b35
3e95697d
3ee7d037
3e662563
3e6512ed
3f297338
3ed88b09
3f9663ac
3f5060db
3e231517
3db379fd
bf114e7b
be99e47d
3d860f4e
3e2a5e75
3ec2f2ef
3e0c487d
3f41e010
3e52b55a
be977b18
bef26574
be118a2c
bccf0a90
bd2e75f6
bbbd2260
3d4bbaee
3cb83ce8
bca1da46
3d74de6a
3d8c9cd5
bd83096e
3d0c9ac5
bde0120c
bdd87fbb
3db4c26b
3f156d9a
3f3993d4
3ed9c4fc
3f44821b
3f6c6a96
3f785199
3f534091
3f08bc69
3ef128b4
3f066146
3dff4640
bb77e95a
3ca8b4f2
3d14a4f7
3b965510
3d4b6fda
3da252dd
3d3a93fe
3d7d8baa
be9377f3
