be153386
3f520920
3dddfc1a
bd685c63
3ec26a1d
3db5c61a
3e4c3d81
bf08a620
3ebf675d
3e97b887
3edfab3e
3e3acad8
bd615e2f
3e6c1892
bef54a50
bea6a03e
be2d4127
be01a8b4
bf5f66f9
3d339677
bf016522
3e156cb7
bdc9b1a4
bebfeb71
3db595ca
be97bd77
3ecc9599
be238f22
beefca8d
3ee10bdc
be980b67
3e7015c2
bedeb20b
3eca4668
bdd73ea5
bf31d240
bd0940e8
3eccd634
bf71990b
3eaa975c
bf157742
3c0bbac0
be916329
3d849649
bda25107
bf238553
3d299870
bda3e90a
3cd2a910
bd07dc55
be53e6bf
bec04ad0
3e8dda13
3d8d9285
3ec2bc2f
bed98daa
bda78cb0
3eb720c3
bdd62be5
3e82d57b
bdfcf264
3e87e4c6
bd601a59
bf68f002
3eaac5d2
bf0f7641
3dfc7d30
bedafd37
be93089c
bc9f49f3
bf890bf7
3e4e3ae0
bd88f7ba
3e5bd894
3df6274f
3da94b02
3dc23929
3f253c53
3dae05e9
bf0f7318
bcddd747
bf113d03
3e152399
3cac76ab
be2cab87
bd009b92
3e7ba158
3f065422
bf4523c7
bf01a7e5
3e380bd7
bf45edd2
bdd8a798
beee7429
bdde7c4c
3bce78d6
be4d2511
bf4f5288
bf32a371
3d4a52fe
bde9d216
3d69116d
3eb14617
3eb65caf
3e062ded
3e6488df
bef9502d
becc8315
3ef936db
be149020
3e7ce33a
bc0823c6
3d0df2e2
be3d26dd
3e152cec
3d066d95
be45201c
3e0234c3
3eb7d92c
bea96729
bf1d87c1
3e5ee3d1
3ea271e1
3e41cd86
be6e3780
be3fcb6e
be888c2e
becda5d9
bdab4b9d
