bc071d30
3c9020f0
bd46086c
bc9eed9e
3d64188e
3d8375e1
3d436fca
bda49bbb
bd8a7cea
3d4d4daa
bd85bc9c
3d901321
bd36b584
3d9ae562
3d547816
3d0b2456
3d73e08e
bda4b41b
bd3b8d81
3d8ed059
3ccadf58
3d0d0286
3d2a4c60
3b223320
3d6ca03e
bbe31c20
bd942eec
3d5848be
bd6c9c7c
3cf60c44
bd58f68c
3cdf2f7c
3d3b205a
bda22a92
bd8cc376
be652b69
be4dfe19
bdb288ab
bdca4c16
bccae8dc
bd3b1c9c
bde0f2b2
3d3b1b46
bda420ee
3d746625
bc28b568
bd6f70ad
be134501
be7537e3
be820fc5
be935e00
beab9456
bc758be8
bd9a8424
bd589ec8
bd09b437
3d088e9e
bd870eab
bd930034
bd0410e6
bd62c34f
bd0a283e
be1900f0
be1cc843
be8718d0
be86ed58
be28aa67
be82a33a
beeb21e5
bf01dc2b
bf1ec05f
bf101672
bf496546
bf135145
befdc754
be96dcea
3ddc95a3
3dc794f5
be780960
be89555a
bd73f591
bdde5b1c
3cecbd28
bc8cb99c
bd136f49
3c7f8390
be20215d
bdb1808f
bdd12b9f
be8d44b2
be8cca94
bee36daa
be77d071
befd1b28
bf16d1e1
bf2cbccd
bf5f7cbc
bf61fe28
bef55776
3eaf00e3
3e3a6f00
be855abf
befe97c7
be98049d
3c6adbe8
be643faf
be91474b
bf278920
bf307c5d
be9e6816
be89037c
bcd491aa
bce46296
3d7ac9fb
bce1d119
3e016bc9
3e9ab9ba
be188f98
bebd9f4a
bf473885
bea0a537
bf350430
bf476b3e
bf001356
bf0ea334
be8c1b1b
be4e6b52
bda940c6
bdaa14c7
be5c6302
be93e3f4
3c8e7dfd
bf0841fd
be771c52
bca1cef1
3e37deda
3b63dafc
bed2bc64
bde837f9
bca49e77
3c2e1850
bd71b160
bbe17de9
be759e8a
bd79bf9a
3d8af7ba
be5aa04e
bf3d9161
bf3d05d4
be70aea9
be8f528d
bd2c060c
be392f5c
be30739a
be183c6b
3d0954eb
3cd2fa78
be410f4b
be1616a0
bdeb6211
bead4b61
be6aa0b6
3df1c6ff
bd56361a
bd82141e
be601d7c
3e1915a4
bc8977ac
3d552d12
bc8b7372
3edb54cc
bf1c0f45
3ec30ed6
bd9d265e
3d90d5d0
be469a84
bd4d390a
3d580900
bc3e5a1f
bdd5dc22
3c8ab690
3e8b5ac6
bdb8fd43
be453f32
3d903dd2
3e2ea0c1
3dc27622
3e0ade0c
3e4a031a
3d77347a
3da1ad79
3e99270c
3d366f2d
3e4a90a7
3ecb2fe8
3ce557c2
bd3784ab
bde38eb6
3ed7506b
bf4d26d1
bec2e35a
be8edc04
be05948f
bee38026
3d224933
be6901a3
bd920022
be2ef030
3e070921
3e21a2d7
3e8f91a6
3e610d4d
bd352d76
be907d51
be8bf3a3
be019f23
bd0fae6c
3ea8a0bb
be89fcd8
3d31be1f
3e5a8fb6
3e3a31ab
3f2117b4
3eba2979
3d06f0ff
be29c197
3e624279
3e3b9a17
bddd14b8
bed04b9e
bcfd957d
3e0dfeae
3d89abc0
bcb7aa58
beb210a3
bdb491ab
bd61da51
3e056bce
3e914b58
3ee3a340
3e814c96
3cb57066
bdf8fd69
be45b2c9
be73de12
3e5b6920
be198329
beade663
3e5d7a73
3f45520f
3f283694
3f389c69
bd552040
bd6a7704
3ebfa334
3ef5683d
becec2ad
be7c536f
3e964b70
3dfefdf9
bd9d82f5
3e113b3c
be87a9dc
bd9a04ce
bd7f72ac
be47bf7c
bd6ea4ac
3e5b0c64
3e6b5d33
3ea05923
bd52ff43
beebf4ed
bf143680
3ea5ff99
3df8d93f
bb079b74
3ed2d2e3
3e88af2e
bee75ed6
bf078948
bd3133b2
be186a44
be5a35d5
bdafc3bd
bd4e66bc
3d69cf71
3e5654e6
bd347583
bdc5e37d
bc5b632f
bd388c37
beaa6af7
bf171aff
be831a69
3cfc0c3e
be41a972
bea36408
3d434efe
3ddf61c7
beb713b2
3c715ace
3ea129dd
3e9b4971
3ef030d9
3e2f6b85
bec78e81
be89bc98
be8f5eed
3ce4c28c
bea3e43e
be43d76a
beacf162
3e08ec4b
3f09592f
3e246625
3d10ccda
3e2f0652
3eb05fa4
be0bab82
bec0c05c
bf03a7ec
bc9b828b
3e1e972a
bddd5b3d
becf588c
be863f67
be6220e6
bb2af99c
3ddde718
3e2e83c6
3f26a1c4
3e9c2c25
3dc516da
be705797
3f4c40ca
becfc8bc
3cd5388b
bd8ced14
be1c19ed
bda6bb2a
3e91206e
3ef7adc4
3ec020d7
3e7ce96c
3e984771
bd3deea8
beacd16f
bf20f07c
be0b897e
3e8b3937
bead9235
bf0cbfc1
bec9e5b8
becfb423
bdf264fb
3d36a966
3d2629e6
3da5fc61
3ed29044
3ec124bd
bd9f9e7f
bf490074
bebe6a60
bf318508
bd3d3654
be391457
be5d1eaf
be947cbb
3e44cdd8
3ed4687d
3ea28d52
3e96a44a
3ed7ec10
3db4a470
3e10c158
3e0a1937
3e3cb699
bc271f50
be59c351
be69d3ce
3d107303
3a7d1da8
bd793039
3e33796a
3dee5088
bd4ad6cf
3ddc0c22
bdeb24ad
beecbce8
bf25fa22
bed567f9
3d6b8461
3d3cee2b
bd4a6083
befe81ae
bd94214e
bd054d34
3ea4143e
3ed49171
3e16f2a2
3ec6354e
3e9906ab
3f1053f4
3de114b2
bd5d38d9
be35bdd3
bcac67f9
3e1d8297
3e8c44a2
3dc3ddda
3c85f800
3dbe3d8f
3c3459ab
be142974
be35a5ae
bf04d380
be6e8774
bf01cc7a
3e00e782
b99568c1
3c8dd230
bd0c18ff
bee47bde
3e7601c6
be0fac6e
3e09cd25
3e60e595
3e10f366
3e924fc3
3f115b25
3f172551
3e634a90
3e3c7701
bd5b548c
3d49d0cd
bc9680b4
3e7c467d
bd926c35
be1a0075
3e490560
bcb3f2c0
beb4b25a
bea6a3cc
bee56b4a
bdfc696b
bf1db5e2
bd680001
be2bcd2d
3ccfc578
3c6c6679
be8bd0e8
3d3ffb7a
3e2f8927
bd38912f
3dd13ded
bbdce01d
3d1f0796
3df06143
3eb159b5
3ea042e4
3efd73ed
3ec72324
3cf9dc62
be0f2ba4
be8c7c9b
bebfa66a
bebb267c
bd710714
3e0f2877
bed70a67
bf025d44
bf0924a9
bdf1346a
bf3653a6
bd2cf84f
be15c7fc
3d1b4984
3d63215c
be0ac548
3eb72a6b
bdaec60d
3d032dba
be2ca097
be11a213
bd2cca25
3cf907d3
bda84b85
3e6b6c5f
3ec0c36d
3f2ba8ae
3ea5631f
be61560b
be796172
be7dea94
be20a45f
be90d6fe
3e17f33f
be045e60
becc593d
bf04829c
3d0160eb
bf2fa8fb
bde6b0ab
bd3de0b6
3d15b847
ba0f4193
bddc8b57
bd8b7c67
bddb7011
3e7db565
bd8cb989
beefd61b
be509081
beaf4548
bdd91a8b
bdac1516
3bf9bbf4
3ecace5a
3e5f4a13
bebe9dc3
bf04252b
be9061fc
bdb95342
3c695115
bae9fa64
bd2c0583
3d4a9adf
beb6c1ab
3eb4615b
3e926b05
beaa103d
3cf0e17c
bd44b874
bdcfdebd
3e76a6d4
bedda056
be9972b9
3dbb8840
be80a57e
bf06b1ea
beed72e3
bd761b58
3e5668fb
bed7e6f4
bf2b331a
3d9d5f15
3e78e2d3
3d83316e
bd0481ac
3dfa6d0e
bc87bcc5
bcfa70ee
bd3603d0
be0868d3
baefc19f
bd61d9d8
3ed10643
bd88bba6
be3b8d53
3d62a6fa
bb6dc020
be120421
3e0de0ac
bf1af352
be8a0dc4
bd270992
bd85425e
be41c151
bd6e540d
be3610a4
bda829c2
be2c5a0b
bed5de51
bdcf8c3b
3dd76f5c
3dac1ff7
3eb0ac4d
bd950e3b
be49cd37
be4193a5
3e1506eb
3dffb3a1
3e9b5079
3e4401c5
3f3627ba
bdc608e4
be1bd189
3d58d009
bd338fb3
3c8039ec
3ece98ef
bf1f9103
bf2bcb6e
3e898db5
3e990296
3ec8bb6d
bbe5ce7f
bc429e10
bd43611d
be759965
be8711e2
be95a6ab
be775b37
bed0ee92
be17b678
be7432eb
bca7e83e
3e2caf54
3e6aaac9
3e8ba80d
3ee20d01
3e759e65
3eef19c3
3d15a2e7
befc3f34
bd63ac64
bd5715e1
bd4dc260
3e2b34ff
bea4ed7c
3d93379c
be09cea9
3d3e8667
3d49e56a
bc845ca7
3cfe1e37
3e829b17
bcafa231
bec9d61a
beaa35a7
3e06c00c
bd419441
3d9cb0ed
3e1e1dc0
3e2b8e0f
3dd6c33d
3ecd8152
3e57c3cb
3eadf332
3edd2155
3e1a55b6
be98142c
bdac717b
3ce1af14
3d064876
bc916084
3db7a8bb
bebf006d
3d967ff5
3b460582
be2787b7
beb273e3
3d88e226
3d8814af
3d9f5779
3d0da6a0
bead286d
be600bef
bcf405d5
3e5e7187
3eb2885b
3ebd9a29
3d81975f
bdc04083
3f323a14
3e9ed721
3eeb0397
3ee04bcd
be4ca2bd
be6a4992
3b48c267
3d4a326a
3cb195bc
bd5e4dee
3dfe66ae
bb9935ba
3d8f4d3a
be99b6d5
be7e9680
bd8583c2
bcda3652
be7ef2d5
bc775993
3d9e193c
3e0448af
3ebd3339
3dd21bc9
bf061e62
be05fbd2
bd041900
be5bfb86
3dc5f3f1
3ecb5aee
3e63fe8a
3e408e80
3ed1f602
be2d457e
be989d8a
be81b1e1
bac27f80
bd4396c7
3cb1156c
3eab46b3
be20fceb
be8e6adc
be91a20a
3da8b581
3d621fa9
bd6ba9f2
3ecfb3c7
3e71e427
3e782e38
3ef37be9
3f347d2c
3e8bfaab
3e014894
3e9900d6
3e731119
3e8d6b47
3ebd960a
3e213885
3e910f16
3dcc83d2
3f0b01ce
3eaf0642
be296044
be0f224a
bc9e66da
bd34bd4d
3d3b1366
bd8d5079
3d69410c
3e7181b2
be2dff15
be879200
ba6efd84
3e71998f
3d748cc4
be299f38
3df3d9c1
3f8f1644
3f5e965c
3ed45374
bcedd8a5
3ef1cff1
3f06cae2
3dd210b7
bec6b896
be7a5bf9
3e8c0f47
3e0889af
3e9ddbed
3dba5eb9
3d8ab78a
bcabd5aa
bcc31c62
3d69f45a
bd6d987e
bce9cee0
bd54e8d6
bdc5254c
bd8acfb6
3ddcfd8e
3e811250
3e9b4f47
3f0116e3
3efd5c10
3ec91653
3f39fcef
3eec4efc
bcab3ed4
3e1a92c8
bea68473
bf18ec63
be1acd4f
3dc3efcf
3d6dce88
bd88498e
3c8a4d20
be77f45d
bd9e218e
3cdee8cc
bbe945a0
3c42e908
be80dae0
