3d781752
3ca9e008
bcf459ea
bcec138c
3c313670
bd08405d
3d00861c
3d9c0fcd
bd355a4f
3b252a00
3cb475d4
bd62de26
bd58e08d
be44865f
bd066c21
bd648f2d
3d1eb4c2
3cf0c62c
bd68bf2d
3d20b3e6
bce443ee
3d8e13b7
3d3be88e
bcfdf654
3bf2f5f0
3bda1720
3d1f340a
bcd4b92a
3cdcf014
bc204bc8
3c90eb24
bcd3ede6
3d821d7b
3c2f66b7
3c930d4e
3c841a17
bdc111d3
bda6acc5
be40da02
3b88dbca
beb20f48
beb263f8
bd9a33da
bbb513fe
bdb09a93
3d5bf74b
3d097e3d
bd2873b7
bcf048a5
bd88a558
bb2b738e
bd6edc51
3d55222a
bc89f298
3d9f4851
3cc5cc28
3a85dc40
3d9fa877
bbb54ac9
bda13baa
be1df252
bd992a83
3d542982
3d1297e0
3ec28b90
3e37ca37
be7090fa
bedb2494
be5dd132
bed89bfb
3d296748
3dfd5c96
bf80abc4
be96709f
3e7c7eb8
3e778094
3e7a3ded
be4e2ad3
bd39f104
bd9ae1ff
bd5cf2ab
3d38171d
bd1b16a3
bda54bda
bcd61e56
3ccf5b58
3d2addc6
3c8bcffd
be2fcda9
be1541c3
be27e457
3db8e5ef
3f10b5fc
3f3c4561
3eb180b8
3d1d9170
be7e54ba
3ce49945
bd8f90c2
3d4f84d5
be9adfb9
be9b22a1
bf5a0b3a
bf42e851
bed26bc0
be82420a
beddf66c
3b18b8ee
bd546720
bc3cd436
3d0244f5
bce84e74
bd52d138
3c96a5ac
3d439527
3ee6090c
3f11ac87
3eb73b9d
3e4ecbe5
beb9259d
bee00e9d
3d6add19
be37fb58
3e0a66cb
be916439
bf6bf651
bf3338b5
be99a936
be974c4b
3e8cb033
3eb06564
be913acf
bea95cd4
bed9dd62
be63444a
bea9bc7a
bef3fccd
be9c81d2
bd96e676
bcb25db5
3d3f3332
3d9813b9
bc6af827
3eded559
3f1d2a13
3e6e3942
3e9010ef
be8d209a
be1d50d6
3e913bd3
bdf9c497
bedfcce8
bf266ede
bf3f0732
beb231c3
befa6916
bf1e45ae
beae2597
3e2a417c
3dac580b
3ea49dee
beb4fd14
bcb019af
3ebcaa13
bee7a5f6
beab8b8f
be656879
3c67d625
3d154130
3dd44ca5
3e6363d2
3f331097
3f47defc
3e7558fa
bde18471
be39c413
3eca0b67
3ec07174
3e7894b4
be5ce629
3d50e92f
3e410697
3d1ce603
3dee3553
3e462ca0
3e257e74
3d49137d
be7ad80a
3d0db831
3da6a989
bdab3859
be472958
bf3a62f7
bf6a25cb
be156028
3e9caa05
bd65f9bd
3e89a5f9
3eef43c9
3f449634
3f1f9a0f
bdd6cda3
be4f1539
bdf39fc6
3f054dd7
3e71a184
3e686b25
3eaa7279
3f14b531
3f1aed9e
3f0ed64e
3ecb272a
3eed44b6
3ea31ce2
3e726ed8
3e1868f3
3e5e3e89
3d7377ff
beb1ae69
bf7e4788
bf658b57
bf51baab
bd8b4b00
3ec70c89
3d4db51b
3e5c0d0f
3d8565b1
bd83365d
3e925f8e
3ca0b624
beb1afdd
bd7d72b3
3e02fd41
3dc6e176
3eab19e9
3f0fe43d
3f089b12
3ec2a22b
3ed6643f
3ee5e9f4
3e9c05bc
3e9c0a40
bd5f5f94
bc8d823a
bda097c6
be219d30
be10d977
bf778818
bf32a7b4
bf0bd2f9
be38e909
bbc05ad8
bc0b8264
3e019db7
be0a6731
bed25883
3f22da80
3e8dee05
3ddb3a20
3e9ddd02
3e64eb78
3e36d1b5
3e76eed1
3e308094
3ddb033c
3e933aff
3e4573ab
3d3d27e1
be781eb4
3bf6c48e
bdfb5b1b
bdc0af12
bcddf57a
be4b8306
bdf3c4b8
bebe60f6
bed6b643
bf3465d8
bf2c889a
3dc623cc
bd85c8d2
3db76e89
be558edc
bdfa35bb
3e21e494
3eada9d6
3e941ee7
3d04d863
3daf73f2
bd8a61f1
be5202c8
bd4aa144
be871b7b
bd93ce6c
be0e6743
be1fe8a1
3cfd8ffc
be08f458
bd9cd062
be0e47ed
be834ca1
bde39555
be551c9c
be19df24
bf077532
beef4840
3b08ee9e
3d8948c7
3cd08de8
bd03e635
be22e40e
3d8943ef
be109b17
3eaafa56
3d09305e
be4fbeec
bea35d2d
be9e2e7e
becca6ec
bebdfe90
bef08c49
bd3965e9
be027008
bc849973
3ce7708c
3ce9d7f1
3e684fd0
3e021ff6
bd6215db
be47bed7
bd94de01
3decf610
beb27b67
beff5f1a
3e872815
be4a76ae
3d2e7e93
bbc5a30b
bda5422e
be69e717
3dd5a28e
be75c125
beb1194e
be957580
bf074519
bec9062a
bef135e1
befb69c8
be359a25
bc468610
3d0ef886
3d62b6a6
bd65c326
3d51b4a8
3efb1cf0
3e8135ad
3de1c959
3e68541c
beb1bc94
3d89c5ea
bf1461b0
bf1d5317
3d87ad4c
be652f2e
3cdb2138
bcb8dd5b
3e28a072
bea2406f
bf04e6a3
bf128794
bf244aa1
bed56c98
be803359
bc0dee45
bbcb9580
bdb084bf
3e3c8f1f
bcb2c9d5
bd63f311
bebcda1b
be4cf3a1
3d7e92f9
3e05ee46
be21a7d1
3ea03e60
3e9067fa
be908deb
be50e6d0
3e406ab2
bf3a26d2
bd817673
be1a20d6
3dc2af01
3dfbc74e
3e9490f5
bf061b60
bea32c52
bf252d22
bf0fc6f7
be570f07
bddceb08
bbe26016
bb542ba9
bc91e950
3e502b06
3e7a5f17
bdb94786
be3f764f
bea75bf0
bdf728cd
3cb4f35b
3cb7d1b8
3ea9b069
3d870153
be878634
be63f1b0
3f13d3e9
bf361aaf
bee70f26
bdeb7224
bb845127
3d1825b4
3ecb7c71
bc227e5b
be4af2ea
be4de8f9
3d8a4248
be6cb7f5
be4fdca6
be67c3d3
3dd21f5a
3dc5f447
bd9d4860
be3d217e
be06abbf
bdefd04c
be325da6
3e23588e
3ec1009e
bde07e51
3e02887d
3d555864
3e069243
3e96fd16
3ede9891
bf4406c6
bed9b187
3eb62550
bbce3450
3ea4fff9
3f15f5ad
be7132a0
3ee04a18
bdb4dd9e
3e881a15
3e1a2296
bdfd180c
3cdfb2b8
3f067417
3e3db516
be43a4b9
be7b8cf7
bea2826d
be3f4591
be3c0ad2
3cf4e599
3e14a59e
bdaa1e1c
3c14dfa0
3e5ad817
3d69c8c2
bdd555d1
3d717030
bec175ce
be808e88
3eb07e5b
bcf4f868
3e4d33a8
3da4a08d
be6b6399
bd94c149
be972159
be69c3ce
3df8b329
3cbd6ee6
be71ebd0
beb15c88
bdc24966
3d9a0c0c
be92bb69
be98cc6a
3dd8d516
beb64497
bd65b6d8
3d3e1829
be02c706
3c584875
3db1e8b7
bec16cad
be267ef2
be343ed1
bb9ec9f1
3e654b0b
3e4a9543
3ea749cf
3d3cef14
3eb141ea
beb14d99
be5d3dad
bec30792
be092ff0
bf1e0f9d
bedd74ff
be99c2d8
bec9da8e
beab60b4
be8f1724
bf29c4be
beac8b68
3e6ec9bf
3e5296c4
3df52ad4
3c6984f3
bc002cdd
3e5aa1ab
3ef93154
3e805bdc
3dc88463
3dc58e43
3e95ee98
3f37e1bf
3dbbffba
bc52c879
3eba1d2b
3e8d08f3
bef0f7d8
be033155
be3b10a9
bebe110d
bf0b06e4
bf026cd8
be40c8f7
bf12c22c
be73be3f
bd22f50f
be3b65b1
bd1e8291
3de52296
3e948ebb
3d33cbf3
be48df67
3d886cb4
3e98ddb8
3eb38516
3dfbaf39
beaafc2f
be36134b
3d3cf59b
3d1138c4
bd72190c
bd811fa0
3ee1d606
3d51be9f
bda2b0b6
bdb4785f
bdc9143e
be70b12d
bd97693a
bdc939f5
3da10ac7
bd59c0b2
bec64ec7
bcef9bb2
3e60c533
3e77d60a
3e380e21
3dd4d524
3db314cc
bb47ed27
3e62cb68
3e96b256
3e1301a1
be8396eb
be954570
bea3fddd
bee9ddc9
3c99f6b9
bda6ba2b
3cbca295
3dc15d21
3e957737
3dae368a
be27a045
beaecedc
bde42d42
3e40fbef
be446654
be973561
3e5c7413
3e357913
3ea4c61d
3e751633
3dd092c4
be5b8414
3de240aa
3e240584
be484884
bd188586
be1d09f3
be9839d6
be79c663
bdbc9028
be8d335c
be40d6cb
bc9078d5
bd7eba32
bd82657d
3d2a158f
3e044ddd
be619c59
be82b455
bb6ac25b
3e488681
be195f3f
be6a9dc5
be17f9b8
be6e9712
3db36dbe
3e02f2f4
bc92719a
be0e3850
be5c2e17
3e04f4e5
3e865906
bdf4ec75
bdd41a05
bd10810c
bebf53c4
bee7c550
be967a1a
bee8ddbe
bee65933
be19db17
3d7f7285
bc99635c
bc3bebe8
3e40b318
bd2188aa
3e03e301
bda04201
3e6c9b8e
3d0c4e3a
bcf6e0f9
3dad1350
bcdc361b
3ed4c1c5
bdadcea7
be5ae9fc
be95b61d
bdb52223
bceabafa
be1a820a
be9beb84
be4596d3
3c4a0f00
3d4b2ac4
3c5be5d4
3dcc36fa
3e53d0e9
be0d5994
be3166aa
bcb3661a
bd6df52a
3d721cda
3ea36c84
3f67c79c
3f76baa4
3f296b57
3e8469a5
bc163dac
3e88df83
3f092007
bd8c37e1
bd9dba30
be140c4a
3d9496c6
bd7a03cf
bd2f7cbb
be8e6d57
bdea1659
be5227f2
bec4e419
3dea53a8
3e8d3d21
3e62a98a
3ea55949
be131b68
3d6bd921
be4775f6
3cbccb3c
bcf972be
bd5db89b
3c095b93
3eadc5e8
3e522af5
3ef41fd8
baf1a1f8
3d2df59a
3f39516b
3f028d3c
3d995c2c
be94a965
be06e78c
3d8f1aeb
be308aa3
3d51de73
be90d45b
bea2fa33
3d6a692f
3e753761
be3ef414
bef237c9
3e00b8d8
be3ee743
3db1d5f0
be0ff2a1
bdcd38c3
3b0774c0
3d242e12
3c8ab2e8
bd21f449
bd713320
bedd5c0c
bf089ca0
be857f73
3d8f49bc
3eb7a270
3e3d30c0
3e825782
3db31c85
3dfb86ae
3ee197c1
3ed749a4
3e1b072a
3f24f1fd
3f06ade3
3ed63120
be88ef6b
bf2d2062
bf5d6007
bdda93e3
3d965d86
3c2f66a7
bd8209b6
bd518fe1
bce0455e
3b080ee0
bc928a58
bd8395ed
3c38ea10
3a93ef0e
3dbe4bce
3d22c086
3d87aa4c
3cf043a5
3d201b19
ba96b602
3cfe4e32
bd301db1
be17ebeb
3e974341
3ea033e7
3ee42ffc
3f21f381
3ee9ab8a
bdb4edb1
be7e8b4e
be3b47fd
bd997dfa
bd8e9f53
3a36bd00
3d452f3a
3b737520
bc20a2f8
bea1c2af
