bc4c4bb0
bbb0ef50
bc68fe60
3cfc4ae0
bd97a8a8
3b5752e0
3d81dfeb
3d8e2eef
3d9a1373
bd080620
bd6e0b88
3d06815c
be2522e6
be4bf4de
bce11195
3d99f15b
3cdde37c
bcb20ab4
3d614c9a
bcb83e2a
3bf286d0
bbbf7a50
3ab52880
3ca34fc8
bc850974
3c7ea580
bd8b4b71
bcc211e4
bc98a10e
bcbbd526
bd7acbb0
3c887980
bd10d5e3
3d7dea7d
be39fa5a
be2e0059
bdc5b52f
be1f0fde
be634265
bebb08a1
bed51408
3d981a75
3f1d6717
bef192f6
be9b85ec
be3e1ce9
bdcab640
be5041f1
bdd5bf53
3bc66bae
3ceb1cf9
3b8c97e0
3d719bb2
3d54934a
3d5719ea
3d390b4e
bcff3098
bd8f8cd7
bd45a60b
beb04681
be7206e0
3ccc048d
bdfebcfc
bee2cc5f
bed78986
beb1ef40
bef9f99a
bf8cad68
bf5eac9e
3ebac607
3e1aaa0d
be0a4577
bf2c20d9
beb9fb82
be2a8d18
bede9884
be814d3d
bce42825
3d7e97d1
be5b4bba
be567419
3d9e3497
3d107260
bd04c81e
bd6a4804
bd2fffd8
bd967c5c
be9c3ee9
be601943
be42fdbc
bf198d83
bf2b0989
bf0411fc
be47b31b
be8a4422
bf3e1dc1
bed14713
be2bbe67
be85f962
be8925c7
bcdebbf9
bd639b8f
bea7fc2e
beefcfe7
bdb0ad4a
3dc80c73
bd18123f
be61aa1e
3e996f24
3d0dc593
bd358e62
3cabbdc8
3c9fbae8
3c829748
be6f883c
3d915fc6
bee5fc22
bf00f911
beb028cb
be1c198e
be93b5eb
bef09779
beedf3ea
beb411d7
3df057b2
3bfa3a10
3deddd68
3d0fe91c
be958576
bcd55d87
bcbc94e3
bebf195d
3e9346d3
3e3649ec
be497517
bdc72736
3ec6f21a
3e0cba88
be36f1c2
bb9f69e0
3d52e262
ba53f400
bde840cf
bf260ee8
bfa7c68d
be18b038
3c7f54d6
bd258721
3ecf98bf
bcbfae84
be8ddfae
be81299f
be2a1c13
bdb8a40a
be7a408b
3e03264f
be5b18a2
3e1e50ae
3eac8fe5
be9f67ee
bd992645
be9cbb31
bf3728b3
be88613b
bc6a85d0
bda0781c
3cea1d2c
3bdc7593
bd4ca164
3ad4cfc0
3e825629
be520308
bc74fcf2
3e336760
bf0d7479
bf2a5000
beb91a78
bdb46f7e
be01cb73
bead1595
bc89964d
3e0d5f81
bde4b84d
3d0af6b6
3c1995b3
3e86ada4
3e09f8aa
bedb9d99
3e2f5b45
be0e4b05
bf0eb4c3
bcb6173a
bf26476e
3e5f57b6
bd5f8f02
bccc6341
3b3d552f
bdcdc2dc
3dbc71f8
be2ef2b6
3d86ec88
be9cbacd
be86b56f
be803814
bdb7bf0f
3e10aae8
3e846a89
bd8c2359
bc4a87ca
be8132e3
bc68d08f
3dc00f50
bc79d38d
3e3dd471
be0988b9
bed50093
be0f6184
3d151ec0
be22952c
be2d0d91
bed4f873
bd5b42b0
bdf7a2a6
bdb487de
3d064ae6
3be55f27
bf425947
be91eaa8
3ee961dd
3d02f0ce
bd1e5021
3e112d39
3edd9249
3de341ee
bde665b5
3dbc7c69
bda9223c
be67b82a
3d54b463
bd61aa23
be4ff0f1
3dee1c6f
be04f391
bd89bac8
bd83c874
3ce913bf
be75428d
bf1bde65
be90008c
be695fc8
bda06628
3ce713f4
3ce09081
3de2472b
be604b18
be05940b
3e04d310
3d30c8c1
bcbe5689
3b6967e4
3e5c608e
3ca8df80
bdd808d9
3e87afda
bdf39272
be970a00
bd6ba102
bdae22a3
3d172b88
3e202fc8
3e59bfb8
be6eb0b1
bd3ce2e1
3d3c00c5
bed898c3
bf062928
3e7cef32
be13744c
bba98ccb
bdc579e6
bd95d9b7
bb988331
be71e45e
beb09aa4
be685457
be49890a
3c21c856
3e1d69c7
be114af1
3db5825c
3d14f438
3cd18dfd
be6207e4
bee67285
becfe204
3d1c370b
be82dd5f
3cedd525
3e4b5d59
bdd20077
be1e694f
be890546
be9dbc6a
be5d937f
bc4eb416
3dbed78d
3b3ffdc4
3d4d9391
3dbb8448
bcd79a7b
3b01d6a6
bee553a5
bf107b8a
3d5d34af
3e5ad345
bd925733
bd81d38d
3e1103ad
3eacd5f5
3ddaf566
3e952293
3da04d53
3df3d19d
3e2c2f49
bdb7062d
3e7f922c
bde4e849
be998200
bdb4c030
be258188
bd760f52
3ea5fda3
bedd86b7
bf02a239
3e337f64
3cbcf35c
bceb0275
3e493fd6
bdedf532
bda615ee
3dae31a5
3ee7bba9
3dfc29a5
bc9e7833
3e9881ce
bccafba4
bdf1a18f
3e04733d
3e4c136c
bdd85616
3d8dd71e
3ed40899
3e862780
3e99edeb
bdee0288
bdcd6fcf
be3bbed7
3d7cdee8
be12a379
3e4e16c1
bd6585c3
bd3148e4
3eaa15bb
bec035c2
bcf81548
3e776bfe
bdd6987e
be4fc72e
3e748f3a
3e422b04
beb56451
3d77081c
3e483f93
bd6e0753
3eabe387
be3bcf6f
bec8b8aa
beb52288
bdc961e8
be0e3d8c
3e8b3bb4
3ef74c9b
befabc91
be98655f
3ccb4b73
3dcbf46b
be7355f6
bd8fa3f4
3ec8383b
3e3c4abc
bf06fd25
bf08050a
bbe35100
3deba742
bdcb377c
bd8479d3
3d2a8ff2
bdbecef6
be2b7f31
bdbc9d16
3dbbcf09
be52016e
3ccc620f
be39a761
bea7264f
be47b4b6
bf265d2e
bf22f00a
3e8380e9
3ecbae2c
3cd1a7da
3e5b1560
3e5af570
bcb1c9e5
bd697af6
bdc28c41
3eae349d
3c1ba90f
3ebd4c9f
bdfc40bd
bc8e890e
3d10756c
bddee0c7
3e8b22ef
bc7c4f19
bd248e60
3e8e8e22
be159834
bd8b7a4b
be20587a
bd89c217
3bb8bb08
bed4174a
bf0fd126
bf632269
bef97428
3e8a7b91
3db18dff
3e4d7150
3e2eaf50
3eb28489
be1f788b
be418b59
be8e5a0c
be100dff
be0ccaf0
3eaf8949
bea9f60c
3dcc4c23
bedf4f3e
be5ab5f4
beac933e
3d9915b6
be25b69f
3e15e7b2
bd86b400
bd225975
3da53f67
bda680d4
3dde5b34
bb6c1ba4
be052809
bee43a6c
be22a0f8
3e3e5654
3caaab45
3e9a8f15
3e9bc61a
3ee68007
bea93dd4
be51a540
bdda5272
3e339662
be0b38e7
3e68b228
bf0df38c
bd982305
be2725b0
bda84e2d
be5a74f5
be6d1ddb
be33fadb
3e831584
be01eee9
bdc44686
3d53b0a0
3d8941f3
3e0d5a23
bb61e325
bea341af
befe4218
3d65c91a
3e88bfa0
3e914676
3e4d7ac4
3e17d4db
3e3171d9
be376dff
bdde2da5
3dbfb3bc
3e51b9ab
be975144
3ecf8d5e
beca3d9d
3d551656
bc794082
bcef98d9
bd6a3696
3e3991bc
bea9c6b0
3dfa0d80
bebca399
3d53a715
3e44950d
3e1aa252
be8cb455
3d434299
be9541b4
be9c7bfd
beb86bb1
3e9f337b
3f0305f8
3c6d2c66
bc181b83
3d86097f
3e89c92b
3e0113f4
3e26513c
3e4569ee
bf34f202
be6e1b93
bd42bb54
bb2bf080
bde40ba6
be046f0c
3e2f5c61
bc969a7f
3d8d53df
be016f07
bdb2a3e9
3e9b7e32
3e8d5078
3ec8743a
3ddcd6e2
b983f688
be168272
beb7e55a
be55409a
3ee5157e
3de1c090
3e76ccc4
3e533e74
3ed3e88e
3d7ff572
be4af1ab
3d98ddae
3ee1a88b
be6d46c7
bedb9fc8
3d87148b
3c6b0770
be69c71e
bec9e4fa
3d33144a
bdc6dd93
3d4bc043
3ea14080
3e226c9d
bbeeb4d0
bd7e2c67
bd89715c
bd57e327
be4ee5a8
bf541c75
bee588d0
bd373d1b
3e5cf139
3efbe806
3e5a4cd3
3de2e131
bddd67d3
bf1372cd
bea2aab2
bd772c80
3f888498
3f14b3f3
bf075c78
3d5b9a1c
bd38bdbf
bd8a2ec1
bfa5232c
be438cf1
bf0f2051
3eec737d
3f1a2a9a
3f093878
3eb385a1
3b3474f2
bdba353f
bf1a9c6a
bee9d3f0
bf44d15a
bec93eb1
3e349478
3eeb11ce
3d963f38
3dde1119
3e51d1e0
3df1486d
3e394eb1
bdbdb3fc
bdd5a578
3f5afca4
3eab242f
3e111b2a
bd14904b
bcbe5348
3bfc21e4
bf8ad136
bfb7390c
bf634a66
bef58b0f
be7545fc
bed6697d
beed3a9d
be85bd18
bf1a19d8
bf1e7747
bf4993f1
bf0a6a56
3d69e067
3e1105c8
3e4ddbda
3e4f46e1
3e6c2432
3eb32160
bd2450c2
3d391857
be000ca7
3d9e493e
3f18a797
3f0d7ffe
3ea97ffa
bd054d91
bd12758c
bc870e94
bd7b8d4a
beb0fdb6
bf0731a2
beead6ca
befb0e51
bf875f99
bfa215fa
bfc30433
bf926907
bf6111f7
bf6de3bf
befa26e7
badcdd40
3e56d38e
3ea5ef55
bd26ae4b
bdad81c6
ba633225
3b102414
3e70691c
be3ebc71
3eea79e5
3f70d22e
3e7e33a3
3ea86f7c
bd29d3af
3d476976
3d20b838
bdaff78d
3d18ca49
be717a5b
bec98ea7
bf5cc1b0
bf3ed060
bfa45435
bfadf454
bf8c9a10
bfbdf187
bfa5ae0c
bedd3c90
be561e0e
bbe7fe3c
3f2c8275
3ef9e330
3b2745f2
3c5142e1
3da901e2
3e835afe
3f159e70
3f4ef1c3
3c393440
bde12f25
be0cce8f
bc96c754
3c7f21d8
bcbe0baa
3ed42437
bcf775ae
3e4c6de8
3e9761c4
bea62229
bf17110b
bf1dacc0
bf3bc3e0
bf1ab50a
bf34d4c8
beced7c4
bce95612
be98eda1
bd8893c8
3e0771b5
3e88d8d2
3e963d1d
3ea57ee0
3f4eeaa6
3f05d034
ba517a7a
be030441
bda3ef5a
bc6f0827
be10f6f8
3d3e7a32
3cc1c220
3c3d3c08
bd50ada4
bd408125
3d099b3e
3bfed195
3d94b0cc
3dc7c0f5
3e128a90
3dc0741c
3e1112e0
3ec141df
bdf6dcba
becfb9c6
3dcf4746
3d062372
bf1d6091
beac9a23
bd49d75f
3e848d92
3f26be31
3f6311ae
3e189ff6
3e6b89b7
3e75f8db
bb3bbede
3cd91074
bcbc022a
bca04ffe
3a746480
3cc4c444
bc2b64e8
bd22ec44
bd0f2c70
bd218170
bb0dc10a
babb7629
3c95af87
3e0974fd
3e505542
3e0a9c41
3e83e275
3f0c70f6
3ef83cb1
3e8c00ba
3ed703f2
3e8488ed
3e3a9618
3ee010b2
3f2be9af
3ef519fb
3e91e1ba
3c2d62f0
3cec5e2c
3cf7f3a8
bd87d061
ba340bf1
