3cbda760
bcc22e0a
3c854bcc
bd581e34
3d7911f6
3befbc70
3b4ef100
3d9eabab
bd97aefb
3b1bc300
3cc5aac8
3b5e1480
bd4ee633
3cfd0f43
3d7a1c92
bce41e1a
bd2827d9
3d50b562
bd88e716
3c81f03c
3d31ca4c
bc5a1538
bd9e52e9
bd5522ca
3cb83388
bd7c7f70
3d5048e6
bcfd22fe
bcfd7548
3d82936d
bd9ba9ef
3d0b2126
3d87643f
3d30db74
bbb11190
bcd125d4
3d304232
bc8c052f
3e53112d
3e7ab04e
3dc5e5c5
3ec1b472
3e7ab24b
3e5ee12e
3e21aaf6
3e528758
3e447c29
bdc41f8d
bd989171
bdc85ce7
bce5220d
3d12638a
3d5ac0de
3d1d45c6
bc25b988
bc40d0e8
bd80172a
bd1f0f04
bbc9f2b6
3d127f96
bcd62054
3d3610de
bc227f96
bd14623c
bd035bb4
bd084994
bdeca84e
be68a274
3ee4443b
3f3551ba
3f36a35c
3f28127e
3de6a323
3d4176af
be5b1042
bee0c68a
bf00a6de
bdaee5a5
bdd90f27
3d164987
3db3b366
3ccfde79
3d89ad3b
bc8b4704
bc197f10
3ba71850
bd450227
bdb0a514
bda2d8f9
bd25162c
bc779ea8
bea6689d
be3a1195
3d77d33f
3f19cc6c
3e0cabfb
3ec7ef2e
3e669a9a
bcb772a7
be9b0224
bdb7bd56
bc90f423
bef48b66
bf823ca0
bf7283e0
3d92b223
be9d826c
beb683f8
beeeee8f
becab82a
bed7c3bc
bc64ca38
3bc36620
3c689310
3dad8911
bcfaaf3b
bd4ba329
be9e1429
befc027f
bea089af
3e8e6f92
3e6aedc2
3d9108d4
bd03a7c3
3e16eea0
3d280a05
3e5e8fdd
3d9bcc56
bec4a176
be95ad0f
3e7fc112
3e305157
3d93f927
3e4ba3c5
bf0e4599
be22f517
bdfc7dda
bf12c406
be7ea0a5
be84e190
bd639bd8
3d397d8a
3e11f67e
be004774
3dd1c2e9
bef5c0ae
bd2d0d77
3c9db187
3e3fd177
be2bc7bb
be60d2b3
be3eff1e
beaf2138
ba7b822a
bce9dfd1
3e3774e0
be279a99
3edf8f9e
3ece0644
3ec6744b
3ec12d69
3e602c92
bebc76e7
bf09325b
be86c8c2
be4de4a7
be82c73e
be50c05e
bd3f259b
3d42c13f
3ed40bf6
bca5bdd4
be1d881b
bf599032
be7f5a87
be7afdcd
bd97d0ca
bf0fd06e
bec29d02
3e0623c1
3cede4a0
be3435de
3e63bb65
3f57ecaa
3f05747f
bc291e82
be1526ca
be51a00a
3d2e2369
3e85fbbc
3d45766a
3d648863
be23de40
3e791f6d
3e9bd9aa
be946a5c
3b2e84c0
bdb20eb8
3ebaa9ee
bec4ac86
3e309450
bef0b62c
be700578
3e83ed41
3d738326
bedad615
bddfec50
3c114669
3de253be
3e081893
3e34a3ff
3f4645aa
3d17dabc
be9e8c36
be3522d6
be4f6e76
be4dfd26
3e8d4c3b
3e8bd182
3e659616
3e1921d3
3d258d19
3dfacdfe
beb52422
3d31336a
3ce970bc
3ea96fb6
be0da5de
bc99a978
bda50dee
be68e3d2
be13788d
be55d177
bf067c21
3ec2f217
3e8fd414
3e3ce42a
3ef6056b
bd888781
be8b5fc6
be28f9dd
be0a5d22
bd93823b
bd72d942
be97555e
bdc5277d
be3c53bc
3e3affe4
3e992a5f
bc297067
3ef61480
3e3cbd84
3c7bf756
3da587bb
3e64b25e
3c782636
beecb242
bedb2e64
becf1e43
bec29c31
bdd0b0c0
3dac7e9f
3e207fda
3d8d7b5c
3e641a01
3e9de82b
bebbbd72
bea4c43a
bd4e0ab0
bc998228
beddb502
bd2050a2
be278afd
be101238
3d452d16
3ed0b713
3e381e8b
3e0a7eb6
3c1d95d3
bf0a8a26
bc7efcbd
bd192bd3
3debb286
3a2dea62
3e118bd8
beb2cfde
becaee09
3e73a158
3ec043d7
bd6e5169
bda0eea5
3d44878f
3eb75bc0
3db6028e
3e46c9eb
bde4baad
3e0af8b3
bdfe22e3
3cb02fce
bec252d5
be655899
3daa5bcb
3e198cb6
3e7eb02d
be570a10
be3ae3d4
3e06adb8
bd3c52c1
3c82bcf3
bd94afa3
bd4264f6
3c4cc386
3ebe27dc
3ed934bc
be1a2bed
3eff0c34
be11763a
bdee7dd8
bd8cb988
3d90acec
3ded2a60
3e3e0b84
3eeb54df
3eada05d
3ed79261
3e0eadd7
be06338a
be149631
3e37f493
3d80730c
3e73163e
bd498c3f
be2b0541
bde8d986
3f3eb216
3e915914
bd93c05d
bd615fb5
be685b81
3ee685bf
3f202691
bdd7ad3d
be866307
3eba3a1f
bee12cd9
be46c125
be287b23
3e42129d
be96a74f
3e932d7f
3e9b5ec1
3de8a956
3e6c7083
3e39814e
bd805f8d
3e80045a
3db2f278
3e322e9a
bdc561b3
be94e09c
be1c8111
bef6fcd6
be06cafe
be79e251
bd8a6c81
bd8ff3b5
3e188d76
3f19a3e7
3f04acd1
be65a3d8
be705276
3cd4f33e
be13924e
bedbb045
bf0ea1d4
beb4d8b2
bdeaa79e
3c9a3f49
be0b2438
3d2ca703
3ebf1b9d
3e96df3a
3d5642de
becbc282
be3a53c3
bdd761b5
be313f0e
beeebf1d
be8ba209
3c371d34
3e272c1a
3d205e91
3c5d3630
bd1c5b67
3e1e38e8
3ecb30dd
3e561513
beeef141
be24b989
3de8af62
bec1e793
bea145d9
be3a2936
be8b5f62
bdd9a049
3c732b01
be6caf87
3e558d2c
3ebabe2f
3e84e347
bef22065
bf290941
be939bc2
bf2997cf
bf3fe1ce
bf0cf498
be8e7218
3e971878
3da61c68
3d06da4e
bd86ea4d
3cf84d8e
3e1715d9
be15f06c
3df5ea95
3d3a2048
bbd6a6c9
3d6cc6d0
be24aa9a
bcc48015
be135416
bd9b6d65
3d1e0546
3e343504
bda98f7e
bd64cbb5
3e931b87
bf02d41d
bec15893
bed7aaa6
bf00a369
bf0b3fb7
beaec78b
bedbe5eb
bf3737e7
3c8e67b6
be9a8994
bcacea89
bd3b70f1
3b48d934
3cd6d25a
bead63e1
be39c578
3d795997
3ded6a0a
3dd6233e
be1f6e74
3e3c2a95
3e80a753
3ee2ba05
3eac933a
be93f41c
be10c3d3
bc06a75c
bd466f84
bf22a213
bf21ce54
bf1c2080
3bf7039a
3d5c1e88
bdd61011
be6bb849
bf264ba4
3d551c7b
be8fec1f
3def7523
3d9779eb
bcfaa7cf
bdee6fc3
be7bc573
bd83cba3
3e28936f
3e8d94c5
3e218223
3ea6d300
3e393aa7
3e46f653
3e38914f
be26d333
be87db78
bcc7f481
bdd4167d
be02f46f
bf0212b8
bf24af0d
bf3b018f
be61b9b8
3e224b85
be2ac563
beb9fad5
bf6beb5d
3eba398e
bde0876d
3d3673a4
3ec9c0be
bd8dcc54
bdcddc2f
be172c45
be867620
3e09371a
3e9f0956
3e0780ac
3e432c19
3ed78b85
3e9bee23
be4326bc
bf15bdb1
bea47ea7
3e2a673c
be647b33
be57b42a
becc9015
bf21fae3
bf1ab7ee
bcce0dd2
3eff030f
3eae2379
be9dee4e
beebd322
3e94c027
be210ba4
3e119f82
3d979f31
3c97ef1c
be6a4137
be6bfd48
bec6163d
bdd9317e
ba9c34e2
be990ba1
bd02ec9e
3eda6968
3dfe3e26
bf20565a
be813179
3e06e88f
3d449aa7
bd1c6d01
bd0cbc23
be589087
bf079e6d
bec93cdb
bb890d4f
3f1f04e1
3e1a397e
be0d94d4
be88a9e2
3d17a526
bdf51837
3dda7cb2
bcfed1e6
bcad2e1b
be4ea904
3e6260da
be687b27
bd978842
be5bfd4b
3e9277ae
3e24a63d
bd8b1aae
3d4daf17
beda8e03
3e4772c0
3d118c9f
be9a75ad
3e40151c
bdcc372d
bddb23d0
be20c470
bda58b32
3ea915cc
3e92afb6
be04a8f0
3ee2b95e
3e34d3f2
3eb0a442
bddc1d14
3d8529e4
3d62ede2
3be0af7b
bc56c622
be7cfd40
bd0ce8ba
bea07306
3d239b12
3e5133a3
bd65585c
3e938dc8
3db4417f
bc829cfc
bcb4c6c8
be623610
bef1e931
bdeecb69
be56b418
3e3c1eca
3e88228d
3d49df3a
bd212d2c
3e666aa6
3de046fa
3f2fae8f
3f1a280c
3eec0ad5
3e38946c
baf8244d
3c45b610
bd88cdf1
3e61c32b
3e8b5c3a
be24ba0e
be8d7e76
3e2df6a3
3e2bdd91
bde54088
bdc47d29
3adf3181
bd1cfc0a
3d01c3f2
be3be880
3e0abcbb
beada5c5
bd60d93a
3e5a2dd4
3e4d9faf
bd8f46b2
3e6a21f5
bd453e9a
bec590f3
bd90b3bb
3e877b3d
3e85b5f3
bd31472c
3d83fcc1
3d5a951e
3d517ce2
bc92b66c
3d1e1ffa
bf3b4958
bf4b50c5
befbb2c4
bd8a6a15
3e67969d
3c95e5ea
3e3984aa
3d4903d2
be1ce01e
be8968cb
bc959c3f
3e0541a1
3e98bd6f
be774c6c
bf251891
bea3060d
be94fb34
bcce5725
bd05ba59
b98d5564
3e51a0b2
3e5596ac
be67de2e
bccb8084
ba991e00
3cb74a6c
3d156923
bec04fc3
befea12a
bed53275
3d7571a4
bdb0f548
3e154edc
be51bd21
3e1a3774
3e03bd12
3d814661
3e145051
3df33cbb
3e1a8f23
be47036a
bebe567b
beca580c
bf024640
be99478b
bd8fc2e1
bd8170ab
3ddd891b
bd8c48e3
3e3ce3da
3e178da0
3d747aae
3d10e750
3d5bb512
3c393453
be829d70
bef00b16
be3ddeb2
3ed4c457
3ebc1926
3de59484
be104dd7
be08ca82
be277f79
be8dd4e0
bea2fbc6
be60af56
bd2e2e0d
3e5a5749
3f294d3c
3efd6cb8
bdfb731c
3f1e1b66
3ef0b0f1
bdcb8728
3c70b429
be32f9a4
3e17afdb
3e4ba207
3d6bf06e
bd96e026
3bdc4ad0
bbd52880
3d8ecca9
3e60701b
3d336b65
3e0cb7ae
3e686d21
3eb9fe77
3eb7cd83
3d069805
3ebb9c3c
3d7f7169
bf4353bc
3e9fb173
3f606b08
3ea8f35e
3d1e4d01
3e16a05f
3ebe6164
3f8b42b7
3f3277a3
bea28405
bd230a5e
3e235d0a
3cf6b79b
3d026000
3d455b56
3d0ab1ee
3d3a73f2
bd7fcb79
bd906680
3d08886b
3cc155c9
bdbb0ce2
bda14228
3d24bb57
be1439e5
bede37c9
bf09028c
3f1479a5
3f50ad53
3f3261d6
3f3f03d7
3f6543da
3e967ab6
3d558292
3e50d9c1
3e14385b
be1724e3
be8b501c
bd85ec00
bd8d7af4
3d807635
3c6ee4d0
bd129178
bec21138
