3dcf8446
bea0428d
bddffd5d
3ddb9510
bed992d1
be08e417
bf2decf7
be270c03
3e713dcd
bf00c18a
bf68924c
bf63c727
bed463d6
bcea7cff
bf34e797
bea82158
be3998d2
3e2f9551
bda049dc
bd8d404f
bf2c503e
bdcf0d3e
be3cc468
b94e3dcf
3db8149a
be60c9f3
bec5cbc2
beb6d6b6
bf5a9e15
3e318127
be9cac2a
3e1952ba
bf1aedea
be965e27
3e2ecf42
be378fbe
bea20362
bf6c062c
be5c261f
be816c8c
bf8abc6c
bf6b8612
3ea1db29
bf1e4815
3d931c28
be92001a
3e41fcc6
be0285b4
bca29e65
bf55fb51
bee67248
bf57e48b
3e9ee4f0
bde54648
3de910b4
3e9d600c
3d214698
3e5ef4d2
bf7997d1
3d83f34d
bf134910
3e8dc9a1
bedecebf
be525d4d
3e564005
bf187f57
ba10c669
bcbcf7c8
be201800
bf1822ab
bed1783e
3eae6de7
be769029
3dd43ca9
3e03ef56
3d7b3424
bf4302dc
3da4dbb1
3e7215eb
bee39983
bdf6e712
be070810
3ed6e83c
3dd3ea60
bea11376
be0cf016
bf0649f9
3f03b860
beaaf405
3d223f28
bdef7f02
bf40b111
bf0916f0
be7de944
3eb98954
be233a89
3e3f1361
bede7544
bf0e6446
3daca18f
bd2166cd
bf080048
3e99a4c5
3ed8ee61
be1e7881
3e0ebd85
bf515f4c
bf812414
3e0058d9
baa12ec8
3dc5369b
bd0d7e82
be752d76
bf032b76
3e2d66b3
3e3de77b
ba98a594
3e0fe92f
becd80ca
bec0d1e2
be092c70
bf74e3f1
be63a847
bdd6ab49
be280b15
bf0479b5
bef765a1
befb7f28
3ede2c8e
