3d55ebaa
bd8a8499
3d9cff9d
3d9dfff7
bbacf490
3d593386
3d9d0f2d
3c4b7170
3c994c28
3cdffeac
bd68aae6
3d90b6ef
be678a80
be70539e
3d2285b1
3d8db68a
3d727a22
3d20a966
bda5f2d7
bd95137e
bd8749e3
bd6c6a6b
3cf2cd5c
bcf49b4a
3d86bb89
3c8cd328
3c8d9414
3d39c2ae
3d916583
bd04d881
3cf3468c
3d7a957e
3da13ebb
3ca83051
bd4b2c10
bdd049f9
be0decbb
bcd60382
bdfcbc8a
be1056a6
bef4cfdf
3e42d284
3f1255dc
be4ecea3
bebc4162
beba54ec
bed6d6eb
be0b2051
be790833
be2fbb0e
be870dbc
be6e2288
bd9f952c
bcdd6b68
3d964aa9
bcbe019a
bc0b7208
3d57d92e
3d852879
bd9808a0
bd4cbf2a
bdfbacef
be0c117c
be158d7a
be1ddbd5
be4ef5a4
bf349426
bfb3e1ec
befdafc7
bf00bb14
bf226b61
bf83919b
beb1122f
bd277718
3e01f887
bf3223d1
bca0b597
3e0e7952
3d351124
be3c8578
be1f4cbf
bd635f6e
3c9ea564
bd10c2f5
3d95a9ef
3d98c321
3c8163de
be111b6f
be1bd96c
bdefa8d7
beeaa927
bf32d956
bf62a9cc
be99fb8e
3ef9d765
3e8eb0eb
bb96fa16
bf90ce52
bf0e1f5e
be606162
beccabca
be221672
3f1d1c3a
3e625d0d
3e47b0da
3f2b11e7
3f853cb5
3f6f75ee
bec2358b
bc1d997c
3c5bc158
3d498d32
bd7b9953
bd4cbb3f
bcc7595e
3dfc8ed1
be792712
bd497e31
be6f3eb1
bf5e005b
bef41309
bf4ce2e0
bed35b57
be877564
bdadc0f6
3c86a68c
be20779a
3e9b9ae4
3e543f97
3e21ad48
3e27bf0a
be30d0af
bddab26e
3dc832d5
3f0b0c6b
3f498371
3eea99ee
bd23ce85
bf15e1b6
be00a8b2
bd23450f
3c065500
bc0c6e5d
3e0399bd
bdf0dad3
be503783
3dafe14f
bc8e18fe
bea63e2c
be72fa05
bdddef65
3e51535f
3dcf770f
3ddfe850
bcb2744c
bdac4e55
3b80b05d
3e15f651
3d803da8
bdefc8d3
3e345ea3
3d4b2ad7
3e449b87
3ecc1bb6
3e4ee6ae
3eca2009
3eeb4ca7
3d1484d2
bcefe862
bd8d9fd1
3f2d61cf
3e14eb7d
3ee07f84
3f1fc851
3ee2efae
be99b41e
bf0dc64d
bd8d4d70
3ea6df1f
3db98126
3e4ddfbe
3d812872
bdafc4dd
beb2dea4
be8eb628
bdb01290
bdf6b3da
bcc57dfc
3f05b8e8
3ea7eebe
3d430340
be5d2bf1
bee03954
3eff14c7
3f3937c0
3eb4a0be
3d177bd2
bd7df2a8
3efc5a9d
bec4a44f
3ee723cb
bdd2e1b4
be227a45
becf4d89
bdb07f61
be8d63e1
3d9a74c8
be298138
bded7891
bca2ce66
bac46846
bf0d25e9
bdf7e580
bdd3984e
beafed22
be3819f8
bd047d81
3dce6986
bd9ffc58
3d20f0ce
befa8eed
bd2de754
3f71f796
3f0ee142
3d8a8164
bda3ffa0
3e5e091d
be4194fb
3eabf43d
be1732da
3e69f769
3e40635c
be6944f0
be27c203
becfb491
bcd78a58
3c142d51
bb7c000d
be54d9f7
be11b05a
3e8255f3
bd91b06b
be219731
be929c45
bddf3a87
be32d481
3dc1febb
3e5e1bf5
3e41f5b8
3e85f6bb
3e8bb7cf
3e793bff
bd795490
bdb0ff0b
be77fc38
be97c563
bd89f5c0
be03c42d
3e74d564
3ee544aa
bd63913e
3e00747c
bd94a926
3db4d270
bda48430
3d648a32
3d9c235b
3e386b1a
3e568476
3e83124e
3e78bef8
3d55a4b2
3d85af69
3de68712
3c868ea6
3ebda3cd
3e8f2c0f
3e8b453f
bdb55866
3f09af0c
bce58223
bd1cf50a
be7de802
be818bc7
bea2fdd6
becf686d
3c88f59c
bea82645
be14891e
bce8d37c
3cf299f3
3ec4d16a
3e983fb0
3e8b8bf0
3d7acbe1
bd9e7742
3e97cd3a
3ea4873f
3de5739e
3de04036
bc786104
bdef99f3
bdd76f6a
bcacad5f
be6a0726
3e125dc3
3e346c07
3e156726
bd0d537a
bf54aa0d
3e25b644
be13be0f
bdac4b98
3de81c90
3e3fd754
becec4c4
be7db299
be717503
3d6e8422
3d8b071a
be568f34
3d780905
be519545
be7a11e4
bd0ccec7
3e1b2649
3e1f83fb
bd481f06
bd923e83
bda3f22d
3da6c5eb
be0f2807
bd54e28d
3ec3015b
3e36cd28
be37a480
bb8ff0a0
bd7ec33d
3e562cce
3e5f11f9
3e154f2c
bcb60c3c
bd174830
be5493be
beb6f4a3
be7410d0
3de4298a
be8ffd4b
be44d2d3
3bb746cf
be6d705d
3d0b5286
be1e6dc3
bdebc284
bec046e9
be86269a
3e99fbf5
bc9663eb
be230a1c
bd8848a6
bd9c722f
3f1bc456
3e8ab185
be8bcbd9
bd1cb0cb
3c6790de
bdb2029c
3e48710a
3ea15004
be3e2c32
3de85cd2
3dd867e8
bec2c2f4
bbb17fb7
bdce1cc4
bed17913
3df1deec
bdbfdfcb
bddc1a27
be679347
3bda7d63
be0f542b
be2bb713
be8bc617
3eb4dd97
be64a8a3
be88fdf1
beb2f765
bea4fb76
3e92fca0
bddaa216
bd7ab293
bd3f983c
3d75bd1c
bda226a3
3f305a34
3ebba6d2
be797869
bdbfde7c
3e87065a
3dd63e3e
3dcd93f3
3c105a83
beb5060d
be69dc13
be5bbfc8
be4029bc
bdd7c29f
bdf4ddda
3ed481b9
3d992f88
3d6b85a0
3d101871
bd452cac
befb7326
bf2a4c4c
bea1382d
3e1ea6c5
bef40ce9
bd92db10
bd62c84b
3c2727bb
3d239564
3f477f7f
3eae40cd
bde66fd4
3d6eae2d
3e3a2fa3
3ef85aff
3e6382ab
3de84fe6
3e47c278
3e9497f3
be776f35
bdaaef20
bdb2889b
bda2fc7f
3daa6897
bd58fd40
be36ab07
bd8d5d0b
3ec74527
be985237
bef4bd16
be8f28ce
3d373e62
3d2cc6d6
be540d87
bdcb2506
3b518100
3d454169
3da8f971
be9d3d5c
3ea2f302
bd279f45
3edb05b3
3e43b58a
3e64499e
3dfde98e
3e8cd511
3eac9210
3ee0ddc1
bde68e86
3dc6430d
be9f1367
bce10b36
3e786817
be405d6b
3e3494a6
3d3ffc8a
bdd966a0
bdb62a5b
3c1a2ccf
bea9372e
beb9fb02
bed07599
bd5aaf2e
bd03a4cc
3e28546d
bf39b401
bf4a32c7
bd466add
be9c6527
3f4a280e
3ec8ebbf
3eafdce2
3f12578c
3e127252
3eb0f419
3eeb4b8a
3e1f362c
3d81221f
bdda796c
3e73da5c
3e36162f
be3a1449
beaea2cc
be12caa5
bccbf53c
be0672d8
bebe478c
bf417e23
bf242446
bec02a09
bf0102c7
bdc76d58
3e52cd2b
bee4bbfe
bf3c9164
bec2e3c3
bed1db61
bf005376
be1b4713
3e7ac079
3ef2172a
3f23122c
3ee2be30
3e932bd6
bd18ae33
be20991e
3de430e8
3db631d6
3c1de9c2
bc87d665
3c3158ad
be905a68
bed211e0
3d1427a4
bed1bba8
be95d714
be32990c
bed4e70c
3ad4e200
be3228cc
3db72bf2
be511b3e
bf1097aa
bf04b2af
bf59801d
bf978aec
bf8e9db6
befa607a
beee2a9c
be126082
bdd54599
bd7b2672
bd118e6e
3e34350d
3df98feb
bd6365e6
3e422d72
3e83ddd6
be86c992
bd197d86
bf18713e
bf0dea11
bef0827c
3df9e75d
bed3746e
bda43a2d
3d81aadf
3d5868b9
3e93f2d1
3e36565c
bc07eca8
bf35f828
bf5e0be7
bf8e40d9
bf9d9f74
bfdcc0d4
c0093696
bfc08656
bf9e7bd1
bed7a2a7
be71c057
be253aa5
bd8febc3
3d43969e
3d9956b0
3e89d33a
be4a1a25
3d0bc8d8
be782b96
3d98707a
be772492
3ea0a8a3
be9818df
bd163a7f
3d8ef055
bd749dc1
3e9c1427
3cca4e8d
3e83d585
beadae21
bd818f58
beab8669
beb5feba
bd542df7
be65ac21
be85587b
becf8c0b
bf1d54f4
be56a60b
bde80155
be70d1ea
bcf24032
bd036131
be00cb97
bea21fde
3d91b008
3d51d029
3e1988a4
3ea3b527
3f309e48
3d1b5cfc
3cf34db8
3b0b4e60
bd7fa9e6
3e788795
3e6f7f41
3ea36f07
3d1df9a9
3ed68d0d
3e935d33
3e360f2d
3ee8971f
3f32dbdf
3f01aa2f
3e8258eb
be23556a
be3ad8bb
be00c00b
be7b3723
bd76cb21
bd4bcb4a
3d0fc8c0
beb94c5d
bb5205c1
3e79f313
3e952143
3eb5c8a1
3f46690c
3f353c67
3c862b80
bd83aa58
3bb6d690
3eabd993
3d0bf726
3eee6815
3e178dd9
3ecf6a7e
3deaea53
3ea8d189
3dfdfe7c
3f06881e
3e22d231
3d25abeb
3e06c87b
3e8bc62f
3e2affc7
3e246f45
3e09eb4f
3dccef7b
be3272a2
3d8ba38a
be86bb4e
bdc4bd83
3ed066e6
3f07b07a
3f1ad8d0
3f3426f3
3d893087
3ca1b0bc
bd9dbfc1
3dc35f57
3eca7c4f
3dcb5b57
3e705570
3ed35424
3e0c8871
3eb03f31
3f00dfca
3df40214
bc04c85a
3dd65b77
3e8abd7f
3ec49fee
3b158133
bd394ef1
3b6fb76a
3d031995
3c6a4925
bc9dc8a2
bc87ab6c
bcd277ee
3f388373
3f100a7f
bee06220
be97cc29
3cd2aed8
bd37069d
bc0279a0
3e8e9a2b
bd3b7d74
bf03f6d0
3f2ede17
3f064d86
3dc40944
bd6f8c9e
3e29ed8a
be06027c
3e0dc0e9
3d727992
3f079967
3e99f852
3dc010c1
3ed98735
3cd207d1
3eb931bb
3e89a8c4
bdc8a732
be007c17
3e8d9d76
3f0444c8
3f1cc508
bed47532
bed9e79f
3c9f4878
3d982ecb
3d570e96
bd9f0243
3d37df4a
bde94724
3f4a102d
3f5c3e80
3ec99e34
3ea2257d
be0c35ca
3eac3f2c
3eef2f87
3e0b2cc3
3c209ac0
3df32b8f
3e574744
3eee750d
3e2f2b4a
bf027b34
be998b61
3ed592a3
3f3027dd
3d0b055f
3e7715cf
3eb9bdb9
bdc0ac9a
bcb80eea
bd2df33d
3d9d88f7
3da1334d
bd89d16f
bc746d70
bd995bf5
be694278
be231d80
3d8f75ad
3e536a71
3e99a80b
bd01d5d9
3d179bd7
3f460260
3f2f6226
3edd7b58
bf13ca39
bea22a53
be9865cb
bdf78834
3ec5b6ce
3e9ea763
be1b8297
bdc54378
be862918
3d14f2d0
3d20ac60
3d974e71
3d39a4d6
3e6024b7
