3cc584b4
3d8e4f39
3d69068a
bd5dc24c
3d547c4a
bd8c57d1
bca2cd28
bce3257c
3c2c8b30
bd867cf1
bcb4f68c
bb8df7a0
3d5dc202
bd1e8a3d
3d07b9f2
bc8bb3a0
3d9dce4d
bd6d4af4
3c791460
3d8ea2f7
3d9221c5
bd4d559a
bd7663f7
bcaf0bc2
bd1c2337
3ccb6768
3ca217e8
3ce4df54
3d6ec13e
3b6dbf80
bba7e200
3aa926c0
3d94008b
3c7cb7c8
3c1b5a17
3d6c283f
3d4b93a7
bc31b7ca
bd8be917
3c8167a6
3d994482
3c7590c6
bda2e0ef
bded82f5
bd1b3c3b
bd99695e
3d6be247
bd9b500d
bd4ef0ea
bd7890b3
bd3c57d6
3cd4eaec
3da5a38d
3d7992e6
bcb0c6c0
bd5e586a
3d8a09f7
3d008d16
bc8c54f4
bd6a7285
bd5e9c37
bdb334ff
bd11b73c
bbde94e8
becc0468
bef7f974
bde64d95
3dc5682a
be585a41
bf27cb9b
beee55d0
be97f374
3ee29cd7
3ef6f5c6
3e65de77
ba2f6c05
3de6231e
3d3c90e4
3d16a386
3e149a46
bcfa12c6
3d2339d2
3cbd2758
bd222100
3a665a80
bceee3ee
bcf57cd8
bcff7d19
3ce4fa3b
3e387b14
3e045fc3
bdcbeade
be4f6423
3ee139b8
3f23a451
be81a845
bef691d9
3e493dcb
3e8d604d
3d81bee5
3daa7a5c
bf01d15c
bef0d318
beb91fe2
bf1da7e0
bf38c1ec
bf15bd17
bf31636e
be8b08dc
bc58938d
3cb7406e
3c0c0b98
bd235675
3cfcaeec
bda58c76
3dc2818a
bf2ae354
be388f50
3ba018e1
3e7f54c2
3cd0acff
3f1a6920
3e908055
3eac9df3
bd1c2cd1
bebfe753
bea7165e
bda5bbba
3e33b25a
3c866e75
3ba522fe
3e7fc434
3e5b4e22
3de56ef1
3eda67a1
3f173a06
3f3200b2
3f01ed57
3ee29ba8
bd0cf69e
bd7a2358
3cccd648
bcfaa1f1
3dcd1212
bd9fc257
3e3e4b3f
3ddfccb2
3e4bb42d
3e90f1aa
3e2d31b0
3ea208c3
3ec99149
3e06996c
bdf9c927
bdc3e421
bc8028c2
3e5c7d65
3f0bcf30
3f29711a
3c0767a4
3dec79da
3eac2c87
3f7b5326
3f518794
3eeb65ad
3e63fbaa
3e6695af
3deeff07
bd1d8bf4
bcf303c5
3eb876e8
3f10b8c3
3f3e41e8
3f110fbe
3ccb5ab9
3dfe835f
3e8f3f48
be3b9b51
3e1dc16a
bda4dbc4
3deedfd9
bdcc2b60
be45b511
bdeeb1f5
bd720337
3e46500c
3de13479
bea45931
bdc01f81
bd4ee836
3ed89254
3e437fad
3e9e3ac8
3ec0352f
3f103656
3d403047
3ca870d3
3d2b9b85
3e9110bc
be383c36
bd85b11a
3dae04f2
3e161c00
3dcc3709
bd206380
3ea96f82
3e9e106c
3e9b3505
3dda3cb1
bdd84f6d
bd89f395
bda2ea43
3e422e3c
3dfd6369
3ebfc5b0
3e9a4795
3e133eb0
3d960b32
be9ef57e
be50ace3
3e65eff4
3f38fcc4
3f006a52
3df62a27
3cb21c64
3d76cbb3
bdb8b799
be7a0624
bf4817a3
be1616bb
3d6aa7a4
be131b63
bd9a08ab
b96f7b9d
3e836051
3ee70361
3f0653f0
3e11ff2b
bdf7af95
bdebe8f5
be9c9f59
3e07d22a
3e5e0ef8
be2da4de
bafdf582
3d9b1713
be3c8ff9
3d8877b3
3eca4ebf
3f20db10
3eabf32e
3e2fb83d
3c548e1a
3d90f362
3e2bed19
3f446380
be26e1a9
bed2c18a
3da60b68
bd1c95cc
3de8caae
bd7b081c
3e7810a3
3f1fa54c
3eb20a47
bcd1aba3
be81e293
be991c60
bf2adc74
becb3d07
bdaba315
beffeb85
bf065ae7
bdbb5fea
be023916
be2931ff
3b68b5c3
3ebedd7f
3e14287f
3daf43d8
3d3573e7
3e2ec52a
3e6b8f26
3f04b5cc
3e57b514
3e5fe580
3dd1ce2d
3e1bd146
3e9077a9
3eb852f2
3ee88669
3eef73ef
3e12e7f9
bf242a99
bf24ff17
bf165751
bf176ecf
bef58813
bdd11721
be2f58dd
bf0ec33b
beb677a2
bcede35f
bf25bfe8
bf169342
beb49212
3db02e5a
3d850241
bc598335
3e4430ce
3e7f3804
3ccadd00
3dd4ee32
3e443e4c
bbcfc923
3dad877a
bd3618d6
bd4fd5b7
3e44373c
3e123fa3
3e33213e
beb6843c
befe6aa2
beaf582c
be2dc002
bd09a5ae
bd9c90ff
be261cc0
be36f59e
bdd7f86c
bebda920
bf15b7a1
bf0cb8ed
bf2c5e9b
ba85f65d
bd9b4ba5
3ddf9f5f
3e298d62
3de5efb1
be27a856
3e23f34c
3e52dc53
3dfbd29d
3e747c07
3e9b30e1
be73c8c3
3d2afa4b
3e859352
3ea365b7
bdb753b8
beb21908
beb4e02f
be00033c
be78a5be
bc7f0b9a
3dcb4339
3e898199
3e1625a4
beb535a4
bd9e88f0
beeb1563
bf41c6d6
bda640c6
bd1de3d8
3d658122
3e808af6
3e971baa
bd746100
3d8f46a8
3ef593fe
3df2265e
3ec36d36
bcbd3df3
beab6ab6
bd767373
bd5ce81a
3d73955e
b9ca4687
beec4e26
be3f4f50
be55a5f7
bd67c3a5
bcc569ec
3d583ec0
bc0096ba
3d4ec017
3dfa9106
be99fc1a
be62583a
bdffab2a
bd1e35fc
bdb060ad
3e23f37a
3ea788b1
3ee72b87
bddb8831
3e973236
bd19725b
3dc50dc9
3dfa2d3f
be0992f4
bd778f80
3e09feb9
be128a62
be06b7ce
be89f8ef
be81c7f5
be90cc04
be690ee9
bea66543
bd98a6bd
bd6d57c6
3cd38dac
be2f87c2
bc2e9cf5
3f235124
3d3f0a96
be590037
3c2a3d74
bddae154
3deb6c1f
3e2e7022
3e40b682
be19f4ff
3e92fe7c
be558b4b
be27f1fb
bea1bb8f
bf39d7c7
becaec2c
be5d55fd
3c32d6c4
bed9aaa0
becf9036
bef9af36
bea8ddf4
bea418c1
beee1fab
bd0c0c2c
bd7fd013
bc769ddd
3e11e8f3
bdbb94e5
3e96f52c
3ee14a25
be87e5a9
3c2f6675
bd8ea255
3d727ba6
3e664910
3eaadd50
bda5aa36
bde791e2
be475e88
be0246d4
bea38561
bf0833c6
bedfd49b
bf16113c
bf46c401
be9c3156
be58ce0b
be6dfcfa
3e05df1a
3d8d882e
be4c2e56
be393f44
bdf6147c
be233008
3ded9225
bd5dc667
bd6ec985
3ed2c342
bf284c4a
bf32d505
bda458b3
bd1265c5
3d742ff4
3da694ca
b8345f01
be6193b4
be938b6b
bdfc1f30
beec13d6
bf1a6c02
becd53a5
bf31edab
bf506ae8
bead6fbd
bf437143
becb7cc3
3dc4525c
be142a71
be727a49
be077e5b
3c4d0b42
bd937075
3e45e433
3dfb4565
3cac67dd
3f1fefda
bdd6b5d3
beb3123f
be22bce8
3d6ff4aa
bd66377f
3e04e7ed
3f5ae88f
3ddcf160
be7e89ce
beba5294
be7380b9
bf125b81
be8cc440
be74d550
bf278058
bf4e09d8
bf843e1c
beb3da9d
be5ffb5d
bea3fbb3
befb3518
3dfeeaf2
3cb1216d
3e59f361
3efa5b3d
3de929b6
bcb8cd62
3efb65d8
beb8e093
be914a1f
bdbae630
bb484c40
bb71a501
3f0c45af
3f50c1d2
3dbeea2f
be398410
bdd8d2bd
beb55766
be47d7fb
3c1fd14a
3e76a330
3eaa0a24
3e874c59
bebf6585
beadbf18
bf5cc1f3
be6684b1
3db55a4e
3e80f868
3e284481
3e3d31a9
3e963e9c
3dd030ad
bdd14571
3f239869
bf5497d8
bd94f6cc
bcf5d17b
3cf99754
3d0cb94c
3ec74ccb
3ebec99f
bedbd280
bdbce7aa
3e2117c5
be61cd0f
3d4060ec
3dab8f0c
be58c5f0
3deb1673
bd015daf
3df74b63
bef6619f
be98372f
bcbec8a6
3efb14aa
3e567aff
3c92d465
bdb84b2c
bd317cf6
3e80237b
3d87545c
3e9da088
bf273380
be0b1263
bdaa1505
bb87d9d0
bd9eee16
be5b0b36
bf2be7a6
3db68624
bdc4f993
3d46664d
3c95eb3b
3e1635a9
bd356ed0
3deec003
3d49be15
bddbdb91
3ec4d79a
3ebe2080
3ef553b3
3e7fc953
3ce53683
bc852edb
bd8ab47a
3de53305
3e69e9ed
3dc37e49
3e926923
3eb088d0
be345b2a
be52ce7e
3d9033c0
3d8d4245
3b9f87d6
be40e823
bf00f190
be505a99
3d386ca9
bed6ab90
bdf73cbf
3e8785e5
3d137478
3d23c60e
bd04a8e4
be450040
bd009fc3
3e9c6e8a
3ed6464d
3e7f04ef
3d1a9a18
3e65975d
3e334bfb
3d95d447
3df97dc6
3e326aff
3ee146a9
bf0b3a32
bf023e29
ba909d57
3d6bebfe
bcf6fbe8
bd0b9eff
bcfaf012
bd718bfb
bdc68b20
bd99deff
bde1d811
be30e0ab
3e704212
3e41afd6
3d93f6b0
bdb5261a
3e32a8b2
3e63e060
3ebc8bab
3db37dfa
be40f0ec
bd55e751
3df97b00
3d9639f5
3ec2a929
3f050979
be1c6c62
bf153f01
bf5278ca
bec296d8
3c43ae58
3b5b1f80
3b5dd040
bd3b7207
3da5768d
3dcea4fc
3ede661f
3e5d08d6
3e521092
3de7b2f6
be54674f
be44323b
bec0ca01
be862071
bdb8130f
3e9165f4
3e5891c7
3ed49efb
3df90275
3f09c0a5
3e0ea831
be2cda30
3e5f0210
3e5b1650
be9b9e4f
bf715537
bf62c9c3
be95c31d
3ca63c30
bd968484
3c5be8c0
bc639d70
bbb5a105
3df9990e
be909a28
be00f66e
beb0fc1b
bd03d526
3ed25bff
bde9435c
3e281b64
3f45b3c2
3e8343e2
3eaedf9c
3de30289
3f014267
3e6bd848
3e2722ed
3e028d1a
3f01e74c
3f0202f1
3ed99e8c
3ddf9b24
bed97b43
be8ce8c7
bc662b60
bd24fa92
3d1ea108
3d89fe8b
3ccc291c
bc99da82
3d98d207
3c1665f5
be1db127
bd835178
3b9b8bcb
be746d45
beb0945e
3c37d078
3f7f399b
3f57bd65
3f139c97
3eac6d6c
3fa234a8
3f30cd5d
be9ec61c
be298441
3eefd494
3ee579d2
3e9cd5ff
3e69bbd3
3d8ccde4
bd2e68e4
bc222278
3ccec5bc
bc0455e8
bda2e26b
3d6d7276
bc40c058
3c516430
3d275fb6
bd7f75f1
3c4d5626
bcd75526
3db54028
3daadafd
3e420b7c
3eef63a5
3ed047c4
3f23bfe4
3eb91962
3dee7640
3e905958
3ddecad2
3d10fdd3
3e8dba81
3f12ec43
3efdd6f7
3e7dd47b
bd0927e4
3d5f526e
3c987050
bc7da028
bd48e590
3e60083b
