be11dfde
3d95fb3b
beae2b96
3d4ab738
3f2b6a12
be086702
bdd02cdb
3e0ab233
bd6c1677
3e596890
3dd661c5
3ec0d1ef
3efabe7b
3edc13da
3dd6ed2b
be07199c
3ec3fd56
be04ca03
3d83a361
be8c6fbc
3ebc15ed
be327647
3e6bc379
be6a68d7
bde04a3c
be06d891
bf0b6014
3e342ef8
3ec3f165
3e943fed
3ebf5aa0
be5427aa
3ea3fe95
