befcc021
3d96bc26
bc52539a
3e0e34ef
bc1d386e
3e9b1302
be001eff
be5167b1
be4d43a5
bbd3275c
be80ec29
3d1f1eea
3e770384
be4b1323
3ea8336a
be229d32
3eddd474
bd5e8e20
bda5fe03
3eb19272
bf0dcff9
3ec4456c
3dda66a7
be7bb62a
3d747fda
3d714923
3e483311
3e9facef
3bd69a79
3e895e74
3ed97bee
bc297e0e
3e59b51d
