bcb5c9ea
bd848616
bd349cb1
bd52a040
3bf6b890
3baceb00
3c97b1e8
3ba04780
3d6b11fa
bb829a00
3c2a5958
3d048b58
bcf447f5
bd541548
bd9aa25b
3d69183e
3c008258
bd1aa820
3d43987e
3d20cf5a
bba29770
3d313064
3d7745f2
bd3a425f
3c9ead24
3d89e2c1
3ccf17a0
3ce9e1c8
3d8353a7
bda4065b
bd7669fd
bd82fbbf
3d569ea0
bd110154
bc8ef2ef
bd4533e3
3c56f360
bd3bd33e
be0139ca
bdebf324
be9a5f61
be7c6140
be0fa4e5
beb6a24f
be8e2b31
be994311
bc301a1a
be28c23f
bee4deb9
bec240cd
bec0c3b0
be87b1e6
bce13d32
3cbdcfa4
3d5e1a2a
bda4d501
bd7c739d
bd934132
3d0e3b92
be84857b
be4018ec
bdd80daf
bbbed33a
bd507ab7
be3e423e
bda385d9
3e1e926b
3e1155a8
3e0f0d92
bf37e41e
bf103b2f
bf075314
bdb9ca6c
3e7c4b13
bc87e9c7
bf2014db
be46fe93
be98d528
beacb406
bee67c85
bd4ac341
3d0e7807
3d8160fd
3cc2eec0
3d3439f6
3c1a8640
bd77a92c
bed608f6
bec0d9eb
bd9f4b00
bc86dda2
3d103697
bd9c4f52
3f265cd4
3ecee4eb
bd1f5f64
bea7c449
3de100c3
bf23195f
bf932a46
bf4a7492
be8f8cac
3def9a7f
3ed08c74
3eca5ed6
3e23ee5a
3e3d0f2b
3eeb310a
beee31cc
be9a432e
beededdd
3cbf2870
3d871e3f
3d8fa401
3d00a17c
bcf5263b
bdb73d49
bd8d45e3
be904a7c
3eddb6e5
3cd77620
3e872c86
be95e6cb
3e9b9d18
3e09d417
be8f1f1a
bed7ebfa
be747047
bdbeaee7
bef92174
beef4899
3e594279
bec97b29
3e9da6bb
3ed3342c
3ec007de
be41bc90
3e7f5c5c
3ee4d349
3a3840db
bbb40260
bce3c000
3cd71cc1
3de8f6c7
be808056
3d941582
bf2fa17a
bf90aac8
bf901035
be96c319
3be49426
3e60b0f8
3e896eb5
be48dd8e
be988d8f
3dcc815c
3e80fdb3
be1a63c2
bd5e307d
be1f0d34
bea399fb
bd09df9c
3ed0c1ee
3ea5855b
3eebdfda
3f243696
be661099
3d2e4035
3d1ae862
bc89c15c
bda7fb8c
3e845272
3dd03098
3dbb3040
be0e2c24
bea87b58
bee67d30
be935f57
beb6b0b4
3e84cecd
bc683ac6
bd9a0fea
3b062189
be76ff4c
bdb8c05b
3d57c2c6
3ce5e88a
bd3c780a
be815a22
3ee5c040
3ea98b22
3c3e5cb9
3d7d5c93
3f0a26f2
be322cc4
bde37d6b
3d8d85ab
3d3a6693
bc546bef
3eebf97e
bcc285ed
3e54baec
3e3f87a2
be485ba6
bef3c96a
3d7bda54
3ca59484
bd3bf009
be5fede1
3d871a51
bdf20f5f
be49e104
bd751d44
3d2c00b1
be7e5a04
3b91fc1f
bda7c5bc
3de1f7ed
3d02fdf5
3da8d971
3d56d974
beb18604
bef4c1eb
be73539c
3b21116a
3e81ea21
3f05c12f
3cc9afa5
bd4b09b2
3ea37f98
3df55d50
bc4dea6b
bd4cacbf
bdb1bf8d
3d162757
bdfc3464
bd8814b2
3dbe9ebc
be1a4f4c
be01a498
becb5f9b
be2cc1ce
3e252ee1
3de38735
be16c6ec
bca15a2d
bd1b6542
3c9d7b3f
be0fe628
bf3d27ba
bef09f5f
be12a711
3d2b485b
3eb435fa
3d658c82
bed07e8d
3e701fee
3db4a46e
3dc6823c
bdfd16bc
bd0a716e
3d1c0844
3db23ea6
bb29f499
3dbf9d68
3d057ee6
3db37748
3a69a8cc
be889ca1
be858849
bdf8c1d6
bbd35233
bd5d15ce
3db9c86a
3ecf2ca8
3ede5f8c
bf952c7f
bf49b120
bf449dd7
bd7db6c2
3dcb34c8
3e6870a4
3eb6e7b4
bea4399e
3dea0634
3d5df0cc
be1f2258
be9a63db
beb27976
be4bc4d2
be317f71
be1ebfdf
be02cb10
bd9fd067
3e76346b
3df0787b
bd548592
bd1a8526
be989d72
3e9f84bd
bc196b0d
3e6324ad
3e484b4d
bea2ce76
bfb30c11
bed8bca1
bf5ae9a4
3e2dd66b
3d4b64f3
be1b8436
3bf55fda
3df03b61
3ee2efb8
3e351b2a
bee9411c
be3d78bd
ba59af2e
be3edf54
be91650a
bd2a1471
be63f28f
beb610c4
3d825b60
3e564447
3e6e12ff
3db5881a
bf0aa9b4
be20f6f2
bed066fa
3e429212
bdf22454
bf4b134c
bfb6f5e3
bf1b0629
bf3558a5
3ecb3592
3d2f05ee
3c113889
3df9f703
3e61eab4
bdc5f0f6
bf1f1100
be8548fa
bdf24f27
3ebb3d28
be042c48
3e1be953
3d8cad11
3e71bf71
3e4eaf40
bd0456ae
3ecf350d
3eac442b
bdcfb7e3
3dd95fdd
bf05bbaf
bdbd9577
bef0ad3e
bedb2023
bf0fa72f
be914c07
bd8cb4ea
bec05775
3ee23b2b
3bdcbfc5
3d4b2213
3e7eb87f
3e125dfe
be8125c5
beec2330
3dda8a23
3e7fdb7d
3e10f2d5
bc1bb1e3
3db8b1c6
3af0d525
3bece3bf
be99ea21
3dd064fe
3e886e5c
3e3730d5
3e53895d
3db2d972
bef6a85f
3e0bc397
bdb5f9ac
bdfb6612
be4e02fe
bd3af37d
bd2320d9
bf10832c
be1a529f
3d3163f0
3dec4975
3e4d0cd9
3c93b245
be4a6e06
bea2c804
be92afad
3d9bb208
bd30fd1f
bd31adbd
3d5c997b
be09b0cd
bb595948
bdbd48dc
3eb14d0b
3d99ebdc
3e7cc530
3e8c87a4
bea6f822
3d416e94
3e0eaf03
3e7ad7ff
ba268d8d
3ee0cca1
3e692bed
3d39c2c5
bf22d953
3d336da4
3c606d3d
3d4eb116
3e84ef4c
3e897313
3df15b67
bea55293
be55bdff
3ea0aee6
3da304a0
3ddfc6c4
3e3ff44f
3df57512
bd9d41de
3d1d4ca4
3dfceca3
3e4b31a0
3ec1038f
3ee87d46
3dd14333
3e564420
3ec679c6
3eb67993
3ebbb4f8
3f3374da
3ede2daa
bc299d2c
be991800
bc91fa4d
3c6b675c
3d9ae1a5
3e050d47
be9accca
3e0c397d
3d985958
3e66e8f1
3ebe3d68
3e573b9a
3e17d2d7
3d268577
bc4427dd
bd128a81
3e0cbbc5
3e8bfffe
3e8c3794
3f14f04b
3df89147
3ea7ec2a
3e32ac3c
3f259489
3f0871bd
3dc4a7c3
3ea4ddbc
3e5723a2
bf113551
bf6c9b60
be600954
bbae7cd0
bd7b83f1
3ea7fbc7
be0490b7
3ea66c81
3e28a269
3e8d5d16
3e028c37
3ee92237
3e28ef09
3e0e3578
3d1a7ec3
bbd48632
bdc40991
3f003dd5
3e7449c1
3ea4a020
be80f38d
3cfe31d9
3b4fc912
3db64240
3d2c478c
3d3c3a92
3da59814
be84e110
bed02e11
bf2a29c2
bf037e76
3e9a730b
3c771d23
3e7f4dd9
3f0b1ce0
3ea766ce
bdcb4952
bdfad9fc
be0e7ff2
be1b0123
beaa4ef0
bf1d0a61
be686a88
be6bab4c
be0317da
3e196469
3e36104b
be7f2a50
be506682
bdbec9dc
bec6014f
beaa6be9
be00211f
be0c9da0
be95d8d7
bf27441b
bec840dd
be7f6b0f
3cd9a4c1
3d876be0
be9fa23f
3e02311a
3f6b05ef
3e86624e
bf132f55
be9aaf33
bebcfb2c
bec3fa59
bf049c52
bf25338e
bebd1863
be785e17
bd11d4e8
3e436af8
3dba2ef5
bef5121b
befb3a96
bf2d5857
bf4d780f
bf939463
bf3ba44c
bf26b77f
bef8d1fe
be9860a6
bbcfcdcc
3b99c461
3f05ba92
b98a0d00
3a5d73e6
3d87ed03
3d2a9720
bcb5a83a
bf0f104d
bf2ac201
bf02306f
bf0647d0
bee52aff
bee23739
be952197
3e087be6
bdd05611
3c2ca808
3e0abcee
be0f0195
be46b9fc
be91cbfa
bf06dd8a
bfb7df69
bf8ea2e6
beced6ba
be1af5d8
3ee23b85
3e71c30b
3d17a8ea
3c50c551
bd1fd508
bccf9092
3cfb0a45
bf37d424
be5c5d1a
bef61199
bf186ee9
bf01dfdb
be4ec541
bd3d994c
bc0d8f33
3d473ceb
3e950b32
bc7f8563
bdd5601e
3c367b8d
be674965
bc4d0767
3de1f0ac
bdaf0337
bed52501
be924f4c
bf5709b6
befa8373
3f02f638
3df571dc
bdadfc1d
3d98303d
bcb8de41
bd7b7cce
bdc0f622
beed2324
bdf885a0
3d7defe4
bd68661e
bed7e654
3cd79d10
3cf16df5
3d0adc8e
bd8c9239
bd931fb6
3e102078
3dacbde3
bdb9a65f
3ea5cca7
3e2099cd
3e76ac54
3f030339
3ec00e28
3ebfeda7
bf055b64
bd25c6c3
3e409e99
be720160
bb454e4e
381ef800
3d8d7287
bd7ff395
be63921d
be5baede
be998628
be92ec1f
3d3c2492
bf2e3332
bf172076
bde3b54d
3eb4cf13
be60ed43
bc6f1b17
3ec4cc58
3e9b359b
3df61a1e
3e8e0a56
3ed6823d
3eb233a8
3ecfd010
bd119e7f
be7f30f4
be05a2cc
3d810430
3cf6b8f7
bd65ae38
3dce6a9a
3d390ad6
3d7618e2
3d9b4f75
bd9e81c2
be75c023
beb06b21
bd8de551
bee6c1c2
bf253773
bf508fc8
befe0fba
3e331424
3e3973ed
be35d274
3d99bfe2
bcf5fdbb
be988575
bef41cfe
be5657c3
3e147dc2
bdbe6fe1
bb8fd5ec
3e3be323
bb1b6610
bdbb4654
be221bf0
3d8c6ab0
3deb2519
bd2b9ba1
ba9893c0
bcb1600c
3d1e6ea4
bd059683
be96cb69
be7b5939
be88498e
bf2ffcc4
be2e17e4
bd32ef81
be8cf0dd
3e6368e5
bb91607c
3ddfd167
3edde5ea
3e0aa709
bdcc7f60
bf1fa26e
bee35353
bea4ec80
3c5ce895
3ef6364b
3f05a721
be23ad39
3db03ec2
3d2ee8b8
bcf7ce30
3c193d98
3d68246a
bd8bb428
bcba52c6
bd669f50
3e366cd7
3d3ec9d0
3d56126e
beb7917d
be017942
3e67f59b
bf1f2fcb
bf0ecf09
3d77795e
3ec9cd00
3f03e803
3ea7091b
bcec3e53
bdbaabdf
be326a53
bbe9e785
be71d595
3c5aa340
bc29f776
3df9e0f8
3e09706f
bd339138
bb9d9a70
3d380882
3cafe5c8
bd8dd45b
3d5a1212
bd8ba8dc
bcdd13c7
3d995695
bd65da8f
bd6c2595
bd2cab5a
3d671870
be1c72af
be9430dd
3e1a07ce
3d7f1887
bf34864e
be9d64b6
bd54ff2a
be0b9ad2
be0c8b1b
3e184446
3e624e66
bc335edf
3c745827
3cb5c72c
bd001c6d
bd9955bb
3d94ce3b
3d81de6d
bf3b5f03
