bd9d6e1e
bd95a4d5
3d0b62b0
3da248b7
bcd30d2e
3d827fbd
bd16cb7c
bd1b0c70
bcb308dc
bd64b5ba
3d31c978
3d51e6da
bdf6d68f
be03caa1
bd46160a
bdc4f0c3
3d8b0de3
3c782420
3d918fe9
3d2f29b6
bd3a5f3f
bc8a1134
3d97ebfd
3d1597b6
3d888671
3ce1955c
3d485f72
bd6fce14
3c1131c8
bc23c0a0
3cb04c1c
3d731c9e
bc8457e8
bd78f625
be88786e
bea5fcce
be7b97b7
bd9b3336
bdc241fc
be363850
be80b580
be69d9dc
be18ec99
be4659a9
beb0aff6
be838fd0
be2b6389
bd01f020
be7464b7
be290ba5
bdff8192
bdc3ae5c
3d9cda5b
3cf38db8
3c7bca70
bd4b72ee
3bc16df0
bc7e6d20
3d49f706
3d2b3316
bbdbcfc4
bd72c452
be3d5166
be97736b
bea8d8d7
bed1ded2
3df921df
3e69d484
be9c04b0
bf1e2ab6
bf5d5fc4
bf83a416
bf49480c
bef4a98a
bf317ce8
bf3aae73
bf0c513c
beab0a2b
be931efc
be850f6f
be255109
3bd550f2
3b943a80
3d0e18b2
bcb2b53c
3d08e158
bdcd978c
be6396dc
be5fb299
be9e320e
bf1f751d
bf4f9e7b
bf61f84a
bf320a78
bf0ef18c
beb09518
3dfb2bb7
3e032fd9
3eebd8a6
be97b5de
be35acda
3e361418
3f0bb6cc
3e93e0f9
3dc7d5b9
bf3a3715
bf3a3af9
bf0c56dc
bee476a5
3cfdb0d6
bd30c3ed
bb9b0ef0
bc02c1f8
3ba9ff31
be86ca66
3e85ec13
3ebe2aaa
3e4c5bb8
be3e1c1f
be71b90f
bf1d60ad
bf670583
bf97541e
be8c19d9
3dd46157
3bfdc59a
bc8638cf
3e7f00be
3e9aacde
3c82f6ae
bbebc5ff
3e51f5e8
3ede5c76
3ed4811d
3e12fe1b
bf4a07fe
bf7edf11
be417f3d
bda10c4d
3ca6b1d0
bd9db396
3d891b3f
beb82916
bef4dc99
bf74339b
be2152f4
bdb2ef95
3e505724
bf12747a
bf466206
bf00d112
bd89c26b
be85a08a
bf580bc3
becb5d82
bee57317
3e1c70f2
3ec12cc4
3eabd27a
3f04d91c
3eaf235f
3ead8d84
bda15afe
3daafebf
be7b4b16
bf15cabe
bed664c7
3d1f42c7
bd1bb742
bab5b5c5
be810d13
bec7e46c
be4b67a3
3eb39b91
3e9eeaca
3e558257
3d246beb
3ef60f4d
be87de2f
bef50e38
bedab0d4
bf73e5b6
bfc93b05
be4f25ca
3eabdad1
3ede3bde
3e58bf73
3ecc1518
3cdfa35e
bc09428a
bd8b2215
3e892969
3e9e7a7c
bf0ad95b
beaf51d1
3d9d102e
3d43fb14
3dfea16d
bbccc862
3e54c668
3df91bef
3ed4482b
3e916be6
3b9208f6
3e6d2b34
3defedf1
bd5b2845
3b935c6d
be7e7877
bf78d2bc
bf893d91
3d0166d7
3d05d1c8
3e35940e
3dc0bdcb
3ea6d2cd
bd1b3189
bea1e6e8
bd1f5a7d
3eba9667
3e5ce657
bf17b5d8
3da7a1c3
3e03b895
bbe8d16a
3c73937f
bd94d804
3ea8e2e7
3ebd240a
3e968a06
3eabe14f
3e9f7eae
3e813a73
3e93e5fa
3d7980b6
3e3b0bdc
be306157
bf4316f2
bf18839d
3e258d13
3e418f7e
3e3d6ffd
3e17f4a2
3e66c583
bd8df94d
be343d7b
3d0b6436
3e6e1df7
bef9b50e
bf297810
3a11a20f
3e117217
3c374271
3dc05fea
3eaa1d59
3e27f56a
3eb13d43
bc82137c
3f11a839
3e640036
3ef887f6
3e572deb
3d967746
3d2f2621
3bcb0667
bf37a97a
bf0fd884
be355277
3eed813d
3e82e578
3e5327b1
3d0b535d
3d6e4afa
3ddae827
3eed35e1
3e6aa103
bf70e713
bf3f8ac8
bdd126be
3d0dbbcf
bce2cea7
3e4dfd23
3efe172e
3e3e5517
3efa81ba
bda32f39
bdaac999
be0c0cc2
3e9bab9e
3ec1b350
3e0b1482
3e9be1a1
3d156928
bf25836d
bf0c5147
3ccca76d
3e8c2d69
3e927043
3e333c87
3deadef9
bdb1ed73
bd2f54c0
3d4153bb
be8c828c
bede5646
be976eac
bf2740a7
bdce0483
3d4d4172
3e7d2d42
3c5b2bef
3ef2b0ed
bd8305ec
3e07da51
bc65eb7f
bd92546f
3e7a6ae4
3e4745bc
3e1c00d5
bdb4b0c5
be392d9d
beba476e
bd1d212e
3d90c3b2
3eb4d8c7
3e8178c8
3d77e727
3d499397
be2914cd
beb5a194
bef6edc2
bf23dc74
bf91a2e2
bf2d609f
beb47fa4
3b8da697
3e1c3cd3
3e922a83
3dca037c
3eef6914
bee7531a
be60380d
bde3f143
3dc38b3d
bdec691b
be83ac91
3e711eae
3caf1bcc
bddb0c26
bde4ad90
bc8c29ea
3ef8bc73
3f041af7
bd461e5e
3d76567c
3d64b982
3d0b2e76
bf09293e
bf85e1e6
bf48d328
bf491f7e
be873f50
be5fafc8
bde5a9f8
3c2c8c6a
3e20c678
3e6ae22d
3eb3ad78
bf3cac9a
be3fcebf
3e0f4957
3e3bb3f3
be4f6169
beccdb45
3d88b694
bddd67c7
be5b5152
bf047244
bddc4ef1
3ea93cca
3d922334
bda58057
3d89af4c
be37dc6d
bee50f4e
bf2c8e4a
bf268edc
bf9c4ce5
bf567364
beee2d0e
be5cd710
be3178e9
3d0a04d6
3bf9022c
3daaf4ef
bb86d015
be1a9ba6
3e4a4b32
bc3988c3
bdc70bcb
be7765d5
be4d5941
be1086b7
bdbedcac
bea558f9
befacd89
be86dd35
3cc77d9e
3e04bb68
bd0db9c9
be80f130
be997f26
be2a35f6
3ee58805
bda8eca0
be16500f
3d04fbd3
be9158eb
3e53d340
bb295dfe
bda1cf37
3bbcd094
3ef34760
be1fd72b
3ea8bb4a
3d8bd745
bdcf849f
3e22e4a4
3e9745e8
3e81eeb2
3d658817
3e46748b
bdbbc766
be8229d3
beba52b2
3be8fe22
3c232eec
37583d1a
be0f0b98
3e2585d7
3ee3af14
3f28ac58
3ec4a9fc
3e378d21
bbcb93f7
bee440c3
3efff6f1
be37353b
3db49d44
3d55077f
3ece7397
be16f544
bea2790d
bdb98933
3d340369
3cc7eae2
bc703821
3e18fd0f
bd3ed581
be43615b
3d623ccd
bd8d0a65
bebe0a2c
3da7ca25
3d833e1d
3e5a874a
3f09211c
3f304aa3
3f010f7d
3f0eff39
beca4ccf
bd96d236
3ed5218c
bdfd4161
be2c6fd4
be34f3d5
3ccf0638
3ca04ae5
3eefa989
be53a8ba
3d4c4047
3deae507
3d8a1e38
3e46d105
bdef48f4
bd899782
bdd60205
bba6afd5
bd9ec228
3db023c5
be39d6ac
bd425b97
3dd16403
bdafb2a0
3e7d9da8
be021087
3e98b456
3e8e4472
3dc398ef
3e9bbc35
3ec419b7
3cfddbef
3e24c632
be33f2f3
bdb2d316
3d8163d2
3f10fdec
3edbe3f7
be0b3e84
be8afbd4
be67e9b0
bd702a75
bd5a1c22
bce87681
be76fded
be08219f
bddfb497
3e9a3c28
3dbd9482
bda20976
3d232fea
3d526a18
3d4644ff
bebcdf66
3ddce63f
3e13e7d1
3d9c4d40
be891dc5
bea000af
beece1b3
beab8c69
bd4d3f5e
bc86a18a
be31d22a
beb04e82
3f349962
be8117f1
be62c437
3e00dc06
bc18f720
bdd61469
bd267f3b
be4a272e
be7de921
bee3633b
3e426e4e
3e25170e
3d698ede
3d2999be
3e070161
3d00dbef
be3f5944
bb26fb0c
3dacaf65
bf175b69
bf34465c
bf14b9c4
befc15b9
bd302cd1
ba466427
bc168d48
beafa961
be96ee78
3e7301b5
3dee0134
be41a257
3d995f26
be4f8681
be95b836
be71bfd0
be584ed2
be37ab36
be708717
be0e3e6c
3e47c09d
3eb7b60f
3e2d2953
3daf35e7
3d8cf99d
bdeae139
3e669a1f
3c3bdb0a
be57da45
be4cb8e8
bb2ffa2c
be9f5858
3d1448b1
bd8ba9b8
3d2577f7
bccec2ca
3bec70a7
be8bd03a
bd0c922c
3e3ffabe
3e21db10
3e253f5a
3dc8aef4
be93f66a
3db9ffc7
3d515da6
bd982b18
3c596061
3e9685d4
3dd1661a
3e5c3040
3d448b21
be4d55ff
beb07980
3c9a998d
3e85306e
bc01e622
bebea635
bdb73188
3e5e890b
bd0a61fd
3d11a5bd
bd728f5c
bc437f54
3dadac70
be4b9b27
bbb06315
3ec21d9e
3e9aea32
bc30581c
3d2079f5
3d5b2d9e
bca3cce9
bd58e826
bef78d94
3e239e53
bd8676c9
be11283a
bd7edd71
be29b3dc
befa73f3
bead3fe8
be119025
3eaea12f
3ca24b38
bf45bf15
be8a27c9
3ef8a33d
bd9c3aad
bce5cb68
bda0eb06
3c9cc114
3e4b6cf6
3ea4cc5c
be8872f8
3d8d3d66
bdc486b5
3e015ae0
bd8df65f
be00f2fd
be6cad8b
bee94bea
bea8cdc1
3dd45e1c
bd5c4160
bcf9ac58
be630125
be103936
3c4f2ab4
bd43393a
be53cb4f
3e6c1de7
bf1be147
bf65965b
bedf5564
3e3c3035
3e3c5990
baf2b040
bd1b72cd
bd2b26fe
3d0ddc3f
3ed879b2
be52a165
bea83a1c
3d618bc9
3d42bdcf
3e1523e1
3f02bb80
3e75553a
3de64cff
bdfbb67f
3ea85521
bd2a536d
bdd0d0d2
3df27d8c
3e06f828
bb9dae91
bdfded5b
3e7d218e
3da72357
bf0a5548
bf3c5f47
bf1b2c9b
bc2fa421
bd34a4c0
3d6fd876
bd04be58
3c642058
bd003c23
3dc09a41
3e8c8ab0
bec9d308
be0b7277
3dfd445e
3ef4fc3e
3e7ccb78
3c9f9266
3ea7ab95
3e81acf0
3e833018
bd8c6926
bd5b00ce
3e37e3d9
3dd5eda0
3eaf5d35
be10e29c
bee1d2e0
bed79179
bf473bac
bf5b4b1c
bed34864
bd3fceca
bc873c9d
3cfd1874
bc88cf48
3d8ac41b
3d41fd5a
3da530e8
bca785eb
be94a862
be63808f
bd73bbe9
beb105d8
bf3f8f44
be253f88
bd98cedd
bdb3f022
be7c2a57
bf0dfcd5
be526363
bca74e7a
3cae6773
be806e7d
bf3c2751
bf9d5150
bf43cc92
be286877
3d0d1cad
3c7c781b
bc9729a4
bd3730bb
3da46e71
3cae4228
bc98f766
3d129fa0
3bba12e0
bc306a09
3d23fa44
bd2d3a58
bcb90502
3cdf3c55
3ece2292
3f2cc77e
3f06032d
3f016a8f
3ed8cfc8
3c7369f4
3e20193d
3df6cf6f
3ed7d2a2
3e92ac21
be33567d
be7ff907
3e248792
3e0d9b2a
3dd24b42
3d9fa3eb
3d1778b2
bd9f635f
bd7cb46c
bdadd391
