bf00b653
3d1c9582
3e8486f0
3ca3e106
bf718d1f
bda7bef5
3e2ab5cd
3f21ef2e
bedc8a24
bec1e428
3d1f47f2
bd99ab46
bece8047
3b20aa0d
be384728
3f11c976
be51de37
3deaa769
3db008c1
bc07e5ea
3e50d90c
3e895357
be9d5571
3dbfbc58
bed2c919
3e19f325
3e9d8a50
bf070ad9
bdc095c5
3dfe778a
be751365
be915956
3e944dc7
bed222ec
3e82e577
3ef8c693
be82b89d
bdfd0209
bebbf5ca
bc91c88b
bf4c4c96
3d2548bd
3ddadd1c
bf0cd12f
bd895ee6
3e7a318e
bc3cda22
3daafcd9
be1f1d27
3dd8f29b
bd5dae8e
3e36c74a
be1240cd
bd8334bc
bbf92ad3
bf407d08
3e36d03c
3e3001cc
3e8f33fa
3e32b29d
bec8d98c
bbbcf2f0
3e77762f
3b652dca
bef1c405
