bd0b73ce
3d36fd2a
3d7ae28e
bd09b127
bca6a776
bcce5e7c
3d1815a0
3d4b7186
bd7b819a
3d1ecf00
bd0744b7
bd8ec86b
bd824fb8
bdc37572
bdd3e1a1
bc717d62
bda36dc1
3cdecc3c
3d253f16
bad4af40
3d728452
bb7abc60
bd0aecd6
bb68c480
3d18f494
3cf9883c
bc9a8a28
3d92f093
3d5801d6
3d394262
3da3c1a5
3d6f0c0a
bcc8963d
3d8d6936
bd12fec2
3c60860c
be00f55c
bc9d4cae
3d23b597
bdfe7cb8
be8a4474
beb021db
3ca3ddba
bc9a7684
be52b091
bcf5b5bf
be247355
be3ef2cb
be769a14
be6d8617
be439085
bddb1e56
3c688190
bca8e51e
bd449db2
bd916a0e
bc273598
3d37dc56
bc4e6a5b
3d63915e
bd5edece
bd8c3472
3d4b1881
be5a9c16
bdd9cd2a
bd947bc4
3ed381ee
3dd9456d
bf15d5c0
bf5c8815
be0f816e
3caa9e1a
bd4b425f
3d332331
be87b0da
be610918
be97bfc9
bf0c8bc0
bef21c79
be18fa6a
bd03078c
bc29ad3f
3c6c3fe0
3d8fe365
3af52ec0
bd5976d2
3e334378
be1452ae
be9ffb07
bdd6c115
be10f15a
bef480e5
3e580255
3dcf5fdf
3ef7c90f
be2f80b3
be41afb7
beb9b4b4
3ea98904
3eefbbe4
3ea10ac6
3d7a76aa
3cdffcd5
bec8f28c
beb2d475
bf4dbe6a
befec34b
bf6eb970
bf0e79e4
be2a1b2a
b82aa501
3cd74cec
3d3712ba
3da51409
3d31163d
3eb31801
3e290ccd
3ee81635
3baeca56
3ec653f0
3e5b4301
3ddbcdbc
3e0860ca
3cc11f3d
bd9d1011
be8fa1f9
3e183793
3e8e7f07
3f18ae4c
3eb995a5
3e473b36
be6a4035
be54fcd6
be99ffae
be4271e3
bf42c5ab
bc9eb466
3ed5c524
bd35a99a
3cd32784
bc5e6550
bc0a2910
3e2c7ffa
bf1695a7
bee705d9
be1d43a3
3dd7b3b8
3e7cde0a
bd0ac9c2
be030c89
be4ad073
beaa689c
3e965931
bb5b6ff4
bdb18fdc
3d7e6d5d
3dabe2b9
3e95323e
3e1fdb47
be1e69db
bd91dd6c
be612e78
bee9786a
bf2a6fca
3d92f117
3ec1f2cb
be02afd6
3ba7fab4
bd9cb849
3d9e3224
3e804b6c
be6e344c
bf0c55ea
bca6a68b
bdafdc80
be35ee2a
be491d11
3de4b971
3e3b5830
3d87193c
bde94fac
3dc408ba
3e54a4af
3ddd6ab9
3e1d1244
3eabc25c
bd230922
3dfd9bfa
be529180
be465595
bf5225ba
bf3e6cd7
bf033263
beba1424
bde44e8f
bda7c912
3d22a8dc
3ec16a0c
3ea99bcc
3e2747fe
3e6076dc
bcfef43b
3d9ce78e
3e2298f8
beaeaa02
3d8ebac6
bb9a163f
bdf8697d
bd8503b0
3e2629c8
be711768
bdbb080d
3cc91206
3ed333f7
3e48234c
3e96f3db
3c6fdcb9
bf08fb34
bf7cc317
bf48a22a
bf043e19
be991baf
3c12e2e5
3b95c36a
be05940d
3dd16218
be4612cf
3e171cd9
3e8e14ca
3c8adb35
3ea9e900
3f0221dd
be659d65
3d9041ba
3e0dc63f
be82f81c
bd8f3d09
bec0d25b
bf1bb1d0
beccca34
3ebb2ac9
3ebc124c
3ed21a4b
3f1a66f5
be889160
bee961c9
be9240d8
bea9dcfa
bf6b6518
bdc07e07
bceeeba0
bd136256
3cc6cac2
3e13c358
bc832673
3db09d5d
3ea51a3b
be586982
3e479939
3e1943ec
be7cf7ad
be13b818
bf110a84
bebf16aa
bea470ad
be3c6b4b
bca889f4
3e126bd5
3ef904ed
3eee9091
3e4e116c
3e5f56d9
bef6d81e
bf24b29c
bedc069c
bf032725
bf6160f4
be8f1187
bf0aebc2
be9e3f2e
bd23fcbe
3e2b7327
3e9b5078
3eff3534
3ea52959
bd1de8c9
bd60ad6b
bed785ee
bf437843
beaeec4b
bf000b0c
be712e69
3e0a680c
3e5637fe
3e116cf9
3e9bf8fd
3effc780
3f02407a
bd26a7f8
be116971
bf942bcd
bf9973b1
bec2e819
3de2e6f8
bf287a20
3e5e34b6
bec7ef51
bdf637e8
3cf48741
3e914fad
bf08fe32
3f06aea1
3e5909d1
bc29798a
bdaa4158
becfd93b
beb542e6
3dba2527
3e14ac12
bde43630
3e3fc1a5
3e232f07
3e997da4
3eb283c6
3edb9900
bdc47c77
bf078780
bf519563
bf887eb6
bf915407
bedd525a
bd828c2b
bf1185f7
3db51ad6
be59a92e
3f1b89c7
3d93b7a5
3db26d52
befe16ea
3e24db0a
3db9770d
bb990436
be78f8f7
babf50ac
3e465e2d
3d4a0376
3e7af7eb
3e5301cd
3eaecb06
3e7b52cf
3df642f2
3dccd14e
be75f787
bef7a105
bf52bdf5
bf6ad412
befb2915
3d85513a
3e6743b9
3ec2bc29
3ded0378
3f04e378
3dffbf9e
3f234423
3d28cf55
bd87eb44
3e2c0fb9
3ecb25bf
bed301f7
be22543f
3e947457
3d801f41
3e89a200
3d455358
bdd14702
bdb59924
be93b990
3e3be70b
3e5aee2b
3df07f97
be934f68
be80423e
be8eabba
bf0a3b1e
3ebe2602
3f3fa8d7
3f05b189
3e2bfcc0
3e46a2ac
3ed4c417
bd17ea99
bd7e3882
bd805624
bb5c4706
3d053066
3eba42cb
be8722f5
3cabcbc1
bce2fa35
be9414b6
bc0abc7f
bc5ec051
be9062e5
be666f7a
beb047d8
3e8c0860
bd353211
be07e35c
beeddab4
3be2ff3a
bdd637b7
3ea6a6d7
3e94515a
3ec85a36
3e4022e3
3ea9447c
3e94e35f
3e39bdbf
bdf1be5e
bc602cbf
bcaab132
bd9a4c81
3ef6d6b3
3ef0d171
be9e1c97
3d5cf843
3f11b961
be8ced55
bd79d1f6
3d625574
be81034d
3ea82c04
3a1a1d30
3dd895b2
3ebc5c1b
bc7a38c8
be881747
3dcaa61f
3eb6c6ba
3f0c6ed7
3e5fe6d6
3dc4ac12
3e87f9e4
3e2f8312
3e265f7d
be092adf
3ef38ba2
bd84382b
bccb03ec
3e1051c6
3f195444
3edd8f6b
beaf118f
be679b71
3eb2bdc0
3f06d999
3e2e9b26
3ea7ea14
be13305b
bbe0780a
3e006d80
3df7fa41
3e262307
bda70f9c
bd31c9cc
3e9908a1
3ee9c12f
3eb3bc89
3c09461f
3decd0d3
3da91de7
3c9e0658
3f1f6c4d
be8d2497
bcc539a7
bf532e7a
3d8d7f1d
bc9f8f56
3f33f2a1
3dcd3c62
bb5fcbf1
be59336f
bdc0886e
3e93d83e
3e1f6deb
bcf12a58
bed256a8
bd997b0c
3e7233f9
3df4dac2
3e52fcc1
3da6a3e5
3ccbc123
3e2d9871
be20c2d1
3e0249c2
bdc9111c
3f074004
3e7e39e3
3eacdcfc
3f2061f5
be58e0ce
be03ae56
bf947532
3e0c8355
3de87973
3f490d5e
bd50b09a
3dcd4885
3ed4cbae
be117738
be291c0c
be6a23b7
be82965d
be0771c4
3c31d66a
3e657533
3e12f754
be9965d8
3d893138
3b5c2dec
3e903718
bdbbc257
3e43359c
3ddc7d49
3e199939
3e24ceef
bd3bc3f7
be090c78
bf519fad
bea5ce20
be69ccd8
bda0717e
bf4a5492
bf050b79
3eb3d586
3e3605be
3f05d563
bd41c94c
bdf2f4bc
be6d331a
be2350f5
be549ae2
be2708b9
bf039872
be1122f4
bec79856
beb01b5d
3d9e11d8
3e479a1d
bd484a13
bdac3ccb
bd928c7d
3cbda08e
be939450
be83f02e
3da02b04
bf598b07
beb49765
3db20421
3d13394e
bf6074a3
be7b174a
3f12b8aa
be6b4522
be9565a5
3dd369d7
be2476f4
bd8b0cf6
bde0a241
beadf62b
be9f8bec
befbc798
bdde78ea
be8da370
be9a8be5
bda26a8d
3e430098
bc4d8ae8
3c6f4ed3
3e950015
3e027003
be821281
bc9ab21d
3eb58755
bf3d9769
be18caa0
3c8c7de3
3c9f0f1b
3d54392a
3f391537
3ea51e8f
bebbfa22
bd472db5
3e6a40ce
be2273f6
bdd8873a
be83d239
be238a5d
bc7a6e66
be8a5870
bcf46f6d
bd462a22
be803aeb
3e84be58
3ebf45f0
bdd06a81
3e269945
bdc23259
be473977
bd31f92c
bdde9c91
bbbe6459
bf338911
bdb2342e
bd97cab4
bd3414db
3ba2ade7
3f01dc10
3eceb996
3e4cf50b
be2034fb
3e67b94d
bd58ecf9
bea9672d
bd64bfc8
bc1899e2
be6840ed
be88d83a
3de4b5df
3c8e6a27
be17f1e8
3e470d10
3e53d4a7
bdb5ce03
3dc2af0b
bb9e9865
be316e55
3e8869de
bd0d6023
be32f4da
3ccb091e
3e0c4504
bd20f59e
3c5a3a78
bcec1a72
be5cf627
3f14dbcf
3f023900
bdc12560
be0a26f1
3f227fcb
3d9b11d7
3dac7cc2
bd45b05e
be21e7a4
be773b15
3e1e67dd
be181741
be226287
bebfb556
bd2f086b
3e0f1e30
3dd10822
bc91a274
be28e6fd
be2c08f6
be995435
be81363e
bd305e30
3e854aa6
3bedfb60
3d24491a
3d98ba0f
3e90693d
3ee0fcc1
3ea40581
3df2b8fe
3edbd25f
3e91e47e
be1fddc4
3e933148
beb0ef16
bea4e1c0
be0a7e05
3ea3732c
3ea1126c
be99a498
3e2c2efd
bc7ba09a
3c6b44a4
be38769b
bef5757b
be2b68ed
beeae782
bec18f09
be9fd83a
bbca75bc
3b488623
3d8affc9
bcc9395e
bca34f2e
3cd1b96a
be06010e
3f2f215f
3cfa5bc8
3f8bb456
3f15d10c
3e13e555
3e96dbd8
3ecede54
3ecdba67
3cc2fe30
be8916c3
bf447ee5
bf2200c5
be44cc18
bf1a6556
bf29ca1f
bf4e5842
bd9b964f
be96d969
bf21f7bd
3eb4971c
3de9456e
3d331ad4
bda65776
bd311d65
3cf86220
3a186800
bd92ab34
bd32c532
bb969877
bd9a12ba
3c348a28
be592759
be03f7ef
bf32f42b
be889c78
bdae6718
3e7dbb8e
3eb8db9b
bedd42f9
be6b4c80
3ed67c1e
bd972bc7
3d9c70d3
bea624ab
bf7ed228
bf64cff8
be5c4817
bd9d7468
bd83624b
3d0f7234
3c89ee60
bd4c5019
3d2b1544
3bf05af0
bd9b93d5
bd138f49
babf2340
3d64ad7e
be95334d
bee433db
bee5a772
be8f0413
bdbf4de3
be07df3c
bed319c0
bf1cab1f
bedb6276
bda44d4c
3da7de75
bf06c1e1
bf3f86ed
be111833
3d6b6759
3dc63694
ba885c64
3cae1023
bd8b2867
bd315700
3ca781b0
bd3143c2
bec1e838
