bf05f213
beb04d35
be83d108
bd80f5f4
3e58183d
3ccae0d7
3d7d463f
c00f8750
3e39afcd
be928098
bf94d1d3
bd366395
3de7eb37
bef682cf
bf830858
bf8115cf
bed39c1e
bf0ca36a
3e2753ba
3dfa47d3
bfe9da8b
bdc52f47
beb89cf3
3e0cf7f4
3e5b1f41
bece1f9e
bf04a7ec
bf975359
3d9428c8
bf328602
3d529f82
be6a5f33
bfbce031
c0005812
3e560a2c
bd81762a
be3da4c5
be229df5
3d1c02e9
bdf8614c
3e3ce42e
bf865447
bf694d2d
bf5fcda7
3e24572b
3d599843
bf8e2998
bf422f4e
be993e12
bf2e3053
bfe75566
beafe570
3e18a85f
be694053
ba13cd33
3e08c7d1
3e4a4df5
3bec60e5
3dceb897
3d44b7d7
bf88d7af
bf5aae86
3e463dec
bf4474e4
3c233f8c
