3da52433
3d027b04
3d876781
3d4837ca
bb9ade70
3d58911a
3c854284
3d4da4a6
3d5a378a
bd2a5c5b
3a181400
bd10285c
3de324ff
3dba2f54
3bd7252b
bd6126aa
3d854b25
bc9264d8
3d3ba77a
bbeec030
3c6a2510
bd30d1fb
3c344f60
ba0ad600
3ca5de64
bcfe6fb6
3ceffa38
ba823880
bc506778
bd278a6e
3c58bd78
3d02cade
bd83b041
3b474233
3dc319ed
3e43f5b0
3c90ddca
3cf1f606
3e90dbc0
3ebcb5cc
3ea474b4
bbacf06f
bec81e72
bd52c360
3d758593
3daef33a
3e041274
3e31a654
3e3d268a
3df530a9
3e2c4fc6
3e238e2e
bd99e4c0
bd48e580
bc9d4da4
3da3ee1b
3d8a4d2d
3d90c7e3
3db1fccd
3ca5a063
3db5e2d6
3dc6ba30
3dbe4302
3e87ba42
3e6439bf
3df4646e
3d1a52c7
3ec5d364
3e07b956
be9f112d
be6ef098
3c9ccbf9
3e4b53ca
bedfd9de
be880b0d
3e69436c
3ed0c80d
3cb290ee
bd3410c3
3cdaabc6
be15b00e
3d69b722
bcb9a548
bd991f5e
bcd6cd92
bb4307e0
3dc9d4e2
bdad5aa1
be9ec0d4
bde00ecf
3e7e3165
3e55ec30
be25d7fb
be2864ef
beb930a5
be7c9e3a
bd939692
3ecf5f28
3e0b3e24
bf0f1540
be92bd07
bedc6f4e
bf217cbc
be5cf101
becd5ac6
be8ff4d6
3e0b221c
3f18fd46
bd9fd2ea
3e6df4d7
bc4a9f9f
3d976df3
bc862e8c
bc4fb1ca
3e3d8e58
be0ebfd6
3e7aa714
bc153628
3ece774b
bea3c520
beda786f
bda579a8
be891ccd
be944305
3ea7d0a7
3bde3cfa
bea0cb0f
be17a94f
bda94729
3e14e563
3f0e69ab
3e09ff81
3cf3c110
3dc2a379
3d63d573
3e6452bf
be9fea76
3e85d6be
bf031acf
bd413d9b
3c9f6170
bcd712a4
3e567da8
bf07c6bb
3e4a40da
3f3c04a8
3f2dee6d
be25352d
3e67ebc8
3ea0e078
bef3e117
bdb92bfa
bd25f18a
3dbab8df
bdedca62
bdae921b
bdda2ba9
bdead163
bde4b068
bd92afe2
3e463afe
bc7f1d11
bc9093b6
bd290dce
befae817
3deba0d1
be60c1d7
bd57639b
3d9c03ef
be08131e
3ed8da57
3e2f7286
3e5f0a79
3f0ad2c1
3ecb1899
3e5e4fab
3f2561f3
ba387ff6
bde32e68
3eec80e6
3edb576d
3e9b6dfa
bdee654f
bec1b8a7
be50a236
bdbd0669
bdd25512
3d866fd0
bd9bd497
3e6883af
be15a199
beec573f
bf086095
be555301
3edb6976
3c951b7c
bd58c55c
bde3a274
3f05fa8f
3e3d3752
3d55d556
3e3f28d5
bd2a2551
3d98b018
bea83599
3db21bfe
3e787699
3d978ea6
3e9bc969
3dba1172
be849ef1
bdb73b31
3bd150b0
3ea8107c
3e8e337e
3c82a0c4
bd1ca41d
be1f137c
be32761d
bd35eb7c
3e6c8947
3e7d21fb
3efaa259
3ca6555b
3f2e2e2e
bddc01c2
3ef43777
bd90ab92
bd167249
bd5b2b54
be13c35d
be47aeb6
bcf4c08c
3ebd5cca
3e8ffa7f
3d304394
bcd1a2bb
be9f227f
bea403c6
3dd86397
3b9f25be
3d7e31b1
3e256065
3dd698b4
be52b061
bdb317d1
beb0886f
be8e5106
3e081c3d
3d888405
3e3452db
bd1c6d06
3db45d87
3eddfa48
3ddff86d
be91ab2e
3ee3353c
3e5da7fc
bca11cd0
bd83e7db
bde8071d
3d9367f6
3e034f22
3e155479
3d0de040
bc471489
b9e1d347
bdb9665c
be80293b
3d169ed0
3df334e4
3e17e56a
3d4db7b1
3d8d7a6d
be7c83a3
bdfb0265
be6ad0ee
3e42e61b
bee87460
bdb14c88
3c94a623
3e8195e6
3ec2e8e6
be306ca4
bce8f800
3f3db17a
3f157169
bb52790c
be235d7e
3cf2baa5
3d6deca8
3e712082
bdbcee7b
3d1f2c97
bf085759
be11c2d0
3dd149f2
3e638a8d
3e37e353
3e82171e
3e130d76
bc8146bc
bbf59eb8
bee4daa0
bf28734b
3e89acdd
bf301ee8
bd266c1e
3d24a38f
3eddbc6c
3edb91a3
3ee27610
be39b241
3e9a4e75
3e076ac1
3e3d824a
3d2546b5
bd95509e
3e8637b2
3e3614ca
3d722292
3dda4137
be151a1e
3e40b913
3e21478c
3e75df3e
3e120892
3e36b232
3e8e31e3
be409693
bdccc16f
bdb292eb
bf11201b
bee7c69b
bf0f92be
3d7f0095
3d240754
3e33d7c6
3eb0b76e
3e5e048d
beb6df1b
be87b9fd
be089270
3de1d0d1
3df1dd31
3da894b4
3ee0fb24
3e8d956a
bd92f706
beb5143f
be8a8c13
3e7c11cd
3e61256c
3d70cb91
3d3b2707
be1073e4
3cea1421
3e5d2e96
bbd4ecab
3e0c5b23
bea80008
bf2cc2af
bece1a99
3d6fd36a
ba0c0aca
3e442848
3ef435ee
3e834529
be8c1339
beb0077a
bdf7df1c
3e987dcf
3e9687f4
3e3ec47e
3eba557b
be4c5c74
bf1a081f
bf59268e
be8ec640
3d42dc2a
3e68bd9e
3e127a70
bcbbedd4
3d82a512
3d6204f9
3e43fc47
3d996d15
bd9e1e4c
bf493e02
bf4d1218
bec099ef
bd6439cc
3c56c476
bd1dee96
3ea77b9f
3d59b6a6
bea26274
bd9c802f
3c6007db
3e22e820
3e108bcd
3e9dac99
3b4c918a
bdc77102
bf013737
bf1d4f32
bdb645a7
3c92cc37
3ef48e6c
3edde250
3d800856
3e43d52b
3e9e82a0
3e433b98
3e96b4ff
3d2832e0
bf44cf46
be28cc70
be0aa973
3c7c90dd
bd5d5f7e
be63447f
3e074d48
3c7e9776
be8d4848
bdf81dcc
3c91509c
3eb64040
3d5fbe96
3e6362e4
be20a548
be7fe71d
bf0fa3e8
bee930ac
be07d277
3eefdfcf
3e35957e
3eadc131
3e6917a3
3e90925e
3f1312ae
3f2b3940
3e4d2fbc
bdaf79f3
bf34fdb1
be52e655
be7ca3e8
be1cf5be
3d155ef3
be805329
3ae41184
bea10bb5
bdfaecba
3e2a0ff2
3ebce71a
3dbd061e
3ec809c8
3e658661
be0a218f
be39946d
be35ad80
be9d915f
bab81ac1
3f2aa332
3e144671
3de36a35
bcb0ef1c
3e5fb51f
3e214a03
3e88ccbe
3de757b1
be3d936c
3da041b9
bf42e670
bf911467
bda96458
bc086e08
be2e43ef
3d8d39fe
bd8fab15
bd89cf19
3e2f1d43
3e108fb8
3e3695d5
3e222dff
3d41bd2c
3db192b7
be0a3e81
be92c4a7
beb6a188
3e700923
3efd53ad
3e3b9e9e
bd06bf48
3e911776
3e10732d
3cdaee02
3ea1d733
3ecdd2af
bd83db26
bf0f8d6d
be153dfd
bedd4de0
be204e35
3ed23371
3a26d981
3e50cc5a
be8ac53e
3e0ab828
bdbac313
bea5125a
3e0c9bdc
3d011128
be1d95a4
bebbcb4c
bde95a48
beb6d1fe
baae4fbe
3e34f736
3dce497a
3e411af4
3ef7774f
3d1edcef
bdf1d138
bd64c3fb
be71d4e1
be99b9bb
bf782eab
bf5b628d
bd2a0e7a
be092ac4
bdff1876
bd0c6ddc
3df90b1d
bca96b3b
bd5f77fe
3efe7c44
3d3190f3
bce5815f
3e5d99a3
be5eee1e
3d09ba6c
beb7b142
bf2246d7
bf0799ed
beab8ccf
3df27eef
3e0143eb
3c88100c
3d82d8b3
bec00c44
be1f49f0
3e0ecd5d
bea612ea
bf2f3da3
bfa7a8d1
bf14a581
3eb8dda1
bd37cb40
bda3f41b
bd401e98
3d70195b
be995d1d
3e2d7829
3eb2cfc9
3de54a57
3c9a576c
3c811ac7
bee9682b
be45eb6f
beadd204
befb0145
be78b3ce
be8f1780
be2c2be0
bdcaffa3
bda07f8e
bea01897
bee20837
bb9f035e
be2159cb
beeacfb9
beb57852
bf82fc4d
beecca9b
becadfa7
3e119e6c
3d8bdf63
3d99c00c
bdd5e10f
bf0c1d4f
bd5089e2
bef2abc3
be348d6f
be827031
be4a72fa
be897f18
be918132
bd3af40a
3e9e6a45
3dd3a385
bd9e554d
be7dda97
bea560de
bd8c6e4b
bf0f0959
bed63a77
bee65612
bf296db5
bf0616eb
bef94feb
bf1e6df5
3eeb06ce
3e627e62
3f1346e4
bd6f00fe
3d290c57
3c8b589c
bec761b4
be5953b6
bf04141f
bf312174
bf10db39
be197f84
3dfa0aa8
3d917c58
3d69f286
3e3edca9
be12295e
3d45f1ef
3caeff86
bd9064ab
be143cd7
becd3f62
be0f5263
bd966b15
bef564f6
bebcf234
be1ece0a
bd1686bc
3ec82f9b
3ee855b0
3eca0809
bc8817ae
3d8ab505
3d9fb6a5
beb1270d
bddfa006
becf19c3
bf22b306
3ce92151
3eaf640b
3c002510
bda4a860
bd5ab36e
be581ff8
bdb0750f
be90f790
be8fd35b
befbe73a
bf1d4260
bef3f068
beac4f7c
be530e75
bde72876
bdb7687a
be2278f5
be10f958
bf02178a
beceafb6
be0bdcbc
bd1de026
3b0984a0
3d6278f6
3ee83197
3d673bcd
3eb08af8
3e7c6203
3b6e62d4
be66f24d
3d6c6970
bbbe5b23
beb74ce7
be45b0cd
3d180a26
beab4a98
bf022a5a
bef8c929
3cf8d417
3de0fdda
beb9c684
bed558b9
bd8f7cd3
be376521
bdd89ec6
be3dd33a
3e89a6a9
3d93a17f
3d68a155
bcdf473e
3d50328e
3ce44218
be080ca3
3d8d732b
be90b11e
bdae6232
3e280c01
be83e8b6
be197baf
3bea8ff1
bed9bde6
3cefc682
be178d59
be6e4664
3ecf81ce
3e092584
3e222b82
bcd761b5
3e14cd82
ba80a22b
bd3a79c7
bc364dcd
be2654b3
be633304
bc63c0fd
3e7a2321
3d27dce5
bd9e9c84
bd8b1cfa
3d855a6f
3d6631d6
3d50a46a
bec11498
bf025987
bdb4448f
3d8e1e73
3ed833e8
3f1cdbea
be6d84a6
bee3e474
bf16b6d9
be6e423d
bd17fa12
bea6edda
3e8ef50d
3e39e150
bd0f8a18
3bcf4f0b
3d7ec3cf
bd10644e
3e068d5b
be854f51
be178865
3c491395
3d9aafcf
3d8d953b
3d91b383
3cf88304
bd781fc3
bcc5556a
3d867d11
3da7bbb6
bdd6fc03
be27e8e0
be47eeba
be82383d
bd45de13
beaf01d7
3df8303d
3b87e7c6
bd864ce7
beb8216b
3e10ca4e
3f040223
3ef6d093
3e3f8e1e
3eb6aa22
3f2eaf38
3eda9bc6
3e58ebde
bd0adca7
bd43bc16
bc9f2632
3c690178
be98cf1c
