bc74e8c8
3d854941
3d4029ce
3d5f637a
bd6247ee
3d8e3f35
bda0b80c
bc1b8c80
bc6cc1a8
3cc085e0
3d2e9d78
3d7244be
bd03af62
3d4430e8
bd91242b
3d176cf4
3d880cd7
3d2be036
3d9c5755
bd7aa9b4
bb6f1aa0
bbab7490
3d7f204a
bd688eb6
bd06f8ad
3baf1020
3d903dcd
bcbd3a32
3d9b6e9f
bd8edac5
bd44fb28
bb76ed80
bccbfc9e
3d894ea5
bdb837cd
bc4f3c9c
be03b4c5
bd30dbbb
bde6c165
3ecf067c
3edc621c
3edaaaed
bd919c3c
3e14b6f3
3e332734
3c0c713e
bdbd0f44
bde41085
bd17828a
bd3155ba
bdb19587
bc1f52d9
3c527118
bb760720
bd79a9a8
3d5c2ca6
3c7769f8
3b6e8c40
bda00323
3f58599c
3f4b5967
ba3d40bd
3d22d9da
3da7d38f
be9f97c8
bf3c7eb3
bf5c9336
bef5962a
be1707b7
bf0b4871
bf5bf9cd
bf4af65f
be57917d
be277903
bef15974
beede1de
be95e2d2
be6a8266
be305c69
bd965b11
bda48ab1
bd915857
bd13e7fb
bd406d6a
bca56a48
bd843a70
bc944cb4
3f533497
3f241db4
bf006de9
bf56c252
bf2640be
bf00d840
be77a32e
be80359e
bf653c54
bf835d49
bf22b6f3
bf451078
bf3390bf
bc390d00
bdce593f
bef553cd
bf3f94f9
bf267869
bf420bf8
be491ff2
3d1101ce
be844ef0
3d618993
bd5c8e95
bb4c9520
bd04607b
3c809018
3d96acc7
3dd3b97f
bec2c915
bfacfe4c
bf76e8c6
bf46b34f
bea04298
3e045dc8
bdf91255
be385a4f
be02b986
3e7af799
bebf295e
bec466c1
bf8ba5e9
bf5e3a4f
bf169bac
beb6dd54
be6468e4
bf49285e
bdf53ef9
3e1913da
beb59868
bd8fbaa8
3cf04482
bc808308
3cac51e4
3c879cec
bdf72f17
3e81b25b
bf219a79
be813d53
beaf8a2e
beea3381
3cc7790c
3e8f604c
beb8359c
3b7d8adb
3da485b1
3f40d16d
3f07d5d6
3e14ada9
beb8d71f
be5d1d97
3e31e4d3
bc5965b5
bdbeb28c
beae23ef
bf63c3d8
bf6f479f
beb326db
3e6d682d
bd76308e
be02c8b1
3c54a7d0
3d80765c
3eade646
3f2c7971
3e117627
3f400f8b
3eb8130a
be23527d
be4d17c2
bea274c8
3e864c2e
bda88e1e
3e65a425
3ebc6c92
3e518565
3f04c213
3e7b9422
bd557424
3e47332a
bec69ba0
bede57e1
be6733e7
befe6113
bf0f35fb
bf72ac80
3e5cd799
3e5be1e1
3d3e9ada
bc4a5098
bdfa7839
3e8cc28b
3e0d7b74
bf52600e
be7400fe
bd2ff2e6
be8b73d3
bf21ea5c
3d28f193
3e51ebcb
3da57dff
3d82aae4
3d1d541d
bd5e3843
3ea6c960
3d7e2c45
3e539322
3ec1f458
3e09d936
bea93294
bf2a39b3
bf3b3122
bf92db97
bf7dc17e
be956dc1
3de3d253
3e7c56a4
3f61d2e3
bdd3a78c
be4e9870
be8b2aac
bf47eee4
3cc9033a
3f199e4c
bea7cdf5
3d986906
bd7c3bec
3c9cb8b3
bdb6150f
3e964a24
3d4e38f0
3e3f5798
3e7d2361
3e5d0341
3de6bf5d
3eed8557
3f0da353
3e129c79
bb00775e
3dea44aa
bf31464c
bf656705
bec0200e
3ee6bc57
3dfd50ee
bd663e15
bd000536
3dcc07e1
beaba35d
bf29b44d
be479b1b
3e117516
be9cef01
bd66344f
bea87e0a
3dcf2c63
bbe6e469
3e05aab0
3e97b3d5
3e6734a1
bd8425e0
3b3ea4d6
bd8af7be
3d4c8dfb
3ec00d6b
3ef52e04
3e4653db
3ececb91
be43ede4
bf2dc527
bf7931bd
bdc8f073
3bfc2e77
bcef8e45
be0aef8a
3dccc7b1
be86a559
bf100f32
bc7954de
bba7319a
be805040
be8e9c6a
bdb64610
be1496fc
be427750
be8c114a
3e34b22c
3e7e456d
3db6fe7d
3e8fff28
bc1a244e
3e622948
3e985ca3
3ea4b129
3e0ca66b
3f1f3aa8
be709331
bf430763
bf60bcc5
be34917d
bd164a96
bcea6f62
3f1aa21a
3f495cac
be2a75a6
becdb719
be142e67
be19ea3f
bdfa0e19
bd3d81aa
3dc298ac
3dda4878
be4be531
3d9d0d93
3ecda958
bc6fe548
3e97e4da
3e9bf68d
bd333cc6
3dd45b84
3e8ca587
3ee2006e
3ee118e1
3f0e83dc
bd86428a
bf32c8ba
be99bb21
be008eeb
bdd761b2
bd141aac
3d8e31cd
3f0528d2
be2cc308
3eb19d73
3cfbb1b0
3e9fea37
be1dd68a
be7d2df3
bdb67e15
be362c11
bdee51d2
bedb5769
be19ba6f
be35c12a
3e259862
3e7eb451
bdc42868
bd8f1aba
3e967418
3e732d0e
3f07c40a
3ef16a8c
3d83b6e5
bedb3345
bec1de7c
bf8ad8b9
bdc13f25
3c91204b
3e479789
bad67f57
3e3cd017
3edbd1a2
3e1b2290
3e7560d1
3abceaa3
bd5dce56
be4521e2
be1f5f07
be37e91b
beb856c9
be441d3d
bdfd2ff9
3df25f0f
bd2163e1
bdbb0071
3bad86ee
bd1136cd
3db3b9a6
3e9d20e5
3e3c929b
bed472e3
bef1eab4
bee36b49
bf4ad114
be4214f2
bd76a486
bd60cebb
bcaefa97
3bc56b09
3eaaed5d
3d0d895d
bd09e311
3df6572a
3ede8aa9
be33ff5c
bed51466
be109cda
be9a779f
bec88448
bd3bfcf6
3ec9f5e3
bebec6f4
bca04e4c
3ec92c8a
3dcaf8c7
3e6acd9c
3d91f0ce
3e8b1ed2
bc1bfb77
3e7735fa
be9293a7
3dc24fbf
bd813ceb
3cb6e247
bc8974c0
bf08f21d
3b362c7e
3e86b49b
3e19f952
3d95a043
3e62a48d
3e9bd81a
3da4813e
bdf32161
be8d6b21
bf48e8ed
bef81a85
be907929
3e4911e5
bdfb1b04
bd976965
bd4a1cb0
bcb1bc8b
3e51fa71
3e8649f4
b8276c18
3e9c0337
3f009fd4
bc7df5af
beecb1d9
bd10c71d
3ba61be8
bca53262
bf316d74
be7f6ac2
3ec3ffe2
bd83a125
bea81c05
bc91ae4e
3e7b9116
bcf3f5a5
3db11ecb
3c8f834c
be8e13a6
be3a80db
be670864
be0baec6
beaa24ed
bdf9e0e1
beb61eb5
bf0ee7f8
3e48c052
be36a289
3d9ac0c9
be121cd0
bd998d6f
bf23c809
bf4dcafc
3ee48a6d
bd57d154
bd025598
bf4dcdc5
3ec52f4e
be0b6c5a
bd66bce6
bda01438
bc9384b6
be7db566
3ccdf508
3e7974a4
3df247cf
3e0a38e4
be0436d8
bee59348
becb3b24
be1ce8aa
3e4c13bd
be18f8e2
bea317f8
be3dc8fe
bdddfed3
3dfb0d3f
bd7f4afd
3e163643
bf178014
bf38d130
3f284d4e
bd2f1090
bdc145ab
bf2762aa
bc7e5a9d
bf2fc0aa
be218424
3e88720e
bdb15bca
be172e0f
bdfe7e06
3e053dbe
3ea0810d
3ea649b5
be231977
bec77a86
be6b76d0
be3ac532
3e6e1bd2
bd6d088a
bdcd0d35
becb41f9
bd86b147
be1c75ea
be6a4674
3e10c051
beb8cd9d
bf05f783
bec05875
3d7dbce5
3f32f30c
3e24d837
3e31d5af
bf0fa4bd
bcb46b61
be49d9eb
3d5fae98
3d3b9421
3de8371b
3dcbb947
3e582f69
3f0dabd1
bc8b4bd9
be432dd2
bd61f61d
be2c669a
3de05b1f
3e1a8124
3e5b6138
3dad96c1
be0a857b
be392df8
be9a4d5a
3f186238
bf0d6656
be20e56d
be8c6c6c
bda583cf
3f4dee86
bdff70d9
be13cab3
bedec329
3e64cbab
bea533ac
bd4f2d15
3e924e04
bd9ad70f
3d027bef
3d778961
bdceb760
becef014
be0fb7b0
bdbe711a
bd84e411
3cad22cf
bdedb128
3e8dce7c
be401c64
be636d0b
becea07b
be95df7d
3f05cbb8
bd41242c
be2db834
3c10557f
3d02209b
bd1bb5bd
be5e0a13
3ef87b8e
3e3182b9
bda47e6b
3ec402d4
3ead3306
bda96a4e
be9db772
be793101
bde0cb31
bf0b9171
bedc91fe
3d0c6bb7
3e87faea
3e8bc149
3df7faca
3de5311a
be9bcbae
bf027b9a
be641774
bde0227d
bea6a99b
3d7de381
bf1da4d1
3f1c3c79
bd15ccf2
3aed469a
3d20ecf1
be77b809
3f28b7dc
be44ae53
be46f9fc
3e8f1790
3ece094c
be8c0519
becdafe1
bf08f858
bdaef42b
3d320a47
3d83c08d
3e77ef60
3e638406
bd440e34
3e210e91
3d098b35
be63a413
be9ac0e1
be4a6b48
3eb29454
3e0c8592
3e188757
bebaea85
3e99a1e9
bd7517b8
3d209b96
bca09700
bde4b8b3
3e39ebc7
be3aebb9
bdb1f892
3eaa7443
3e190a28
bd380d4e
bf38ce26
bf17eda4
be4608fe
3db70c5e
3e7fd3dd
3eae0f22
bd87e2b5
be729f23
3d227ca4
be8153fd
be606f98
bee16fe7
bdd42afd
3f26c859
3d4db3da
3e9a0f8c
be8c5cca
bebf15e5
bd1336a7
3d24695c
3d8f2edd
3d9c64f9
3d3212d7
3ead3d08
3df4eba1
bdaff4f2
3e8697e3
3e94623c
3dbda1e7
3ec7a6fd
bec39234
3ce8aa1d
3ec7af8e
bd1af885
3ca5f6e9
bc6b7788
bcf12650
be105398
3d979995
3dbcf09f
bda49420
3e51b719
bde43c5c
be32e82a
bde90772
be28380f
3d98f4c9
3d4e2412
3d439f4a
3eb6096b
3bd5b634
be8e8553
be91f159
be4bffc6
3e31acf0
bd35bb86
bdb9695b
3f374ce4
3ea90e29
bd77b22a
bd3a15cb
bdaae259
bce811d4
3dbb2986
be893b6f
be78dd5d
3ec99705
3ecf39b5
3d36a4dc
3f123192
3e73edf9
be1dd6f6
be000044
be663379
bc78fba0
bd80d126
bc3f5f20
3ccae4d4
3ebf8907
bf0a6374
beb51d65
be964e79
bea3e2d6
3e84355d
3eff7d21
3ec5c8e1
3da47874
bef76609
beb3303a
3e1bba81
bdb35ab7
3e14c847
3f1e28b0
3f00b2a5
3f0855e4
3f6d08d0
3f08ede0
3ebefd42
3e4a8b00
3e15a1f1
3d23274e
bd662eba
bc9c4adc
bc6b6ad0
bd3ab5b0
bd743f89
3d380316
bdcebece
be54de70
3e8007c1
3ef3c603
3f09fac9
3e66108c
bdadbcd9
be821600
be0285ca
bdd2bbc7
3d99f89f
3d80caa9
3c7cb5b4
3e7499c5
3ec1c2dc
3d00c52c
3c16befe
bdc4ca42
bdbe0722
be82de76
bd04e2b9
3da0d5f9
ba416780
3ce433f4
bee1f921
