3cc573c0
bda409c8
bd5c409e
3d883d69
3954e600
3d1d3d70
3d97ff35
bd2a5074
3d3a47be
bd12e27a
bd8e1208
bcd8b3ac
bc44481a
3d833da5
3d375dea
bc3caac0
3be30520
3cc9dbe0
bd8ffa57
bd9200b0
bd8adda0
3c3d81c8
3cee7e18
bd5e6bcc
3d730816
3d059a08
bd86fe8c
3d68ec3a
3d984b23
bd1b7d53
bd8e961a
bbaee4f0
bbbea160
bd346d15
3c9cb8b6
bd3c4df3
3d23eb6b
bbce06aa
bcc92bfe
bce209c1
bd3eb4d7
bd620c31
3c192eb3
3d84879a
3dfe1230
bd759a5f
bd1a9cbe
bcdcf80d
bc414fe6
3d4eb2dd
bd15f280
bc80f531
bd64feed
3c11d8f8
bb4d0580
bcd35f10
bc5057f8
bc34aae0
bd7f0384
3c43b2b0
bddcfbde
bdf71d49
bddcf640
bdb25259
3eed6e10
3eb4ead7
3ee3946c
3f139c6c
3e9d35ab
3dd08187
3e7c3e27
bdc78de3
bf6eae3c
bf40f6cd
bf24ccd1
3dcd3d6e
bd2ad223
bddf6d17
bd952359
3d23e495
bc5b1f73
bccf9ced
3ca6cb98
bd6264d4
bcbe94b4
3ca8c410
bc703565
bd26aa5c
bdb08876
3df406ab
3ce1515f
3e028ef7
3b691e77
bf02aa69
beab7cac
3d0886ac
3e32d9dc
bea29369
be9b9e37
bcca59c1
3eaa32cd
3ebe1b23
bf1b5c9e
be4c10cb
bc938b23
bd095687
be34ec18
3c5b428a
3caf89dd
bd952abb
bd3ea9d6
bd1bb925
3d5600ee
3d9f9ec7
bd2b1f5d
bea43a64
3eab4c51
3f412bf4
3f871018
3f1a5600
3f314e14
3ea3fba6
3e6fd0c4
3df1b3be
3e9fe675
3f5f8f33
3e9ffb04
3d919c77
be8b6324
bf3b1056
bf67bcbe
bf464ba1
bf29c57f
bdfe71fc
bf29ae53
bdbf16c1
3cda6471
bc0ecf47
bda48d3a
3d21fcaa
bd41a5ab
3d0eb444
3cfd16cd
bdb1cd44
3f329f27
3ea7765c
3e909429
3f2ad567
3ecbc248
3e471ebc
3edbb069
3e8eced1
3e0f864f
3ec737c9
3eb838a3
3e9992c2
3df54e00
be97cabb
be94b477
be72c19c
bf99f612
bf22a551
bece6bce
be7e98f5
be3ec662
bd517786
bdaf9437
bcfe2749
3d92f65d
3de8f4e7
3eefaa0e
bd8886f8
be62c0f1
be437dc5
be4428ed
3e93271b
3f00fdef
3ed78c33
bdcf51ad
bd24ab9a
be4041c8
bda21695
3e5525d1
3d5673b3
3e3b626f
bde9101c
be19504b
be939c0d
bf11a39f
bf017a10
be8d67b1
bea56ca2
bed0a839
bf589807
be8f88dd
bdf09042
3d773a33
3dea9bf8
3f3bfc21
3e0fc3b8
bd7780a9
bede2b69
3d4be41d
3e81f942
3e407dbc
be2864a6
bef172da
be9af02e
be55ca32
3e9da6b9
3efa0070
3e5e9564
3da417db
3d369f25
bc8111c9
be875af8
3dbcafcd
bd9c89c4
be09d974
be928654
bf3e22bb
bf05ecb9
be978595
bf1e7512
3d676efc
bd00b6a4
3f3f7c14
be250463
3e6da8d8
bebff0d5
bed49529
bf045081
bec4875e
bea3c9ee
bdcc4686
bc700eb4
3e93cf18
3f0c870b
3f28e2f2
3dac092e
3e083a7d
bd78d7a1
bd818d2d
bd19a26c
3d47d31d
bde744ee
bd85210c
3e9be2c2
bf27d3d2
bf1b8cb7
bf1e7b3d
bf197c44
bd8f4ff4
bd5f78c2
3db70bec
be8f9f44
3d2a8fe7
3e8076d6
bf4b6e7c
bf128a9d
bf319590
be95c924
3cb92739
3d544f05
3e60d6d5
3e2a5cac
bdeb279a
bef393a1
be9ba05b
be0b53ed
3e0fe2a9
bdefff50
bca88dbb
bef316c6
be36fb8b
3ebeec12
bf0e8865
bd99bf15
bec9537a
bba05856
bb63fd2f
bd1ab657
3d89c81f
be145480
bbc4db1f
be893cc9
be7b45c2
be775014
3cd7d3a7
bdf6f957
3d8fac46
3dc7d49c
be0c3335
3d93e478
beb16590
bf42fd34
beace8a0
bdadb6a9
3e489b99
be0792c5
be400f46
bec2a411
be17eac1
3f3706c5
bddab27d
bdbe3466
bed2d327
3ca9c7ca
3ce653c7
bdb7648a
bd67ab9b
3e3c4c99
be4896fc
bb838f9d
bc043a61
be3597c5
3e08dc85
3d3af13e
3c90adfd
3df185bf
3dc5733a
be718e51
bf170a40
bef1797e
bef3ce84
3c84ced6
3e9c6264
bd7e10b5
bd8df9ca
3e17e85d
beaed878
b94fd0e6
3d2eaed3
3e3e370e
3d82368e
bb6290fe
bd825fef
bd035d25
3cec3f73
39d65c34
3e03f42c
bc6071ee
be988bdb
3da5b719
3e70a254
bd5cc521
3e7187b1
be8dfc8e
3df3dc9e
bf2d3114
bf3ec644
bf326984
bee7fa65
bcedf221
3de0b352
3d953d95
be02779e
3e3ad066
beedfca9
bf2cdd84
3ea54400
3e4652de
bd9f7584
bd9bd766
bd9ace60
bdaba3d6
3e153c26
3e2131b7
3ebe2764
3ea7f1af
3d5b52b8
3d271614
be0528a8
3e201101
3e44baac
be54d6bb
be89803b
bf297706
be30df35
becce960
bdf5183f
be160044
3e1ad556
bea6c0f3
be5a1681
be76884c
bed3e771
bf055ebc
3eb36535
3eb91675
3e120f52
bc0b45bc
be9957d5
bd036ad4
3e338015
3e0b4a09
3e407940
3dea275e
be0b7351
bd832b48
bedd6177
be9dcb26
bf034bb7
bf127cfb
bef6b1da
bf436dea
bf44211c
be0a220a
bdb1a65c
be51b12d
beb5b20d
3d0c7b6d
be805bb7
be1ed35f
bf38c465
beb40ce9
3e8fa7c9
3e75fd2c
3edc5eaa
3cfd087d
be38c110
3d372770
bd4faac5
3cbb04c9
3ea9db52
3e809244
be92d2ac
3c00bd27
be96c21d
beef1797
be935e4d
bf5bc12a
beb386c4
be6f97c2
bed6d7d6
be86d95d
3e4526d3
3e3364b6
bde94717
beb07ac9
3c3f601d
3e56ee2c
bef657a4
bef557e3
be325c1b
3ba98183
3ec332fa
3d41f09c
bd17e3b7
bcd08afb
3dafbde1
bbc34872
bcc1cc09
bd266b03
bc7aac2e
bea7fc03
bf0875bd
be6495cc
bcaa16c8
beac2264
bed0e353
bded2119
bdc56cca
bea2181e
bd0dde7b
be8d96eb
be65a604
be48df87
3df44505
3e816867
be94acb2
bea56147
3e0fcb8c
3e8b49ee
3f253d65
bcad6875
3d45528a
3d12c3dd
3d950441
3e152d79
becdec55
3d1fe775
be72a78c
bf00dc51
beada417
3e666db7
3dfcdcfd
be58f72b
bea26162
bd6f468f
be0954f4
bea137e4
bec1e6a2
be037247
be23a18c
bd9e3fe5
bd8eec26
3e89293c
bebf9c9e
bde7badc
3f4d0e39
3f68c4e5
3f40fb3e
3ecf043c
3d255132
bd61f559
3d118e96
3e262b57
be22b223
3e514fda
be27535f
bf076685
bd0f4cec
3e653978
3e12a322
3ea54c27
3dcfa6ee
be38f601
bf2f6f04
be3469b4
be238d44
bdfddaaf
3c53b870
be03ab48
3ce0c1bd
3ebc45ec
3e6b2f68
3ebcaad3
3f6196aa
3ef08abb
3f53cb0e
3f03a5f4
bd9a6728
3d9a92c5
befbca5c
be443d81
bc87038c
3ebb552f
be3a352b
bf3bf550
bd9292f9
bde0924e
3e7daa98
3ee4260f
3d651e08
be7f8065
be6ea12a
bd4508bc
bd22567a
3df65542
3e87e4e7
3e7fe43c
3ee26aba
be794884
be1c27c4
bd7d72be
3e049056
be8f21e8
3ec89317
3e4c96d1
3caadc9c
3d9dd95a
bea38b74
be3440c4
bcbd238d
3e9d5b22
bd003b45
be2856e2
be8d67eb
bdb6ba4f
3e945691
3ecad7d4
3d884bca
3d1f8860
3da80596
3e2921c1
3ed45782
3ecf7963
bdbf8db1
3d301196
bd67fe65
be174f2f
bf087fd3
be90d4b3
be461997
3ddb37f4
3f0a82b9
3ced6101
bd2a6285
3d9e91a0
3e0d3836
bd0a36f5
3edd4f50
be9d872b
bf3db572
bea69b69
3ce959d8
3e10014a
be243d1d
3e2bec69
3e392ce3
3eb09175
3e609a8f
3d648e68
3e6267f2
3d68588d
be3aeb09
bd831aa5
be3d5624
be22b5f4
3d8c66cd
be89bdc3
bd8fabd7
3ecd6626
3edfeffd
3d454bd8
3d0e76b8
bda2d3a7
3f0dd75f
3eea5d6f
3f7e982d
bd5b1d65
bee73cef
3cb25cfc
3eb0c52b
3e885e40
bdcaa82f
3e8c78d5
3ef02536
3e848b5c
3e282e06
bdf0ce1e
be164bf7
3cac9b5c
3ec96314
3e908294
3eaaec02
3eab6919
3ee1e95a
3f21a0e7
3f2578ae
3e95889c
bd1b9453
3d66068b
3c7d2cd0
3ccba720
bd7f657d
3e0bb13b
3f55c9b7
3f04e470
3e63ddac
3e0b6a79
3ede74a1
3e3b4652
be01a3a3
3dde9d25
3df94445
3d53d287
be90cafb
be131eca
3d926117
3e98e8f8
3e80786b
3ea0cb16
3eab0604
3f068e91
3f37b5a6
3f9bcc7d
3f4bd297
3e6270ee
3dce6bdf
3bc44020
3bd059c0
3d682ae2
be9d4d9c
be8a32d0
3e957e4b
bd83fcaf
3d82eee5
3e81cc31
3e61fdd4
3e5cc6c3
bcd44883
3e55cfe7
3e8d4e40
bd1fd686
3df790c9
3eafbe9c
3e7018c8
bdd9173e
3db5853c
3d64665b
3ea111a0
3edc57ca
3f6a08f3
3f75bea1
3f48e26a
3eb999ab
bd6dfc27
3c9c8728
3d972827
bca1cab2
3d8c848f
bda73bc0
3eee9e19
3ea5124b
3ebc22c8
3e9c7f92
3f302562
3eb6ff6c
3ed68ae9
3de5f1ff
3e91b17b
bcf96554
be1f732c
bea06e3e
bebcc0bb
bded8f1c
3e2ed9b6
3e402d71
3e65d579
be6b20ca
beba8aab
be2fd2f9
bc744049
bbc6ceb7
bc3357fc
bd85c172
bd6aca3d
bd9ca439
3b0350e0
bdb2bfc6
3daba7b7
be283e18
bebbe07f
be921a6c
3e8d1719
be8b2b13
3bdeaad4
bd31b291
bd83d44a
bdca0ec9
3be01723
3e37277a
bda416f6
befb393a
be0067a8
3f02b8f7
be5671f0
beccc7e1
be113cd7
bdd3044d
bcda1f14
3d77042c
3c1a4bb0
3c0ee568
bd809ae8
3c6c1278
bd77b64c
bd86d920
bbffa6f5
3d1ace97
bd431fbc
3dbb51f0
bd2dfb35
bc42ad9d
3d22ccfd
3d3eeda8
3e0f1781
3d6d34bc
3de12ce8
3dbca4cb
3deb96fa
3e36992c
bd571373
3d19dc19
bdc00f4d
bda605da
bcb5f9bf
3d5fda9d
bd6594ae
3d4c46ea
3d255644
3c4b4388
be820bbb
