3d511112
3d89ca3f
bd68fff2
3d05dce8
b9bb7800
bc8b0bf8
bd114a83
3cf7a14c
3caf13cc
3ceb9df0
3cdbc4f0
3d0eea2a
bd0a605f
3cd5b364
bd2e6c56
3ced6d70
bca9cb50
3d082742
bc0471f8
3ce27844
bc8b9cf4
bd2f75ef
3d1b019c
3d38a63a
3c3de8a0
3d8d789d
3d22365a
bd9e4128
3d6c3212
bd5b893e
bd8e26e0
3d01a9fe
3d18de15
3d1b4202
3ba15772
bd85386b
be108e85
bceb652d
3c148667
3d1e1d43
bd9e770d
bc965284
bb924a25
bd49e180
bcfa3388
3ac864c8
3b0a6b0a
bcaf9cc8
bd05a83d
3b5fca5a
bd308454
bd72f86b
3c049050
bcb74704
bc4645f0
3c7751f8
3c881624
3d0d415e
bd9b1660
bcaf7918
bd49d53f
bd892af4
bdd6a05a
be0bb608
bd56df6f
be1583ad
bd181db0
bec63eda
bf0e1040
bf548a8e
bf43a35c
bab43d05
3c33cea8
bd049a5b
bd64357a
bd9e3fd6
bdad3499
3d392973
bc366a5d
bceac5ef
3b446375
bd8a1e10
3cf401d4
3d5ca9a6
3d72e6fe
bd6c0392
bd8a6ffe
3d877bf5
bc8455e3
3e67fc40
3d0b768f
bdd9b307
bed75124
bd4a031c
bdf0ade3
bee0c3a5
be9e69e9
bf930d7d
bf4775d7
beb6c17f
beb8ec8f
be89a8ff
3eed98f0
3f119cab
3e7ed7f8
be52a291
bf14138c
bd2732ea
bd24b5b9
3cba6c4f
3bb26113
bd480363
bc17f6b8
3bcd10a0
3d2f9805
3ea1a096
3dd1a9a6
be0e41af
be1de4ac
bd1906dd
bb308a32
beb088e2
3d9c9605
3ea502c3
3ea601b3
3e92cac8
be267590
bf02366f
be3a19ff
be056283
3e5a336d
3e5ac251
3e4dc243
3f283ea6
3f299c3e
3fb1c74f
3faac363
3ea7dd72
bcb77217
bd4d82e0
bcf7fdc2
3d4fedea
bd80a7bb
be34562e
bd0c6c5c
be544a9f
3d830f4a
3ed74fcc
be3e925b
bd9b5bba
be3c8b18
be2b7da8
bd7c5f5d
bda13bf3
3e19e05e
3d87fec0
3d6a4b93
be7b929b
3d61150b
3e46319d
3ed60df9
3e07f7f3
bc94b552
3d378108
3e6f8487
3e6e12e4
bdbb8157
3d07717c
bba83560
bbbd5914
3e3716e2
be9a36fe
be5ce8b6
3df18413
3ea6d2a1
3c375725
3ea16b86
3eaf6f79
3d871643
3e35f15c
3e8cc108
3e6e15ec
3e9f7cec
3e027a70
3de05cf5
3e2e1b20
bc906c9f
bf00985f
be6b357e
3cceb999
be4a5aa6
be840016
3db43012
3e6f7b73
3ea05a6c
3eae0782
bc858177
3ccd2126
3edb4c5c
bf6a0afa
3e253581
be00c803
3e016381
be1b67d8
3cb16e65
be110731
beac8821
be3056f4
3c589190
3e4cc0c8
3e59134a
bd2687fd
bd96c952
bd8c2678
be1ff99b
be97480d
be8d58a7
bbefaf82
be266af8
bec0b872
3d6a20a5
3ec79ef4
3ef52721
3ec6e85f
3ca38e5c
bc396b6e
3f129a93
bec6b437
3e439d04
3e8eaac0
3cf9c1c3
bd3376ea
3c6ce3f1
3dee2b88
be527a5b
bd52b1a9
3d868c60
bd139e51
3c7a587e
bdfb7a71
3d19d1a6
3d6764ee
3e5bc9de
3d13daac
be137672
beb06168
3d1b5638
bf040928
bf002fac
be719cc3
3e3e38f9
3de30096
3d728af9
bda47a42
3ede7bd1
bea4e89e
3e9a3b74
bcf02467
3c909238
3d80d408
3e39a322
3e82f12a
3d24d00d
3ebc09bc
3e206b3e
3e0d38d5
3b60c7ca
bdc19472
be2d881f
3d4f6714
3df6ad0d
3c973c0d
3c3f40cb
bed3e6aa
beac74eb
3d5dfb16
bf422e63
3e1025ac
bdb3a3f4
3ea54353
3d2b237f
be230e50
3deba18e
3e859007
be2fa487
bdd76193
3e82bac5
bd8d425f
3e40c682
3ebb35a4
3d957bb2
3d33ce1f
3e446afc
3ee55c04
bd982792
be57d57e
be800d3b
3de75da4
be33ee5c
beaa969b
bc3d8e47
bc8d2856
be9f71a2
be232dba
befa26e9
be4f2f84
bdbae2f0
3ed53a54
3cbf14c3
bccec892
be153a60
bb9e598a
3b763f89
3e7d16e1
3d0153d8
bedab785
3e13d2fe
3e1bc585
be5e982d
3da7a93e
be81fa95
bd94841e
bf1f3601
be667751
be03f680
bed05599
3cc64a60
bec584ba
3df3499d
bc801e4c
3dc2cb9d
3e3f18f8
3ecc0e7c
be5d2a2e
bea14f25
3ec0140d
bc74878d
be1b53f4
bcba41ed
be3bb1cf
3ea9f156
3e13695e
3e97b01c
be0c6899
bdcfea47
bd80f060
3e6d3d04
be9621b9
bec9c90f
3e6382af
bd185f36
3cdaf717
bd959068
be403ea0
3e68c67f
3d8ec72d
3cf5c212
be66aa2e
be205f72
3e8fb28c
bc88f5c6
3df2e809
3d251454
3ed14a07
3d90c193
be2d31af
be268233
be046b89
3e920581
3c54b137
3d5fe200
bea7950e
be21f5ef
bdbbfb44
beb8c48e
bf02cb66
be68650d
3e66db1d
3e400403
bc24a8a7
3e60475e
3dc5d73b
3ccdf987
be1bcb30
bc99e918
bee8296f
bf2e9ce1
be68edea
3e6d81aa
ba6675d8
3eb76d9d
3d281d8d
bdb6b9fe
be3fe06d
bda69c76
beb6a4ae
3ede9bef
bf484982
bf0afacb
bf0fa2e5
be955001
3c270350
bd73b629
bdef6444
3d4ca290
3e7eb3fb
3e0d1e43
3db0ad20
3de78404
3c37823d
bdb4e0e3
be44134c
3dbac030
be205ec2
bf2b961e
bf20a7e4
bcd3d39c
be227c12
3eb2ec0a
bdbad167
bdebd381
3cf77015
3e247878
bf23632c
3ca7ffc6
bf30aa44
be924978
bd0a57a6
be0f52f6
bd499cb9
3deb2ade
3eae54df
3e7d090f
bd91ad97
3e6c1510
3e98e3dd
bb431d56
be654412
bda9bdf3
beca2955
3ead4213
3ec7bcd6
be313b0b
bdb7495b
bce30c5e
bedec070
bd73ad23
bdb4ed7a
bcf2065a
3d069363
3daa8c81
bf4b2347
bd951ab4
bec7bc4a
be3fd0d9
3cb954c7
bc399e9e
3e3a27d8
3dd0d9f0
3eae3120
3e4c06bd
3eb18157
3e3bc811
3d2b64ea
bdd3ee50
bedd1939
3d875f4d
bdb37d81
bde65bbf
3dd9a3b5
bcc435d1
3e8fbec5
3b15177c
bdb38aeb
3ef21c1b
be916aa1
3c73aa48
3d9a07e3
3ddc4324
bd07a9ca
3deaeedb
bec8ccb2
3dac567e
3e0de0e2
3e038275
bdbe7951
3e1fcc7f
3dbc89d6
3f4137c0
3f3ecdc4
3e64d8bf
be10d972
befee1f7
be44b90d
bc22bd8e
3d13dbe8
be001a64
b993ff4a
bd0fb3c4
3e2c9546
bdad87f0
bf07ea7c
becd90d9
bf04a33b
3cbf30c0
baf1f3aa
3e42df97
3f105500
3e55eb81
3dd72231
bdd5a9b1
be9429bd
be06e254
3ddc433e
3e1e331b
be4e45a4
3e008473
be0159ae
bf085d64
bdaad876
bd54e8f1
bdcd9d95
3e54c2c0
3dd2b246
3ef7cd71
3e7ded8e
be9e9258
bd8ac071
beba251d
be2f85ed
be6cf7d0
bebfbed5
3d79edf2
bd38bbb4
3ea6490a
3f310459
bd552b23
3da0894b
bef7fd22
be836c22
bebb5fd3
bda8d912
bf4a482d
bf93740c
bf613186
bf2da3ed
bf527e8c
bece5105
3dc73342
3dfcae80
3d6ef72b
3b891a6b
3ea97c84
3c843550
bd025bc4
be6d9236
bf24f742
3e67de1b
be9b7acf
3d27f7ac
3d980231
3d5ed3ab
3e92b935
3ec45fb3
be5e00fb
be46be49
be5735b1
be35c194
bf960b0d
bf8d1fc5
bfb4e5e9
bffee1c2
c006852d
bfc0ec81
bf18733b
be295fd1
3da0d154
3eb36d11
3dbd964f
3dce4e29
3cfb8b62
be65a38d
3f015df4
3e7c4768
bf30f39d
bd9f47bc
be845afc
bcf6a3dc
bd4adc10
3dc42cbe
3eb1adbc
3efcf965
3d11264a
beac411c
bdec7b0b
be041f08
bf4b0c86
bf97c52f
bef9ca5e
bf0f53f3
bda0cd17
3e0095b6
3e34056c
3e34bc0d
3e8c66bf
be03ec45
3e09e5de
3d85ceb3
3e3335b9
3dea288c
3efe0001
bea293a3
bf0916e6
3e34eb9f
bf1d5bce
bd0c6137
bd86c24a
3cb60c36
3e40d03f
3ef66317
3e1d19f1
3d6bb08c
bdb7fc85
3d8d413d
bcc0764f
be56837a
3c8786c0
3f03b3a4
3f3c147a
3e6fa111
bccbca5e
bcde3c98
be4b00ed
bdcdc7d4
bcc5b4c4
be1b7d4d
3e324b8a
3ddb668f
3e665d5b
be87fad9
bd5c9c6c
bc4fb4a4
be0f85c2
3d8358e1
3c7599b0
bc6ef270
bdd09265
3df39fa7
3e742500
be67b91e
3ce73c6d
3cbfedaf
bca5f2ea
be906d5f
3e03e391
3eb82966
3e3ef38f
3e95e2ff
3e92ad88
3e4f230c
be02389b
bdcf25bc
be235350
be0ad81f
bd41322a
be19151d
3ddac9d6
3d9d06fc
bc807594
bedc3473
3a6136fe
3d6b57ea
3b305be0
3d49affe
3dff9a34
3e9ed54b
3e2ed93a
3ebdad92
3d94eede
be789492
bdb86d9f
3ea5723d
3ebb5f19
3ea6dd6b
3e99b0a2
bd664f4d
3e9183bc
3e96a742
bda34f67
3dc687e1
be95b637
be4b426c
bd2fe193
3e8d601d
3f0e4414
3f479b2b
bc114b22
bec45295
beae8305
bd0c73a6
3a171400
bd693f54
3bec09ef
bda810db
3f2f9092
3f7bcaa9
3f95b98f
3fa8cb4b
3f87cfdf
3f2e29e0
3f429dbd
3eb5f7a2
3f216c83
3ee87736
3d15e1eb
3d96bbc6
bd8dcd9f
3c07cf78
3e07b436
3ecded07
bcc77662
be349cd2
3e956676
3e93310c
3e16eb3b
beb8d413
becfa2c5
bd894253
bcb6a68a
bc92c76c
bcc6b264
3c1a241e
be2adaf4
3ec2d2d0
3ea98d8d
3f3d6e77
3e57fbe5
bceac85e
3ed6751d
3ea59723
3ea98493
3ea2319b
3e52836b
3e9455d0
3e89f4d8
3e39dca4
3df4bcc1
3ec258a5
3e91cab0
bcedbd04
3edbf465
3f0ff764
3dc8742a
3d265835
3d8bd0ed
3d964fe7
3c136328
3be5add0
bda4286e
3c6c77c0
3d9f700e
bbfdc48f
3e6002ca
3ebf8520
3ed03966
bd17859b
bf2cb348
bf191010
be96b27a
be3b7169
be2d5ccc
beab1209
bd9592b3
3e0f280a
3d1187e6
be18064d
be918e13
be1cf615
bc655b06
3cd7dc50
bd76090a
bd24462e
bd7838a4
bd36fdd6
3d1da1dc
