3d808c60
3d0151d1
bf2bd739
3e09da2c
3cb384c9
3e5397b3
be108e14
3df2be58
be6eea4a
3dcc945c
3dd8c0f2
3e8053cf
3dcbda73
bf13c476
be922c5a
3deb0f5d
3ed6765d
be37de42
3e34f371
3ceace2d
bea36eba
beb34d84
bda96fc9
3d73c314
bd07d3e3
be27e5a8
3dc2882f
3c19e5b6
be67ce3c
be82618a
3e9ec0a5
becc89a3
bd357a73
