bd6de07b
3d5748ae
bd2bd2d3
3d5b866e
bc60c7e8
3cbe47ec
bd8bfca6
3b608e60
bda246db
3b13fec0
3d092d06
3bd2f960
3da70b3a
bd5921b1
bd86cef4
bd29f96c
3d119c1c
bcb0e11c
3d23284e
3d8fd84b
bba52340
3c110760
3c27a058
3d280152
3d4de672
3c8939c8
bcc4f344
3c2e63d0
3d41517a
bd7c0942
3d2673a8
3d939abb
3b87a090
3d84235f
bc9d3cc6
3d032c67
3bfaf92b
3d536e3b
beea58fb
bee5358f
bed9d97c
befa5516
bd899339
3d81cc95
3d904a68
be62635c
be1cfb08
be3859b4
3c78b0fa
3c8e561a
bc0f2c68
3cfefdfd
3d5d06fa
bd088e8e
399a9e00
3d85947f
3d41111e
ba75f680
3a9633c0
3d8b7690
bc801761
3d1c3d28
bccfdd14
be0aa1f4
bdf486ce
bf139e2f
bea83b65
bb989269
3e92ac50
3f571b1d
3f34313e
3eb70271
3e0514e7
be996a11
bd490a73
3e4a4a71
3d7458d1
bf185bf9
be807498
3d7a1cc2
bd91fe4c
3d066c58
bd50c53a
bc537750
bcd6aaa8
bd889388
bd332e89
3cc03347
bd037a9e
3ec4e473
3f00c1e3
3f0a2972
3f8e1c1a
3eaa437b
3c44f6f1
be868fd0
3e5c35d8
3da45820
bdd96a56
3e96d3f6
3d6a47cc
3d121310
bcb2d07b
3e839b6a
3efd5594
be71a245
beab7280
be8e975d
3f2432fe
be91ed99
3d016bb2
3d87f669
bd7a3f54
3d2cea67
3ddbc7b5
3dff9ce8
bd8b1f64
3ead5133
3e1499ae
3f1ba3c5
3f03c424
3e918e7e
3d11bdc1
be38982e
bd62bf63
3c5c3634
3e0955ac
3e918e91
bd511a7c
3c315d27
3de9cde2
3e3e1e08
be121af3
3e3dae90
bb8eedfc
3ccfc356
3ecccf13
3f06131f
beac9a97
bc38c954
bce849aa
bbe6aca0
be186dc0
3e0b1899
3df396db
3e240f50
be519831
3ea2847d
3e74625f
be1b45f2
beaa6f84
3da715b2
bdd28597
3e8de714
3a9c91a9
3e33fe5b
3e8f1450
bdef0d05
3e0398bf
bdb7ce0e
3d78e2db
3e824a2e
3ecd1345
3dbefbe4
be48d878
be96c385
3c067a34
3e56e02e
bcdcae22
3e04ea61
3dd7ec9b
bca071df
bdc4599d
beef8302
be645961
3d896125
3db91f91
3e37b8a6
3d33e30f
3e4a9293
bbca44b5
382b6350
bbc93c83
3baf3e2d
3ceb4122
3d485145
3dd1d68c
be026278
bce578ed
3ccbed97
3e077809
be27337a
3e993be3
3efc08d6
3f212db6
3ed3cd40
3cf89718
3e324f0b
3e907c8b
3e706feb
be5391f5
bbd23659
bd74ecde
3e45101b
3d67a941
3e0dd41f
3dba1650
bcc1338f
3c85b2fd
3cbaa4b7
3ec8f907
3d0a2019
bc7c93dd
3d6e50cb
be662faa
3e13d8b8
3bbc2b2d
3d154b61
bdca266c
bdadfe04
3f08df1b
3f0ffda1
be1b4aac
3edd9655
beaa66d3
3dfb6e8d
3eba4a6f
3df03603
bf3e52b7
bc8edd38
bea8990a
bdd0ad60
3e021b71
3d12ed07
3bf3788e
3e249ff0
bdcd1dc2
bedbb32e
beea0a6c
bdb98a6b
be97def3
be25f4d3
bcfbd413
be34bbf7
be755cb6
3ec93634
bceeba92
bd9b6d0c
3f0d0809
3eb9adac
befa57f0
3ed1bd0d
3d12da80
bd1321fa
bf230d5c
bd75a960
bbf7644b
bcac91b9
be2f0cb7
3e0562de
3e0b351b
bea7e8cf
be977864
3e38a8bf
3db02673
3d887fc8
3d9f0b73
3cbd8e40
3e71815e
bc90d6b8
be524739
bea0d364
bef2f3e3
3da65eeb
3d1463ff
bd2d9e74
3e9dc939
3e92fe9b
3e8125da
3d396c79
bd196eab
bdce8d25
be844786
3f29c0c8
3dc0b181
bdf5b48b
3de4d0a7
3e622421
3e395eeb
bd36829a
bee96b91
3c82ba30
3d51ee15
3e57a02a
3ea50458
bd99cf79
3cd7d98f
3dbb765b
bd8d8ecf
3e7514b2
bdf9e365
be3840b9
bd4cce50
be0c5fa3
3e93e248
3f0f2cf8
3f341f08
bd768698
bd80bcff
bd83da95
3ded595e
3f552c68
3eb5b244
bd29c367
3db672a0
bd762b0f
bdb184fb
bdeb22f7
3e91b653
3d94e52c
3e14d6c3
3de8dd78
3e118567
3e45cc31
bd45bbb9
3e259c76
3e2dc6d9
3e9ad774
bc8055ba
be035a2c
3c3e56cd
bf10e072
be272caf
3f2497bc
3f1a04a3
bdf30d99
bd83eea9
3bfba935
3c5afef1
3f003d01
bbdd9fa4
3e0c0ff6
be0ab164
be875ea7
3d063983
3e67c8ee
3eaca2b1
3dc64d7a
3e0f4206
bcdb14a4
3e010e94
3e87534b
3d091a1b
be3f1bb8
bd558948
bd4a4755
3df6d360
bdffb64e
bec29ce9
bf1728be
bf4844bd
3e6f4f20
3eda0bb8
bdc66bbf
bc7309f2
bdaf481b
bedc5d1a
3dfe13a0
bed0d954
3dc9d83b
be3a3b7d
be4a09fe
3ee9225a
3e8d20f4
3e20b809
3e1a4742
3eac3e13
3d66ac89
bdb75e83
bdabe45a
3e981b64
bbdecf6d
3d071c38
3ccdc091
be6fe413
3e8c5716
bdf91c69
bf4ead5e
bf7055f8
3d6ad00e
3ea44419
be033408
3e7c41f0
3e733e06
3d1bb21f
be1c10cd
bf75596e
bf9b9773
bf9d0ef7
bf7fb7b3
bed5e49f
be985820
be5f1b69
3ddc70f0
3edb72c2
3d5632db
3e279e59
3d908d5c
3d64481d
be98cd06
3d8c9adc
3e208440
beb62848
3eb300ca
3ee41c07
3e5e3d93
bed0c030
be0d52e8
bd64424e
3c12e7f0
3e2aac7e
3e98e094
3f1c2f74
bef58dc5
bf207f75
bf6b9b89
bf779059
bffaf03d
bfc3f0d0
bfaa3636
bf5ec720
be8c591c
3e3ad591
3ec1c699
3e3d1ce7
3e08eb28
3c87950d
bdc0a4ff
3e008f9c
3db3a77b
bcec5a6e
3e8fb86c
3e87721b
3ea05ac6
bf175f56
bf01b73b
3e4b46d9
bd3fd8e8
3bec1c00
3e52320d
3f20d236
3e6c19fc
bec0f31a
3d289580
bd7e3ebb
bf0f500d
bf6317b6
bf853e9a
bfa2245f
bfc639e9
bfa008c8
bf1f757f
bed62638
bdf1dda3
be18de6b
3d422749
3de794be
3e84ba49
be82a424
bd86b370
3e6b2e04
bca2eff2
3e609883
bf50b5fa
be0a0b15
3bba8115
3d72e44e
3e85da0c
3f044064
3e4fd180
be2ac80f
3de7c088
3ef4240e
3e778198
3eb59515
3e69ff5a
be137d06
bf2de5cc
bf97486c
bf508355
bed95321
be20e5b9
3e1b0e92
3e5fef47
bde33aeb
3be46e18
bad40e9f
3e116eb1
be06f635
be2e5ec4
3e286833
bee9d686
3c824c2b
bd127478
bd039811
3dc6b788
3ed2de9b
3f7dd3a2
bca4bacb
3ec8956f
3f131624
3e7b7bc2
3ee38f3c
3ea70318
3edc55ed
3e42a9f9
be6ad558
bedca29f
3c875290
be1416f6
bde38ca4
bcc8fb51
be18d526
3d8198d7
3d8ed7b1
3e8fe2e9
bdfa805d
be4b3fdd
bc6ee637
be957e36
be352f5b
bdf6cc69
3d1837e7
3e813da5
be1a648e
3f3bde19
be343513
3dbb635f
3edde010
3f1d420b
3ec50309
3e5b35a1
3e41d331
3ee6cfde
3ed8e08f
3d773295
be248bb8
bea6ccca
be3cece5
3e0fca71
be430e72
bdeffb0d
3d8b8b21
3e20b910
bd905f3a
3db26dc4
3e9db581
3ea2ccc1
bef2fc30
be00fbd0
3d9950c5
3d284ef6
be3a6350
3ed681c7
3d677dfd
3d40f243
bd1d9bf8
3dafb70f
3e843630
3e7c681e
3def4db6
bc9c85f5
3e38494d
3b4b5bee
3c6793b5
bdc6d35d
3d191567
3d05085a
be057265
3d55fd01
bc87448a
bd60485d
3d2c64cf
3e0e34bb
3f080482
be3dfc05
bea69767
bc38c794
bcb2692b
be1156dd
be8868b7
be52966f
bec537ca
be0ee5ee
be6b5118
bd9a2c1e
3de13761
bd9f819f
3da3a3a2
3da8ebbe
3d834263
3e796fb6
3dd35328
be9338a5
be0e3a62
bd2d6a2b
3db370a7
3db8e86c
3ebefa71
bb8bae6a
be16f082
3d2c1d31
3d8c1497
bee90a21
be15b460
3ceb2d08
3d0e46c4
bcb90ef6
be76c35a
be183995
befd62b4
beb310f8
bea5a98b
bdf6bc8c
bd974fb3
bc25e649
3e308e62
bbf8bb34
be0547a3
39aa1f94
3c27318b
be4e47a7
be1022e6
bce851e6
be0f5dd7
bd9cc8c5
bce5eb80
bed69bfb
3e96b1ec
bdda0599
bed037b7
be560efe
3c613290
3c214618
3d8bbcfd
3d22bdb0
3d503a9c
3e614340
beae89e9
be97f85b
bdbf11f4
bbb8255c
be3c1bdc
3e13465b
3d95ce55
3df53030
3df0dc5f
3da0e5cf
bd861852
be280ea2
3c6c2adf
be30e325
3e51f172
3e01a9e3
be800bff
bdb3634e
beb6a285
bf4c6344
3ed0eef8
3e44d86e
bcd1bd9c
bc2ed0d8
3d0c540e
bd1fddaa
3da8049e
be74b5ba
be9b4e9f
be82fa6d
bf20a09b
bcb1b063
3dca6ff2
bcab7640
bdd26093
3e5346d0
3e631a4f
3ea26b5d
3c9a6a4b
bea52e51
3d226bda
bd3d2d07
bee0a271
bf0d0b17
bde45676
bea1a8fb
bf6b3a98
bf2047d7
bee657f3
be0e58b2
bd0d7b29
bd7cec78
3d4edf1a
bd254b99
3bc585f3
be4a0b8f
bf0e116c
be38f235
be083d3b
3ed43517
3e103e6a
becc632d
bdd0ff69
be5d2efc
bda7c1c5
3edbe8e6
be8ce63a
be7fb1dd
3e1a93b0
bbaa4192
beb826fe
bdf2426e
3e68e2c9
3c303bb4
bec10f7d
be99000a
bdc0945b
3cf33718
3d4fc032
3d12bab6
bccb5db8
3d1f251a
3da39083
bc746a0f
3e31af0f
be8d94d6
beb27482
be906609
bf1f5e47
bf2b810a
bf0b1aa2
bf1790bd
3e84a79f
3f22042a
3e859cf9
beedad7b
bd23bb52
3eaec2b6
3e104b05
beb29351
be8e3b8e
3e0314da
3c349f97
3d260097
3d93136d
bd0d0b43
bd2a9808
bd0a659b
3d109c34
bd84834e
3d87e93b
3d9ca5ef
3c1a7982
bcaca0f4
bc0496b4
3d92d4e5
3d50f449
be9fa9e8
bea814a7
bec1189e
bf229a59
bede4729
be135201
be0ec559
3c5a1a06
bd8719f7
bea55e0f
bede3dd9
bebe9f03
3d773b27
3d96550c
3d7ce9aa
bd59a965
3d1c6ab2
bb0b5a20
3d0b0fe0
be30624c
