3cd87bc0
3ce77e08
3cf02efc
3d9d2a2d
bcd98bca
3d2f6c86
3c7b3068
bb5d8560
bd9cb6bf
bc459468
3c7b6ea0
bd7c14f5
be478552
be691f3e
bd7a81fa
bd8399a3
bd126b97
3d805b91
bd9bdb55
3d93dfff
3d29895e
bcf66c6c
3d1f1228
3d5feba2
bd2f1c25
3d10b090
bc8b7e14
bcca3f86
bbd369a0
bcd2d030
3d3cc4c6
bd15407a
3d3479da
3da4fcff
bda8e40a
bd832e1d
bd30e9be
bde30358
bea15afd
3dcb3436
3e2c132c
3d8531fa
bd90fbfe
3da3e9fa
3d9e659f
be40606e
bedbd25f
be30b6d5
be6a2eaf
bd5c77f1
bd36f799
bd6da01a
bd7af0e6
3d20553e
bc922ee8
bd93e574
3cd8ff30
3d60efda
bca61788
3f1f830a
3f15603d
bc3a82bf
bde38690
3da67053
bbcaa1b2
beacb5d6
bd96f030
be00efdf
3dbf70c6
be3bfd01
be05ac63
be6598d2
bebb5aca
bf1c3410
bebb6b66
be1f8c44
be45164d
be4f10ba
3cf0ec38
3de2b4ca
3e73e362
3e5ff0f4
baa7e580
bc3d41a0
bd8649a1
3c0d2980
3d46e5b2
3f229268
3f2d8888
be40d877
bea5cb21
be299f0d
bd04f84f
bf421ffb
bf44093d
bf1818ed
be3a2104
bf13d109
bf7e043d
bead6501
bf044378
be41694b
be8eb01c
bed5baa9
be9b1bc5
be829317
be86bd91
bcc1aa45
3e21358f
3dd5639e
3d818aa7
3da07ced
bd4e6a69
3d7a0062
3c127392
3e044d92
be9d376b
bf3f966b
bf4b1b9b
bf180553
bf61279a
bf414349
bfacf21c
bfa22ca1
bf2bd9f9
bf8f69ad
bfa2495b
bf7ef291
bf15e935
bf08904f
befc12b8
bf1fbd35
bf0b706a
3ec5ad52
3c072994
bf00d71a
bde61954
3d952ecd
bd1e9096
bd630f19
3d43d92e
bd490f12
3d6e4e5e
3f158b62
3ebdfb19
be3cebe9
be95d81f
bf1fef0a
bf56ad68
bf2a0e8a
bf6fe235
bf084dc9
bf1617dd
bf505686
bf98bb3e
bf6aecf9
bf617488
bf478bc7
be505269
bf41a33a
bf8db31a
bdcd3dfe
be3c3cd4
be5f1903
be87e4ea
bc961e0a
bb451325
bcd49d55
3d961e67
bd971722
bf0a2fad
3f2ceb2d
3e89d292
be1acd11
be7966f4
bcda9071
beb438dd
bece7b89
bdca65b5
be98a8f0
becaf45c
be5d227d
bec66036
bf3d2273
bcd1e61b
bea58865
bf4c1db8
bf34df84
be49ead3
3ea85994
beb2d33b
be7c60b1
bf1a9180
bf14ba05
3db749ea
3de03819
3d87d765
3dfe7aff
beca927b
3ec2bf47
3f11ab3d
bd6c7e9a
3e927871
3e9fa5c0
3e5abc55
3ea97065
3d060c53
be34aaee
be11d8c6
bdcdbf86
beee9fd5
bf461754
bf281239
bf2c129d
bf155b6d
beaaa585
be8e7228
be0aa064
bf488fd5
bf0073cc
bf681c95
beca7fd9
bdecd225
3ea4ba52
bd1671c7
3f574ce3
3ea2c0dd
bd08ff24
3e4b57f7
be50cdde
bd13ba6d
3e4d6ed4
3e9fcf96
3e3400a9
3eafac36
3eb60bc2
3dbe6b37
3d05bf64
bd0d51db
be7c59f8
be23ffba
be6750c2
bdc0031a
3c8e829d
be9b446e
be3a817d
bf7f3dae
bf634ea8
bf5ec825
be67d359
be3374a7
3d1bf0ff
3d7aed16
3db98f34
3c7f3d96
bb444fec
bd813a65
3e6912e2
3e25535d
3c860519
3e0aea51
3e3d7fec
3d9cf4e0
3ea50780
3f0095da
3f2689b8
3f0c90fd
3d259de8
bbc13869
be186da7
bed7cc57
bec1d5eb
3e63339d
3e69b186
be911a05
be9637af
bef8b440
bf1ee05d
3e68337d
3e94bf96
3de030aa
3d4bb66b
be67e5fa
bea3ea21
bea74380
3ec8388d
3ef45259
3e279749
3de47d86
3e985eab
3dbcecc5
3edc6e0b
3f36b6f0
3edf51b0
3eb7cb07
3efa95c6
3e8977be
3cd6543f
3e1d2d82
3e050243
3ec812c7
3e1d20c2
be9209ae
3e3b13f2
bef0aa6b
bebae27c
3da5230f
3bffd258
3dccc51c
3f88afed
3eb14c82
3d7841e5
bcb906a5
3e54cc93
3d7a5f6e
3ddbf70c
3e83406d
3ecaf8e5
3e37898c
3ee50704
3e54f70d
3ecb6deb
3f00c2a1
3e441b4b
3e87dca1
3d9c3495
3d1a6d43
3e139ec1
3e89aebc
be994c0b
be90d35e
be324046
bedbd396
3e070074
beb59174
3e28311d
3d3c34d7
3e86e6c0
3ed73f77
bedb65b5
bdc9fe22
3dfcab11
beb0eb06
bdf65db1
3e5cad06
3e0adbc3
be939e4b
beaa27aa
3d88571f
3efc8cb4
3eeb9c3d
3e41fc7b
3e0c9ada
3de3b374
bdbb577d
3dd2e7a2
3db5064a
3dc03cf4
3e97d16e
be308958
be46a9e8
3f1b4772
3f3322d3
3f302a25
3c08bbc1
3e95a597
3e5814dd
beb637fe
3e33af9b
bd5828a6
be7d9388
bf1f975a
becdaf1e
be84b7ae
bed12cbc
3d9e9c66
be1ebd29
3cecab81
bea1921a
be0bd0ec
3b92b1b6
3ca7b211
3dab237e
be555272
bd76780c
3e9f2ae9
3eed61d7
3dd1c397
3e77d653
3ec7965e
3f9193c4
3ed58b7b
3c9948ec
3e0f08bb
3dcbd333
beb4d640
3c896fd7
be20fe0c
be93c623
bf025f5a
bde45bb9
bdca66a4
be25527b
3e0d8192
3dd15f0e
bf0d597d
be96ff73
bc8ca18c
bd9ef792
3da41417
3d72cd75
3d1483ee
3e197fc1
3e309f2c
3db320c8
3e16a1f8
3e2c491a
3e00022c
3f65d096
3e306dfc
bda6517e
bd6d88f6
3d22caae
bf1b133c
bf492b12
3e43befa
bd5f86e5
bec8b28c
be8b105d
3e545e3f
be38ff5e
be3bf5a1
3ebbaf1d
3e885816
bd372a45
3be525c2
be0a454f
3db51716
bd195963
3dd4eb09
3eb37c88
3e0f4d90
be1000a6
3d806bb1
3e6f2236
be718932
3e9c2503
3ef1e26d
bb9013b5
3e910ae9
3ed7a015
be9d3d52
be110e0f
be558ce7
bd60807e
bd0018eb
3d374c43
3d40ec64
be2f7ba5
3c72924e
be282eef
be53c99b
bdd75f84
bdd9dbbc
3cffc880
3ddb5944
3c1d9e64
3e8be83a
3d9fdf53
bde41466
3ea10796
3ec01615
be825d67
bc73d837
3f27106f
3f2f9f7f
3d02053e
3de3f718
3e89aa82
3e81b30e
3bde915b
be2fc584
be954463
be89fe43
be086372
bd32ba9e
bc7b46f5
3de654ff
3e9e1b97
3e220aad
3d8f1b40
3e8e2502
bdf768d3
3dd5cdfc
3bbbc13a
3e5c2439
3e6a0be8
3e7270f9
3e350c90
be09e7c5
becc9749
be018af8
3ea971bc
3f801732
3e9e8128
bda0cd1f
3edbd0dc
3dfdbf7d
3e7358d6
bc600633
be0cbb0a
3d816d2b
3cfae9f0
bc6fcdcf
3b8e33a7
3e5aade4
3e4f2e43
3d2e7fba
3d49dc94
3d68231c
bebe3143
3e2067f8
3e5065fe
bd8c5246
3ddb3342
bd8ae53a
3e53a7f7
3ebc2c95
bdd11ab4
be8dbec2
3eb71692
3ec7e627
3d6ca57e
3f1b1a21
3f4982bc
3cc2d149
3f05bbb5
bc2fc940
bd0971b3
3e3d3ed1
3e84e6c0
3ddbe0b4
bd054972
bdb5ee29
3d02a2d9
3daebef4
3d74633d
bd952f49
be034b1a
3db9a097
3e175a72
be5e2898
bdc37d65
bca92f4e
3cab1934
bd7c2979
be970e53
bdb0b420
3eff4340
bd93990a
3c036f00
3dd2659a
3ebb83c8
3e96a81f
3f4b82fd
3e918673
be6ac377
3d112b01
3e95facf
3e0bc609
3d9962aa
3d22e8c6
3eaa98a4
3cd6bdc0
be6ca077
be6fca97
be50e3e9
bcee9638
3d3c6ccf
be8e555d
3c5bda81
3e9c1c8f
3defc418
be00c73d
beebbf4f
3e492aef
3ee41a21
3d20aaea
bc002948
3c9d32e0
3ea4c557
3eaa9e8d
3f4ee23a
3eecc4f2
3cdb4208
beff6b73
bec1451e
bec26e69
be9efb09
bdec09be
bea47282
be89db72
beb209c0
bf0972d0
beb41630
be846694
3d58bf76
3d34cd46
be516cf7
bec437b9
be86eb14
be3dbf78
be2e4956
3d5a9fb5
3ee6ff23
3cc157d4
3d029e9a
bd47ed68
3ebbd798
be1ccf6f
be2b333d
be7cfe8a
be777649
bf1c94dc
bf60f8d2
bf090958
bf6dbc8a
be92e1ec
be50e75e
be770d7a
bd84740a
bd7e265e
bef48c1c
be6f50ac
be20d442
be71ac00
bef9475e
bed003e8
beb52123
beb05499
3e6b66a7
3f4b6286
bbe5fd16
3d6517ce
bd16d89b
bd6ee09c
bd76a2c1
bed7012e
be5afa0c
bdccc4df
3be96e7c
be93a4c2
becb3e8a
be962acd
bea218de
be909b82
bde92775
3be31530
be56bb60
3ce1bfae
bea37554
bde333f9
bd09a5a5
be174f74
bf1f695f
bf0b6911
bf54ed08
bf13dd70
3e517b69
3f4e1126
bdef0e39
3d6356ea
bc9a5ef6
bd75cc83
3da245c5
3e0e3d61
3e391769
3b3cd283
3d6140e4
be117325
be68e093
be999b6b
be8fe4a9
beeb9217
bef61d4b
be890db3
3ced9900
ba830fe2
be2d62e1
bec03206
be961b05
bd7db04b
bea1a967
beb81569
bf088ce5
bf51d505
bebf26e1
3d75e646
bb94076d
bcbc5576
bd300c9e
bd5fbe02
3d9ea405
3d26b5c7
3e897694
3e198fa7
bea83342
beb20322
3e9e2f2e
bdf65bb9
beb96e36
bec38009
3ef8cb8b
3ed1bfb0
3e2690d7
bded7a86
bd83ebd2
be061304
3cbb69c7
3e15ebc5
bee2c8b0
bf21995f
beec3223
bf393422
bf04b576
3d73bda4
3e110125
3d8ee133
3d1785e0
3d99ce91
bd74daa9
3d14809c
3ec78610
3cd92479
3dde31f7
3ec8abfd
be54a615
beefe52d
3db990dc
be1aa4e2
befc1c69
3e7f4349
3e94452e
3e2a3456
bf2a022e
3cfac78d
be93cdad
bee5f64b
be1f76f7
bd547016
3e252c23
be35c5f4
be4aec84
bc664101
3da49329
3c386a28
3d4538f6
3da1c151
bd045165
b9dd3d00
3e46a534
3e897862
3e9282dc
3da09c26
be5bdf5a
bdf4e8c8
3ed9a4dd
3eb37f52
3d2749b6
be05083a
3cf6f5dd
be8193b0
be8cacc2
3e100487
3e4dc95e
be3ee38f
bedb2a3a
be93c1c8
bd62d366
3d1ff442
bc04b320
bd45b50b
bd91c044
3caf998c
3e630c6a
