bb877010
3c7128c8
3d0619be
bc88a6ec
3d09a89e
bd0294ce
bcf779d4
3d6c1606
bc3e02a8
3c11ebb0
bb1891c0
3c8cdf28
bd26c305
bcf71eaa
3b898690
3cda9dfc
3d961711
bd7d758c
3c002fb0
3cd49f14
bc9fafb8
3d9cacdd
bd9dff2f
3ccbffc8
3d2fbf6c
bd841d16
3d71e1c6
3cfbf544
bd1cd3b1
bd82105f
3ce4658c
3c8b4550
bbfa5b10
3c82846c
bd577dbe
3c587ab8
3b97adff
bc3585a1
3d404fcf
bbe43126
bd169de2
3c555963
bca864e8
ba56ff34
3d0ff53a
bda48e1b
bcbd0e7d
bc77d768
bd405406
3ccae78c
bb8e4400
3d9918b5
3cdb0acc
bd7d4c33
3d57067e
bda50388
bd629f68
3da336f7
3baca970
3deb1caa
3e0cd571
3d7e9fca
bd850f4d
3c181dcd
3bfee960
bec0a283
befa5904
beaba0b9
beac82b9
be5b2b9d
be8ba5e9
be4c5ad4
bdd63d69
be80f3c4
be9aac9e
be4f89b1
be0790c2
bd59eb8e
bd3a3e36
bd106a37
bdbf2e66
bc825027
bd34956f
3a994600
ba9a6980
3d564f0a
3cb1e948
3d5377e8
3d8ef3bd
3d51a9fe
bd25ddc4
3db4ae38
bf385ef6
bf93ed6d
bf6f5c2f
bf895e49
bf7d9ad0
bf19e8f0
3e057564
be8760a2
be25ef8f
3db1c18d
3deaf2ff
3e5c4d5e
3e8cd038
3e003e00
be0765c7
be0bea5d
3dd736a4
3eb95d74
3ef2c48c
3cbe80d4
3d821c3b
3a88a180
3baf98e0
bd18955f
bd19371e
bdbaa757
3da62165
3ec29a36
3ec50111
bd353c6f
bed784d7
bebecceb
bf209fd0
bde3f8b1
beb1bac2
bea5f7ed
be38ec6f
3e61e424
beb08a1f
bf563ba4
bf17ced4
be8a8c22
be9c7995
3edea7ae
3f14938e
3f799dab
3f89ce1f
3d57362b
3d8dd3f1
bd9daa0f
bd030e6b
bc996aa9
3e0c52dd
3ee7c783
3e1af459
be20ee19
3ee62aea
3ee70153
bd34294c
be8e7b4e
be7fe639
bdc33b36
3ead26a2
be81baa0
be85eb57
bebcea09
beb935d0
beedf10f
be682816
bc9b3082
3caa7365
3f33fe91
3f3d12be
3fb38bf7
3f8825a0
3e7956e9
3bc5edb0
bda09211
3e244289
bf0f52b5
bee49518
3eb899b6
bd0ab93c
bea5c2c1
3e76536b
bdc84832
bd85dbef
be93e7a6
be755025
bdf60522
3da2f16f
3e7cba36
be083e9f
3b6f3a4c
bdc3f579
3da603da
3dfab150
3dd2dfc5
bd1e2cc3
bde2b147
3ed5f979
3f7a56c6
3f537472
3f0009c4
bd16d680
bd8c2c96
3e09e195
bf035345
bf6870e1
3f02042d
be01c9d4
3e8b5af3
3e5ae70a
3e7febc5
3e725464
3e0509a3
3d972337
be14904e
3d1ad070
be06b5e1
3bbe16f1
3e10e9c3
3e24ebcc
3d9d474d
3eaac6c7
3e9f66be
3e497589
bd32659d
3e3c19b6
3e965a1d
3eaf373e
3f23b095
3c537731
3d3d283d
bdb6bb13
bec2380e
bef1d75b
3ee88f6d
bc8055b9
3ebd5dff
3ef26f37
3e8e636b
3d9766f5
3e34a798
3ebb4c4d
3e3cf0ab
3ddf3505
3cd6cb72
3e4bc9dd
3e0af547
bdb863b9
3e0c63ee
3eec97e0
3e7423fa
3ea2de24
3db2bf20
3e8ed772
bd66b74a
3e2750b7
3eef2100
3d2b4cab
3d749303
beae0d6e
be83b9cb
3c624464
3e1d49dc
3d8cf900
3e7555d2
3e202c1a
3c8af29c
3d8296bb
3e43e9aa
3d38850f
3e1a8377
3ead1e07
3e896db9
3d50cb92
3de7e36d
3e6fcca6
be196dd1
3e1538dd
3dcaf527
3d8c1555
3eb3f6cb
3efcaf6d
3f4f0286
be182713
3ec572a4
bda24799
bb98ab8f
bb5fe2de
3c523776
3e4c0411
3dff5c08
393c2b96
3e09be33
3e0dd2eb
3e224511
3e96f1a5
3e7cb828
3d5baa81
3eb6661e
3e381632
3de9d853
be76015c
3c85fae5
3ec196a3
bd7f7a57
3e84b8d3
3e198d5c
3e81c9fb
3db7f169
3d727661
3de9510d
3f12a1f0
3e8543f9
3ced0f5b
3b8e8c34
be337f85
3ddfb171
3e5741bb
be996e46
be8a873c
be76d8c3
bdfeec67
be0fb235
3e1f94e3
3e5465c6
bd44c70c
beae42aa
bf256411
be6b8c28
be98f58c
be864d96
3ded89ff
be3761fe
3d8af102
be861491
be0426c7
bd4fa696
3f14c050
3e80d3bc
3f2e2f05
be804751
bde87a48
bd8b6960
bd5a397f
bdc37e2d
be8e82c9
beae27ce
be20b6bd
3e476ec1
3d6d9987
3ebf47e4
3eeef950
3f0bb7b0
3ea465be
bda8a55a
bf22dbb3
bf3d673a
bf1035aa
bf1e4c55
becd3d0b
bed5a8b6
be986a1d
bf2eb0be
bee0fe6d
3d13bf52
3db9c90c
3ced8413
3f4ab981
beceedb5
bcf0a41c
3d207d85
bddfc160
bdd08e0c
bf42c908
bd1d2dca
3e376f33
3df4416f
3bb7a977
3e83496f
3ea56b74
3e975951
bca06c44
bb376891
3dc762b2
bf040ce5
bebe8a8d
be956a91
beb78805
be2d7335
3d66326d
bef70c3b
beff8b66
bed67360
3e63ce7f
bd66c1e6
3ebce347
be91f6c2
bd154346
3d6825e3
3d936e29
3dcf50b2
bec9c902
3c7a1ed5
3ed44e4d
bd829da4
bd0c506b
3e97fd85
3eb975c8
be4c66b9
bf17a7fc
bea7f490
be938070
be8638a4
be919996
be221cfa
be80f854
bed498a9
3d5cd760
3c6feeb8
3e1b5bbb
3ea51db6
3f8408dc
be6fb366
bf0e7ef4
bc536201
bc942e99
bc26d590
bd46d021
3e8a6c4d
be02427a
3d5dfe97
3dd28518
3e51fecf
3e25092f
3eaa97a2
3e117ae6
bcccecfc
bed9c393
be8481f7
be5cf313
bef51d92
bec65ab3
be9c6fa5
be8c7bc6
beb33341
be9676d3
3eb73e9f
be7abb0f
3eea3d03
3f83a8a3
be9cb2c9
3a883c8a
3be1dce0
bbefab30
bd239b6c
3d2e7cd6
3f085789
bd393303
be113edf
bd3a9c8a
3e0c7e3e
3eaa6bb0
3ec91624
3e2ccb60
be8d9c2e
be52116c
beadc417
bdd6d4c4
beab6955
be8f7166
be89b41c
bed00b13
be4d93ab
bec9092d
3da2d3b4
be86c1f6
3e03cf09
3f241c6a
be0d0f6f
3eda0d6c
3d78f1b6
bd8aea3b
3d195023
3d877b0f
3efbbbea
3c0d2e1e
3d7ecf28
be456de8
3e1f7e1b
3e2514b7
3e01a259
3e529e72
bd7e40bd
bf36daa1
bf1f588f
beea9e32
be7bb392
be970a98
be3024d0
be1ce816
be96adea
be4bd88e
3d1c14b8
be5fcc48
3e65632a
3e99423c
be6de6d7
be49b3da
be57fe77
3c84c2cb
bd53fdca
3c56bfd3
3ecaedf1
3cf39915
bed22a3c
bea190b5
3a52d9bc
bea3189a
be722af6
be6dcc32
be82a049
be947ab8
bf23007a
be70e25a
bd0210be
3e3363af
be0c169b
beb9f6e5
be5bd4d8
3eaacf8b
3e361634
3da9bcf4
3f1616e1
3cf737b2
bd161d15
bed4d497
be9ea769
3ce9a780
bd3b7bb3
3ca5c76a
3f03bad2
3e9ef006
be11ec23
bde56a7a
bdaf4d21
bf061097
bf0e8332
bf5d365e
bf438245
3e3c15b5
be2a95e2
3d8d71d9
3dabb261
bdf35f34
bb5c0742
3ca18bbe
be8c98b4
3e0d22e9
3e00f6a0
3eabee3a
3e489b15
bb9b6af9
be9403c9
beee4665
bdd4798c
bd61e61c
3d305123
bdcb85c3
3f07d06c
3ef3317b
be46d60a
be111a27
3d97e72a
be7f32a8
bedc73be
bf61d0ca
bed837da
3e5ccdd8
3e2213ec
bdcc6cbe
bdf8c585
be9b8c99
3c3588af
3df65164
3d9d99ee
bd13f849
3e08138b
3eaba41c
3e62ddb9
be802d1d
bf94daa3
be9305bd
bd1bfad7
bd0d28b0
3d5108d6
bd0b1bbc
3e92d953
3e85d1e9
be43e23e
bea7e5b8
bca57358
bb43b5e7
bde062e4
be723cfa
bd6d68cc
bcd15482
3bfe3da2
bc9c94ab
3d915e58
be7831aa
be08d513
3e16604f
3e977d58
39ed0bb4
3e1ac451
3db5ff27
3d805d2a
3ec9c141
bf290720
bd47be7c
3d8f4908
bd7f2478
bda05918
bda1f883
3eb7befd
be7e0d16
3ee30323
bd4c132e
3d856246
bd2c4694
3d288a4b
3d4741f3
be8f4b27
be9a0e64
bdd65ef4
bc2c359c
3e34ba1d
3d8c15bb
3eaa1d99
3e82f2a3
bcc3845d
bd2ca990
be387847
3e0da791
3e3a1a5a
3e005045
bc3ad9eb
3d7fd737
bcffc0a3
bd5fb64e
bd9eff33
3da74737
3f389b28
3e023d8a
3efb0634
3efffe40
3cd1d4f2
bd173cb2
3eab33ed
3f34be9c
3d6677e2
3dfabf46
be3505aa
3de573d2
3db3e21e
3f006ba4
3db30969
3d3edcbe
3d8b1ce9
3cf39bed
bd407094
bd6a425e
be2029b2
bcf5b29d
bdca1868
3ce0bf98
3d6ea552
3d1c4a4a
3a63a980
bd1af3c8
be050879
bc8f579b
bb13a9ba
3f14f7ef
3f12b5c9
3e2b5813
be05a4a2
3e1fc492
3dea2d76
3e51bb4f
3ea09aa4
bd66fa0e
3ed142ee
3e07a9b5
bcab1a42
3eaf8b73
3e9eee93
3aef8e4f
3ec810d2
3d9aaf7d
be1c53c4
3ee7dbb4
bdc11e9c
3d7bbc96
3cbb9180
bd93a645
3d88d8ab
bd4aa40e
3e3fe7ab
bea77c19
be9405fd
3d6ced3d
3e1e4a34
3e60d75c
bd2afb69
bdeaa3a8
bccb88f4
3e1f84e2
3ee92860
3ccbd02c
bbd7ee34
bec81bc2
be16fd5e
3cc4388c
3e7653dd
be0d3af0
3f27380e
3ebe2456
3ec59622
3f877d5d
3d97b7ed
bce59e1c
3cf3689c
bd53fd54
bba657a0
bbad3420
3d89ad4d
bcadeb25
bea94b6d
bf35e803
bf2575b4
bf12a067
3ca01c4d
3d4db7b6
3da8e6b7
3d8e6e16
bec5e964
be753c87
3eabfe8b
3e9f3eb8
bf43d1b5
befcde1a
3f2fb120
bd660d10
bd1457f3
3e5414ca
bb65a604
be687d0c
bd23bc80
3d425e42
bd01449a
bd154ced
3d132fb2
3c3a2928
bd49dd12
bd9a24ea
bdbb0759
bdb75dee
bd5f5e46
3c00a489
3dd1d53e
3e30c836
3e3fd823
3e91e21d
3e7c615e
3d98348c
be9a3b49
becd8428
bc6adb39
be575eb7
be9030c0
3e057aed
3ee29207
3ea30a54
3e9fb42a
3d16ec28
bd0ebfcd
3c4d8530
3d3b8582
3eeb0509
