3d9ca0f7
3e560029
3e0bf7cc
be870696
3e04de16
3e93b2a3
bd91f842
3d30c94c
3da63e53
3e8e6892
be9c2b26
3e03be2a
3f2edee2
bd9bbb33
3e757f4d
3e74a2b2
3f2d2c53
be02e7a7
3e4954c8
3e395197
3e9f915f
be75ad26
3e99cd48
3d51dff5
3d533347
3dc4dbfd
3eed1209
3dd2e9dd
bed4911f
be526e2a
3eda7f52
bdd48adb
3ec12f24
