be93c2a2
be0be1ba
be149222
be3729a8
be3e7f60
be1653e6
3e61b1e5
bf1287ca
3eba0c19
3ee56d62
3ecc0913
3cd39ffd
3e112b25
3e23e2cf
becb786b
be75867f
3dc5f37a
be6e2d1f
bdecf694
bd92e8f6
3e0f9fc2
3dd814e9
bddcc35b
be52eac5
3e0c6cf2
3ec26720
bf32658f
3e27baa1
be7dfbb1
3e2681ee
3dabe48b
3e322a85
3ec5d5e9
