bdc37832
be470765
3d81701c
bed9ffb8
3ea6e3ea
3ec5227a
bf0b92ab
bf00c709
bdd1ecd5
3eabf740
bdfe277c
be455c5e
bf1f67b0
3ec97578
3e70e09d
3d5ba26a
3f11adad
bee2b06b
3e6a36bd
3ddb3521
bd8a4d8e
3ed8a196
3f3b8ebf
3e554dcd
3e3a64d4
3ebfb3e4
3d99b902
be48e9aa
3df5dcc3
3e5ba4e3
bd0c59a6
bd384d2a
3e39f21a
bed67b18
becfa263
3e3584df
3e9f2ff9
bd660fce
bf0b8bcc
bed1ae20
3e956335
3dd54c23
bdc7c350
3dfa531c
3e9d9f3a
3e8a9024
bf5e01f1
3d7ad79c
bc8f7227
bef68b5b
bd505375
3e15b0cc
bd938aaf
3e4c2845
bed1e4e3
3eeabe14
bf3557fb
3e24bc90
bf0567a9
bf32f848
bec4bf26
bf8219e1
bf2ecf94
be8792e2
beffe977
bdf580ab
becda1a9
3f1ceba6
be7658bc
3e2d17ea
be8a113b
be0f2b5d
be99e492
3b4d47b2
bf1af6e5
3e39f58a
bd289983
3f23bbb9
be8e0481
3e4c00d8
bf24b0af
bf088750
bf1ae52d
3c81ec8b
bec2ab5b
beb0c821
beb438b2
3e369562
3e59c8f5
3ebdd3f6
be2d17a1
3dca2774
bdd05654
3ed5457f
3d216aa5
bd98be53
be0b09c1
3f25a0b9
be97668c
3d592e6e
be96ae2f
3e61e404
bebe8979
be30111d
bf09095c
be307ea9
3db828bd
3db9876e
3eb11ea6
bc98a82c
3e1b4c7f
bcac25e0
3e413ee4
3e01e744
bf2a731f
bd8593e7
3e366bee
bd9327ff
3e81772d
3df6acbd
3f4eeb43
beb2fb7c
bf03693f
be1da42b
3ea5c7d3
3e6bd851
3ea449b5
3e4521f7
bed9411c
