bd8ab0c5
bf033a7f
3e3918a1
3d398b38
bf86d405
3e9d75c9
bd07fea7
be104bd6
3dbdbd4e
bf4e8aac
bf1040bb
bf7c91b7
3e09923a
be9f3471
3e9f2f85
3e2b074e
beba8271
3e09c9dd
3c51c66d
bee0fc2d
3d6b45c1
bf5811a1
be9d174d
bf60528e
bf1104b5
bec1e947
bef0b6bc
bd30a9fe
3e2ba377
3e11bf04
3dbee8b7
3d687a70
be956afb
bf6c3367
bf579329
3ee1b53b
3ea419fc
bf683022
be83c628
bf50bf61
3e9e46a8
3e1a9a3c
3ce46b49
bf173da6
be0b0898
be0f08e6
3d423954
bf23f1d8
bdd7cba4
bf085d8b
bed800ef
bd386948
bf1d74d1
3e0eed08
bed0e820
bec43671
3e97b75b
bedbf2f8
3e83b525
be0f08d1
bf676843
bd621a0a
bef5dc5e
3e17762a
beaee935
3e4ac15f
bf2be752
bebe3cd2
bf11be62
3e8b76b7
3df30171
bf5f5177
3dc36631
3caaba64
bef4f6d1
3d848f92
3e415213
bfa67d07
bbf5be24
be631200
bee5b37e
bf14f499
3e1e45eb
3e75ec08
bed75456
3e9bce3d
bed8d347
bddc19aa
3eb647b7
bed2ff3c
3d8d825f
3ec4dabd
3e9ad9c6
bf12a4e1
beaa7675
bd1eaa3e
be9d9d36
bec15c29
3d9927b7
3d0ba796
3ccd755e
3d9dbffc
3c442787
bad0309c
be957361
3ee47acd
3df5a25d
3e2e09cc
bf12b13d
bf4ca3d9
bdabd2b2
bf0b815a
3d2fb531
3e2e5fe3
bf28a40a
bc9e60a0
bf21e65a
3d832bd1
3f37cd15
3dfeada9
be2a7466
bf343e3d
bf8daf2c
bf3d3093
bdb38b71
3e3b4f70
bcdbb587
be64c16e
3e2acb2c
