3d3262d0
bd5da110
bd5d4b4f
3ca8afc8
bc2891e8
3c99bd98
3d8859a9
bd3656fd
3d97d253
bda344c1
3c0860b8
bd4aec7d
bd9a9ee8
bd92c84f
3dbfab3d
bd90d336
3d372a66
3d98dfc9
bd9c1200
bd8a88ac
bd31f1e2
3d7a4b5a
bd67a5c8
3d4b98fa
3a11d100
bd9030ea
3d2eb340
bd854f81
bd7a3a18
bd99d5fc
3d83935d
3c0e95b0
bc681d5b
bb565029
be5274a2
bddeb1d6
be149a4c
bd64e6a0
bdf3d65e
bdf34287
be05e8ca
be01740f
3ccf5a20
3e091136
3e7698b7
3d30eeca
bdea9a8a
bde6ce24
bdd92ce4
bd40a2ee
3c66fa81
bc3d6b3f
3d9f0529
3d269974
39ad7f00
bd13aeb2
bd826a43
3b7e72c0
3d0b8bfa
bda00bad
bda3838a
bca00e27
bd9052e5
be4c10dd
be84b291
bed5a7c8
3b855123
be675a88
bea418b7
bf26e03e
bf5b7b65
beea5c26
3f03f063
3f076ae7
3f0b574d
3f088ece
3f20eddc
3effeed0
3e0e04d9
bde08ee6
bd876590
bc50d0aa
bcf80b38
bcd3644c
3ccb1c78
bda43a47
3c61b9e1
bf354169
bf832c7b
be684d9f
bedd9e04
be53ef1f
beb062d1
bf7cd4a5
bf045a92
bea430c3
bddc765c
bd83a4ad
3f08b285
3e3d767f
be52d763
bce68bcb
3efacdc8
3da603cc
3ec860ee
3ed9d6a7
3f357bd8
3f0d0d10
be7a6953
be4198c8
be543aa8
bc1616c8
3b48b460
3d98e18f
3e5c6b9f
bf076a7e
bde4b3ef
bdba857d
bf3d0de9
bcaddc83
be95f379
be1807e6
3ef9568a
3e96bea8
bd1ae3ab
be483a6f
be826aae
be61188b
bd905162
bcce3270
3ea79430
3f2b27cd
3f0c60ac
bdfda841
3c877651
bebbd257
be75ab7d
3e5350aa
bec09d15
befcd95c
bd0ea045
3d6601b2
3e3349d0
bf776995
bf159fbb
be3a3e40
be2feb9e
bed6822f
bf0b079e
3d17d92b
3e016fc8
be0a1f1d
bebee5dd
beda7c48
be345956
be3e3ca4
bcb03c0a
be95dd13
bd125e2b
3e886bc5
3e3548ae
3e08b04f
3e973c46
3ee0e898
3d909f84
3e90f863
be9e4c84
bed1e47c
3cd822c4
39f5bc42
bc19b9af
bd5deca2
3cdc90d7
bda192d8
3db5a80d
3dad93ab
bd95120f
3d74d3a3
bdc502a0
bef6b66f
be8b7e94
bd75f5f3
bca96ae8
3c996a05
be14d3c6
3e31202e
3e3b6427
3e42469e
3e494c97
3e66475f
bdf8d337
bd831ec9
be9cd73e
be5d12d2
3f2455f9
3e636bee
bd09b7f8
3e169755
bcd20132
be66f226
3d4362dc
beef67f2
3e5bd14b
3e98f275
bd0156d5
bea3bb2a
be853da7
bea866cb
3d959cc2
3c83a9d4
bdedad86
be4c5faf
bedd0847
be0691ef
bb985dec
3e9f7a07
3dd3a09b
3cecc4ff
3de40838
bc76207a
befe76f8
bf03db10
3ee9b121
3e2c2337
bd0e6756
bc146ac0
be2a0c5b
3e04cd97
3e5dc841
bc9be867
3e89e4ca
3d62a7da
3c62bcf3
bbc3a581
bca36b8b
3e0021e8
3e835f38
bd9f7271
be889cd3
bea1e106
bea28b20
bc8f85c3
3eb4e295
3f1ca905
3ddf7b39
3e861c3e
3e0e63bb
bec34bad
bf586173
bf35301f
3e9e0561
3e68a498
3c166b70
3da181a7
3f2ba7d4
3ee4ae0c
3e2297bf
bc942599
bd9e0541
bdd8e423
3e203b4e
3e140788
3e732bc6
3e82a566
3e603e44
bea0d282
bebeea09
bf0bed0f
be5667d8
3e1a2d0c
3f05c20f
3edcd3c7
3cdaa8c2
3e6d0ad9
3dea05a3
bebd4a4f
bf98dce2
3e3e2396
3da6142a
bce6fc88
bd2e07d1
3e18a2c6
3d835594
3e847cba
be5ac424
bef79195
bea93e7b
bcde5384
3ed5a2a4
3e560df2
be64b6ce
bdbcad76
bea09f8b
bed89a43
bf25d31a
bf209abb
bd4faa91
3e919d79
3f1bdd7b
3ebc464e
bec9a517
bea046ef
bd040db0
be0be09c
bf3c848e
bda8d8aa
beb829b9
bd9cd539
3da35d3d
be8dd370
be904b0f
be940fd0
be9f0a49
bf3359cb
bde3971a
bd20981a
3e873c30
beeb15dd
be902463
bf7d4fb0
bf3d4613
bf18437c
befdaa2d
3d39356c
3eeaec45
3f096eb0
3eedb31d
3e8643f1
399ea2fe
be83e112
bcaa5dea
be52febb
bf5e8b77
be762cde
bd0467ef
bd896f59
3d611e90
3d2498b9
be4337b4
bf1db1d6
bd17c5e1
be848377
3d92f7bf
beebf16d
beabc083
bf3e88c0
bea25633
bf215fac
bdac96f0
bc592b47
3d7fc2ed
3e34b0a6
3dc3f84a
3ec6e3e1
3e0c9671
3e890104
3da3215c
3cc3e13b
3dceeec7
3e2a939c
3c925de0
3f1287ec
3e2556d9
bd6d8214
bd7ca51c
3cca7b01
be1ee240
bf3eb655
3d59a445
3e312ab3
beda9bad
bed2e2b1
be064025
becfab13
be4b4422
3dd308ce
3cf795b2
3d370abf
3d92f385
bcb7948d
3e434807
3e64be94
3e4c20a6
3ce0df9f
bcf1fd32
3e37a256
3e00e14c
beba94ca
3e2b30ff
3f0a0622
3df83ce6
bd3b09ba
3bbd2028
3d6a6ad2
bedfe5b5
bf1244ad
bda8ac5d
3e8c8837
bd661950
3d271b0c
3d0f5bce
bcf150b8
bd777b9e
3e60f139
3d71ff26
bd6d9b78
3d72e78f
3ef1e570
3ed4691d
3e06cd7f
bcaa27d3
bd7f2b98
3e7842f1
be211b54
bd1896d1
bf31311c
be454145
3e907b3b
3e3bc5e7
bc624fbb
3d26d89d
3e789a16
3e25075c
be554cb6
3e84cdea
bdb36d73
bdcdab2e
be920378
bdaec0a6
3d6cfe24
3dcb3e73
3cd2bcf0
bec441b5
bdcf740d
3e208ae3
3e6af9d9
3e9deb71
be513454
3dbfa265
3e0c7894
3e0b65dd
bedc6b8e
be71dc6e
bec3e494
bf054f45
3d8eccbb
3e3457f0
bd18b0a0
3bc07a6f
3e7d74c0
3ebce3cf
bb860362
3ea690f7
3c832ff4
be9bda7a
bede9b63
be592678
3ea7aa22
3df9d9b0
be79f192
3d064dff
3c1ca269
bdf0e0df
bc1ed465
be0c31f2
3d867d09
3e76b5d6
3db7b6f2
bd5734b2
bea4e9da
beb488ae
be0dcf6f
be7c3af6
3ea9addb
3de78d30
3d9743b3
3d8146c1
3e37b1dc
3ecbe027
3cf1aaf4
3e701753
3d9aaa46
be8f3557
bea79620
be81949f
bf035e83
be665c7d
be0a9690
bc477451
3d3671d9
bdb4d8e0
be945b8e
bde1eb48
3b88b65a
bd205e28
bd07edfc
bd2bdc10
be1b97d5
beecc5b7
be03859b
bef1c067
bdc63d23
3d1e3d30
bd346b1e
3da2862f
3dbd0060
3eebb339
3edfc6e5
3dd77578
be3c41c1
be1fba07
be3c7fe3
be2b5cdb
bdf02594
bdcb1d5c
be4b3bad
be819e6c
3d62aa5d
3d3de00f
3d360934
3d9b540d
3e9f7abb
bc855aac
3d96d024
bd4b0348
be81fee4
be8fdec4
be9e15a9
be9f16bc
3d6bf8a4
bdf08667
3c9f6337
bc924759
bc515882
3e45a80d
3f019cfc
be23dc01
3d04fec0
3e416852
3e4ed568
bdb56ecb
3ef24c2a
3cccd643
3e488845
be06269c
bd266b24
be3b93dd
3e756c41
3f03a679
3ebb9f9d
3ead6a27
3df1d207
3db87924
bdd21307
bef4d64b
bdd40afd
3e5fffd4
3eb64a86
3e2251c1
baac752d
3d6a962e
3ce95d90
3de4b8bb
3e88a0b7
3ee03bbd
bde2d026
bb9f9be8
3d82234d
3d548436
bcaf5d7e
be5604f5
be086fd9
bbc728c2
be94876b
bd825885
3e2358c4
3e788f79
3ed04ab5
3ed570fa
3e1c20ba
3e96b09d
bd3d2ec2
bf155095
bccd9e73
bb1e9f96
bdb87edc
3eb52845
3c982ee7
bcda4555
bcc272a4
3def2f00
3e80dcdc
bdf64488
3daa4960
3db72738
3e2182f3
3ea1f351
bb87e658
3ca3c4bb
be29d08e
bb322d50
be94e431
beb60aed
be8e89d0
3d3c2e29
3e0bcf8c
3e10729a
3e9a6b06
3ed34711
3db9b736
becc0e07
3d5928f1
3e5d6d0d
bd128d6f
be2c24e8
3ca3c85f
3ba0e7ad
3cb400f3
be00e38f
bee89bcf
bec7ba3a
3d8dc402
3b907beb
be0f6f5c
bcc37ded
bb9218bb
bdd28e9c
be2671b2
be3834a3
be84df5a
be94474f
be62bcd6
bdb35e54
3ead4822
bcab9017
3e878c5b
3ee9f4b9
3dd31e07
bdb28097
be0ccf68
3dcbe9c1
3e040e5b
be5f9adc
3c43c8ab
3d7ad2ce
3da4679d
3e957ac8
bd3ac0c9
be8deba9
3e1596c4
3e8292d6
3deb79e9
bca732e1
3e432056
3d11fd2c
be8cec82
be826215
bebb3559
bebf84b7
be3a93ff
bdb4eccb
3e404420
3ef30c81
3e86f17f
bdee6c87
be1ef8ef
bebea42c
be898255
3e301d40
3e1f44d6
3d927652
3d48bb6e
bd327065
bd07edb1
3ee23834
3f0c356a
3e456b20
bc8617a2
bc3bbaef
3d4e03de
be065147
be29c5be
3ddf1c5f
be7bd39c
bf048937
be448e81
be64b595
bdd40e2d
3eaf9936
3e35723c
3ea3a983
be12bb47
bef40ad8
bf2c8d0f
bea0a115
be5903f0
3dc477fe
3e08a68f
3d97d6bb
bcf22666
bca09d4a
3d4eb8ae
3e0df312
bd428e1a
be44c359
3dea20ea
bedbda95
be62f6ba
3df8f7f4
3c034a1d
be7c9bb4
bef17371
be51de3b
bc9a27c7
be3f6a7a
bee66b9b
bee59aac
bd52e2ce
3e35fc88
be2f7d8b
bf094969
bea63674
3dd314e4
3e1f8720
3dfa3d18
3df62971
3d9ad131
babe6980
3d958053
3d21fd50
3cb140bc
bdb11afe
3dbf08cf
be187f58
3d9b6cda
3ea4a504
3eb59dc4
3f2b3d17
3f65ceb6
3f26771f
3f05b329
3ec46e35
3f4021dc
3e54fda6
be3e6a7f
beee3007
bec16faf
3e5b9f7d
3e9c623b
3d940dde
3e79b9f9
3eaa3044
3d1c215b
bd81db17
bc9387c8
3ce202fc
bd7af8a5
bd31ea95
bd143ecf
bda47594
3d562fe1
bced9900
3d6f14ce
3d927553
bd586238
3cae3983
3d928270
3db52900
3dbc42b8
3e1e31c9
3e621a66
be1a32be
be7198d6
be658649
be3106b9
3e3b2ccd
bdb5ff83
3d06c90f
3d7d09a9
3d2456fe
3d88fdc9
3da5b2ed
3d065f9a
3d9ab1e3
3df90a90
