3d57c100
be247f88
bf4792da
beb42616
3e368490
bf09ad69
bef4020a
3e1097fc
bd1b0694
be6558e2
3e7fb959
be201116
3d9227e5
bd852160
3bc0dd5f
bf03b55e
3e272225
bf5a140e
bf2cc214
3e2eaef0
3e2493e9
be5bede0
bf6cc17a
bd3c6057
bee93541
bf056438
bd5fa340
be3e65cc
bf2e11a8
3e8666c0
3ccc589f
beffaced
bc867cd6
beb178d0
bdb0fef7
bed0739a
bd2528dd
befaf5a1
3e96ea14
bf200cce
3e06d7b1
3bf23db6
3e56f20a
3dd70409
bf3acf2f
3e325484
3e01818e
bef5a076
3e488640
bed89163
bf04c48a
3dbcbe8d
bec24835
bef95c44
3e558c1c
3df8f231
3c2a8cda
be3b3ab3
bd5ac16f
3db0d524
bf0df081
be681783
bf34be43
3d7c0f48
3d7129c0
