bb51af20
bd799182
bd4ab166
3c465410
bd8957b5
3d440686
3cf18aa0
3cd9c84c
bd0fb61d
bd4023d8
bd8cc4d2
3cf280c0
3e280897
3e71584a
bd38a34e
3cc84210
bce19380
3c5c8a68
3cb7d254
3bdc4d70
3cb69258
3d6f28ca
3ac2b380
bd8cd591
bc9d8746
3d3ece56
3da14f5f
3d1a019a
3c2dbff8
bd0fe533
bcc8385e
bd21c7d1
3d731a82
3d94a02e
3e4ee48f
3dfa1c8a
3db6ee42
3e89f8ce
3ec137e6
3eac5063
3eb56995
3f10edaa
3ee86718
3da8a117
3bf25d02
bdfc5b18
bdc3b0ef
3d88db3a
be03c0eb
bd7f60b0
3e0fc0bd
3e3a9708
3afea640
3da0ed7b
bda00d2a
3d033ef0
bc876a64
bcbc9fe2
3d117758
bd1a952f
3deb87d4
3e30cf30
3ddbd33d
3e644f61
3f3b7e56
3f9bc5ad
3f3c64e9
3f68b847
3fc6c654
3fea55d8
3fc675c3
3f135c9e
be10581c
be64de47
3e7840c1
3f568e38
3f1ba214
3f18607e
3f19196a
3f0930d9
3e88b311
3e28c23d
3d227d7c
bd938fdf
bd2daa9b
3cbf4808
bd86ff4e
3d4b986b
3e899da4
3eb5e4a0
3eccecc5
3eaef8f8
3eb4c75e
3f0d0bee
3ecc90c6
3ef1fc53
3eac0508
be85e881
bf08f308
bf5e5f90
bf526628
bf584729
be7af585
3f330037
bd8c3fc9
be2a4ef4
3f30367a
3f68e4a6
3f6c4041
3f3ec0b2
3f171065
3b134300
bd6aa02f
bd98903a
bc904e36
bdfef877
3f25fa31
3ebfbc05
3db98c6c
3defff7d
3f30653b
3ea1758c
3e6638c5
3dc12c2a
bd2eec19
bf27be80
bf895d7c
bfe35858
bfb0224d
bf6f1abf
bf2588fd
3df37763
3ea7ab9a
3e78b0f9
3e69773d
3ef252dc
3c527803
be9c0a55
bd91bb0b
3f3fcc4a
3d4b800e
3d15fe5c
3c1fe276
3dd3cbb5
3e6511a4
3d1ab4b7
bc799b0d
3f297991
3dad386e
3e2e6bea
3f41ec24
3dc5ecf7
be4aa0a7
bf390266
be6758f9
bee8db0b
bf2f44af
bf02e2f8
3e27104a
3e515e2a
3e473e0d
3e94e58d
be6663cf
be169569
3ed04a00
3ec0d70a
3ec1b7fb
3f1f1071
3c569900
3cea6064
bd82737a
bf33a3fd
bce50ceb
bd90d72b
bddce10d
3e66a807
3e646897
3f091deb
3e2439a0
be991195
bf12b93b
bf8cf076
bfa12b12
bf028cdf
be4699db
be02d372
3d064447
bda3f39b
3da5f291
be6db91c
be89a00e
bae1ffb8
be0d9cda
3f47e142
3e114ce7
3f0a41c7
bda30f8e
bd839897
bd15b78a
bf2e6429
beb07279
bd83e046
be8e566f
bdf33f17
3eeb0f8e
3e89cd3c
3eb2174a
bc079ec3
bf02d2d6
bfda979d
bf42dfda
bc89f01d
bdd12a34
3eac64dc
3db0b41d
3e3877e4
3e1ea3ef
3e31e47b
3e60ff9e
be143832
bedaf9b7
3ea3bd3a
3eb0b54d
3f122bdb
bd1030f5
bd11beb8
3ecab43d
be55b359
3e87b62d
3f05dc74
bf044442
be79dec4
3d935cc5
3f361530
3eb2943d
3df8f367
bf8fe5d2
bfa4363c
be9faa8b
3d9f5ae1
3da67de9
3eca1df9
3dd66edf
3d438926
3d47c549
be0a7cb4
bdfa2bf3
3be3a018
bf723098
be565953
bc8cabe0
3dddc3e8
3b31c7e0
3dbcb111
3dd83306
3e72e879
3e827cf9
3e577409
bf0e59c3
bea10664
3e9e0403
3e45f467
3e251560
3dd53195
bf140536
bf2b686d
bea091f4
bd4594ea
3eb28b3c
3e6e434e
3e6440dd
3e183a62
3d3ec585
ba757ab5
bddde95b
bedf5e2c
be9751d2
be24bfc3
bf29c2eb
bddf049c
bd35cc7b
3e52bcc2
3d62d43c
bde878f8
3df22574
3f384c9b
bdbb34f1
bdfd11e6
3e96c632
3e66a2d4
3efd08ab
be212579
bf1a0d1a
bf234ca0
be528518
3e969416
3e759c53
3d829762
be66abad
3dc1d943
bcf980cf
3d80696f
be2528cc
be84895b
3e490ab7
bf1c9f08
bf4d63df
3de5daad
3b334d8a
3dbcb5fb
bd39963f
bdc42395
be851177
3ed5f2d4
3d55ab68
bd7cea1f
3e899e24
3ed3d161
3e7031f5
bebbc280
bed1493e
be3dbfe2
3ca22bfe
3d22e4f0
3ec221f8
bdfc827b
be1183d0
bdd4b60d
be11c23e
3dbe2db1
3df3c112
3eaa02ee
3c4c9c82
bf0358b0
be8ae670
bdc71355
bb9e4e68
3d72632d
3e35fff4
3e4e807b
bee495b7
3baf2335
3de283d7
be392595
3c7a85c0
3ee799f7
3ecd9a5d
3e026ebc
bdd119ba
3d6ffa91
3c9f4f81
3eb7ad2f
3e04ea8e
bd9e1018
be45f931
3cf9a39a
bda4dc99
3e504135
3e75846e
3e137d92
3dd384e5
bf19127b
3ca57b53
be7642a8
3d891d4d
3c62b2a2
3e4752b1
bd7a1bc3
bebddc5f
3ddcf017
3e333b7c
bd1dc5a5
be1bb7d1
3eb1bbc2
3ebc5597
3e06c6fa
3de0b36d
3e9a39e5
3d2c879a
3d9333e2
bdaeff0a
bd1f6972
bd123c6a
3e22e61d
3d6c88de
be064488
3dd40c9a
3e24b708
3d866f82
bea22243
3de228f8
3e91c348
bd39beba
3d089c71
bcd7ecc7
be469e34
bf06a7a4
3e57ed10
3e08780a
bdf03d57
be5e7f8b
3eb2bc3b
3e840ba6
3e72fda6
be701daf
bd5112e0
bca64f1a
3e043cd8
3d43ff30
3e197324
bd370545
3e3fc484
bd783458
3c1f1beb
3e7fc757
bd0c0690
bed09013
bf8d45b0
3e224358
bd841198
3dc2b840
bd15121d
3d954e7b
bcc4f14d
be6a31ab
be93bc05
be89f108
be351911
3d0b01d9
3e2da5ae
3ba65ebc
bdffbe60
bdb46eb1
3e0c3a52
bdb09542
3dfe316c
be845b4c
3bc410e4
be28f872
3a9a780c
be652ad4
3deed3dc
3eeeb348
be813a00
bf45094c
bf50b85c
3e9613dc
bdebe103
3de6ba46
3c8ef910
3d5e1006
beec1690
bf13c61f
3e02cb3c
3e42b8dc
be36f272
3cf401a2
3ec39ee7
bd80f208
be2207bd
3d508774
bb31da40
be850a5e
bdc2d935
be37ef69
be070ea4
3e463758
3dcfe35f
3e092c57
3e9aec2e
be241b2c
be0ab193
bf02448c
bdcdbc01
3e1be29e
be97040b
bd035b3e
3dcd5b78
bdfe0c4d
beebb544
be3618fe
3ed01b94
bdbb7740
3e5ab84e
3d861761
3d3fdf43
3e087545
3dc09380
3e871b45
3dac1175
3d4a49d3
be375e12
3c991ed2
be1c0f4b
3f0b8de5
be2791f0
3dd4e5d7
3e0056c1
3d940c56
bd864238
bef89111
bce2d2c7
3ea44be6
bed586f9
3b6eb2c9
bd5656ed
bd5aef95
beb012c9
bdb04098
3d7ba4b9
beae2cbd
3e6c3fbf
3e38e8c4
3de1036a
3b35c509
bd7ae03f
3e47f76f
3ae4b16f
3d5b7b68
3e20068c
bdf73cb1
be0ad118
3ea19bb0
bebd095e
be45284e
3e0964b2
3db03df6
bdeb49fc
bf1c2dfc
beefddab
3d81f9b8
bd3e563c
bcfe32b8
3ad3104f
be0fc228
be544efb
be516e44
3d37fc3d
3ea2ab0a
3e864242
bd4db296
bdb92f62
bc29fc06
3e1dee9c
bef8e978
be9b5be4
bde02dcb
3e3a3e7b
bd204446
be9d8e1c
3e767a6c
be938329
bdaaecb5
3e0bb7ae
bdb715b6
3b65e2a2
3d856673
3f1d1942
be0c2280
bd7b7e92
bb8f8990
3bc14870
be92ba3c
3d6ec730
bef32205
bf22f9f5
3eb4e410
3ed431ed
be3ec5b1
3da8dd59
3df99626
be332676
be91d849
be8ea672
3ad24356
be07be57
3cbdd82e
be6328cc
3de7e69a
be6fc9e2
3e24bd9b
3e98d666
3c7700f4
be87e4df
3ea78229
3f0b12d5
3d4c5857
bb78f8b8
bc5c73c8
3cd90e73
bdbf0a7c
3e41f9c3
bdca0e81
beacb24f
bdb78eb3
3e362a55
3e85245f
3ce0874d
3e86fe62
3c2c2eda
bea6535d
3d1e513a
3cab97a9
3d09f3c9
3dcc0fbc
bd33e04a
bc73dff6
baa4a2e3
3f14666a
3eb5f00f
3e4a90ed
bddad6c4
3ecc28df
3e92b82c
3cfd9fba
bd56a5de
bcdbac20
bc1db138
be015899
3dd75e10
3e7ce1fd
3da8508e
bde57692
bdd03d4f
3dce258b
bc1e7e53
3dfb2ae0
3d72b0d9
be63e676
3cbf7145
bd01432c
3da2cebc
bdc6e942
be2236a4
bdcf2663
be2d8f9d
3e84487e
3ec4cb5b
be956b72
bcd9f571
bec82272
be4462b1
bda0f708
3d8b09d3
bd91701e
bd6f4d46
be1c6d62
bdc18f29
3e56350c
3e792eca
be114546
bd715779
3cba4e69
3e68b807
3d20b043
3e1bf94e
be6d53bb
bdbae770
3c248bb5
be052881
be24262c
bd15ed56
bcfdceb0
3dbf4274
3d92146b
3ea7409e
bba5816f
bda5f726
bf3a6442
be9566e7
bdb2076b
3d1d166c
bd76aff2
3cba4844
bdee6fc0
3e8a00a0
bebf2e45
3c8a015b
be405640
3c3f57a8
3d276bea
3f0d1a90
3c164b42
bdfc4730
be20c650
3df40e5c
bcd322d0
bed53c0f
bd4616d8
3e95fee2
3e31f269
bd7710c8
3de316a2
bdf18cf0
3ebc60ed
3d0fd9ce
befa58d4
3e018163
bd3d9df1
3c5c3bd0
bd70b78a
bd9c1549
bd09ea25
3e29e981
bedd178c
bdc218a9
bed91e58
bf5258a4
bdd248ee
3d989376
3e86fd73
3d593819
3e8c6dcd
3f62dfa0
3d4f6ca5
be599582
bea7da18
3f04c974
3e25ac7c
bf2bdedf
bf5b0017
3c1767be
3d57aa27
be552314
be169e69
bd649c14
bc7912d4
3d974453
3d8f8099
bca07308
bb93ec00
bc92211c
be393f94
bdeaf84e
be982fe2
bf2444a1
bf4db5ff
bf6708db
be7e6cb1
bdda80cd
3e080bf0
bf32b2ec
bf326693
bf1c037f
bee212d4
bdfc4ed2
bebae8ff
bf0cfffa
bfb24c24
bf352b88
bc29ba45
3cf33369
be977831
3d854b1d
3d2e19c0
3d3037d0
3d94a5e1
3d883d61
3c022340
3d9e25e7
3d06c853
3cc75864
3c57e964
bb0a3bf8
bd78523b
bd257d18
3c5c91a8
3d024e3e
3e8b62da
3f091f26
3cdbe0b7
3e3d634d
3c31eb31
3da773a8
bdebef46
3e2ddfbe
399a6427
bd796800
3df4d0b8
3e6b0578
3da12201
bd675fbe
3d9a00df
3d16c20e
3da1bb27
