bf1f856b
3da8da02
bfa99de1
bf08a5cf
39c62f2d
bb4e855b
3e0bd233
3e166798
3e68e289
be354ba0
bbddb330
3d870697
bce445dc
bdaa88e1
bec197db
3d6e60ac
bf3849ef
3dd92ee7
3e6adf6f
3d0743cf
bd972f68
3db4efb2
3cdfd643
be7a8ccf
bf7f8332
bf132e4c
3e376225
beeddb1d
3e315fc6
bf4ba938
bdae1f67
3e0ea7e6
bebfaf88
bf97c0a2
3e3f16fa
bf554061
bf11d446
bfad5ebb
3d85fef7
bf6373d3
bdcc7102
bf672bfb
3dbcac44
3dd27f30
be8d7ecc
bf986452
be98a0aa
be926c24
3d9807b0
3da2f10f
bd3011cd
bf4aa008
3dd94a73
bdbdb73a
bd0b7e9d
be50f8e0
bf3c739a
bf16b2b2
3d550a99
be9c8847
be977b18
be6dd8e8
3e25d263
3d358489
bdcd704f
