3cdba0bf
bdff091c
be069a1d
be9898c6
beac744a
3d9ccc87
3c0f2e49
bf20f4c9
be506da2
3e0de137
3dc2028e
3e8357c8
3eff3a0b
3e529344
bd868a65
3ec217c9
3d822790
bf64fa70
3d8216b7
bd378852
3e34fac3
be12901a
3dd8b3ef
be01c2bf
3e1ecc34
3c700e98
beb1760e
3eb17971
3e26ab85
3d8c4fda
3e9b46fb
be648751
bb39bbd3
