be1797cb
bc4ee3c6
3dcc17da
3d2a1acb
be3c6da7
3e998e86
be9db129
be3e6a4c
3df4529a
3ee91445
bc2d0e35
be2cc6fd
3e8fdc9e
be87519a
be658a27
3e6c7e72
bc871414
3e1ada3b
3ea03ba7
3e8e599d
bf03513f
be2ba6e9
bf1b84f5
be203177
be269720
3dc283e3
3e973d31
3de0240a
3cafe8e8
3e8095fb
bd7f66cc
3e06a85f
bea019e7
