3e09b755
be9feed5
bd025bb6
3eaf5164
bbc218ff
bf01dc8f
3c30af6c
3d2f5c62
bd899c5c
be80b2a4
be0b172c
3e1307a4
bf0edf32
3cf67008
bf819f32
bf81512d
bd6492cd
be82821a
3da0722e
3e663342
3e8d24f0
3eae64d7
be54bab9
3e85122e
3e3e01f1
3e80e697
3e8a9776
bd4433a2
be780028
be1fefc1
3dd5a7a3
bea567f5
3e3f1293
3e8b2ee7
bc8d0cf1
bed8096a
be679317
be659149
3dd65efd
bf55c7e6
bf74598d
bf4e3bb2
3c52fcd7
becce35c
3e294afb
3e3a188d
3e517c40
bed148cb
3e500eb2
bd9d25b8
3dac1e9c
be85e28d
bf7914d6
bd7fda09
3e3395a3
3ea8e6e9
3dc2a86e
3e263f0c
bf2b466e
bf15e41d
3d3c4dba
bf52e1fd
bec992cc
3e3e990c
3ccd6144
3e456319
3d5c32ef
3e0b2981
3ea87466
bf2f84fc
3dda3091
bea45601
3e8bce87
be4b34cc
becd6882
bd8764a0
bea0286b
beabfd07
bccfe6fc
bd24cda7
bf2d9463
3d76bed6
bea918e7
beb13f81
3e6ec4b2
3ca15cd9
bdf67bb6
bde1d7e6
bca8c689
3dcff33c
3d3d0f1d
bf4648ad
3ea2c63f
3deb8da6
bf1650b9
be068dae
3ddf9de3
3ea4d517
bebc5702
bf0dfde3
bdce0779
be372bd8
3da8bdb5
bf0969b2
3e0a7433
3e91fbf3
bf1c082f
bf1e7207
beff23de
3e1ea422
bdd7c882
3e3fc48b
bd625a54
bedcfbae
3eabd4bf
3e403640
bf0bc7cb
3d8478ea
be1090a4
bf321b3c
bcfed053
bef4aa36
bf0edebc
3c485d70
3eb71d65
3e7b9ace
3e10de9d
bea65622
3f2a0d78
