bd807858
3d59dc72
bd9c959a
bd0a3479
bb842f10
3d98c55f
bd587284
bd0508c9
bd37f046
3ccba448
bd8e48b1
bda07922
bd1fdf10
bca8a3c8
3c862a60
bcf25144
bd92e8c4
3c45c8b8
3d72029e
bd855469
3d6549c6
3d7c7896
3d3eaa36
3cb5acd8
3b9f0020
3d4329f6
bc38c8a8
bcf12bb0
3cc8d78c
bca7033e
bd31c00f
3d2be414
3caa7e70
bcf5f1ab
3d1c9d88
3db24826
3d604d46
3d38756c
3e977eff
3e9143cb
3f18fb58
3ebb9828
3cea7e95
3e1c8e4a
3ee00108
3db45b29
3d5f323d
3eb24c92
3ec07812
3dc10b8c
3e164355
3db22871
bcef0122
3d348f82
3d8ffa69
3d7c434e
bda019a0
3c47b248
3e17835e
3dc96a9d
3e7b24a7
3e4eeafb
3dc57155
3ce5b312
bf02e4bb
bf3c7a61
bf1b157b
3f2191d6
bef66b40
be84f4c0
bb79948a
3e19fa0a
3da17f23
beaaa8c1
be5f6239
3d8f44e7
3d811eaf
be07e8a0
3ceb65b3
3dc86ff9
be24b487
be0ace4a
3c4ad7e0
bda1b180
3c2a5230
3d9eb5d5
3d2727ea
3e08fe0b
3e97740a
3e65be4e
3d3f650b
3e1f7755
bf5c8603
bea8090e
bf184c43
be2c9116
beef47c2
be21ae9f
3db3050a
bdc68911
3c1bfdaf
3df63047
3d0d5c25
3d801ab9
3e8b5a1e
3f1be858
bb2300dd
bea91c14
3ea84f27
3f08f70c
3eecd842
3d09e9e8
bc4363e8
3bdca0a0
3d7b169e
3bb59713
be446c8d
bc65544f
bf0ffbc4
bf27132e
bf377650
3c8195ae
be1bcb25
3e5e91ff
3d829e2a
3ea7f42b
be804126
bed0ad08
be236aa8
be825fb2
3d2bac22
be1c35d5
3e33e94e
3d5bc2ca
be2cb1cf
be1c732b
bed6ad61
3ec98d2b
3f88a459
3eb536f5
bb6c5280
3d902ee3
3e8c8ea6
bcf9e955
3e2acb03
3edad775
be9d4956
3d7e9684
bee08126
bde9eee5
bd474ac9
3ebfe212
bdc651af
bd997e66
3d95967b
3da494cc
3df6addb
bd171fee
be1aa364
3d126e44
3e3df2a6
be03da20
3df14860
3db2a104
bed88707
bdfa0dbf
3f037177
3ef590a7
3c314c40
bd1cab57
3f1d87c5
3f1946c7
bed85705
bd0b4503
be9e5817
bdb39946
beeb6ecb
bf14616a
3de048ed
be1eb31e
3ccf2e06
bdd7aa2d
bd102413
3e017c3f
bbb1f501
3d6e21ac
bcb326f5
3c7eb3f2
3dcaf3d9
be23765a
bd78a9f2
3ea8603d
3eb2b2e9
3f19a8f3
3db78bbf
bce80a0f
3d29aaba
bd590880
3f0582c9
3eede993
becd4da2
be4ac222
bde32984
bd809ffd
3e2c7d9e
3db7797f
3e0a5bd0
3cb1006c
bd47be3c
bd93bd1f
bdb452db
bd1bba74
3e4f753f
3decc267
3cbbe1d9
be2d8ba5
3e5ff1dd
3d4c6678
3e81d23a
3ed3a133
3eb11999
3ea3c616
3f214fc6
be2435c2
bcca5064
bd6a6ef8
be89d1ff
bea3604c
bdcbd4db
be5d027b
3e680be1
beb07d14
be0ebeb9
bd9bfe6a
be81b0ac
3d530996
3e55d8e4
3ddff061
bdc6fa89
3d4155d8
3e2d3550
3e8f4943
3eb0346a
3f1d4863
3ec7714b
3ecd9768
3e945852
3f2c223f
3f26776f
3e5fb1bc
3f4ffa02
3e184f33
3cc6cfc0
bd000b1d
bf1672d2
bf1b0b62
3e15d498
beda1a0d
be13fd8d
bc8f48f9
be451f27
3bfe02b5
bd63dfce
bd791284
be850fa4
3d6605ad
be9d8a5c
bf1302ae
be74c758
3e6a7f9d
3f4b4123
3f2f58b8
3ec96c11
3ee1f7da
3ed9143a
3d97a409
3f3c182d
3f07f253
3f13c810
3f20d4c6
bcacbda4
3d85631a
bdb6c922
3e2dc785
3f23ab6d
be956c15
be2b2046
3dab1860
bd8f7688
3e00986d
3d90c030
bd162f4e
bde52c9b
bc3a1ac5
bf0ff921
bf195ed4
bf570d59
bfac1a65
bf609f80
befe6115
be3cf52c
3dbb3414
beca3d95
bf404d35
beeb79c4
3e3e959b
3f20ce57
3ea01783
bce51ab6
3d621dd2
bdd5d207
3e25dc69
3eba1f3c
bdd15eea
bd9acb20
3c8b7580
be4e990d
be00aa09
3e24b426
be81fb25
be8ad3e8
bdf92146
be0ff814
beba28c1
bf5d7b09
bfe8916d
c0118f99
bfefbbe3
bfd38a58
bf702269
bf8553dd
bf6ab475
bf8bdc9e
be253aff
3eeefb28
3d523df8
bd4cbef5
3d334b3d
bdc40a02
bba0ff39
3d9e26e1
be90b579
be6a874b
bdb6a654
3d9de447
b9c34c56
3dbdbf6b
bc8293ea
bb6e5fdd
bd70d1c1
be092842
bddaa699
be28bf56
3b10e4bf
bf141bdb
bfde7cac
bff7e830
bfca1775
bfc972ad
bfa7845d
bf2c30fb
bea2b33c
3d82bccf
bcc86ded
bd1baf6b
3c5610f8
bd728329
3e098609
3eecc191
bdb60633
3e84831f
3ea1c43c
3dc19e34
be10810f
3d380b7a
bb52e06d
3ed1971e
bd633a6e
3e60e585
3de550f0
3e98d6cc
3ec350e1
3b803726
3de60c46
bf034e21
bf07c550
bf7de13b
bf99a200
bf83c778
bebc8638
bd9790f2
3df44b0e
3e6cc88d
bab09ef6
bd80a28c
3e7008e8
3f0254ef
be09df8f
3e715aa5
3ebcdb1f
bd9b071b
bbb55bcc
3dda8ead
3e475e2d
bbfdfdac
3df334f6
bd453b91
be06e952
3e85f189
bda60d4f
3df92925
bdbedd72
3ec51518
bd204d96
3de24530
3d27a1cc
3d1fb6c9
bf006c9d
be49aa7f
bda6dfa7
3e386a2b
bd9e3673
be9fabd2
be678a97
3e671945
3e1141f5
3dbd3330
3edcd33c
3ca337ff
bbf94b72
3e998ef3
bdd1fc23
3e62978c
3ea30418
be0210c7
bdc71991
3decf645
3e82df7e
3e33dddd
be8a78b2
3e1fb41f
3d227166
bebaed5c
3c8f9004
be4eb437
be86e5cd
bf31164f
be42f005
3ab1ab07
bd4b22d9
beeb7358
be2da977
be824179
be29b56f
be7ec9ca
bd33cdea
bd3e5dbc
bd12a6a1
3d48bbc5
3d621529
bd0bba05
3d3d2965
3dba59cc
bde58f24
bcabed1c
3e874963
3be481aa
bd404aa4
3cce21c8
be141e8d
bdcb4548
be878ab4
3dded893
3d31fce5
befb51f9
bec88f87
3cb80998
3c949e01
bef6f4b1
3e60ff64
befb96f6
bd18ac3b
3bb50752
3e286fab
3ea2ac29
bbf5debc
3e8471b2
3d82d18a
bc6cda07
be343635
be3153c4
3b94a28f
3d961a4f
3e03baad
bbdd0bb4
be0b8f58
3e949f73
bd9248fb
3ea7f471
3ec44e09
bd330e4a
beb86b1e
be99a6e3
be9de675
bda489c9
bcde2b78
bedfc606
bd1af490
bf1f4200
bdaf8abd
be3afd3c
3e80cd15
3e80c474
3e2cadbb
3e172d5c
3e02bff3
3eabb071
bd8e3b11
3de45988
3d8e36f3
3e602bba
3dbe4cd5
3d60f52d
bc28e830
3e1e5df3
bc01cc57
be276be5
bd127c51
beb8fdc7
bec620f3
be497cfc
be8fd275
3d8cc6ba
3d88eb75
3c560b10
be2bc848
bea585bb
3ea5dd59
3e8cef24
bdb36337
3e5765e3
3e06f189
3e063c20
3e03c174
3e989c59
3e8150e8
3dc6060b
3e2b3141
bd6ca888
3d3a116d
3e24357b
bd841ff6
bda6dda5
bdec72de
bdc4d053
3e8349e8
3e0ed1c7
be203ae2
bf4b76b9
bd53804f
3c485430
bd22f567
3e35c493
beb70db0
3e7503fb
3e602467
3e816757
beb9f940
bdd66764
3c6b0bee
3e0839fa
3c32053c
bdbc0bfc
bd927de8
bceb588a
bd9feff6
bdf30164
3e5ae6e5
3e26d59d
3dd397e1
bb06fe86
3e5e5ba5
be012fb5
3e9f6cf3
3c840ed8
3e084e77
bf2a6322
bd6c1376
3da39849
3c39b7c8
bdcd9346
be4bb2f2
3eb05808
3e9627ca
bcae1ef4
be28efc0
bdc61038
3e96eece
3d08ea00
3c52dfc5
3e3ee201
3e5a1d49
3e8a0294
3d3dd04d
3d1b38cc
3d6b2eba
3d8fab9e
be241856
3d0d2b1c
be21cd26
3e32089c
3eb95a9c
3e625090
3d756c5b
be55a283
bd0bb473
bc2b0750
bd79d95b
bea00c00
bec6334a
3e4879aa
3caf260b
bc1a0189
bcd2e312
3d5ff386
3e018a01
3e2930f5
3c2b5d60
3ea5e9e7
3d8aa74b
3ca4399b
3e10d129
3c86d00a
3e1d3ada
3c20efae
be8cc939
3ea10f0d
be92891e
bf6f719b
3db8bbb8
3ec14aff
3f16a5fd
3ebe4d2b
bb36a560
bcef52da
bca414ec
3de23873
3dbfbd77
3eb26f90
3ec198c6
3f2cf83b
bdf021a2
3e2cb525
be514354
3c878b72
be3f7788
3e001541
be8af3ed
bd2aee33
bdde42d7
be33f192
bde6c703
be5becee
be5f53e8
3eab4331
bcb6400c
bf5e2f20
3ec66f0c
3ec166e0
3ea23dcc
3f0d0894
3d719e3e
3ce3b11c
3d8ac009
bbe990fd
be31f4f7
bf259046
bee99b70
be20d4f3
becd40f0
bd7d353e
3d8137b0
be04a604
bd54ce3b
3dbb44f0
3defdbb5
3e6136f8
3e891c89
bd34ea0a
3cf6f454
3e5caf47
be1a2df1
3e2c9828
be00f817
bd0212a3
bd808976
3ec68d5f
3e2c4707
3dde48b0
bd413408
bb2e6f60
bcd7cb40
3e878d48
be09d0d1
bee24d21
beddda39
3e3ca081
3d9b1015
3d37afa8
3cc3a271
be67a4ec
bf286fb1
3e5f8929
bdf16a80
be1273c4
3e7b94d1
bdef33e9
bc143e01
3c06e686
3df5d093
3f29aa25
bd97244f
3e6d323a
3ed10234
3eb00288
3bdde68e
bd641c19
bca6678c
3ae77a40
bcfdedc6
3d82e537
bc9b007e
bd8231c1
3deb9059
be7d70d1
beee8516
bed7b292
3ee84af7
3eb6fb84
3ddc8c3d
3e33269b
3cac5d38
3dae54f9
3f0ae2e0
3eb77b3e
3ec7a768
bdee1e89
bd180e36
3e260cf7
3ef5e070
3ec20354
3d2d9f41
3a844940
bcf86af8
3b3a8fe0
3c084a18
bcb117a8
bb102680
bc6d4740
bd5dff84
bb991280
3d5c55ce
3eb735db
3ebee532
3e8ac789
3ea39a7e
3e442e1b
3e53642a
3e959bb6
3e3156e5
3e1fdb4d
3e224c2f
3d9c2ea3
3d8ea80c
bccd9617
3c951f49
3ed6db52
3eaffac6
3e6bcb2c
bd5856ad
3d4bc716
3d8d720d
bb8da9c0
3c45c758
be1e5c7b
