3d42c582
bd3d3436
bc306148
bd3e2392
bbe93600
bd4b5adc
3d2ef8be
bd53c1b2
bcfcc808
bd6e842a
3d4f555e
bd82adbf
bccf17c6
3d2aaeb9
b7f71000
bd959fe0
3d88d97b
3d9ef7cd
bb924610
3d868167
3b325f60
3d461056
3c537768
bd7792fe
bd53e50e
3d03e1de
bd088825
bd0af31a
bab31cc0
bd79af8e
bd553bda
3d27146a
bd21a288
b9bbb3c4
bd1d4427
3d659dfb
3d24759f
bc50372c
baf68d5f
3d8ac34c
bc914ab9
3dc09e53
3d0e45db
bc9fbc4c
bd45485e
3d60f77d
bd8da29b
bda3d959
3e240c01
3e4740fa
3e47b152
bbe72239
39c6f200
3d8e9dbd
3d568426
bd992c24
3d2a1390
3c61f688
bd122390
bdf01ba7
be7b1043
3da2dd1f
3e963468
3e70519a
3eaffddd
3ddc86ed
be066054
beb1b7e9
bec5a3b2
3d97b14c
3ec90b56
3e8a2702
3e10e73d
be900b72
be857b25
be97c2e5
3dda188a
3e363df8
3e692019
3a8302fb
bea73a99
3d69a4d3
bc9e53d6
bd550746
3b95c490
3d378df2
bd0db1c2
bdb62a0a
bdfafda6
3e886720
3e60a9f7
be85bb4a
be3df203
be0940b7
3d9100ec
3e2dbab6
3e5ae7f2
3e96e8e5
3e9a23a1
3f1c7390
be8bcbc0
bebf1d87
bc11077c
3c706240
3e2e8faf
3e221889
3f47325c
3f5323b9
3db97b52
bd715cb0
bd42276a
3d7fef76
bc6839d8
3d42c375
3d4079df
be12cce4
bcf6feef
3ed2fd41
3efd79a7
3e8854e4
3ebedcd1
3ea55705
3ec15bdc
3e6e6afe
3e9cc664
3da3609c
3e251173
bcb8fe79
bc786894
3da6ecb4
bccb659a
3cea48d8
3e5e90b5
3e5f4fe9
3e1845e1
3dc6865a
3edfa4b1
3ece655e
be812962
be8abfff
bd54b5bc
bcf7a0ce
3c0ca21b
beaf8f4b
3f16c4e5
3eba859b
3f496641
3eff748c
3edc3aab
be5cc408
bcd3f37b
3c954d5b
bdc2f0ae
bee2b904
be69f412
be9d16e3
be5ca935
be7fdbb1
bedb7285
be8392d8
bda8daf2
3e48a554
3ea09337
be4450de
3e9c8711
3eb64716
be5f1f4b
be6d9896
3d3a4d6a
bcb56ee6
be133646
bedd70f2
3f2a5d6a
3db74ab1
3edbdf85
3e02cb9c
3f0220f3
3e92c680
3e9c4149
bd95f285
bea5f9ca
be46243f
bb6e5037
3da43567
be9c684f
be9b47e4
be966355
be247a6e
bdd63c17
be7b3bb9
3e13b19d
3ee6ee78
3ee19678
3d81dab6
3e9420d7
3d026980
bda10304
be640cf9
be83ac46
bee6ca6d
3e63806e
bda57665
bcc62639
3d87b37c
3ec4172a
3e92b319
3e8a2c9a
bc319a4d
be62bb7f
bef52f2d
bb7a11fa
3e38c84c
bed22e86
bec127e7
be2597dd
be5b070e
bde78fe6
bd1eb3f3
3e789da6
3edfaf48
3e3f8ddc
3dc21ed2
3eb20153
3d0a9658
3d81922f
be121a66
be8271aa
3f1acbb3
bd4bda41
3d7fbad5
bbdc12bb
3cf7b81b
3e1b6cc5
3f1fd386
3ecb3ca6
3d79447c
be9e2ecd
be87dc29
be05a3f2
be4007a8
bee2a0a4
beb9bcb0
bebfd364
beb1bda8
3ddf7b1f
bd677119
be8001c7
3e3c1df9
3f00f04a
3f3a18dd
3ea03ac2
3e22a3af
3cd26cc1
3d5d973e
3e3459c1
3eec62d4
bf1e4100
3c267396
3e686f46
bd3477ec
bd91a1b5
3e5bc723
3e9e7a4c
3e070469
be99682f
bee1b924
bf0298cc
bedb5761
bea9b65e
be2889d3
3dc881a4
3e0b408b
be667d1d
be07e782
bd65607e
bca424ff
3f31bb24
3e625eb7
3e647e8a
3eb58885
3d7ed0d0
bd206bb5
3e2387df
3c5a66b2
3efa5893
3ed4bfa2
3ed73114
3d28fd7a
3e6663ed
3ec9d721
3ea847dd
3d95c906
3e84d1bf
bef76512
bf1d0a1a
bf0e8fa0
bec0f163
be03b01d
3dced921
3dc9afd6
be2702e4
bdbc8bf6
3cc9d44f
3b24299e
3ebac341
be67c1e4
be02995b
3ea87505
bc2f4444
be3cdb22
3e5ed648
be8acf6f
3e1987b2
3f1e2831
3ecc23c2
3e958925
3e9e4910
3ef6d771
3e8662c2
3eb3dbb4
3ed279bc
3e0c410a
3d678cee
be892552
be99f663
be44c039
3dd44d10
3e17d5f6
bd211ed6
3ed21e55
3eabf842
3e336c21
bc395531
be43d2d0
3ddaa130
bd0e3e57
3d7eeb1e
bd83d130
3e8afc8f
bdc23bb4
bddc592f
3e8dfd53
3d0da688
3e01b1cc
3e296824
3e655dd4
3e2a7ddd
3eadab8f
3f016485
3e5946c6
beac32f5
bec2c9cb
be95c800
3e1c7cac
3dcbe228
bda4d4c6
bdc0b95f
3f03ed17
3f464409
3cb6f376
3e8e8a76
bcba6f4b
3b382fd8
3d89cf4e
bd151256
3d1a9a9c
3dd8b322
bde6ce4e
bef83741
3d9f7ecb
bd5b5c2b
bd615366
3e2573af
3e4038ed
bdb775e0
3eb56f61
3f20f405
3e31fc02
be6da337
be834b0b
be14a627
3cc38d1a
bd4cc3f0
bd20b401
3e50026b
3ea044f6
3eb745b3
3e80ec46
3e8d3d22
bdac9579
bd6742f1
bcddd44a
bb693169
bd3b5bdd
bd018645
3e2d2c6f
bea07d54
bdaa2349
becaf711
be7999ed
be3f23b0
be0de268
be1de740
3cbf4e4b
3d91f40e
3e5497d0
3e956e83
3e2e15c9
3e8ccb9f
3deedb47
be2bc40d
3d9f1de5
3d297ba2
3d8e7736
3d9b6600
3d898e74
be7b96ff
beb50864
bf020c56
bbcdd2c4
3c35b717
3d172183
bd78173a
3e1e0574
3dce385b
bd56ded2
beaa1f5b
be9fcd16
be220f2e
bf11dd94
be140a1c
bd0493f6
3e582e90
3e76ea03
3df08a75
3def78c7
3e4f1642
bcae8d2b
bdffd235
3dc6c330
be586516
3d75a7b9
3e70ef87
3e8351da
beb9f9ce
bebd6978
bf0bf78e
bd7420e5
bb8bc15c
3d54e8f9
be29846b
3e15b6f3
bd4e3716
3dc402d1
bd413c2f
bec90acf
be5f6c92
be0db82b
3e9e1e81
3eaf1a9f
3ec170c7
3c1a71b4
be955839
bde3a6e2
3e86706b
3e84b3ef
3e6a6731
be538473
bec25a5a
be94525f
3d86c069
3ea47801
beac9980
bea50fef
bf1f3546
be619644
3d47b67e
bcc1cc64
bcbeeb14
be39daee
be05b9e5
beba0801
be99d762
beff592d
3d1eb6cd
3d63006a
3e8cca52
3eb4916f
bd2161ec
be00ddfb
bdf94c84
bd8318a5
3e4aeecf
3ce2907d
bd06a65a
be74a2fe
beab5e78
be839f2f
bcb0bfde
3de7b3ea
beb75aff
beed3c23
becd3c20
be9f7167
bd2e017b
bd55c22f
be35674e
bf158387
bf081a1c
3d40a3c2
be4e5aa1
bef4e513
3e4e8a8b
3ee3f184
3f2c4363
3d7eecad
3c039b5f
be9b0c2e
bebc7727
beab9ad3
be3ae2d6
be828326
be255cf4
be93010f
be6d9c97
bd731ffd
bdb21256
3dcc076a
be1925ee
bdee6b64
be566289
3d911cd0
bca40909
bdd605e5
bdeaf171
beb90999
bf25f6f9
be3e303e
be6e1a48
be23d16a
3ee6fd9e
3ebcea5f
3eb358df
bc47edfa
befded3b
bed78434
bedda8a0
be8374d3
bed094a1
be8dc64a
bcf33304
be98d4b3
bd5cd487
3d6084b0
be0285ea
3eba863f
beaef380
be74df14
3caf4811
3c6aa68b
bd295cf5
bd0ae0d4
3c480760
bef83844
be3eaa4a
bc1a9f8d
bd18be81
3e94a5de
3eba7edf
3e197e62
3c3a4840
be05e495
bea07068
beb9f5fa
bea0a6ec
3d058829
be52eee3
bcf20885
be01abf3
bdf461be
be0a13e5
be2f2e55
3e1ef1f7
be4ec5d1
bf0a6cb5
bed96d9b
bde45ffa
bd83203a
bd877d03
3d2e2e9e
bc45bbec
3c975c95
be2f8fb3
bc88fa03
3e9c6133
3e6d8514
3e8cfe9e
3e0bd8b1
bc847b1c
3caf25bc
bd84f614
3db1cfd3
3c1b7b1f
3e084b6a
be677d20
bd370cf9
3e04d7a0
3cdf5bd1
3c702a3c
3c4d24f4
3cf8edd9
bed71d73
bf0770e0
be1be45a
bd5af536
bda1c47d
3d313655
bcd4ad93
bdd95699
3eedda0f
3f1a3979
3f36a631
3ecf711a
3e821f7f
bd182eb4
3df3f552
be0b15d9
3b936116
3e362fb8
3d0f1bc8
bdc8820a
3c91e066
bec16a93
be380aac
be7e8ed4
3e78d380
bdaec980
3e0d4061
beb975bf
beb97110
bea9e479
3e7b1359
3dab560b
3be12c5c
bcb651e6
3d05ed70
3c97cb20
3e448038
3ed2d813
3eca32c1
3d7b7fe3
3e254124
3f12f660
3f0813fe
3e43cbbf
bd950d1f
be07318b
bdc9a273
be79f0ac
bed1a5bc
bef2d604
be1751b8
be800c62
3d9738d1
bcdc7f53
bdad6009
3ceea458
be02dba3
beabed0a
3ec20268
3d7fbd84
b96f7600
bd1108e5
bda2b1cd
3dd106d8
bdfe803f
bf372a68
bf449623
be627fc0
3e069e8c
3ebd9bbd
3e9b3c43
bcf661bd
3c331225
3d762677
bcc60e94
3dc4dc87
be7c1776
3dc397d2
bd90c18b
be5201cf
3a78fbd8
3e62124e
bdfd392c
3a8eac79
beb32f81
bf393337
3cab749e
bd19e77e
3d8f3f15
bd9da6b1
3cb3321c
3da6a204
3e1fcecd
bf9380f1
bfb39db9
beb5ba60
bd825fff
3dcc33d7
3dfb59d0
3ea6d5f8
3dd681ad
3ea45af9
3da05fdb
bd0fcf13
3de162f1
3ecc2ae2
3e8f9598
3d70ae74
be43d8a2
beaa5bc5
3cd16001
3e4c61a1
3ed3e014
be408fb0
bdf27cb4
3b8a8f9f
3cb98ef0
bd3ed7f6
bd0efcc1
3d95802d
bda89af2
befe483a
bf597ece
bf70e35e
bf89c506
bf20fa1b
bf32179c
be99d30c
be764e19
3c3c7945
befa0de1
be983a3e
be7b8ad3
bc121fad
bf2c421c
bf3b8240
bf8b2d46
bf65dcb7
be9796c2
3da09316
3eb67e0f
3e2ec661
3d45cf2b
37fb2000
3d6cf706
bd4e9b3d
3d62865a
bb5099a0
3d75a286
bbe69178
be066317
3d96b336
3d49d3d6
3bb11e2d
bd6ca69b
bd982f44
bdc2624a
bd1fee9a
bd83993f
3e892ed2
3edf4bad
3f00b0f7
3ebd2be7
bdf2692c
bcdb8287
3d721790
3ea17b7d
3e91060f
3c7a0ee5
bbe6b420
3d6922b2
bd4b9db2
3d281d0a
be76398c
