be12ae11
3eab5cd8
be19fbd8
3e7ca496
bc9f0b45
be138050
3eeb0897
bbf243ed
befe815c
be9beda4
3c5e524b
3db1eb73
3e8dd424
3de5bb38
be7487a6
bd8f64d5
bdc69512
bdd7d5e6
3dded323
bd96cb3b
be8957fb
3f0a53e4
3edcc1ea
bf3a2726
bf06893b
be909e3c
3eafcd00
3aa3fdf5
3dc4d1f8
be71f4bd
3f01f3de
bc1c90e2
3e081666
be546773
be50d81e
3df6d131
3ee37ce0
be38c0a9
bc4a3d03
3e87fee9
be300091
3e561aa7
3df40117
3dc10eb3
bef9841b
3e268e65
3ea9842e
bdc2cdda
3d5ca322
3d8f1925
3d9584f9
bc82eb1b
bf4707e5
3e98156f
3e846912
bd85716d
bc30f438
bdd52e36
be18c5e4
3d7f6972
bbf7d183
3e05f8e6
bebd4e36
3e38b274
bf11cc1b
bde17923
bdd6ddcf
be6f238b
bc4edd94
be4d8bf3
bce61e6a
bebd6e32
3b2dadb0
be2a32f7
bd96bb00
be3befaf
3ef2a22c
3bc5c656
be4a7f6c
beae33da
3ec5aa46
bef36b57
3d903c59
3e959326
bf1a1eac
3e071d47
3e59eddc
3d838e4e
3e0251f7
bf61f63a
3d8701d8
be6f1d7e
3ed5382a
bedce75d
bf85ea18
3de6314b
bebcf2ae
3e95a725
bee06708
be91b25a
bb88b0a9
3e4c8f8b
3e5c7a23
3e463766
3df925fb
3ef5a096
be7a2974
beb7103f
be8c3b2a
3d13e914
bf3261bf
3e40f41d
3e57e645
bdb39504
3cd5dcc5
3e5067fb
bde138a2
bc104b62
3ef5c467
3c8aa318
befa8188
3edac5fd
bc86962c
bf3979f2
be94c7b9
bf2147a7
3e994a39
bbfd6aa5
3ed36f46
