3d0a80c2
bd63a935
3d10f252
3d825fcd
bda090a0
bc6c33b8
bd03eea4
bb9f9310
3c6c69e8
bd94f68e
3d3dbbda
3b39d360
bd834068
bbcec890
3d8d1b25
bd6eac21
bd6e2b82
3cf418e8
bd78b11d
3d1c8d16
bd3a9d37
3d71bb42
3d87b885
bd3313fa
3bfa2080
bc3bb730
bd990a90
3d7f0b66
bd3360c9
bd07211c
3d9991c5
3d8d063f
bcfaa370
3c192b48
3d9d43a7
bcf81249
bd9172b6
3b56acab
3b995e9f
3d999059
ba239fee
bcefdb77
bd857af5
3ba0a885
bd0f9788
bd7eea72
bd831f78
bd112a3d
3d8945af
bcbffa66
bc9e55b2
bda3bdae
bd8d603d
3d5fb85e
3d4b3b02
3c41bcc0
bc0ea280
3d657e6a
bc29a928
3d86a6ff
3cfca6b0
bc69c128
3d8f18e3
3e017925
3e242f20
3e855fd1
3e528347
3dea0616
3e96d173
bb739457
bdccd353
3e7ecf60
3e863555
3e5a6c3f
3e5abed0
3d6b69cf
bd85bb46
3c50a8fb
bd7527c3
bda7a6c9
bd16617f
bcc93776
bce80732
bc9b8ee2
3cf87eb0
bc095160
bc0206f0
bb731aa0
3d2d0c79
3c506479
3e4b5c4f
3d31f25f
be113338
3e22a0c1
bdf63a0e
bf44231a
bee40f1a
bd3e6b65
3e95ca1d
3f842c8e
3f6f435f
3f120b5d
3e74b91b
3ecff159
3e103fd4
3e443463
3e4a0d78
3e102dcb
bc92d934
bd93fd86
bd6c2efc
3d8496c3
bcc91af4
bd9ab652
bb286560
bebf3657
befbf01f
3cc5bc55
3edae231
3e1504fe
3de536c1
3e0659a4
be514d9e
bef4fb4f
be6a5ed4
bcb6f1bc
bce4e99c
3bcbfdda
3e92aedb
be1d368f
bdf3e6ba
3ee593a3
3e421913
bcbf9245
bf089d4e
3d4fae4f
bebe8640
be8bec02
3d8ff5d2
3d808d75
bc044c80
bc1cf178
3c7dc318
bdfbd2e9
3e3d8a27
3eaaf61b
3f09d818
3b11d6d7
be2cce3b
3ac20566
bef3f805
be949a5e
3e5f6d7a
be38ede0
be4772ed
3df3c1ef
3da2d274
bbf7665d
3e3db7a7
bd1fd080
be812b07
3d1a271b
3e202e4f
bca2c9c5
bea7a825
bd7e6d9f
3d2d0036
3d36caaa
3d8e33c7
bd94831a
bf0e245e
3dfe9392
bd065bfa
3df2d4ff
3d78d1a1
3dcf9328
3e5b1f7e
3dce83c4
bedc7acd
beb00a8c
bd81f071
3e14561c
3db98790
be862bce
3d1b3350
3e8a4b2a
bd1605b7
be00e28d
bec3e55b
be0d6979
be2e16b2
3e173570
be7dc8eb
be8c2e39
be5dc752
bd019dfc
3d767dfa
3d7b750a
bec4461a
3ef76a98
3f0989c6
3e3ee597
bbb2fc83
3e32d889
be3b148c
be282cba
be854096
bdddecfd
beac714d
beb633c6
3ccb1664
bd0852e5
3dba6142
3d2c8098
bec72ae4
be6797dc
bc564a4d
3d2e6904
3e8d5004
3ea5609e
bf09890a
bef6788f
bf0bd2ad
bda1592c
bbdd3d9c
3e8b19b9
3e389480
3d1a5df9
3eeea127
be1cbab0
bccf9421
be34f104
be94176c
3e1113c7
3ec3fac9
be8f34f6
be682510
3e200bcc
3e8de06b
3ea96cd3
bd9d4a1a
3dcb380d
bc7da28f
bb45994d
bc2bde96
3d15eaa4
3e418575
3e7241d7
befe1823
bf28acd3
bed944ae
be5ad0a8
3cc323e6
3e56af69
bf0e0cf0
bf0ce85a
3e01abeb
3e82101c
3db90155
3d896bdd
be3e1640
bd89625e
3eaefcbf
bebf8e8b
bd0d5d68
3e22230a
3e9ac28d
3e503719
3cc6d21c
be5675cf
3ea6185d
3d2907d0
3ea53c2c
bbf3d9e9
beb12ab1
3ed96d2d
beb4f1a0
bece9d73
be82a352
be71d954
3caabdd4
3e880d9b
bf126e1b
bf0c1a03
3d9ee8c5
3ea925a6
be0555d1
3e255c34
bdc0c9ae
3ccea346
3e06b08a
be4409c6
bd9a32d9
3e0f6de6
be4597bf
3d5e7eda
be2fe3f6
be41c4d4
3cdbe688
3e4cdd97
3e68bd26
bde74bc3
bdd17c41
3e1fa9a8
bf06e6ae
bea54e79
be5f4041
3d2a3971
bc2e3f34
3ea75722
be44fc58
bec63309
3e8cab2a
3e2d67a4
3e127900
be8bc8e0
beb5be47
3d9e93e5
3d59b839
3da77c8e
bf01952f
bf242fb6
bebad490
3e00e88d
bca3b015
be5a4c27
be8680b7
bd9072ef
bd12eae7
be881021
bef3a86e
bf0dcd65
bec9b2ee
be86faa1
be010414
3d637984
bd76ba8d
3e3374d6
bde24235
befb2827
3eb072c1
3e2c6bca
3c9b9991
bdb52385
3decb907
3e449fa3
3d00064e
bc6caca4
bf41851e
bf795538
be054b98
be92bf9f
3d56f908
3c845b5b
bd9b7caa
3d88eb6f
be82459b
beb88183
bec3bbda
be9d5eb7
beb2ed4a
be09bf99
bd045761
3ce59d3b
3d81a4e2
3e9269bf
bbde4029
be1b3c9f
bdcedc1f
3d378db0
3ea13e52
bd9e71a5
3e115372
3e94e978
3e5beec6
3e70befa
bf3623ad
bf97836c
be12a158
bf02e35e
be453dc7
3e7982af
bd983fd0
be41097c
bcf79797
3d0d1713
be551b58
becd96f4
bf0e4b93
bcdadc52
3d62f145
bd3872c3
3d0aee22
3e57d7f3
3d7b2f5a
bbab3034
bc805829
3e5a71a7
3da6b30f
be1be1e3
3d55cda4
3e19d3d2
3d946354
be01c41f
bf7c5f34
bf66e0fb
3b701b07
be455e9a
be61e607
3b1179df
3d0aa6f7
bd3d4365
bd072330
be294642
bf407a70
bf1e4bd3
bddf2224
3e2f5da9
bd260fac
bd30848f
3dfdf43b
3cae71db
3e02513c
3e623b0d
3d393bb1
3ebb0a52
3e649697
3ed9c10f
3d5ddd89
3e6a065a
be80cdfe
bf7f4a42
bf8b44ae
be2015cf
3ea40ded
be8a8015
be56544f
3cbee201
3e06db39
bdd2605b
3c91eed7
be04ac46
bef5074a
be44411f
be30aa79
3e814f04
bdc5b538
bc3f3680
3db9bd01
3c1ebbe5
3d0f9889
3cde3a7d
3e73b4e7
3e721329
3ec948c6
3ea913fb
3e2e1e92
bd4599dd
bf0f49fb
bfb6af5a
bf6c8541
3b50f52e
3efe470f
3c3cefd4
3e213904
bdc1319a
be134fa6
be111b79
bc0e9b5f
3e2c22db
3e6fd052
3ee72aa5
3e597b7d
be36cf6f
bdafe891
bad41386
bd40a6d7
3c8301dd
bdd30d6e
bcda4219
be20e778
3d5a5551
3dd619e0
bda7411b
bee99b38
bf56cbf6
bfa69a6e
bf830196
bf3fdf43
3e76be6e
3e90119a
3e8ee675
3ec06bf0
be2d9b14
be2db649
bea9b188
3dc5ca39
3f036507
3b7faf46
3eafead1
3e254748
3e68a364
3d1e0e9b
3d574ebf
3e3413e7
3d87c194
3da18f99
bf1ec32f
bf10820f
be754ae9
bd55da7e
bebe9603
bf669955
bf28efc6
bf71147a
bf425abc
3d03d0e3
3ecf19c9
3e2263e4
3e2f5f3d
3e348415
be3ccdd6
3e85f047
be84c08e
3e1d04e6
3e82ab95
bdbcd7ce
3e82cee2
3f1bf24d
3f342658
bd86ba97
3de5208c
bca8bb62
3edc4a9e
be69dc77
bf7e3c4a
bf295fa5
bf65da0d
bf6272bb
bf8c4cc4
bf2ac1bc
bf5340c3
be6f5993
be6d7e12
bd940c63
be030497
3e8d9a06
bd6d5cd6
3e2536d1
3e8d2a81
3e62703b
bdcd1972
3ed4acdc
3e1522a2
be817f9d
3e9d11fd
3daeb12b
3e9c5580
3d931ec5
3dc57481
3d8cbf1f
3c81e019
be7896d8
bf44ec7b
bf60b124
bf6847c9
bf164bbd
bf0a6419
bf3b8329
be6f3429
bec63340
3d8269bd
3f06b9ff
3de28cdb
3e0b1506
3e78d994
3e2a6e9b
3efbc44d
3f222100
3e2fa029
3e86a107
be6d69fb
becf0e3d
3ef05737
3ec364e4
3e51496f
3da7c2a6
3d336c2a
bd7f1660
3ae66080
bcf5fd7d
bee3c983
bf1ea98d
beaae536
3dd88b50
3d446cd9
beaac14b
bed372bd
beb0c754
3e251c8f
3ea5556e
3e3c1105
3da5de39
3eaec970
3e098dc3
3d6d5aee
3ef2dcaa
3f080fa0
3e58738b
3d8e4ee4
bebd8547
3ee81dd1
3f293998
3f191a38
3cd5c9ca
3ce9b748
bda5905a
3da57d3b
bf02b109
bf2494cd
beda9824
bd6fba5e
3ec622dc
3f0dd5b5
be1fbd2d
be99cea8
be26232e
3eb872e2
3db973d5
3ee2bed6
3e98d33c
3eb386c0
3d8805f5
be35f7d3
bd76fefa
bcb419d4
3cebac15
be55a926
be7a7ba4
3efde4bb
3f8fa8ce
3f371904
3bd5f866
bc1464c8
3d519b12
bd74b470
be3df651
be4ded5d
3e891e95
bd1b9f7e
be7dfcd7
3edbf5d6
be2a0bf1
bdfa986a
bea4474b
bd4a5961
3e570476
3e298b8f
3e2efeec
3eb7ff74
3c93fac9
3d5d8778
3da46c2e
3e708dfb
38d36067
be570bc3
bc4aa4e5
3eb24809
bf0dee59
befc1088
bc930230
3d150a4c
3d9ef413
bd87bbc7
bc87f228
bd1093f4
bd59366c
bef1edf4
bf65d2a7
beadb3ad
3e9a8fa7
bda87906
bde58226
bd323362
3c92b0b8
3df516a1
bd47f88e
3e089d5a
bea59d84
3ec5e2be
3ee1886a
3e599041
3e6ad793
3f0119cf
3d3806be
3e3bc170
3f58fb03
3ec25ebf
3d04fcd8
bb879970
3b0b3800
bc444a58
bd24658c
bc8f0269
bd1f346a
becc783b
bec60f9b
be63ac2a
3dc7d0fc
beff0571
bed673dd
bf14050d
3d907de2
be93ab0d
3ed65e3e
3e2583cd
bd3dc50c
3f10e2e6
3e91e328
bd06250a
be897117
bd07db7b
bdc0721b
be52569b
3e1fd941
3d4bd141
3da29a69
3c7f77e0
bd786a4e
3d9b64b3
3d503afa
bccba308
bd11098d
bee6e3db
be8f7052
3da56e10
3f11d833
3d89eed1
be6338a7
bf11605d
be94e98f
bd4f0b69
be1570ca
3cd8dc9c
3d9fd469
3daad6e1
3e4dac4e
bd9d72d4
bd375bed
3dc8ae49
3e0e58cb
be3cbd2d
3acc63fa
bd6c6f9f
bc921f00
bd61251c
3d9b9f21
bbed0cf0
3d356d2a
3d127a30
3d1281e4
3dbfb3fc
3d9e23d8
3e257ed9
3e53fbef
3ee4f4a7
3ea6ad3c
3ebdd258
3f2936e9
3f163531
bc224927
3e6c51f5
3e9b55c1
3f0b657f
3da3a307
be042010
be879ade
be4669ad
bb0c28c0
3d89de7c
bb582aa0
3cbc33e0
bc998dd2
3cf5dd44
be282d52
