3d982a13
bc48224e
3d233cab
3e0f80be
bf81400a
be33a011
bccc057a
bf1a4590
3e84b8f4
bf3e5931
be27bde8
bf12acc6
3d5055cb
bfbbcc78
beb2daa1
3e264368
bf87aa48
3df220e1
3e6ac5ca
bf25e068
bf94a56e
3dd9bfbf
bdba79c4
3d02497a
3e0ddfa9
bf5c7009
3e1c9a61
be7a7087
3dc295d2
bcdbf540
bce290ec
bec99643
bf948343
3da244ae
3e349dae
bf191ee7
3d8319e1
bd0f9ffc
bee87f06
bfb8c582
beeee6b3
be3d7b79
be576e74
beb7fa1f
3e1783ad
bd745544
3ca9a744
bfa6f0f5
3d2409e0
be48b520
3d131d9c
c0035896
3e15a72c
bef20074
3c832da5
3e1d34e9
be888fb3
bf354ad6
bf5b6aff
bec10f94
3e26518d
3ca7d992
bec6a04c
be4e6729
3ebaf2a8
