bd21fdd6
3d5dd302
3bc5fe90
bcb3477c
3d35c88a
bcb660b4
bae98200
bc2b4138
3d5d7672
3d6702fe
3d61c22a
3da3ee9f
bdb44886
bd0a084b
bcbaf1fe
b8f52800
bc8ac000
3d65265a
bd5a71ad
bd8f6504
bd96cdad
bca35c9a
3bd32380
3da3a823
bc33b690
bd20bae0
bc90cd4c
bd27d443
bda04ae7
bc9defe8
bcf86700
bd848a2c
bd2cfa02
3c04fc30
bdae68df
3bc644b4
bc4f1c27
bd76d78b
bd82117c
bd7c8430
bcff7bf2
bc107c1c
3ec0cb02
3eba400b
3e492bc0
bd26abd9
3ca65393
3d70c829
3c31ffae
3b9f955a
bc490218
bcae2d46
3d8174f9
bcd0ae26
3b92f110
3d80dc3f
bd1a084c
3c7095e0
bd4eb41a
3a749d80
bd897b78
bb88789c
3c1385a2
bcb68e4b
bd49ccb4
bd58c0d0
3efa930b
3e90b7a4
3d956c27
bf832e33
bf368421
be71b604
3d8041e7
3c361327
bf10db98
bf1fe5f1
bde8f933
bdfc2000
bcb6a40c
bef5e989
bf07fb72
bcc753a9
bd9dc4f5
bcf9982e
bd65e4d0
bd0c2cb2
3eeb6030
3ea81496
3cabe42f
bf40cd83
bf20f158
bf18c653
bdd4e407
3e258a56
be8a53bd
bf34f2e4
bf29f0b7
3e165acf
3d8a3e51
bcdc5e74
bda0f039
bf02e043
bdfbb14d
3d5e4094
3ef1d248
3ded0dd1
3f43719e
3f5d7841
3ef9ea9d
3d272edf
3d2350a5
bcf05ba4
3d81cef3
3d3978d7
3f056f39
3eb88d5c
beb50fd8
bebc908c
bec34e5c
bedd7c7c
be89f594
bf156090
beb760d7
3da32913
bd346edb
3ed578d3
3e317b5e
3dbaa05b
3eb342a9
3e00f1f3
bde9ec6d
3e336d5a
3db22c59
3d62ed16
3e0a0019
3f429677
3f84d2ff
3edfbbca
3ebb7cf9
bdf2a31f
3d13650c
bd9611c1
3eb22f89
3ecdb5cd
bec01c85
bd850507
3c86ff3f
3e8a3aaf
bece5b9a
be18ebcc
3e7b4229
be72ce45
bea4b574
3ddbdde1
be45d6d7
bdaaa011
bdea2aac
3ed6490e
3e1678f9
3eeadaa4
bd5a1694
bdb574a2
bc50f21a
bdf1dafa
3f135868
3f237e4a
3f0b8dfa
3e3b63b4
3d5e588a
bd55acd6
bee236cf
3ea47c7f
3fa27682
bde23cbf
3d17c35c
beb3b540
be7684f8
be97e8ec
3dae806a
3d4e0443
bddc8992
3e93a791
3e2ed453
3e6d5321
3e668e32
3eadfe50
3e31bd4a
bd2bc998
bcd09d12
be4e511d
bebd31c7
3e40e14b
3dc1ba27
3ef1679e
3ef56d80
be5cb6c0
3d2989e8
3cd0a097
be1638ba
bd25c12d
3e89e9ae
bf5fea8b
bf22c139
beff83e2
beb4d745
be8b5005
3d9b4fb8
bdcde63b
3ebbe4bd
3e71f20f
3f164252
3f061930
3e07c5ed
be43504b
be8fd662
be72fd59
bd660a78
bea25e20
be41e68a
bd88956d
be085057
be04cb50
3e0dcf8d
be869f2a
3cc71ec5
be3d726d
3da7c05b
3ec2fd59
3e44d146
be30ed71
3c265721
bf0fac32
3db65128
be881658
3b5d5167
3e416220
3d56096c
3e70de0a
3e28f3c2
3e433940
be21e7dc
be42fca1
be38532d
bd7118be
be983dbe
3d9734e9
3e3aa1c6
bf13baa0
bf0adb7f
bdf4092f
3e2b6f58
bd3a4c9f
bd02dfe2
bda1cd20
3f434961
3ebcc656
3cee04d9
bcbb162e
bc4bc06d
bd6117d1
3e04a17f
3dcb1460
3e275eda
bb8387db
be850857
be986977
beb25f3d
be6620ea
be49ed0f
3e9eb170
3cec871c
b78e4fa4
3e5d8f8f
3d866696
be875058
bf578f3e
be83ac1a
3e842f65
3f76ddf0
bd2fd422
3d59ad0b
bdc268e4
3f571961
3e33ec81
bedd36a2
beb8b162
3e1e57b7
bb4346d1
3ec2ec25
3d40f8ac
3daf4d8d
3c2a81ac
bea36c95
bebc3e64
be9c2b93
be4daabd
3e4d8898
3e42d76c
3e8a4318
3e92a017
3ea7a36f
bd6ba6be
3e39b29c
bf0a0b08
bf50cd57
3e480b40
3eaeca0b
bccecdaf
3cda1584
bcc50751
3d5acb94
bed3cca9
bb428a73
be92af80
bd0bc8f7
3cd7e364
3e524277
bd392bf6
3cecc7df
be14000c
3e1073da
3e77cc8b
3d63faa8
3ca0c342
3e770d4e
3ed482e3
3eeb5068
3eadd83e
3eeb7c8b
3e299c5f
3db8fe9f
bf9ea0d2
bfbe271b
beae346d
3d001b5d
bd80da71
bda062e1
bce5ebff
be387050
3d78e289
bd430745
bf258455
bed6e361
bdf35957
3dda8bd7
bd796531
be747bd6
bdce0ae0
be6f3c57
3e83635e
3ed702de
bddc4087
3db1e332
3e954b0f
3ddb7b17
3d9abbfa
3e5ea192
3eac724f
3de890a7
bf964369
bf6a10b1
bece5c22
be4d0699
3e4a6a7b
3dbc44f6
be602ced
beb8d3bc
be2c3a58
bf2d1b85
bf416ed8
bf1870d4
be2bb566
3d741233
bec357ab
beed4ca7
be118c85
be4e944d
3ea1fac9
3e418213
be96856d
be1ea696
bd5d9faa
be8c6aca
be582041
3c2de583
bd98a53e
bf4a8836
be86e33e
be8bb1d3
be6d9bdf
3def34eb
3c81d88d
bdb23c90
bd09111a
bd4d8234
bd6b6e77
bf661a40
bf63c014
bdc3b980
be4b72f0
3de175fa
be148ec2
bed3d5f8
bcd3237c
bba9c37b
3dee2947
3ddf51c2
3dc8f410
be5f7890
be5c112c
be969937
bec72126
3dcb0b0e
bf01899b
bf180a8a
bf2f7ec8
beb30f03
3f238e7c
3f211512
bd302c72
be11b88a
3e266928
3e87bf8c
bed118ec
3c894db3
bf023098
3ea81e31
3e19bf3d
be16a400
bc879c0a
be8be1d4
be92391e
bcfae29a
3e34463d
3eb6c3ee
3e153f15
3dac756b
be20020f
3dab70b8
bddea495
be4f40c7
be474ac4
3d3c44a6
bf26f751
bef21db6
3e8601f0
3f12a624
bd089da5
be07a85d
3e35aa5f
3f0d19e0
be87b2d2
be0d58b9
bf5c3f82
be947545
be5f1150
beaa7524
3e173515
3d9a2437
beaa084a
be53085f
3e12d22e
3e6849e8
3d91f318
bdd32a89
be93b566
bd8084c3
be396be0
3d3642ac
bdcf109d
3e08e498
3e830dd7
3e745eb7
3d25a9ee
3e3d1627
3d0b337e
bd93ef09
3dd24c54
3ef0fc9f
be388143
bef3b124
bee83ce0
bf101e37
be949f2f
beeddca2
be864ddb
be2c81e5
3e4b5cc5
3ea62f24
3e8f3de4
3e00eefd
3ccea385
be1e7007
be8ae292
3cce7a05
bf0d24a3
bea577c1
becd80a4
bf3bc7ca
bd9b3af7
3e823335
bd288def
3e883a5e
3d8e4407
3e74ea20
3dd83d11
3f094943
beee22cf
beb439f0
bd25107f
bea9ecbd
bec98e00
be51597f
bea101bc
3cccaaa2
3e3e433d
bd477058
3e013c15
3cd0e2e0
bd940d08
bcb075f7
bdcb255a
bded9f2c
3e94f9cf
be40a34b
bf83a2c2
bfa162af
be3b7ded
be60083b
3dbe57f1
3e2c46e1
3e9b31fc
bd7d4756
3c7f50ff
3f0e448a
bea94fee
3e0837d0
3ea828d3
3e0b7691
3df5c5a5
bd3a606a
be82d069
bea73e3d
bec565aa
bf224933
bebded02
bdaa096c
3d0f713a
3e9c7ede
3ea8941c
3ecd654e
3dfbad41
bf919b7d
bfd9a362
bf54b1a6
3e886f6a
bd895830
3e70fefd
3e203dad
3e31105f
3d7a6536
3ceec4e0
3ea75b88
bf1865db
3f1e0851
3e805087
3dd0d5be
3dea7a7d
be9b9eb4
bed81e90
bdf8a688
bed2efd1
be8bf40d
bef4e50d
bcd37f00
be52c9bb
bd940aad
3ea8ae37
3ecb07cd
bd454fa4
bf4516cf
bfbef002
bedc4b6a
3cbf8112
3e1cd8d7
3dc3802b
3e1ac129
bcccafc7
bc1e7efc
bd879ef1
3e57e0ea
bcd1cd92
3f02b1d4
3e763ffc
3e94275e
3ebf825a
bc6e15d8
bda57a6c
3e9db566
3ccae86a
be2e4fed
3d56a432
3c8b68bc
bc088f65
bde3de88
3d52007b
3d948688
be72b7aa
bf584dfc
bf411519
bef54d94
3e18e196
3e1eefd8
3e75678d
3d032c86
bc972adb
3d46fa5f
3d101774
bed014ca
be88d219
bdb65d47
3e14dbc0
3e673c06
3cf9bf71
3d89178c
bda25bf5
3e68d596
3dc5c13e
be659570
be7bfce9
bcdb5301
3db6a911
be651164
bbd1b599
3db12fb1
beda753a
bfaf8588
bf6c165d
bf0ae0eb
be345bd6
3e9d4609
3e92dd35
bdb7a1ca
bd5196af
bd7ec3f2
bc970a40
3d57fda2
bf26a5ca
bef6dadc
beb6df79
be6482c5
3bda88ff
3dc287fc
bebbf25a
bed01ce9
3ea7d861
3e01a710
bc7864f2
bdf89331
3d3dd4cd
bdf2edf1
bdd3fdfb
be6d6d92
bf61ec2b
bf7c1a32
bf1ed56e
bd80b9ec
be5c0c28
3f582498
3f0f550b
be2cbdf1
bc9a68f0
3d944c33
3c4ace50
3e7890ea
bebd352e
bf748d01
bf144027
beaac2c1
3e9ca271
bdb54ffd
bde6a4f6
be59d5c8
be03fc68
bd9cd728
3c9e477d
be2cc4f0
bc7dcb2d
bdbb4541
be9e4dd7
bee91411
bf2f9c4a
bf95b638
bf9a31c9
be84edee
3ec335c1
3e3b4608
3de359ca
3cb2ceaa
3c8a23bc
3c346248
bd023979
3eb3c200
be1a512f
bef8bcc0
bf3334f6
bf29a64f
3eae80b9
3ed64b82
3e9787fd
be8464e2
bf1cad3f
3e1c68d7
3eeb2940
3e0ee892
bd866cfd
3e6423af
bde3ba6d
bd48a8ec
3e7f68c2
bea497ab
bf8b24ce
bed6f594
3f2e8dfb
bdf3adf3
3e16e9ef
bd840deb
3d1cddda
3bfe6ce0
3c6919f8
bd0cc834
bd25503d
bbdd12cb
beeec171
be5495ed
3d7eb67f
bf2a3b4e
bebc3e8e
3e958ebb
3f1945ca
3dfdc386
3e5ca66e
3f06dd67
3ef31123
3e983201
3e321aeb
bc289468
bd9847ca
3f5bd735
3ea406e3
3ec31a5e
3e80c5c2
bdda1bf7
3a3202ad
bda58160
3d062a44
3d049f80
3d0e6dd6
3d81185d
3d29f3ae
bcdbbeff
be244096
be0ca7f7
bd88a3f5
3d8bd5e2
bd2ada43
beb6835c
bd0d8fb1
3d7c9b5a
3da0b5fb
3ed16b92
3ee80ff6
3dc51924
be3e379c
3e9ef97f
3d9d43d8
3da16a58
3d3a611f
3ce762eb
bc68a611
3da340a1
bcf5f85a
bd5745a3
bc3165e0
bebf609c
