3c92749c
bc2fbe80
bd8dc2b7
bc36a910
bc278ce0
bcd86cb2
bd9070f6
bd7fe6f8
bca074a8
bcb9f984
3d3c9efa
3d8be285
3d12beda
3da5c692
3d628157
bd442380
bda4b141
bb345ac0
bd1eaf72
bd3c811f
b9b37500
bd2b68d0
3cfba010
bd896133
bd6d064b
3c5042b8
3c414658
3cd194c8
3d448106
bd7ada44
bda54dca
3b8135c0
3d8e836f
3c056b14
bd79de21
3d812453
bc3fc1e3
bd020f11
3e88dc59
3ecb4d33
3e4ea1ed
3c35578d
3e2a11f9
3e865fda
3ee3e0ff
3e431511
bd343a7b
bd87c00a
bccbb270
3c7c90d3
bd61fe2d
3d86f17c
bd8ee707
bd209197
bd2bc922
bb42ad00
3c1fbcd8
3cdce73c
bd1e089a
bd814fb7
3ce83841
3c4fb735
bd5acd8a
3de3cfd6
3d3308b9
3dae67b5
3dfadf9c
3e9a4cdd
3f3a00de
3f42e0a7
3ec6fbb1
3e5a6ed6
3d73adb7
bdfb7f41
bef0dfdf
bef901b6
bf1f75dd
be7d5f5b
be1a28db
3ee557c2
3ee14f51
3d47e67a
3d8fe739
3d17ce50
3bfd5530
3d838f9f
bcf74873
3c18039d
bcfc3472
3c5d9a78
3da498e7
3e1b64cf
3e06ee83
bde27346
be2a1c57
3efc86e8
3f255f6a
3ec70a77
3d13c2ee
3d7c2686
bd0240d8
bea9962c
bf188d4e
bf0b0573
bf30c494
be47da32
3d971a75
3ea52ae4
3d179d6c
be03b5c0
be064d55
3c7d23f8
bcec1e02
bc8b9f04
3d72080e
bea4293b
be0fd29b
3e90646f
3ecf5c33
3f3f1154
3ec32173
3df6e8e6
be60dad7
bd1a162d
3e075b20
3eee7ab6
3e5b1cf7
3e347b67
bcfd6038
bec07643
be8a2b9d
be8c9018
be471f24
be7e1c4f
bdce6985
bdb6d92f
be8ba27a
bdc744c1
3cacbae8
3df2963a
3ca34e0c
bce067ac
3da6c0b9
bd6475d2
be3d2b7e
3deb3e84
3e78972e
3ec2c2be
bda8ad30
3c85ea3b
be3eb8a1
bdae98d4
be4d08dd
be804004
bdb58ff8
bd838997
3d7953d1
bef4b81a
be787292
3e03d682
bec52cae
beb752c3
becf3b5f
be0e9c4a
bd6f77b7
bec19b47
3e4aad2a
3ddf4e38
bcc2f4e0
bd7351a1
3f0a0a3d
3d164cd2
bed9a403
bcf05e6b
3ec3b075
bd8a0e24
3c74517a
3eac797b
3c13c4be
bd3f7f87
3e534407
3ddb3026
3e3ebfb6
bc81c5aa
bdbc5acd
be9fcf73
bea12679
3ebaa60d
3e553ba0
3e0865ea
3e33be2d
bdd544b1
beb200f0
bf14af35
3e274cbb
3e7e9b44
3b5bb380
3c27b246
3eb6bf5d
3e33ad3c
be7adbbf
bca4ed62
beb6e86b
be818a1e
bd83dc00
3e1613f2
bdac09b8
3d92b1da
3d45377f
3e366c0d
3d141df2
3ceca8b8
3e8874a8
3e55fd47
3cff8bc4
3ea10326
3e41bc2a
3dad705c
3e58e4dc
beab31a3
bf1e45d3
bed5de8d
3df8e086
3e51c2e9
3be92c50
3d4e14f6
3e924cbd
bd1d13a6
bda31b64
be229e84
be3fa80e
be3c16ce
be475d13
3d26d82d
3eb2b687
3e945ef2
be02f21f
bea6ea01
3d723dee
3d304f39
3ee3d057
3e81ec85
3d78d7f7
3e5c5f36
bd42d673
bda0c5ff
3d8619db
bd15fefb
bf0ab26a
bf51f3e0
3e291af7
bd238980
3d30dd20
bcfc67fb
3f6802bf
3e93c206
be282a00
3ea7fc31
3d94601f
bdbeac1d
bc9dee14
3e74d3e2
3ea9c6a6
bc43899b
3e88f04d
bf0d5e59
bf6f8309
be0a5d38
3e8ce5be
baf796bd
3e373087
3d6fc6ee
be96c423
be13e9a8
37e5b3a8
3ea9b923
bf4c6b68
bf55b016
bea3c642
3c0facfe
3cef0276
bdfa72b4
3f3a2191
3e6ad53b
3e2701dc
3dadf5ee
3e24d082
3e422bce
3edc6c95
3ecbabe1
3e3c14ad
becb98b8
bec9c88e
bf21b0c5
bf59843a
bdc5bb5b
3e85649e
3dab61d3
be293d89
be5d591e
bef73bf5
3db157d7
be9dddd1
bc0b7c10
be620d10
be7304e5
beae8d9a
3dc2854f
bcdbbb81
3d72100b
3ceb40c1
3db37a2b
be219085
3e9c7139
3f03f183
bd44f8db
3eba1899
3d11be58
be806f46
bf19bd75
bf101fce
bf4b10a9
bec2e4a0
3e8b57f4
3da22e85
bd600ab2
be858968
be8bbec2
be486d2a
bd26d3d3
be56103c
be3abd53
bdb8c294
3e4d2995
beaf7673
3e2ee16a
3d92fee1
bbf0a7f5
bda548d6
3ced5f76
bebb12ed
bdc92029
be1551b5
3e76ae48
3ea47e51
be83fa35
bf254f14
bf88c64f
bedd95a6
bf51e1d1
be9a88a3
3e18db92
3e28b23a
3df27bc6
3d9bf6b4
be4bbec6
be386a9f
3d45986f
be066738
be8f6e24
3c570caf
bc93b39e
3e39a675
be118cb9
3da6e95f
3db573bd
3e703e45
3d088b90
bf1e76ee
be2cba31
bef1889a
bf1743cc
bf3411d3
bf9430c1
bfa75f5d
bf46afe6
bcdfe0cc
3dc4b0ff
bdc9909d
bdc2a81d
3e87f9b5
3e3b4b6c
3dfc1b55
be62a12c
3d14c26f
3e8d8d53
bda8fd4c
be562574
3de6da56
3df47f11
3d49303f
3e215287
bcd91184
3dacf86c
3e4293e6
3d94708f
bf14736c
beecf4ac
bf602cdc
bf712612
bfc5c4ae
bfb39945
beeff2f0
bdf0190d
3e1ea864
be16b2f8
3c842f50
bd486fb6
3d918512
3de76e9e
bbb7b3b1
3e86679e
bd7342a6
3cdefb63
3dcd9923
bde7d7eb
3e8609ea
3eddfa0e
3f3f60e2
3e384e4d
3cbcb698
ba5193f3
3e9ba6c2
be24bff3
bf390545
bf032cfc
bf7daf41
bf294502
bf1a3167
bd3a5dad
3ee080ee
3f01d616
3e5918de
3dcea3ea
bdc31c39
bca544f3
3e821363
3da4a3a1
bedc7245
be90d46a
bebbb635
be0cf1b5
bc65cf39
3c37b1db
3dcc04ab
3f673fb1
3f55e5ad
3f2c7213
3d457802
bd6b6593
3ed3166f
beb165e6
be0a4e6c
be7e25cd
be533daf
bf243fb6
bed716db
3e29fee8
3f00ec0e
3e301f80
3e220e67
3da4656b
be7d46c4
3e27a2aa
3e40ad12
bd892afd
bf33370a
bf12f93e
bf109557
be72123c
be56dbb0
3e2e5140
3db88f4f
3f5292a6
3ed703ed
3f45e06e
3ca6071c
3d322992
3e25d2e8
3ebf5616
bd11c334
be536129
beaaf6e3
bea9e0d9
be47eec2
bcbcbc09
3daee057
3dc4a307
3ebf838c
bd8db0ae
3cc9f36e
be89346a
be21198b
bf0d9fa3
bef24f45
be878a25
be899dec
be6eae1d
be4bfbb7
3d88fe50
3d5f39c3
3eeb9bff
3e3dd487
3ed00038
bd4b0cb7
bd4ca3e1
bdd2889d
3e76dc10
3dfd683d
bec5475e
bea88ff7
3e6c680e
3e1d05a3
3df9c449
3ead3932
3d768729
3eb3138c
bcb7181e
be42a8d5
bdff7afc
bf06d80d
bf727879
bee4e667
bec00f59
be8cfb64
bbcbba97
3ecd9acd
3e91524b
3dbc3024
3f0f8588
bda609bc
3c6c842b
ba05edfd
3e354b22
be090a72
3d490e25
3cd7f1d2
be9eff6f
be915637
3d19d055
3dfc63fb
3ed82218
3e4821c2
3ec9cee6
3e3cd626
3e215406
bec0cecf
bec98c5b
bf55265c
bf1c98a4
be6ccab1
bd13914f
bdc74c23
bd4de63d
3cd3cfb7
3d13fd15
bdaffc93
3ec5a0c0
3b8dcbf5
3df43ffb
bd3ec10c
3d5b5d78
be608a38
3e141569
3e637c33
bd5084bd
bbbcb5a7
3e38760f
3e6c86af
3e84db1e
3e1929a4
3ea4313a
3e2ce799
bd6abc84
be2b8d81
be8d2512
bc5ef2f3
3ee93c9b
3eb714cf
3e07cb67
bcf99b19
3d82b0e5
3e2dcfb6
3e86cd07
3e61ac1e
3f25853d
bc5628ce
3d0671ee
3d8efe1d
bd1ad25e
bdc9cb6c
bedcad37
bc856b66
3e94b985
3dc06075
3cd05a43
be340b78
3d0ed1c8
3e68942b
3e8cc583
3ecff29d
3e83e80e
3db88f45
bf01178b
3dd8721f
3ed2946b
3e646468
3e13adc7
3d45cec8
3e8b8c1c
3e057a34
3e76a5ac
3f1d852b
3f58bf5a
3d408225
bcbcda28
bd1aa754
3b97c65c
3ea04d8d
bee28e19
bd56681e
3e9371f2
3d28f91c
3e81ab91
3e347d32
bd6c5bea
bc959899
3d40d6b7
3e051778
bc88415d
3c00f897
bf084db4
be07a536
bdf923cd
3f1f4a68
3f179023
3e312b9c
3ef41e33
3ed1b1c7
3d7351cd
3e839617
3f08b31d
3edfe7d5
bd55e062
bd9e5663
bc25b4c0
bd86be4c
bf25df3d
beb6efb4
bd3175a9
3cca96c4
3e7db580
3d554ec7
3e532bee
3d5a641c
3e692bc9
3e977ebf
bb54e81c
3d5e422b
3ccaa429
be366e27
be81f83d
3eb019b0
3ebc556d
3e92db0c
3f13215d
be0a0001
3ee889fb
3f3679d7
3f10ac50
3ea5d573
bd83c851
3cfcf214
3d16c3dc
be36933d
bea4ceb5
3f02ff77
bdab3a27
be0d0e93
3dc4677c
3e0a6a1c
be053608
be9d6279
beab48e2
3e3bb249
3e7c7c33
bdbf9d40
bdd456f0
be95fc18
be7405b2
be5a57c0
be17a7e0
bf09dc1d
3e16a333
3ea0ee3a
3ec328a7
3f451cb5
3f122dc4
3e632161
3d875a95
bb91d210
3c9752cc
bd9b1c65
3f4a0573
3da71a6a
be432f3b
bd1dad52
3f171d4b
3e0ca06c
be008ce3
be61ea50
3c799185
3e9c64ed
bdcc6e70
3e5c06a5
3e70e414
3dde1fb3
3d51f452
be82be67
befdd471
be0696ef
3ee67743
bd4c396d
be8f4315
3dcfb96d
3e84b22b
3e7e36e3
3d870e09
3c952450
3cb3a234
bc133d98
3c95ea59
bedcf3fd
be5cf81e
be488e54
3ee5f679
3f18aa7b
3e84a56e
be0018e8
be91bebc
3d885b10
3f28c148
3d5641c3
bee62ea8
bf27120c
bf1fa740
becc7504
bee1db17
bef35c3f
be87ff63
be340330
bc1f0de4
bd8d1f44
bd8e068d
3ccaaa24
bd082719
bd1124cc
3d2ce2e8
3c9a698c
3d98b481
3dbf75d3
3ddf0fdb
3d0a63da
bbffec1c
3c9e6f93
3dae9639
3e28fdbf
3dbd9566
3e044a08
3d88b1c1
3e0bfbcf
3d6370c6
3de0e533
bd37b1eb
3ae0af9b
bd4cd947
bda0f716
bdc525cd
bda2dc58
bca05cd2
3d78754a
3d977cef
bd7a783a
bd7d0f9c
bdda384d
