3e2dbb78
3e61f426
3c74dd86
3d06dd09
3ef2f9af
bd0f0998
3e1c1668
3b80603b
3e467c18
3dce864a
3dea9759
bed3e372
3c157d47
bf6d3143
bed45e6d
3d6a0a43
bc3f17fb
bf37547b
bea61c11
bea9e7ea
beba1976
be97b9c9
3e9574cb
3e69d187
3dba8517
be35d3a7
be68b650
bd21d33f
bf2629d2
bd83d3cd
beba38c5
3e7df930
be43f455
3d897ef0
bef7abd6
bde5c828
3ea36f0a
3de54469
3dc27e9b
be1f6389
3d148bd9
3d48681c
3ea9e977
3e2efb8a
be5384bc
be8a7951
be8fa04e
bf201451
bebc804e
beb4582b
bdc47e1a
bd7749b2
3f02b24c
3ed9f533
be9b9d09
3eac44a8
3e077165
3e97bd90
be8b195e
bd27a124
3e4aed00
3d803820
3e8b2ff1
3e5cb152
3e31b431
