bc6ae0c0
bce7c84c
3d9bdd73
3c6c7200
3ca465a0
3d36d582
3d890e91
bd0abce1
bd8667c8
bc70f708
bd835264
bce35df0
3e1a845d
3e5b7a1b
3cafd36a
bd800d31
bd6cd394
3b497d80
3d87bf91
3c63bb10
3d39e31a
3d12715a
3d3b040e
bd295757
bcbb8a28
3d7bdb26
bd828157
bd8a3e75
bb78c2a0
bce4a98e
bb2db0e0
3d21b2da
bd82d290
3c95505c
3d6def66
3decf47f
3da51c8d
3cfbc3f8
3ca6aa2c
3d7b9db4
3ec9f378
3f077e23
be4d43ba
bdfda277
3e29f05d
3eb44236
3e778724
3e3a803e
3e2d572f
3e579270
3df394ee
3c94304c
bd8eff2e
bd9c5288
3d945a8d
3d234d6e
3d30b494
bcf3f294
3dc17627
3e4bc5b9
3e0c2124
3dc14988
bb11f731
3d8f674e
3e506358
bc6086ca
bf0075ad
beb7c208
bf1088f1
bf29d37d
becc95ee
3e8ba87f
3ee2218b
3ec415e7
3f0a778f
3ea56c2a
3c940397
3f038ab2
3f015982
3ef30397
3e4d0ec0
3d158d51
3d7245fe
3cc22a1c
bcf4e314
3d80a805
bec1fce0
be16c167
bcc5c4e8
3e48b580
3e7be5c7
bef43c24
bed21cf3
bd858409
bf45a748
bec370a1
beb351dc
3f372700
3f70a389
3c9086d0
3ddfb3d5
3ebcde38
3e2364c3
3e082a3b
be8d686e
3ed0accd
3eccdd00
3f28a25f
3da8f12a
be6cce41
beab2299
3cb5ea88
bd228096
3d038c48
beabc767
bef76f39
bd2a351d
bebd6e54
bed5bba9
beec3d7c
3e29b144
bdbf711b
beef09ac
bf147be9
bed3399c
befa9c9e
be49450f
3de6934c
3e25fd3c
bc9eeb4b
3e31b5b4
3e30d279
3cb1849b
bd1a0898
3e1db64b
3d0a11a7
3da06fe4
bd3e28dd
bebcc3dd
3e714485
3a272200
3d91781b
be217a11
be9e0360
bd82409f
bf21c4ec
be18dcc0
3eab42e2
be8b25d7
bf8fee63
bf03cb8a
3d8de730
3e11ca71
bc656ccb
3e800a85
bcdd7337
bea3e35d
be05c635
be3d7b13
3db02d92
3e3a74db
3d51a9bd
bebc8fa7
becf7c09
bd94b714
3e083878
bf19db70
bbdf1d29
bc9653ac
bda0d83d
bd50b7f8
3ed05b14
bcadea4b
bf22a3d7
bef8e892
3e1b7612
bf0d86e7
bf53547c
bf1eb92a
3b900151
be738e80
beb7bc10
be7962f8
be95e816
be576990
3e629f9f
3c39e4b9
3e20f2a2
3e250507
3db24949
3dd2a232
bf19157a
bf2633fc
bf01898d
bde0e7d0
bdec0244
3d9dc693
bd8c517b
bd2127ea
3c1c8561
bda81ee5
bec209bf
bf67e63b
bf36d109
bf46d36e
bf11c31d
beaf4da0
bef42741
be72bd45
be3a9cc6
beaa0d51
3df866a8
bd9dad41
3d70ff63
be18726c
bec25d35
bf0096aa
bd4c5b88
3edd6b82
bea37fc5
bf087e86
bf14e75e
3cbbfaf1
be9f5dcc
3f09b9f3
3e1b799d
3de181f6
beacb185
be996901
bf026d9b
bee6e04c
bea567af
bef36832
be37dc35
bed3628a
bdf56a25
be39b75d
3de4882b
3dca5cc4
bdfc28ee
be2ad72c
beb2244b
bed0ad1b
bea28c02
be953b2a
3e5d654f
bea1a004
bed5c36a
3e6ef2a9
3e876e2f
3ec13d05
be28f4b0
bda841df
bd3e9728
3e8dc818
be104131
be07a7c5
bf63d6f9
39c27b67
be2584fc
beaaa417
3e800505
3d7d09e9
bdcd8634
bde444d8
bd3a4237
3dbf31aa
bda76c88
bd7bfa39
beada289
beece6a7
be84a06c
be77e18d
bdeb0180
bf249692
bd9e029c
3e9dc166
3d509afe
bdd2df64
bf3b0a2f
bd9258f0
bdf27eb2
beb6837d
be8066fb
bedfd460
bf070c43
3db17e84
be1a7ec3
3e26aa37
3ea541fe
bd35a209
be51a837
be915503
bd734d01
be166391
bd2903da
be2df19d
bda917fd
be84a876
bde3afc4
be81a365
be86b840
bef8a840
be8ef085
bd9b7fce
be5be92c
be8272d2
bf0b0ad3
bcf1d7e2
3e347b73
beb6e5f4
bf1dfe83
bf3dc6b2
bddff2fa
bd24f7dc
3ea50e55
3f12e037
3f01da05
be161040
bdc3032e
be69b719
bee93c63
be79c176
3c991b1e
3c88f096
bc4cf5ea
be95cb49
3d125b60
bd7e79e2
3d4b264f
be101832
be872b9e
bd98fd83
be0a31de
3ef963d8
bf071f89
bd688a21
bd80df3d
bc4e5410
bf305087
bf1b3dae
bdc1fe3c
3ec48fc6
bc8b9231
3ed802b0
3f0e5251
3df92f4b
3d8b3005
be8cdb88
beb7a8e6
be291605
3dd7d580
3de5f521
3db9a459
3e13c3f2
3e1a6127
3ea68df4
3ebb4646
3bd0bf22
bdd77d8f
bdefaf25
bf54a659
bec40d74
bf4ef69f
3cd61b12
3de63d73
bcd05b3b
bf2cad05
bfa1ee4d
bf193011
bc914808
bd9a4c9c
3db37af5
3f4869df
3f1cd0b6
3e69cbe0
be6d13d6
3ccefc58
3e1be20d
3e876b5f
bc68ff7b
3da634ac
3e8888a7
3e662631
3e215bf9
be4be70d
be9e36ab
be970702
bf4c7823
beda00a6
be88d4a8
3caaf7df
bdc5471e
3cbb3a96
be41a987
bec040e5
bfb19f66
bf1aa92c
bc9222b3
bc05e97b
be0f47aa
3e770b69
3f1b1257
3f0eecc0
3b0b380e
be0fd4f8
be37d775
bc4fae4c
be862ecb
3db80ff3
3eb94489
bd21a0ad
3c557426
bee0e976
be079db2
3d510d79
bd268067
3f49ea0c
be608f46
3d084471
bd8f519f
bdb89193
be4a5254
bc23b514
bf30b5ff
bef11fce
3d739efc
3e70b6d8
3ca8fe7f
3e084001
3ef0f84c
3ed1bd99
3e8bbabf
3dba011a
bcfd2c8c
bed415ca
be374494
3e68d4fb
3de53259
bdb5a392
be148854
be10a60d
3d792bef
3bc1f0df
3ed419b0
3f264498
bf06d01c
3dbff80c
bbd954f2
3d02702c
be9cf768
bd624a6d
be4b3d1e
beeeb913
be338857
3c1d9b8f
3e18ad73
3e1b1250
3ee0c145
3e9ec317
3e96ecb4
3cb4afe6
be1a37d9
bdb24690
3e87eca8
3e83a236
be29d0bd
be812b34
3d8487c5
be4bb560
be0d6a00
bd2ba86d
3e740322
3f49da41
be7cdb77
3ebca5a5
3da42cd7
bdc7b3fd
be3b06ca
3e5e8de2
bbbea4cd
bf0be911
bf19aee8
bdd78ba1
3eab533c
3d652b48
3f08656e
3d59addf
3e2dd618
bd4ef534
be04592c
3cb2443b
3e578695
bb2a4c86
be698c95
be798f8d
3d1503f4
bcf8a4b7
beac6c97
3d7007ca
3e3c8a05
3d6b321b
3f1438ae
3f4fa089
be991c36
bd91c806
be566066
be3d6deb
bd2339cc
be686cf5
bd89b97a
3c1e1b93
3e8da4c5
3d9af1dc
3e74ec1c
bdbb79f5
3e8f944f
3bdcf052
3ddf507b
3e1fca9d
3df5ae7b
be18fb5c
bea8fb70
3e1b97e5
be2eed23
bddebc29
bd0f5fce
3ce339f5
bd7bb92e
3bd4de40
3e57ac21
3e9b39bb
3d9ed169
beed5b2f
beacd034
bec26786
bde536c5
3cc4a1d6
3e0c0a41
3e417fba
3e492356
bd6c97cc
bd821505
bc7c6ae9
3d4824d0
bd88df74
3d74f4b0
3d1ae872
be96e3d4
be919840
be6af61d
3de51b8b
be97d6a6
3e04ac0b
3ed137a8
3f031440
bcf8e53f
bcbaf81f
3eb80d08
3d459010
3cda3c68
3e73dd4b
3ad9051f
bef0d618
bf2ad063
3cad7dfd
bdefd48f
3e6aed52
bdf75913
be85cce3
bbb4f7b0
3d983a1a
3e969967
bd502204
3ccf9dd5
3e0d8252
befb8556
bec99193
3e73e840
bbf5b417
be28b9b9
3f102a40
3ebe47d4
3e33662d
3ea47d69
3ea4e9d6
3de9f5a2
bd8d1482
bd28f0d6
3db0c910
bdb8dea2
be9d91f6
be51c00b
3e7c540f
3de9bb21
3f0f62eb
bc41c374
3ce0d0fd
bdec5277
3da08336
3f23a83b
3e31d75d
3e6303a3
3bb29b00
beb6efc2
3e54a011
3e7d3dd1
bcff6863
bdf7aa16
be2371a0
3e266825
be5e3a8a
bd8f13b1
bee0c6d1
3dc9e05e
3d7d9406
3d19554d
bda060bd
3ef795eb
3ee2c261
3ebfedb3
bdb65fae
3d1875c2
bcda8aa0
bdf74f5e
be7b49e9
bd2e0197
be067e7a
3eb06f4f
3da443f1
3e2d8e6c
3de4aba8
3ed16a6a
3e9076d5
bd25254c
3e2c96a3
3dc97782
be0858a2
be76ac63
bf086438
be486c35
bdd4a009
bc9e1d64
3da2dff0
3ad56b80
3c6eee78
3dcf0d60
3e7ac907
3e83c7c9
be7c4bd2
be56f083
bdee1d32
be5ba6cc
3d8fad6f
bd6e9929
bea09474
bdfb5cf1
be3254b6
bd9ae620
3e163d5b
3e812f13
3e776d2f
3e64dc3c
3eaee600
3e267b8a
bd83ef72
3e7dc4f5
3de29d45
3e4082ba
3ef719dc
3cacfe4f
bbe3f250
bc2b2378
3d1ab3ba
bd7b79e6
be20c7da
be9181c9
3c928cdc
bd23b265
bde0c82f
3df41faf
3f059a66
3e9cdc2c
3ea77141
3ddbe07a
3dc2e1bd
be39c56e
be694263
3e7d0341
beee0106
bec18df7
be668fb8
be7fc685
3e48b8cf
3e7b78a8
3ec32975
3e37bd39
3e59abb9
3ea308e2
bd5b5f50
bd8d7549
bd3eecce
3eca5c97
bd941c84
be279fb8
3f00185a
3eee60f6
3e4a767e
bd21d0f9
3e978fa3
bcf4828c
bdb2241b
bece7336
3e9d7921
3e00d07f
be72a718
bc8ec6f1
3e958949
3e756a59
3ecf2a1e
3e9c356d
3e1bf71b
be05e8ba
3e072c53
bd9f73fe
3e91d6df
3e9474d8
bd9b8e66
3ccbb1cc
bd833767
bcdc2740
bc23072c
3ed6995d
3f0a128f
3e75641f
3e3c274e
3edaa087
bdefc312
be806d5d
3ecdc5eb
3e27978e
3ec86614
3f440b0d
3ea4c4dd
bc814504
3f30559d
3f469605
3e1a1775
3eb8d773
3f5c57ec
3d03e9ab
3ea694de
3e1865cf
3d32c677
bc1686d0
3d818819
bda10c86
3cfedfb8
bd974b4e
bc3a03c8
bda68545
bd0f62a4
3e68295f
3e9ac62a
3ed509b3
3eb1df52
3edba51a
3ee50297
3e662746
bd50ffa9
3d99570e
3edfef42
3d2d6854
bdcc4c4c
3ea199fb
3e8c9550
be9059a0
bed80695
bedaab39
bdd89aec
bcdb74d8
3d3b095e
3b97bc90
bd09e0d8
be7027ff
