3d9a95b1
bda41043
bd3c3e97
3c574630
3d215c96
3ce360d0
bd8c09fe
3d34748a
3cc766c8
3d272184
3ca9c160
bd31fb50
3dbd66aa
3e0e3d3b
bcc61fae
bd4dbbe0
baaa9bc0
3d6f49f2
3d8d367f
3c843b44
ba074300
3c10b8f0
3ab61800
bcebd0c0
bcde17c4
bcd785c6
3cfa2ff8
3d6284e2
bd489f43
bcaa59d2
bd418cb5
3d532c1e
bc98105f
3d22ae74
3e6cc64d
3eaa2d4c
3e593368
3e0b147b
3f0d97db
3f00548c
3f018d5d
3e89e824
be89714c
3d2c04f7
3dd7f0c2
3f0a47b4
3ec73f73
3f149b69
3f12ca8e
3ece589d
3e9cce76
3e8684eb
bcc1f168
bd9f0f2d
3c3f7b30
3d97b10b
3d9e6da7
bd58e028
3badbce6
3d1d05ab
3e942115
3e564234
3eb5fdf3
3e9d38cf
3ed09121
3ef2adb6
3f26c281
3f7b6785
3ed64eda
3ce8bd4c
bed702f4
3d490ca5
3eb66ad3
3f03b248
3eceda1d
3e7f39bf
3e97f731
3f49941c
3f37cf20
3f3e2735
3eb5276b
3d8ee4cd
bd1e5df3
bc5cc608
38233000
3d325b24
bee8e19d
bdf3d5e4
3f0e2d76
3f14740f
3f507e82
3eea274d
3edbd0bc
3f0b3563
3d884556
3f131db9
3e991253
bf084b0e
bf3a6603
bed16d0f
be8890cf
beaa16be
ba2d0f0b
3e8a2436
be15bd95
3ed33997
3ee36463
3f7f7562
3f105454
be98024b
be0006da
bd3a7a5b
3bdf5ee0
3cbad8d8
bec62f3b
bf07311e
bcfb8f43
3f828d67
3f46c254
3ec32bd0
3f0a9543
3f04cda7
3ecd336d
be7e410f
bea21f08
bf1c9fa2
bf7e4d10
bf28ad4f
be07529b
3df7f024
3e5ae439
3f2e01ef
3eb47151
3de83e1c
be7c32dd
be90c9e4
be78a630
bf745126
bf423ec6
3f08c244
bd836444
3d170abc
bd247de3
3ebf7504
3f1cabbe
3f3bc7bd
3eb2b1ee
3e9c11d0
3ec3e129
3e88fc86
3ddedeee
be7fd279
bf18f048
bea2d651
3f0905c9
3e9644a8
bcf8ff78
bd9f1508
3e17c77d
3e32d5cb
3e5f7133
bd3a8dea
beabf693
3d8d910d
3e7776ce
be00073a
3e446f83
3ed625ce
3d97d64b
3d9691f7
be386d9d
3e9a5054
3f19d97e
3e66f87d
3e182325
3ea7baa0
3e313893
bdcf5956
bf07dec7
bead37c2
beece8a3
be67d8f5
bd326448
3d03b3e8
3d441d1f
be9135fc
bedbfcd8
becf9a89
be728ab2
bef3453b
be5d1eb6
be56d73e
3ee602e6
3e240a96
bee0475e
3e7938dc
3d817e47
bd5db513
be5f997c
bd6f4df5
3ec6f2f8
3d07c7df
3e469bd0
3e4efdd7
3e3b3bbb
be0b1e03
bebef77b
be2acfc0
bf2d6370
bec4dc03
3de7b1f9
3e684fd7
be0d57e3
3d12001f
be4d2927
bf22e22f
be8269a0
bf1e8716
3e1ec6d5
be8e2314
bf014ea9
3c448c25
bed1532e
3e66a0b5
3d165bbf
3b223f7b
be2c107f
bdea30ef
3cc95f7f
3cca92be
3cee765d
3e86495f
3d947df0
3d852b03
be716ee7
be95a873
bebebdb7
3d048f3e
3eb0c363
3dfbd7db
bc08c467
bda5cc94
bee2609d
bef77ca9
be8c7823
be511c32
bf110938
be35c974
bf22f964
bf1379be
bf160a3d
bee7bd7e
bd95663c
be14c182
3dd28c30
3ea0597e
3e75148f
beb3d065
be5d6ab8
3e8d92b9
3ce127b7
bd342227
be93ca82
be113492
becd49d5
be5da41e
bce19c75
3e8209fc
3cbfdc51
bcffa5ca
beaa2b8a
be4e3c53
be3028d6
be39c879
bdad3bfc
bec4839a
bf4a5847
bf67c414
be336cd9
be644e81
bc5ea6b0
3d291aca
bed4cd75
3c871d17
3e59a60e
befdd06f
bbe26251
3e8f3372
3c20f992
be0826fd
bdf40216
be9b22b7
bea3bb40
be6a2cf8
bde127a0
3dc5633c
bd48b1bd
3c53f6c9
be91858b
beb01d20
bb464b08
bd84df36
be74696d
beb2da80
bdcc5cf6
bece519e
bd979b0d
3dd940f0
bd8603a9
3f21ccb4
bf74a9a2
bd97c48a
bd2c39fa
be4b193a
3ead5a72
3e2251ae
3d9b1355
3e5c43cd
be8288b3
be83eff2
be802a1e
be5252d1
be8ccba4
be1f25d8
bdae1c4f
bea91ed6
beb503e6
3e01a58c
3e9f8008
3e4c31ab
be460ee7
3d9abdd6
3ea6ed1b
3eb353da
be3ff630
beaf5e71
3d640d8a
3d8de105
bf6213f4
bdbab62c
be9e4364
3e1f4bbf
3eca580b
3b9b0cd7
3ea98180
3eac8247
3e6782f3
be124e64
be816d50
bea0b3c0
bec1935a
be6f8aa6
3e276f96
bebd85be
bf21f159
bec51e89
3df7c8a5
3dba1360
3e163d2c
bcdf738a
3f0be6e6
be109738
bee0f8d6
bf3cbeed
bcd6c448
3e64a61c
bd16e44a
be5d616a
bef29f42
3da38ff7
3e1f2180
bea000e4
3e8b1e21
3ef73c10
3ed736c1
3e481901
be2e6831
be6914d6
bea49852
bdd9d349
3dd53cc0
beb97b8c
bdab09e5
3e7c2551
3eac1ab8
3d878b2c
3c6e24e9
3e242b34
3d28aaa0
3eaa3ce5
3ecb0081
3eddb470
3d3bb1fa
3d5fdf58
3cd9f879
3e453639
bed83171
3d158f9f
3e188dc1
be31564b
3e5c7254
3ebe2703
3ed77f2d
3e5c232e
ba6ed8d5
bdb27d3c
bee22a78
bd5c47ff
3cf2cbbc
bed8085f
bee5ac4f
be875727
bd92b52c
3e171e50
3ece08fc
bbbd2d20
3dcada03
3f36ed8e
be664d3a
3d947ed9
3d92a711
bcafc5e9
3f07c419
3f0eda02
3eb8a5c4
bda0fd7f
3d85352a
3ec5d557
bdc4975d
3ec9e42f
3e947101
3e04d3d4
3e90279a
3ebf47b1
3d0acb88
bd85ad9d
3e46a331
be2283f6
be245d29
3d5b5dd7
be0168ae
bcb30ca8
3e10aa66
3cd44c2e
3e5c7615
3f23fd5b
bee3c4d7
3eaa1dc3
3d97dbc7
bc733e60
3f0cd16c
3ec8ee21
3d3879c9
3d00588f
3e37d016
3e6d7861
3e0148c1
3f36f577
3e962100
bd0ae066
3e255354
bb78607d
3d8bd84b
3e3ebcb5
3c2c2eb0
3e360105
3e02c906
3d42c9f2
3d8ac274
3e803250
bd8b1a9e
3df7dad5
bc8e6b45
3f2b1105
3e2941b5
bbe1e223
3d299d80
3dabcee9
3ef88ff7
3f167c56
3e074c2d
be962daa
bdbf833e
bdcf6e6b
3ebf053a
3f0a7cc0
3f016d1d
be01a130
bdbe3c04
bd02a9fc
3eb46a48
3e25d90a
be3f3cb7
bbdc795e
bd7eca5e
bdb7c224
3e65fe95
3e75eca5
bdd761aa
bdd99a1c
bf31c7ca
3ed88a41
be391795
3ddc7e49
3cfd0774
bd0edea7
3e4b44b4
3f3f9358
3e2d28a8
beef347d
be8f4767
3d7833e2
3e8a2fc7
3eeb711b
3ea40c41
bd48f1b8
3c597fd0
bd3cdaa9
3e64506f
3e771004
3d300d94
3e46d4e3
3d1d1f97
3eb62f15
3e7f37b8
3e43bd03
be7bd13d
be400b0a
be896612
3e59563c
be3a959f
3dc1fa3e
bd74d365
3f075644
3efce6ad
3f187744
3d0cafc5
bdd6fdd3
bd73d6c3
3ecf9e67
3dc598eb
3ef384e6
3e8e6df4
3ebac8a1
bc95643c
be97d685
3c07c40f
3e58c365
3df87f50
3de9531e
3d94d5e6
3c8a2b8f
3b62df75
beae0f56
be01c86b
3dc3a288
bd473abd
be32c135
3e8f9fb1
38f0c12d
bc426500
3f0fc6ff
3f25f257
3ea448c0
3ae9a014
bd90106d
bac81eae
3f0a22a1
be8071f3
3e37025e
3eba8a1b
3e8d91f6
bd56a60a
be6977c3
bdc2b740
bdfe8b68
bd15c890
be1a38e3
3db7fcaf
bea4ef55
be384bf2
bdc0616e
bf226c8c
bf5dd47d
bf4b29ba
bf708813
3eabea81
3aa87e9b
ba6bf2b5
bcd5ef20
3e0f4f01
3f00a43b
bed965b7
bf2362c8
bf12bc09
3e37e9c4
be4f6ca2
3d767e4d
3e5d3e71
3ebceaa4
3ea693b2
3e0f0b7b
be0c285a
be667d43
bde15381
bc041dd7
be6401fc
bf02c249
bee1c7b1
bcf32cb9
be9f2f4c
bf702eaf
bf446f0a
be5076a7
3f01153c
bd89dbd2
bd6dfbe4
3da2e3e4
bd1b8ed2
3ee6c39d
3e6ee2ce
3db19826
bf431596
bed7549c
bce577c6
3d69a036
3e5e3cc1
3d986fa0
3e01b87b
bddbe311
be1bf475
3da7e5e7
3d55141b
be9a149f
bef1de1d
beeb92e2
bdb37926
bdebac1f
bc8b2ca7
bf77308b
bf12026b
bcb00c6e
3f02c9ee
3d45b0b8
3c8bd674
bd1127d1
3d9d09b8
3d8f4fad
be80ee4b
bda01180
be826b1b
bf47fc2d
bf40f509
bf0e90d6
bede1afd
3d32b52d
3e965b08
bb200dc5
3d0b4430
3d29510a
be980b51
bf33f3bb
bd866f31
3de5c3c9
3e836baa
be07098a
3e238bf8
bcbdd978
beb739c7
bcca706d
bd46babf
bcedc4ce
3d8dc4bb
bd8c06c9
3bc22280
bc584492
be854f43
be7d41ab
bef39e50
bf801b10
bf857297
bf0844a1
3c832971
bdca0927
bf09efad
bf2eb686
bf157dba
becd95fc
bec7f6a2
bf1dda92
3e21077b
3d84a5ae
3bac2949
bf1b9a23
be8ecd27
bdb3e48d
3df59e2a
3ed32bd0
3e9e7837
bd8bc8b0
bd4707ec
bd2f636c
bcd7a759
bdc3e15a
bda8c54c
bd950af4
3c75a4a2
be137a6c
beb5cd6e
be25c84a
beca4338
3d120d7a
bf0ca945
bf374aa2
beb7405c
3e4d26aa
3ebbdb87
3e44b6c0
bed89864
bf59b6fa
beaf8f38
bea648c8
bdd4ab84
be230c2a
3d471a02
3e83e7d6
3e4c6f13
3c942280
bd067fb8
bc7bf6f8
3d939eb5
3d482cdc
bd95f6de
bd0da0d7
3c87acee
bdc28bf5
beb24055
bf1a23fc
bf043d30
3e4abec2
be39520a
3e118cac
3ebc9559
3e8b9d21
beaf5b19
bec366d0
bf19dbd8
bf647a6e
bf71fceb
beddc0e5
be6da15c
bd6be5a1
bcbab6e8
bbea2330
3c7e3480
bcee21ea
baa2f580
bd87755f
bd2c31e8
bd31e7b4
bb0ed923
3c89d5ce
bd778782
bdb69c08
bdc270a1
bdbb353c
be18cbfd
bd1d5941
bef93c00
bf20df2e
bf231cfa
be4bf003
be1d1d9e
be755eb5
be95ba9a
be3ac1cc
bd6b0038
be28fbe2
be01b1a5
3d55c166
bcc3dc0c
bc2b2868
b853c800
bc9b846c
3e9de444
