bce3c2bb
3ecff5e1
bf1186c5
3d2da695
3e262a87
bfa85d3d
3d8bf68e
becabfba
bf0027ed
bea15edd
3d2312fa
bb1110df
be59c519
be3881e9
3ed84b33
beb82cfa
be160c1e
3ed9c5b3
bec73d19
be322c2a
3e811356
be884bfb
bf415ad7
bef044de
be2d88e2
3ea405a8
be5e944f
3d8b7461
3cb4a6cc
bd30ce09
3e2fe1db
bed4232f
3edaee3a
bfaaf60b
be7d21f8
bf011380
be21ea0b
be61023c
3d647a29
be117355
3e73684c
bdc51469
bf253e31
3dba8da2
bee5691e
bee6de32
3daf28cb
be37a6eb
3d86f244
be9f843b
3e394487
3d8d64d8
bad181d7
3e06654f
bf13f064
bf3a4b68
bee9013d
bed683f0
3cd8db12
bd393903
3ece9c52
3e0a25ce
3e125a60
bd23e0b1
3e3cd178
3ef10898
3db33d0f
bea121fd
bf3e2f02
3e76a89c
bf08674e
bea14d75
3e89f7c9
bf198f5d
3e3d435d
bd090054
bed7f36a
be87ce0b
3dfbc087
3dc274fd
beb9ca71
3e951134
3e8f5012
3d2b1aa0
3ed37c95
be2b7349
3e411ba1
bd00f07e
bf1491cb
3ea5e425
bf3791bf
3ee2e987
3e044449
bd1b59bd
bf85d07e
3e03f112
3e3a97bd
bc8fefde
3ed89d2d
beab5209
bdc61491
3d861cb0
beb45397
bebc85d0
3e705a3b
bea14ebf
3df220de
3e2a50db
3e48f3bb
be61a058
bede1112
be07d24b
3df05391
bdb76ce9
3e5d1122
bd6d67c3
3d91d5e3
3e5f7641
bf0dfad1
be90e45f
bea4e6c2
bf3b2574
bd6b1503
bd3392c2
bda68d12
be572baa
3bd2f39a
bdd5f821
3ecaa505
