3e263197
3ee87e56
bdf48d97
3bd830fc
bf0af132
3eb0eca3
bd687493
3e2e61d4
be9eaaa5
bc1db50c
bcda65ea
3dc30791
3e1d8a44
bec80462
3e49857e
bea6eb9c
3f10ddb2
bda6c0be
3e8500b7
be03965c
be8af86f
bed3d706
3ed4f14e
be9e4986
be1b21f5
3f27907e
bd1805fe
3eb80bd2
be316dac
be2338a1
3ea18efa
be5bea58
bd936981
3d78d080
3eb6e685
3f33a21e
bed4fea2
3e5e4989
3f12f28d
3bd7c8a2
3ef939dd
bea86f55
3f131fba
3c7702ed
bf11fcf4
3e8da879
be322887
bc89c2bd
bf683be5
bd1b0d95
3b35d918
3ee065e7
3f26231b
be0efbec
be8f194d
3e9f784d
bd3d3c50
3e7424c6
3ebd88bc
3cfac4fd
bdbcd586
bdbae530
bc721b24
3bc15448
3c070899
be7fba56
3df5b6f7
3eac45e9
be83579c
bf05904f
3e81cec8
bceab154
3e890376
bf14f5d0
3b0b073e
3ccdacd9
bc3b1edc
3e02137b
bd537415
3e054192
3d3e0d00
3e27ccd6
bdf16e0f
3c5bd9fb
bda38bf5
be3be482
bd237e38
beb2bbef
3f2dbcd2
3ea54a9a
bdffa490
3f313939
bb334974
3ef39cd2
be4018d3
bdc94ebf
ba9888c1
3f429789
3f048653
3ad12370
3ec6f7ce
3f24a35c
be3b484e
beaed404
bde20f56
bed98412
bda1d392
3ebab370
3e7e34d1
3d33bd6c
bf604d12
bcfbdb6d
3da0fb18
3eb4c6b2
be043acf
3db03b44
3ea9f355
bf83ddf5
bd3cdc81
beadec9d
beb7e4e5
bcbd2a92
3e615e90
be046837
3c3e8525
bf36e3f6
bef91e29
3ecadd30
be871760
