beaa5c03
3ea3a7f4
3ee1bb5b
3e545977
be583f38
3e9ab18f
3c2de6f4
be889beb
3e0d2f00
3ecd1969
be35ed78
be8ca2df
be41b935
3d4d0977
befcb543
3e2be321
be1d2e42
bedf7194
be4a4823
bdadf392
be7afbbb
3e918ede
bea32dac
3c622582
3e7744af
bd9aa4a4
be38bee5
3dcf1743
3b39cff3
be1809e9
bedc819f
beb9501e
3e2d5e82
