be1fa49a
bf3b8232
3e4f0411
be434fb4
3d8c2a86
3d330ca1
bf354c7c
3ca5a618
be370b27
bc8accb0
bf5b234b
beb5b6e8
bee2913b
3dd4f06d
3e942ea0
3e83e966
3e4f14ad
bec9530d
3e673760
bea1d704
3dc046c4
be2d7379
3ea6393a
3ebf4d0a
3e113ffa
3cff237e
be8c06d3
bec5f512
3db5a2d0
3e7bf17e
beb7682e
3ed56df9
bea08395
3d63517c
3ea4d744
be6bf060
bf030c8d
3e87cad5
3e98c1a3
be0c0a5a
3cddc238
bdd5c835
bc99e42e
3da74bbf
3eb77147
3e815b30
be20675f
bea5b8eb
3e624b52
bd25c735
3e3f313d
bd63ba84
3de941f1
bd27832d
be85b61a
3eef7ae4
bda1fd3c
3d9f5845
3ecaba1b
beae213e
3eaf66fd
bea7c9bc
bec45baa
3ebefd0b
bbd6aea7
bcd77d30
be94167d
3eafef71
3ea551d0
3efc3c11
3e4e4eef
3ec1d655
bf1c9887
beb77d3d
beb1a99f
3ea65b38
bd8cec2e
3e60b9fa
be136698
3e8655d3
be8799b3
3dc45994
bf1473e4
be92b33e
3c4d6803
bd93d339
bf169ec8
3f101e74
3e58bc94
3f06197f
be1ec0e2
3eef4ccb
bebf1d42
bcee6495
3f4771f3
be9f0846
be13033e
bba31e9d
3ecbe396
bee566a8
3d5033fd
bd56fd98
be9e4c80
befaa98a
bcdd74c6
be812610
3e1877c4
3e832713
3e49a982
be51b4ab
3db62899
3d93a93d
be8f1855
3e5d5514
3d276792
3dc3b5c6
bd20c153
3dc8df26
bdaae980
bd35bc60
3eaf06c9
3d3b9424
3ddca7ae
3eb9cdd5
bccea190
3d8bb4a3
be0cf107
bdde870e
bedabc26
