bdec68bf
be10e68c
bceb79d1
bea5f895
bd9e18a1
3d57c932
3dd7e9b6
bd7416f0
3d8d652f
3f313ffd
bf040a34
3ea8f498
be7073e0
3e0eb59d
3e4a4cd7
bf073b39
be1d5e08
3e689c75
3e011b95
3ef65a2f
3ddc945a
3e871a95
3db76f26
3e211c4c
be36c6bb
3d25212c
3e89c835
3e61f093
be392805
bdcdf6ae
be4244e0
be01f31a
3edf9e22
