3c81607d
bdadfc12
bd0b9f9a
be4cf4ce
3f0870b2
bd6564cc
3e3e10a4
3eb68d22
3e0bcada
be89d237
3e58231a
bd77a350
3f01dc06
3f11479a
3e815dc0
bd721b22
beb580f0
be8bad0b
3f5eaec9
bdd60416
3ea35366
bdc04a4e
3d85873d
bde1380e
be950bbb
3e03ff02
3e0623e8
bd02070b
be487c7d
3ea67bc6
3ed9827f
be342993
3e37725d
