bd937100
3c7ac8e8
bd2261a0
bd8419c3
3c3777f8
3d7b88c2
bc80be90
3da172cd
3d1e6300
3c931294
bce40048
3c063548
3ce633ef
bcc2f891
bda44c91
bda4e7c3
3c5e7238
3ced03d8
3d94f6bd
3b78bbc0
3d1704ac
bb6f04a0
bda2e53c
3ce52dbc
3ceba938
bd3284f5
3c191fd8
bd7e747f
3d8fc26f
bb890c70
3da0c7e7
bb0128a0
3d101706
bdd600ae
be9627ca
be50eb26
be34739e
bdd942b8
bdb0955a
bdfd3587
be17d62b
bda68880
3c9df693
bd35c975
be326557
bda205f6
bc894df4
bd8d301d
be90c8e2
bee3afad
bf0fafe9
bed0e3fd
3da5991f
bda1ff20
3cf7b568
bda5816d
3da59f21
bb18e480
bcb8b37c
bf656bd3
bf52a0f8
bde2e76a
becfc27b
bef7ef16
bed340d1
beed6386
bf389faa
bf61b5ac
bf6a0b6c
bf2444ea
bede0034
be2b9af5
beb4d541
bf2cd6c7
bf3f448c
bf2b9c69
beada7e1
beb3b970
bf213606
bf195597
bc0bb58d
3cd1d259
3cb34dd8
bd00abfe
bd82d364
bc6d16f8
bd8bbb8c
bf6ed2d6
bf4d5de3
be454f7f
bd574ec1
3e070cb4
bdf6e6fd
bf0c7f66
bf4443b4
bed530bc
bf91f551
bfda5a46
bfafaf55
bf92806b
bf3c41f0
bf2ee176
bead3139
3e944321
3ef01b2b
be9652fe
be3a4100
bea34fe9
bf07d551
be04f654
be39cea3
3d806277
3d1a5520
bd749289
3d56e162
3e45efb8
3f0be965
3f07e291
3f19cbc3
3f180459
3e54a4db
bf053c68
3d8fa547
3ed71819
bc8572f1
bf6391d5
bfa1f1d7
bfab1bb1
bfd51700
bfa366e4
bf13fd9a
be0243f1
3cc82ced
3e1076e5
3f03eb72
3ab44c95
beb4e043
be834e20
bf055185
be4c6a1d
bc898c78
3d35b7fe
bc6654ad
bdf68b62
be59847b
3efbd3d3
3ecaca85
3f4d7415
3eeb5c57
bd8a902b
3d3ec890
be54e342
3de5936f
bee4c231
be45430b
bf14cd73
bfa476c5
beffdd06
3c07171e
3e2dd810
3ec98c78
3dfabc40
3eacb553
3edecc95
bd2cb319
3d7c9841
bf1598df
bdf477d3
bd0a44b1
3c656138
3ebe7916
3dd1f9fd
3e91cef4
3f0b56f3
3f098313
3e1cd543
3e6eb044
3f0f80a8
3dead834
be41b86c
3ce9f8e2
bd80798b
be4b185b
bf5cd5f3
bffebaa8
beb15980
3e34a2ab
3ec8e0da
3ec0b2b7
3e0d0e0d
bd30ca92
3e8c645e
3eee7aaf
be1273ef
3e08ddac
bf01aeb7
bd980ff0
3e8592e3
3eb169df
3ef05004
3e2445d4
bee109bc
3d25c5ba
bdc3dc24
3eb07e7a
3eeede09
3e7f4ac9
3e831695
3e75996d
3e28bd40
be879acd
bf9c1f3e
bfae1567
be5d45f8
3e9af0b2
3e94fd5f
be023d55
be92be0f
bd639a3c
3ed771e8
3e641f9b
3eaeecf8
bc5be165
bf1ae667
3d099aeb
3e801fee
3de136c0
3ebc76f1
be078b75
bf52e5b0
be713648
3d55c1cb
3df4698d
3e776c1e
bdee7b2c
3e54f19a
3ef93773
3def0c71
bed062fd
bf6cec51
bf5f28bd
3cafdc5a
3e6c3167
bb6ac30b
be27f625
be665b44
bd8dcb90
3e88ccf1
bde03580
3e987fc9
be0c8ecb
bd449655
ba85cf2b
3e9d26b3
3e40ded6
3dc4edf2
beba5f44
bec2e00d
be630878
3d306e9d
3e30bf87
be878fa3
beaa072b
3ea9cb84
3eff383c
3e971a0a
be80ba6a
bf20a4a6
be67de1e
3e40a9dd
3e64ef91
bceba998
3e28252e
bd1ff179
3db55433
3db3e50e
bddb7c76
bd108d10
bd6dfab3
3e9e87de
3d6422da
3e3f6a20
3ec9eaa1
3ecbc6bb
bd8d8b9a
bd95574f
beecd6c7
bdf38c1f
bde428e7
be9ed292
be18dde8
3ecdf09b
3ed48c3c
bd8edaf5
be806ee5
beb9f73b
be373708
3e801a43
3ecf9ab2
3e663075
bcf95e5b
3d4ab0c5
be5c36a8
3cc26194
bea28128
3c8cbff7
be2a5297
3e30677e
3da87c0d
beec33d2
bd3dadd6
3f013c3e
3e8e7654
3e0bb857
bedb789b
be3a0026
3cf0c920
bed7612e
bb5ea367
3c4380f7
3bb51a10
3dd31bac
3d191a9d
be92b515
be9fea9e
3b1f678c
3e1087aa
3df9e8b0
be539197
bd9bbb8f
bdf30f0b
bf0ecc7d
be67e456
3efecf07
be5e0140
bdfd2bc2
3d1c5258
3d64f9f8
bca68965
3e734b97
3c775627
be4d66e1
beef9f5e
be057bd5
be22b7b2
bdb90b85
3e53ee9b
3e065c8f
3ee6e74b
3f22d1fe
ba07330b
3e4995e2
3e1699d0
be5ab8f3
3dcd8a8f
3d6e66e5
be8dae8f
bd7ddbd6
3e72b51a
becfe460
be37b278
3e96b3a4
bdb3f463
3e0a7ff0
3cc3cd39
3def2003
3ee723e1
bc88acb1
3d71b30b
3dd92290
bed59af3
be850a92
be3a585d
bd672fbe
3dbebdaa
3e4a634a
3e22dba2
bc1ef631
bc8cedfd
3d4bdaf3
bcbaeb22
3ddb9a9a
3e49221e
bc698d6f
bcfca70f
3da6b731
3c6c9cde
bee76a90
bf14d85d
3cccc89d
be0f954c
3d23fbde
3d1255d0
3c74a8cb
3f0f7fbd
be80a068
3debf2d9
3ee07b02
bedeed19
be4d36d5
bd44f705
be0957e5
3d052051
3be3791d
bccb78af
3be9b4e9
3eaa4469
3e054864
3e169e8d
3e998feb
3e02a463
3f1666d8
3e5e49c6
3e4d781b
be48a6c6
3eaee9f1
3e699924
3e7151ee
bea21bfd
bdabe09f
3ce1d4a1
3d50b409
3ec098bd
bd75a156
3df78eb8
3b8b07c4
be999e8e
3ce9545e
3c0551bb
be3bf0db
3e75f708
3dc6dbce
bdeedca2
3e279722
3ea56db4
3ec42442
bc526454
3e59ea68
3ece7812
3f399497
3ef40661
3da9aa37
3d11494d
3e847d0c
3df49fec
be8f1759
bec3d1e5
3d3b611f
3d91d2f3
bd1705c8
3e9e2c86
3dd030eb
be443d23
bf039fe0
be35b433
3b4d0837
3ee6a93d
3b009bbe
3ca3d5ff
be8510a7
bd050c98
3e3844c8
3e530b3f
3e4f8dbd
bd784f4b
be00cdae
3df63ba5
3e0a0900
bec7cfe7
3d810eea
bd85e62d
be2a5583
bd4f14b0
bf03bf0e
bf1fb8f8
bf0c7abe
bd19bbd9
3da094fc
3b800ab4
3e1b4ff2
bda9b85a
becfe15a
3e171a00
bd73ba9c
be61f109
bdabf54c
be04a778
bd167463
bdb5c37c
3d5cc5e7
3cf07ebf
bd4df6af
be0c4fdc
be65f550
be95dc57
bede729d
bee01096
3e79aa4b
bea70aec
be033a25
be4dfebe
3e085738
3e4f9cc8
bf3c9e89
3c547280
3d11eb01
3c4a8016
3f340cb7
be1701bd
beafd5a2
bd89472c
3c889f2c
3ca3a596
3dbc8f18
3d882794
3e680c1c
3e4fd875
bdd67c10
be88ba9c
be7abe8b
be702a95
3cbc305e
be965f07
be7e3bde
3d81e8ea
3e45b78d
bea00eeb
beb1b977
bebfc979
bdbef029
bd9a627a
3dc69fb0
bd90a0e2
bece3ea6
3d0d44e3
3ec9e5e3
bde93e47
bef51191
bef0b749
3d64e4ba
3e269900
3da4e9c8
3e1a1962
3e6609b4
be135f51
be77dc69
be06e153
bc4b0293
3d1a85df
3d76adb6
bea0e648
bd8f52cc
be8b0f78
3d5724e5
be7f2023
bddbdaa2
be4605a6
be917b8d
3db771ef
bd8cfeca
bd28ac14
3c280c1b
be0cb5dd
bef198d8
3ea62f3f
3c9250e9
becde624
be7eba41
be6c17c9
be8f0d3c
be5f2d4a
bdb94290
bdc8a48c
be800ce3
be0cf0dc
bcbd7d01
3d51fddf
3c8110d4
bdc4f2e8
3e39edae
3dcc1920
bde3d71d
becdef69
bd51f6df
beee0ecd
bed2154f
3dab6407
bd90175a
bd3e0615
bd409568
bcbfa670
beb4ad5f
3c0d352b
3e7262d2
ba5af9b3
be8962a4
be0659c7
be53b2cf
3bbb65f9
bdb5ba3e
be4fe96a
be06afa2
bdea1fe9
bdf09978
bd315baa
bddc7a7b
be2ce5aa
3cd7103d
bc6f3744
bf1c6755
be079b84
bd3020dc
bf1a2e95
bebb982b
bd84b574
3c0e5ca8
bce2eb23
3d22cf5d
bd8be96c
bed13ce6
3d89d83a
3eb63860
3eb9ee28
be7510d8
bebba4d1
bed29328
3e886557
3da68034
be670d9d
be3c00bc
bdba9258
3d61c3c3
bea32b7e
bedca9bd
be17ed65
bc1b5cd9
befe246c
becf56c3
3de04522
3e3a178c
bed0f1ec
beab0491
3cdcba5c
3d1830fc
3d017c54
3da2d8a9
3b0d9d5c
bf17d815
3d3328fc
3d5fb107
3f026a4a
3e60d4ce
be6f5b3c
be31dbf6
3e9d8f7e
bc940c26
bc94e9bf
bdac2e86
bcdc6324
3d9e575a
be9036e2
bec09adc
be059e6d
be78f07d
bf71dd27
bdf3aad9
3da3528f
3aba88ee
bee0cc8b
bde27c7c
3debd71b
3d56cefe
3d0c98a2
3d9c5cc5
bd1878ff
3e39decc
bee8c662
be866528
3e828ecb
3ec0ebea
be9d0e5a
be958ac8
3e64b115
3e8f0531
be31cd24
3e25a33b
3d827ca4
bd86c8d8
3e1cc323
bc119bf6
3eeb9030
3e9f6e06
3ed8dae7
3e139423
3e58bc43
bdb7a5f7
bf0171b0
3dee304a
bd691353
bc0864a0
bccad748
bd1fc709
bde3ee81
3e5d0647
bf5bad69
bf427e5e
bec0d865
3db9a0e9
bea197cb
be75fdac
be69eefb
be46f454
3ecc4417
3e469ba4
3db8dcd7
be43c3fa
3dd8ac26
be987dff
3c4e20ca
3ebadf9c
bed0468a
be085c89
bcab4257
be070192
bef1431a
3cd1b26b
bcecd39e
39feba00
bda20bf6
3c30ef10
bd748cea
3d3e0295
bf0c51af
bea2dc9d
bee7211b
beed5838
bee715d5
bdcf7e4b
befada70
bf0fc986
bd78baed
be373b5a
bf7bab2c
bef8dfd5
3e663522
bf3a0e43
bf8b53e1
be91c7db
bf5eef54
bf464cf8
bee9fc72
be00cf9e
be0e9a94
bd53b2b6
3d4d3a36
3cda95f4
bda3a205
bcec62d6
3da0ad85
3ca026e0
3c31f608
3d8abe60
beb74118
bf048aa5
bebec290
3d835b7c
bc1cbd36
bed02603
bde0abba
be2631f0
beb8a032
bb3e8c09
3eb5e487
3c890b41
be610fce
bd815a79
bded6963
be6eab10
3c61d6db
bd79c10a
bcf0bc3e
3c3f16d8
bd40d097
3d37acfa
3e251a0d
