bec826c4
3e70d3d9
3ee56862
bcaaebfc
bdb6df82
3e343165
bd8c63ed
3e89f13a
ba2d116d
3e80c6a9
3ccde6aa
3dc1326d
3c26a23f
3e986b03
3dbbc37b
beb7d6a7
bd3789fb
bc814bfa
3ddc20b1
bd847984
be88d2a1
3e297e1f
3e35effd
b96bd2e0
bdc8b9ee
bde36a44
3df4f33c
bd9aae8d
bedfba92
bee43852
bdda1e08
3d87a92c
bb8db508
