3ddc86e9
bd81dddc
3e9e08fa
be94106d
3da16def
3e9c0bdc
3e5a6fac
3ef23b61
3f0bb5d2
3f6a4369
3eaf7339
be32eab8
3e7fba45
3e6d1c51
3c02dca4
be12020d
3ec33237
bd3ac3be
be784954
3d16e090
bd82717d
bdcb6746
3e66ab57
3e5bb8c6
3e1cb5cd
bc3c7e70
3d4e5b5b
be48623b
bebfce89
bf0d6b7d
3ee01205
be47673b
3ed19ba0
