3df34298
bf559c92
bec844a2
bf332730
3cff7bcd
bf3f537e
bf2b42eb
3c94374a
bf1546b0
bd29d204
bd86e573
3c92d8a0
beb0a3a7
be603f1c
3c9b82d2
be941f72
bdab19d7
babff1cc
3e87fa60
bf25e596
be74161a
3dc5611d
bf66499a
3e1d41bc
be398c58
3e2f2d5c
3e16e126
be96a65e
3d8ab135
bd1263a9
3d300fc8
3dab5e73
be6f4b89
be8293e8
3e63513b
3d981374
bf11b8e7
be7116a3
be3c9174
be356ecb
bf8cdb31
3dfb3249
bf7d530a
be498274
3e55d421
bfa0a80a
be8133ec
bf1022da
bf508250
be993e76
beb7b8c6
3d95e9a1
3e47b705
3dc7a8dd
be651f2e
beb48284
3dfa004d
bd7f51ee
3c851e5d
bef7adb2
3e41c1c0
3d959f59
3e0c925a
3e02cf77
3ed114b3
