3cd27538
bd8f1bf9
bd984084
bcbad130
bca569ea
bd9ff492
3d3ef67e
bd059c44
bd6174cc
bd16c149
bd940cdb
3d7e2e22
bc4523ff
bd8414a0
3bd85d33
3c3b36ea
3d9578a3
3c1f1178
3d797eaa
bc2da698
3c4356e0
3d7d61da
bd5f8d1a
3c306880
3d1f7e9a
bcbe3c88
3c40f920
3d982a07
3d7c58ae
bc84af78
3d50629e
bd9b7066
bcef21a8
3cacf38c
bdd6bdcf
bdfaca2f
bd4954ee
bc984614
bd95c49b
be79f0f9
bec5566a
3e599cee
3f123c96
beb8a078
be2530e6
bd1d5931
3cfd9cc8
bdb89ad5
bd808ca8
bcb4328f
bdaa7b90
be2c4a54
bcc33636
bd22457a
bccdc0b0
3d0219ae
3d0ddf78
3d86a0b5
3caae152
bf3a0823
bf544c01
bd2b540e
be100a10
be89a795
be9ce75d
bdc69279
be6df6a4
be33a36d
3e287691
bebf6b5b
bf11f7fd
bf897ac9
bf26846a
bb8f45d2
3db0f53b
3b694cfd
3cfa8317
bc6b00d9
bd874f5c
bdf13fd9
bd170183
3db8622f
bce5c042
3d8eb405
bd8f99b7
bd135718
bd4dfb6b
bf3e1d6b
bf30bf91
3eaab953
3e10cab2
3cd612a2
bdc08878
be4ef0c8
3ed0c4c8
bee5e630
be9edcc3
be863895
beea30b0
bec04fee
bf49f77f
bdd2487a
3da71e6d
bccc45ae
bf2ca754
bf31ca71
3e024925
3f025a35
3eb00ca6
3b74f787
bc255ce7
3d813529
3d7c4026
bce7bbae
bd9a27bd
3e8288f7
3ea849f9
3f271a1a
bd832953
bdc6f958
3e9bd036
bed18297
3f0ae32b
3e804eb1
3ec6831c
3f4aeb05
baca94da
bf41b14a
bebee2f9
bf175ab8
beb16e0c
bf8292a5
bf93514b
3db0cc98
3d9d32a1
3f2dd059
3f3ac46a
3e9e6d57
3c7069fb
bdaec952
bd015ec2
bd624f21
3da3af17
be469d6f
bd7b9ebc
3f443fdf
3ed67e01
3f0aa072
3e36c826
3dd456a4
bd092664
3ea3799d
3f20b77d
3eeeef6d
3e4e6121
3e00a89f
bdd7acb8
bf02bc7d
bf50a129
bf766afb
bdabacce
be740954
bf01e98a
bdc541ab
3e9eb50e
3dc234ec
bedec17d
3c7f5531
bc834fd0
bd1dd6b8
3e118760
3dd73e87
be364420
3efb4875
3eb814eb
3e637f67
bea797de
bd4c65dc
be955fde
3ba15c1f
baf64bb0
bdcd8d7c
be4c4798
3e29eee6
be2eaeaa
beeee2db
bf933652
bf8d5072
bee8f10a
3e8ec799
3f0a2d05
3f64dddf
3f2c93ff
bed8f350
bef3663c
bf28d1d5
3d7fb16a
bafdb93f
3ea7bdb9
3ef9f931
bb9e3de3
3d07c339
3eadb447
3d9d13bf
be2fe715
bcc93671
3d5708dc
3e19e4f1
3d93a532
3d914337
3eb28220
3e8d497a
bd4ef826
bf3da67a
bfa0e0be
bef5006e
3dcf1d20
bd9b0818
3e8c63be
3e9edaf1
3e6586aa
3e728070
be883b65
bf39842e
3d88cfd9
3e274c9e
3e61a771
3ebc8fe4
bd9a018d
bea8923e
be889006
3e0f2c24
3d3bc755
3dfe878f
3e8b762b
bc5a4873
3ee4ad29
3e416425
3f0a047d
3ed73487
beebcd68
bfacd055
bf3f657e
bd74f171
3e364c90
3e45c5ff
bdb73fe3
bd307776
3d507ff1
3ebbb671
3e8593b6
bddd60b0
3dba9962
3e40eae3
bea20163
3e4cfd2c
bec70e98
be7d03b4
be90d251
3d3fd3ab
bec54552
3bd811d3
bdc4eab7
3dc95ed4
3e714a81
3ebe30ac
3f192cb2
bdac3688
bf013da0
bf5f345d
be3c4120
bd43fdc0
3e1d311f
3e9c2d7d
bdafa948
3e382fd5
bd9254ec
3e51980b
be4b423b
3eb946b6
3e055fc9
3b799eb0
3caf6a1d
3e0967b3
bf33b693
bebac1eb
be8fd949
be256ae3
be11da16
beb07bd1
bde81fb2
3e2a7a93
3e40a40c
3f0640b6
3f07add5
beb7d1ee
bf5b0ca9
bf2ae9fc
bbb1f914
3c0af46c
3e47d108
bcb8416c
3e748cd7
3e1b6aad
be2c297e
3db62aaf
be74c585
3e7b23cd
bd1a4fa0
3dad7f0a
beaf5575
3e3ca768
3e0e493a
be630dc7
bdb9eeac
beb9f0e0
bea7bb68
bee36727
bdeb8d00
3e982218
3f091082
3efcbb73
3d0555a6
bed7d1fe
bf4b36d9
bedb9124
3dd1e9b1
3e85688b
3da41ed2
bd1e4738
3dbd4f08
bdd3e730
bf21d13d
3e261e98
bed3548c
3de1e237
ba928180
3c9a92ba
bebf5e47
3c86bc5c
3d1f405a
bea6092b
be3ff0c3
3d07815d
3e5ad8ed
be96c6ac
3db24c5a
3e13b366
3e8d6338
3f07948d
3d21fd68
bd9c262a
beaa7ca4
be515bf7
3cd74aca
3eb71a56
3daaca08
3de36b3e
3f0607ed
bebf7e30
bf612bf7
3dd539fe
bea32a6f
3eacd7d6
3d3ea106
be4548da
3ea87ec3
3cacccdc
3e9bbf8d
3d94e1d5
3e634d11
bc8df168
3e92cf9a
3e162b0d
3e8b5811
3e8bcf66
3e7661f1
3da068d8
bf0738de
bf117939
ba87d507
3e2b6559
3e9a1780
3e856972
3e8ba7d6
3c5b4a2e
bd22bc75
be4ebd3a
3dfd0de2
beac397c
be8ecb15
3bcf8262
3c4c39b6
3c9f43e4
3eac6ade
3da7185b
3e0b3bb0
3f30d55c
3dff9b46
bd823dbf
3dd1c875
3de7e012
3e0a73da
bd966bf8
3e6855bf
be15630a
bede9e3e
bea02806
3e284b11
3dd309f1
3da18e0e
3ee53c80
3e478393
be1952e5
be674860
3ed791be
3ec52388
beca7551
be517060
3d34dac0
3d45a4ad
3b85e833
3ebbeea8
3f10f2e1
bd5fe6ff
3eac9d41
3db39235
3d805144
3e98d416
3deb9ace
3d3751a7
be0fc2c9
bd7c9ed8
be5e26db
bdbd2f62
bc43911a
3d89a080
3e3c730e
bdf5463e
3eaa76a3
3e35b4b2
3e45d10f
3ddb316e
be5bb8b9
be3ea00f
bedae810
bee35466
3db37c3d
3d9e7210
bd32b5ce
3e4dccf8
3e5b4a8f
bc87954f
bdf68da5
3c9240f6
3c4c1fac
3ed03ae6
bbd06c91
3dc581d0
be41f15f
bf272691
be90f9f0
bd6a58e1
3deec14a
bd9ca2ee
be0ddded
3e17e677
bdf7262e
3de2d85a
3ec4b70e
3d9754a6
be876f5d
bf0dffb7
bf2d0cf5
bf1c913b
bf20a857
bc1621d0
3d9ca679
bef2f5db
3e3fe497
3e80455b
be9f682e
3daf6620
be636b73
bde92ec4
bcc6d624
be07b838
beaa5fe4
beb519bc
3e943efd
3e388f35
bc99f07b
3caed45d
3e00e719
bccbdc8d
3dc52893
be8f38cd
bd9e7206
bcfaa770
be52c47d
be231120
be12198a
3e827a03
bf5349ab
3e741f11
3d8ca44d
beb32492
3e4fb15f
3f28375d
bdfdc440
bed4d3c7
bea3a5dc
bd00531c
bd6d9a92
beff6ccf
bda5c5fb
3e1aad0c
3e2d4875
3cb12429
be9ad225
3dc6609f
bd8445d4
beae7d3f
bca5c31f
be586530
be3ea384
3deed174
3d52a855
bb597f5b
be9c89f2
3e0a2d18
be138e44
3d60adca
3c70a11b
3df1f706
be3bcb2c
3e5dda6c
bee425fb
bf713983
be5bcac4
bdf7ced4
bec039f3
beb490b8
be87e7c3
be63fcfb
beded099
be024b69
bd7df4ab
3e151d72
bb830fce
3db80342
3c49467e
be8d6d48
be127e18
be85dad7
bdbb24ba
3e432403
bf24258b
bd059576
be6fce32
bda5232a
3b82ed45
bdf60f3c
be916231
39300c74
3dcf16ce
bf1bfde9
3bdaee2f
be46fa36
be8db673
3e0ae966
3e1a3653
3e11726e
be593452
3db827a2
bd16c0f1
3e507bb2
be3a998c
bd484d47
be886d35
be8155e3
3e96d5d5
be8680b7
be848735
3be81f8e
bf89c508
bdd8c621
bd7f0eb5
bd6d2c99
3d221a1c
3d00fadb
be4e7128
3da94ce5
3ddc0059
bea407a5
be956079
3ecd06eb
3d998d09
bd373cad
3ecd7b6b
bd3353fb
bea25820
be41160a
3e180cf6
3dc0aed4
beaa7316
bdeed45d
3c59e7d7
bdd295f0
3e9f3da4
be898224
be508af1
3e89eb05
bf300cb7
beab0ecd
3c80a698
bd1635bc
3da037af
3d45d9fb
be985e12
bc8fc7d1
beee3dae
bde3e33b
3d0510ea
3d7abc8d
bdc18682
bdce7f98
be491dbb
3d2cab52
be5ce388
bea23dc5
3d0f0094
bbd62f16
bef6c862
3e901d0a
3e9d6333
3ed030a7
3d855880
bddc0331
be3a9163
befc0e3b
be9f7181
3de36c30
bc675618
bc8c0d34
bd90040d
3d894c2b
be7acf3c
bd8d9a0d
bedcfa79
3d95b6ad
bc83352a
bf00a164
bdae96e0
bd6b93b3
bcdad0c4
be236059
becbc1ad
be379916
3e2633f4
3e0177a3
bcf70fbe
bd45961b
3e951c9c
bdb085bd
bed75db2
be90d970
bf0b7768
bf156e43
be1059af
3da966c1
bc9f40ac
3d1cf220
3d9c2e75
3d039384
3cdb5021
be39496c
3e8499d1
bc3e0421
3e198a5d
3e383a6f
3d363b94
3ebc2237
3f787660
3eae2e89
be497116
bd5cb69a
be400d5e
be34dcfe
bec58d56
bf148e25
bd4ce89a
bf2700b7
be87401a
3ea06602
3d5b2480
bf813899
3e635941
3e4864c0
3da42ce5
bd391835
bda26f90
bd6be3db
bda68884
3e2fde18
bdd62e16
3db974b9
bd54f68f
3e8abd8a
3daa4ffa
3e8fc92c
3e530535
bebc83fc
bd56013c
3ca36f3d
be43ee34
bea5753b
bea8eaa9
be47e249
bf0bc291
bf7c30b7
3da7aefd
3ee986d4
3ee38623
be0deb07
3d9448c1
bcfd1ff4
3d09827a
3d84c687
bc932e08
bbfa3300
be02a536
becc27b2
bf179756
bf20257a
bf598c5b
3e36e6da
3ea2cf95
3eb4e65e
be85717d
3c0e72b0
3e94a24d
3e8fd79b
be018728
3d4139d9
beaaa49c
be1a8039
3e913eef
bf2249b2
be3addac
3e13f286
be8c706f
bd5a7393
bd9aa076
3d89526b
bcd3161a
bd200a8f
bc060808
bb86bcd0
bd4d496a
3c9d10f8
3d475512
becee6eb
bef8c3e4
bedfb95d
be4a2524
bea6d8e7
bec0a2ad
3e52610c
bea38b8e
bdec0e2b
be19fbc7
bd0c9583
3ed772fe
be48f4fd
bec4b0c5
be2eac9b
3eb820a7
3eb0164c
ba336103
bd1c75b4
3d8436ad
bc899898
bb3b6ae0
be1eaf8d
