be7ae7cd
3cf7697a
be1c165c
bca7467d
3ca97909
be7af4db
bb513159
3ea00812
3e557206
bdc99bb2
beedaf5d
bd9b659f
3f320486
3e9473f1
3e095606
3ea2bfe8
bef2a449
bef0a1f1
3e21e950
3eda1324
bdf9c839
3e199e4f
3d28289f
be5c1635
bf19c906
be0d31e6
3daaae50
3e8aa53a
3e69512b
3e9a8a61
3e638e61
bdc2f756
bd787776
