3cbad924
3d1c6788
bd4fdd64
3d2046f8
3d32ae00
bd64391e
3cdd5244
bd2b5d08
bc929bc0
3d6bbeb6
3ca30b74
3d04d1ee
be7409f3
be35d26c
3df9349b
bcc6f20a
bcc04ec0
bcd54e5e
3d96f62b
bd714330
bd920df0
bc74b208
3ca0b728
bd8c6442
3d5b9456
3d8f528f
bcae54dc
bd8b39a8
bd913c73
3c867df4
bc83325c
3c090e78
3d1afe00
3d830bb1
bc6beb0e
bd9f0d76
bd8b712a
be07feca
3c06b7db
3e015d8e
bdaf3595
3d97285b
3d13ed0a
bd433093
3e3df853
3e152954
be42bb44
be121958
be2ec264
be0ac40d
bd4f6f0d
bd451504
3ba43970
3d90ebdb
bd6ada38
bd448f2d
3b4a9a60
bae24d40
bcab29c0
3d1c53d8
bba17537
bda5c7a2
bdd449b5
bdbf75ed
3f063f0b
3f2ed614
3eb9fd6f
3e0c257b
3e00bd4e
3f321fcc
3f464778
3ef50701
bd6ed5cd
beb4db41
bea70a6a
beb5b08b
bc639daa
3e64e9cd
bdc0c7cd
3e94e93b
3ee4298a
3dda8593
3cd23558
3d3ed6ba
3d4cf53e
3cd66598
3ec208a7
3ea6f66f
be8351bb
3e21f478
3eb1b4fe
3ecb590f
3f02fd78
3f11f957
3e09cbfb
3f14ff51
3e0fe3ac
bd8945c7
3e065a28
3d97f66c
3e0969e0
bc213ba9
be9fe6d3
be71b0be
3c475e9b
be39a9cc
3cbe0eb0
be9fdf4d
be18208f
3c1a6a30
be730109
3d0a8a0a
3bc33400
3dbe8b51
3ee63c32
3e6751ea
be39a59a
3e7619f1
3eba50fe
3eae5a46
3ea06a35
3e9fbccb
3f0ab0a7
3e1c1b99
be264cd5
be8c768b
bd333dd1
3d526351
3dcefe4a
bccad42b
3e8e8f55
3ec103ad
3ee081ce
be107c08
bd9bea45
be8440cd
beeda4a5
beb8c36c
be8f3ef4
be61efbf
3d002ab4
3da1f91f
3ece1e38
bcc4bc84
bed275ff
bebcbd82
399a5c35
3dd247bb
bcc2f313
3e103567
3d18c6a1
3d01c15c
3e0c1a4b
3e1fc0d8
3e298496
3d2d2499
3e9cd049
bc5541a9
3e6a1cd6
bddc2a16
3d70266e
3e0e16aa
be1f6232
3d5f6d74
be5f75eb
bf8dc674
be99114c
be3eadc8
ba5e9800
3cea4d65
3ed7c1cb
be0ddf73
bd151d96
bee59ad8
3dbc1224
3e2e1a9e
3cd0b495
3e87448b
3e9aa6be
3e369cd7
3e5c42c5
3e9a8925
3d945a53
3e22931a
3d9303cd
bd9bf1d3
3de31008
bd3023b8
3d7d0a0b
3c968408
3e8c6225
bd03a429
3e2f0908
bf28cae6
3daddc63
3d43492b
bd533264
3f054a74
3e4254b2
3e79cb30
be86b2d2
be9c0a47
3ca8b21f
3e9744ce
3e7e23d8
3e89cae7
3e9b3b04
3ea03166
3e94142e
3e98a1f5
3e4f80e2
3c826691
3ca18ae1
bcb54f2a
bde4a0bf
bd90bfad
3d5b32a7
3d380ed9
be2a09fb
bdfa6be0
beeda527
be8a7a0e
3d7a7fc7
3ccc543e
3c75b574
3de80a49
becc979f
3e208d0e
bc6734cd
3e1ec40e
bf121d87
bc4a59c1
3e07b22c
bd1aba5c
3e9fbdd0
3ebfda84
3e6b6bce
3e0b220b
3e9ca130
3de749be
bd3718a5
bd1762d2
3e0cbb5f
be4974c2
bd39cbdc
bd80f2c4
3ca451ce
bdac7a8c
bf2c3350
bf492f52
bcbff061
3d6788e2
3bb60c90
3dc7ba6b
be92c4f1
3e0f357f
be1b803b
3ed33d31
3c5d25b8
3de9163c
bd32e879
be58b036
bec4b398
bf0f9db3
be98d089
bf692979
bedeb565
be4fde2c
be89bb56
3c895668
3e18bac8
bdd72c15
be41243d
bd97bd9f
3eb7a05f
3d331fe2
bfa8d46e
be750543
be81f041
3d4d879a
bd22bdd9
3d256896
3daae03a
bf3f67c8
bf16c470
3d92775f
be23ab2c
bf298cb0
bf648902
bfc33af9
bff408fe
bfe6852e
bf9c83f2
bf8d17c1
bf35c9e4
becacd37
bd789ab7
3e22b148
3e0f2165
3d650dbc
bddcfdbb
3d93bdf1
bcde5e66
bec0988f
bebea685
3e623c77
bd556c8a
3d917deb
bd562be6
bc229e8c
beed6353
bf59b5db
bf39fa26
bf82d77d
bf85809f
bfc49bb4
c008495d
c008cd1f
bf72ec12
bf09660e
beaa33f0
be87fe37
3baf9fe6
3d9a8f94
bcdced00
bd31794f
bd9c5b52
3e34dc9c
bda229ef
beb5f862
bc997888
3e09284f
3d528edd
3e270eb0
be30a30d
bd399319
bd968789
be1a88da
bf00ab21
bf4ded0b
bfaeccfc
bfd38d34
bffefd82
bfcd4d59
bf88bd77
bf0edb58
3f04e4d8
3e936121
3e22edf4
3e64a95a
3e352675
3e7afd2a
3cf19342
be1046bf
be2a79d3
3e33bc68
bcaeb37c
bebad1d2
bdd22dcd
be9c0a2c
3e41852f
3f6895c3
3ea8eef2
bdbe6574
bd55992d
bdf73279
be56ce82
bee9f091
bf3e6657
be8d39e2
beaff0b4
3ca4b22e
3dfd05cf
3e8988fb
3f05b868
3e40f203
3e947f50
3e95e4ce
3dd9f001
bde6af98
3da84e16
3b6ded91
bca6d396
3dc5ed91
3c898406
3e9c0a3e
bd89fe65
bea4e233
3ea7fadd
3f389a43
3f15a1e1
3bbc6561
3d5183e6
bdb6fa3d
be3a782d
3ebb6618
3f0e07c5
3e72bf55
3f29a3f5
3f2f35a0
3e85a117
3ec988d0
3d5b574a
3e019e33
3e108bf8
3e48df28
3d712c81
bd99b6bc
3d34f8c8
bd989e62
bdd3cf2c
3e86f621
3e5e8300
3eb78d3e
be15c51e
be6a285a
3ed88d19
3f01ef55
3f1a8746
3d65a0e7
3d6244ae
3d5d3b6e
be71ce24
3ebb89cf
3cc01e2c
3effe053
3f4ca987
be35f6cc
be9e5f10
be82d654
3c00c3bf
bd4b428b
3d9c04f9
3e2688c7
bde4cfd4
3e7128b8
3de59337
bdfacee2
be7b5d39
bdb02551
bd6c3e32
3ec16c32
bea79ac5
3dae28a6
3e04265d
3ca11be2
3f3c5d1f
3eca8439
bd32d81e
3e925d67
bc843570
3e6f040a
3e979400
3e1f0c28
3cf4bb1c
be0c9490
bf05971e
be01bd71
bd2b9445
bdada2d4
3d08e0bf
3dff6450
3dbc8d42
3e48b14b
3d9ab97c
3e1076a6
3bebf7cc
3e0b8328
3d9973f9
bdfe10a1
bedb0a48
3d96fd87
3e603525
3efa7fb2
3f16e4a2
3f10d2bc
bd9e555a
3e79ac76
bda9146b
bc269a7e
3e09061b
bc0bc829
be6468a1
bd9eb3a9
be05b32e
3df343e0
bdc73024
bd5059a1
be8afb7e
bdda7161
3e092728
bdea0db8
be692025
3d2d20eb
3d5fd261
3d56e741
be01b312
be22326c
bdc6e064
be7efca5
3e1d8db7
3f25cf76
3eeed606
3efefdd8
3e147136
3dd2f72c
bd3f11bb
3e036bb6
3cb03e2f
bd17f7b4
3da81692
bc8906e2
3e57cf21
3e72c21d
bded3ea4
be315417
be38dd0e
3bbe1fd6
3e69123b
be08f491
3e5c3847
3c9637de
3d82c4b3
3e9be0a3
3dca31f5
3e2e45d9
3df1dad9
bd880055
bd3b4057
3ef201cc
3f2e9b64
3edf82af
bd8d3f18
be1ca0eb
3d8a0ac0
3e4fbeab
bc90f24d
3dd59d7d
3e929b1a
3dc3863f
be65f4c2
bdf5d4b1
be925e85
bd7f0fb4
be3e4fb6
3e31ff96
3e247cba
3cd3d854
3e3a1edf
3d8f219f
3de253c0
3db5bfb6
3e044573
3e049fc5
3db339f1
3e2b4247
be8f5ba9
be2e937a
3ef8ca56
3e5ba2b4
bc5988d0
be2f130e
bd1ce444
3e63534e
bdb2b00a
3db91c43
bd8b9650
bcb61732
bdd86088
3e075b9e
3e9d65f3
3e10a591
3d7ed729
3daebc09
3d4c671a
3d0381df
bccb6c0b
bd3197a0
bd84c781
bdd6d181
be512008
3e791ca6
3e2c8f7e
3e2ea3b6
3e8b7664
bd8f743a
3e94e7a0
3b3db564
bd654210
3e3400a6
3f20bff3
be0513fd
bdf72782
bd7eb6d1
be03542a
3db0c9c0
3d2c9b28
be6ca11f
3dc862f5
39ca3084
be34da02
be3b8a2e
3d4c66d7
be0434dd
bb1b92df
3db21558
3d868b85
3dd5ae1a
bdfce5b2
3e639e48
bc19f462
3e9b99d3
3f09776d
3e145fb4
3d875b10
bbaf89a0
bbfd92d9
3c46cae8
3ee46673
bc04729d
bea975d1
3e449841
bd5440df
bd013c5f
3dc55edf
be088c57
3d089746
3e04e84c
be78451a
3d4acbac
3e2a5c87
3c443f0b
3d7848dc
bd082e8a
bdd0dcbb
3d27e3df
be8f45bc
bf225bf0
bef9695a
bbc3dac9
3f52f6eb
3d9f9135
bda74563
bbd74c60
3cf132e8
3c0da2b0
bd63ff5f
bd314653
3e8e0dfe
3e96f0f6
be0ccc9e
3e760998
be45cb57
3e673db4
be28168f
bdb3d634
bd3039b3
bdc77b96
3bf932ab
3bd1e037
bcda40ed
bc41f4e2
bc42ae43
3e85f909
bd7c9b38
be87a72d
3e45d1c7
3ea01688
3e89862a
bdb295c5
be597b7c
bd48dfd8
ba954440
3d133442
be139393
3d368d94
3ed8b9a2
bd5780f0
bd779058
3e2a2a1e
3ef745de
3e92d44e
bdeb51b1
bdc34b02
be89bba2
3e11331c
bc92ec8a
bd9c6ae1
be425d6c
3e9f2eec
3e0b698e
bed68dbd
3ac28dd0
be84a188
3dc47b43
3e84a6b3
3e36b0e9
3da2b2e8
3c22abd8
bd484f1f
3d07a2b4
bc58de00
3d900fb9
3e3641e3
3f5b4e2d
3eb6ef60
bde85908
beace22b
3ebf5927
3ee540cd
3e97eb97
bdbd1107
bda17795
3c8cccde
beb2e4b9
bdb232ab
3e44148e
3f0311c8
3942d61c
3d8b505a
3e83a3fe
bd124630
bd7b45a7
be1e412b
bce4d172
3d637f35
3be98917
bce5f22e
3d84739b
bd46ab7f
3cf95c68
bda29a47
3ee2f082
3f375c76
3e834ad1
bdac2bf0
3f1f6718
3f00b3ca
3f3f58ab
bd9266d9
3e952ec2
3f0b14a9
3f514e97
3f1a688c
3eb568d3
3e8661ff
3e78ceb1
3edee247
3f216ce1
3f0ae2bd
3e8cc4ce
3cb20379
bb525780
3bda6547
bb76f300
3d4ff7da
3d29c942
3a35a880
3c04e960
bd2561ed
3d9d409f
3cdfaa50
3c697970
bc36d88a
3b94564a
bd5aaf1d
bd0b6324
3c4b73c9
baf5fbbf
3e476ab9
3e72bca0
3d6ee081
bd93a571
3c3ac6f6
bcab611f
bd9a2ac2
bd2cb80b
bd2fec85
3d08c4b5
bd5e4c75
bb523a40
bcfb54f2
3d835081
bd87cdb4
be4cb782
