3e279553
3d88be17
3e0befb1
be4df743
bde90259
3e01cf87
be62bd1e
bdd8cc90
3cfce914
be9a348d
be1143f2
3e1eb96b
bf230bf2
bd714d4f
be6a5b58
bd3b35d4
3e24e0f8
befa7fc5
be8b8840
be1724de
be2ad356
3d376885
3ebf62d4
be0f65aa
be2ecf83
3ccdc97a
3e7878b3
bf008efe
be638dd7
bf084d73
3e08194f
bee0cf6d
3da34ba2
bee99464
be9ef4e5
3df68e1b
be3ef8be
be9b1206
bef3dd72
bf07ce85
bdd44f28
bf1cf705
bdd2af38
bf247563
be390c1e
3e8121c9
bee32094
bf088579
3ea300f4
3e099f70
bee5cd25
3e792b99
be62244e
be14246b
bee3e84c
3da2efbe
3da17b88
3f0b1303
bf1cb256
3d9f2db3
be87fabe
bf0b1861
bd8d17a1
3e729c0e
be5b3b22
