bd612a0e
3c9dbc00
3c7a0230
bcdb421c
bd8e913e
bd110e4f
3d8c54e5
bd390638
3da4eb71
bb9cc9a0
3d309746
bc10db00
3ceb6fb1
3dc47437
bd23e163
bd2ad136
3d3f7926
bda2bddb
3d426b96
3d596e4a
bd5e75db
bcf83f56
3c548c90
bd1cb3f5
bd02e6b0
3d114bea
bb3136e0
ba485800
bd989c77
3d0d729e
3b991fd0
bd690486
bd838b5e
3d4c7393
3e75939f
3dfe2d70
3e2ed4ba
3dbcb2f4
3ec39df0
3ebceb72
3ec0c574
3f2933f6
3ec2cb79
3ec545b5
3eaf0c0b
3e8be213
3e97320b
3dabdc36
bd05d738
bcb00748
3e17c8a8
3dc0810e
bd102251
3c5bf610
3d2d6b38
3a92d4c0
3d6e80ca
bd1475e7
bc8a92fb
bd00163a
3e42c6f4
3de3edf9
3e4bf761
3efe3436
3ed351b2
3e190bb1
be8e12be
3ea385b0
3e3f530d
be888172
3d8ce4fd
3e1f6fd8
3ebf199e
3ec56f5f
be2972f1
be94b7fa
becb5fd7
3e177283
3e80d41f
3e15d0a6
3db9488c
3c52a8a7
3cb079b0
3bd902d0
3d8a4a57
bd92bbd7
be4d2285
bda7ed14
3e189e07
3ed1932c
3eccea0d
3e8bfbd8
3f0002a9
3f293484
3ee05fc8
3f051a9d
bda0e416
3eb4d0d4
3e69872c
bd728f75
bd257b37
3d8d29d9
bd12c1d6
bc41954f
beab91bb
3ea9615a
3f07e053
3f3d1d2a
3f3d17c5
3cb9bb04
3d3ba962
bd5980c7
3d878695
3d83b490
be85b537
bd977416
3e4b68fc
bf049551
bb9b70e7
3effa70d
3ee53abc
3f11e87c
3e77cb6e
3e34da71
3e8a2e11
bd3b10e8
3e8de577
3e305ff2
3ea79b03
3dad01a9
3db3ed70
3f165f7d
3f4e9db8
3c0be01d
bea8d4ff
bf149aa6
bed13cc7
bee2f9e9
bd2ce974
bd7be011
3d9fbc89
3d875137
be036aa8
bead4edd
bf17760f
bfa482c6
bf2f41b2
3dcf8fd1
3e2c0658
3db714bb
3ea8eca1
3ce411aa
be683896
3d55b116
3e9f94da
3eadf801
3ec01b76
3cb4610a
be9d13ce
bf1a687d
be3693d3
3e9ee2e2
bd8c8d7c
be29743c
beb02959
bd8d8f06
3d623d25
3d098ebe
bcdba442
bba71135
3d89c8fa
bf5ed462
3d8df705
bf4810d0
bf243900
3ec6618c
3d99ec95
bebc2ada
3dfe689c
3ea57cc1
3ee0af3b
3ecd3c21
3f0819eb
3e9fb5fa
3e7f0cb2
be099ae9
bea07250
bdc62a1c
bf00994c
bf82054b
bf12b188
bf250c78
bf01636f
bddac6b7
3d41e7fc
bd608f53
bcdb2960
be5400ff
3e27f49c
bf2eb310
be6a93ad
be71e920
beaaa1d6
3d5a481e
3d66860f
3e0cf9ea
3dfdeb2c
3e72d1fd
3e5d6b24
3eab9295
bcd70ed0
bde4d846
bdc3006c
bf0b2337
be98d3b3
be82ba09
bef1a737
bf280b5a
befcab34
bf7c27b2
bf4fc4e7
3de1edf3
3d07347e
3e115360
bd64077a
3d00e049
3d948080
be843bb5
bf182f00
bec6f8b9
3e5959b1
3de3cb2c
3e948266
3de71dd6
3e0ada19
3f13911e
3eb014be
3e81c7d1
be4ab872
bf38febd
bf02afef
3ce44cf3
bdc7ce4f
3df3567e
be6024d0
3db41fb3
3d8787dc
bf739c2e
bf3e2fd9
be28a39f
3ef0336e
3e7d10fd
3d4f9e86
3b4ff76c
3da2f0b2
bea19997
bf1bcd16
bcb4e28f
3f1e9102
3e83141c
3ea46d99
3e02edf3
3e8698f4
3e59484b
be57509c
bebcf378
be9e1727
bec3afca
bdde109a
baac3228
bd52d768
3d7b706a
3d65e49f
bd992623
be0d9524
bf02f7e2
be6db405
bf253ff9
3e19c67d
bdd86545
bcfde606
bd9ab33e
bd1b1bd9
befd1a51
3e254130
3e9a9f46
3f2738c5
3e60d522
3dd8773b
bd68fd03
3db1cdb3
beac4694
bf018e19
bed593c0
3e35afa0
be380fbc
bbe8772c
3dc8abc4
3d624921
3c99e43b
bd3b1351
3d060719
be7ef1c0
bcc8b382
bd56e507
beca9fd2
3d6809bf
bda344c8
bc245e20
bca3af18
bd95a74c
3e9ff143
3e637fb9
3e835582
3e8b4f42
3e51f342
bd8d38b7
3e12576b
bc2facf0
be92a11f
3df3f41a
3dd8cb25
3e08e13c
3df0f41d
3e47e429
3dc8f07c
bde28000
3d903210
be507cc7
3e758993
3e87fb0e
bda43379
3f2da882
3e9649e4
3d2761d4
3ee2657e
bc23a65a
bdaa5e33
bd8d6f73
3dd866ee
3e467750
3dc5bb31
3d86a9ee
3a629f68
bcacfa84
3e5c0185
beb07eeb
bda73521
be31a118
bec25934
be0830b9
bc0dbe67
3e5585f3
3d1208f3
bedf0c32
bdbb98e7
be993dee
bdc3233c
bdaac45d
bc9dc137
3f2048fb
3e535dc2
be53f910
3ead039f
3da0b7f2
bda32008
3d702f9c
3ebbc5eb
be8cd204
bde0e3f3
3d7a1660
3e158c7e
be0bf2ca
3e3bdd28
bd29319b
3e680953
3dd6bae8
be962bf3
bea63604
bd1e1e03
3e6572ee
be8bc662
be1ba853
3e0934e9
bd7ee186
ba14db2e
3cb341d2
3e7e88ac
3ee556e5
3ee0263b
bed45b8d
3e9b86b9
3c1f22c1
be320441
be28b47d
3ea0e520
be2ed93d
bef909a2
3d801423
3df69bb8
be2c8e29
bea038ac
be800b88
3e838722
bdbbd5b0
bdc243e0
beab6343
bdb5c1ff
bdb3d484
be6e53d4
3e82e45b
beb2d107
be5f7de1
be1cba8d
3dc2aee8
be4b0586
be2c9882
3e491995
beff2d23
3dae444f
bd1784c4
be25de97
bee6ef51
bee6add5
3ef3812c
be46338f
3d8ec0a0
3e217343
3dcf0254
3dfaee83
bde88907
3e473414
3e4ad695
3e27cabd
be6accb9
be95c93d
3e45bdf8
3d840494
3e80b437
bea3474d
bdc64f75
3e455260
be03336c
bd830ef3
3ddfd44f
3f7d3be0
be3a64a8
be146064
3b1ffb60
be1ca090
3d086e33
bf56ac4a
3e3dbec4
bea9a9f8
bd8c5551
3e32aedb
3e0c5e40
be23b75c
bd99244e
3e58cc93
3e3d682b
3da8f3de
bd4cdeed
becf9d60
3e46f936
bb757404
bcdf8f61
be8487ac
3e36fc23
3e8927da
bdabf977
3e72355b
beb979c0
3f2d2b05
be93937c
be458bf7
3d55728e
bdc7f987
3d19bc2e
be8f2153
3f0e2624
be6560cf
bdc5e67b
bdce2484
be7c7593
bed76635
3e50eed2
3e809301
3e42ba52
3d3a1ef5
bec1c048
be6651d6
bd2b7c66
be906efe
bead73ff
be98462f
3e8120d3
3d61cb17
3dc3c091
3f108038
be57d6a8
be536b3e
bf4cebe1
be29128d
3b4f9ff5
3b84afc3
bea5da36
3a8f1acf
3f32b888
be4fc85e
bca9d390
3e42d021
bdc0dc61
be5a16bb
3e6f3b9b
3e86fe84
3e765471
be14bc2d
bec961ed
be8cd549
bea5b5a3
bedec04a
be62732c
be5dc21d
be045767
bc298f11
3e9334e6
3f0f110c
be391808
be5de41f
bf1580f5
bcb5a642
bd60cb60
be3fd2a7
3ed93cba
3ec4d9f5
3eab0330
bef3addc
bd16d55c
3e6d55ad
3d782bea
beebcf89
3eb18b91
3e812ce9
3ecbc17b
3e386b04
be8ca9a4
bf08dbcb
be44f856
bd4cf2a1
3d8f7bbc
3d85a17a
bdb3a041
3e09a725
3e6f2b29
3b7bc8b2
bf4bcaf1
be37832b
3e60d145
3ce0fafa
3cbf5dbc
bd3a1782
3ebb748f
3e94338c
3ed7352c
3f09f0c6
be12ceb1
3df1aa78
be5a6685
be2046af
3e53b1c1
3ec4f870
3ee24d6e
3ec758d9
bd845450
be38961c
3cd2177e
3cb9db62
3dbedafb
be57c93b
be90aa7d
3c1ebfff
3d8aff2f
be65c561
bf1e2b52
3ed05aa0
bdf15297
3d949a38
bd8914d9
3dee5422
bf21c0d3
be185eef
3f010127
3f1b87eb
3d4cf7da
be1476d5
bea668ab
3ed8dc04
3ed39adc
3e8724f9
3e5ac34e
3e8f1134
3eb7ef9a
3e66caac
bc0cd8d3
3e4518bd
be43a1e2
beb5da7e
be2cde08
bd8e0897
3e169540
bd9aad2b
bf201b07
be3e765c
bdf0387c
3c840cf0
bd0c33b5
bdafa9b4
3dac4c38
3efcfac3
3f530cb4
3f686f37
3ea44a3e
3d810da9
beba81dd
be0f8c0c
3e0f6e7f
375854d8
bdfed674
bd95bf33
3e901ea4
3d3bddcb
3eb16cbe
be2021c4
bdb09e17
beb636c2
3eb792a7
3e0b4e35
3d1010cb
bd833368
be92ea05
bdd1566f
3c6c12ad
3d4eb060
3d8ea991
3c11fec0
3e0b8d36
3ec97262
3ec12e68
3ed09912
3e3678a2
3bcc9059
bd8e1ba4
be99cf9d
be357ea0
beafe266
bd7ffea8
bd8cdbd0
3e58b6fa
3d4bdfbb
3e9724ed
3e2a7256
bd71b98b
3ca553be
3f376808
3e082e2a
3ecb3ccb
3d2429f2
bdaeb7bd
bdd16b33
3ce0dbed
bcf29c02
bd346a58
bc1e2b88
bd5ffc1a
be8aaabb
bec04bc6
be213ad9
bed9fd33
bee3c442
be4c0e41
bea9f9db
be7d3b8a
bdaaa9ec
3e178c68
be5d5f2e
be6515b7
3e547807
3d753400
be203355
3dfd5e9c
3ce9f67d
3dddceb6
be2bbb06
3e871f82
3ec76b06
3f2aeaf0
bcbea8a3
be09f100
bcd1fa2c
bd9458ce
3ccbe910
3e05f51d
3dea8d13
be9fd4a1
bf5920c1
bf372325
bf08050e
bf46b9a7
bf8f9513
be2119eb
bf0290d1
bfa7f066
bf7cbc08
bc63a422
3e7342aa
be621b09
bdd937d4
3e1e5f0c
bddf6925
3e8e71ac
bd711b19
bd92847b
bc725d88
3f014c1d
bddf3307
3d649f66
3d4a048a
bc6f8910
bd811a7a
3d3f2a6e
3d1bc1c2
bc9173ad
bbd721f1
bd5a6c02
be2e4c7a
bd80d3da
beeb5690
bee69583
bee79396
be9bc842
bf306cd9
be748a75
3df70447
be4fdbbd
bdbde4b0
3e195cf7
beba9f47
3f1129fd
3e35feed
bf043fd4
bd5e2b7e
3e591cf4
bc80b0dc
bd97b883
bd88f4ef
bda38333
bda58afd
3ce77784
3d85f6e3
bcf4f234
3ceb0b31
bd933f00
3d8ef0a5
bd4d3f4f
bccc068e
bda945c4
bd9dbcdd
bda35c65
bc586146
bf0dd513
bf2a0423
bebabe8e
bee5a308
be93a4dc
be2b1f28
be4d4738
bf0d1aae
bedb31e1
be565b49
3cb1ee50
bd6cd08a
3c71f388
3d213b0c
beb5b37f
