bc6c5b20
3d5dc4aa
bcae5a36
3cca68d8
bd3bf095
bd82f090
3cc8ac34
3bc72190
bd647cba
bd2a4927
bd5f3316
bd953a29
bb624242
3d5fbe78
3cf8dfe4
3c2cf080
bd12d8f3
bd373e90
bba77d90
bd9b3ada
3d9416e1
bd0400e9
bd67a1fe
bd725c2d
3c649b80
3d71a0fa
bd5a16d0
3c8f21c4
bbb57100
3da181db
3d6df8c2
bc8b82f4
3c4694a0
3da139c1
bdb55508
bd65ff2c
3c478eca
bd6eb28a
bdf0ef46
be0f59fc
be80cb1f
bdbb9e27
3ccf8e40
be97eed8
be787924
be8dfb2a
bd11b5bc
be608f10
beb10aae
bef1c392
bea9bd98
bec641ef
3d766c3e
bd0628ee
bd7083f8
bc190ad0
bc132a78
3d1d853e
3d2eaa6e
bd514117
bc856205
3cbe2174
bcd84b06
bcf92fce
bdb8fa96
3d18cb03
be04edd4
bd531fee
befeb88a
bf6a4197
bf6c9f5a
be6df7c6
bf04b1a6
bef074e7
be8a50a8
bf1d5b76
bf04011a
bedebc5f
beb109ca
beda0ddc
3d0b5d3b
3cd77d43
bcd5928a
bd11d476
bcb845b4
3cb36108
bd0f7b77
bd2685fe
bd8d547c
3c070b21
bbf61bb4
bd2065af
becac094
be28fac1
3e3efdd3
3ebb4a75
bf06e342
bfb6b958
bfbde6c8
bf8c714b
bf95221a
bf40088d
bc6bfa51
bee7de51
beba32a3
bf00a806
bea85da4
be8b1f9d
3c0de680
bd6f066e
bd0d656b
3d264286
bcd534c6
bd5e1e8a
3d41c1fe
bd3e6430
bd0a29c5
3e1cc6ad
bd626feb
be695113
bf69e4c2
be2f68c5
3e8837dd
3dae2faf
bd9b2ca1
be7a5709
bf217427
bfa18aae
bf71c099
bf4ca360
bee16631
be1369fb
bef40cbc
bf05dbc6
beabab51
be089d64
3deb94b0
3e9a0c3a
3e5fff50
bdb01c86
3d259ce0
ba580480
bd78253d
be01f8c0
be20b070
3c9beaf2
3db51de5
3e7e2a79
3ec39705
3e55a48f
3ecdea42
be8f488d
3e2ad092
be0b35ea
bebf2c92
bef3e67f
bf38930a
be5443de
beb4b6b6
bed779ce
beb33a1b
bf2b326b
be74bc1e
be3baeb5
3d39af9c
3eca7571
bd686375
3d287300
bda5d342
bc948669
bdbc1661
bec4b4b6
be8516cf
be1c7355
bec5fca3
be66cd47
3de96c33
be2c27a2
bf10b19a
bf3b1333
bedd2b9b
be934c35
be99705f
bd913fb2
3e341df6
3e9cc14e
3e2653b0
be9d0e2b
bebb062b
bdf41de3
3ed5d97b
bd4b4a8f
be1ce59b
bf20e9be
be983870
bdba8a54
3d42cf9a
bd7d279c
3ce001d7
bca88ae2
be12daa3
3e21e028
bebe18a3
bf19b932
bed048b5
beb35770
be99261d
be5cb73e
be75d837
be8330e6
bda8bd9b
bcd8e8ae
3da0d2fb
3da3ede8
be86168b
be76d43f
3d0962d4
3d9d0e4a
3ebab1f9
be56ef15
3d270d1a
bd201a41
beae71af
be82d4e2
bf028619
be42f3e7
3e0dd611
3d357bb1
bd1863d2
bd731034
bef3fb62
bf5479ef
bf11736d
bda7d3fc
3e0d036f
3e157e92
beb67e1d
be8790fe
bc6fc9af
ba02e840
bd8d4c84
be57d6a4
3d763ef3
bd8a96cb
3bbfa1fc
3d72f3d9
be96824d
be68a725
3e694e77
be4aecff
be4f9b1a
be970ada
bcef471e
bd6fc20f
3ea2f897
3f1b8d8a
3ec0a1bf
be4c4246
bf04f389
bf21b369
bec8d9d0
3e48dca6
3efe04d0
bd255660
be023eb0
3dd17d1f
3ddf11d2
bbabaff0
beb4fc2e
be200319
3ddefa6a
bda392af
be024c1a
bca2a973
be807875
be249aa9
3e434cf2
bf0a3c0f
3e1ad8a7
be2bc2f7
3d50c43f
ba5052d7
bf559241
3e36cbc2
3eecbda9
3e165940
bf136bfb
be67ff13
3d1d9f17
3e53d9c5
3d2fdaf4
3d89959f
3e6d86fc
bc5a8157
be11147b
bdb945ab
bebe6dfd
be8ec53d
be389cef
3cdc3e43
3d628972
be526acb
bea3c03a
bdc32612
bdc11ed3
be275a6c
be11b816
bf0cb3db
baf64d2f
bf69d65c
3d8e57da
bf01dfb4
bf602bc7
be6dd6c6
beb06533
bbfe9609
3e9e98e6
3e2d8479
3d6bbe01
3e57db4a
3e8b25a7
bea830f7
be9e1cb1
be9adc5b
3baa7f6a
be2438f2
bdedc7d8
3e3bac79
bcbca8a2
be88b19d
3cf976a2
3e8701b1
be2f390a
3da27def
bf41a4ae
bf69dcf4
bd31f8c7
3d36f88a
3edb4c64
bf3aa1f9
bfa5c572
bf12f1e8
3e052aa5
bd537dd3
3ef8e788
3e858470
3e635fb3
3f01538e
3e0d9520
3e138258
3e2a4a28
3eccc7ca
3e337bda
be3f6922
3e6745b3
3d815ecc
3e81354b
3c2632a0
be050321
be5dcab8
be6f69bc
3de849c5
bf3ca9f7
bee874de
bc560ee3
ba6f2d80
be7c2def
bf5d322d
bf8f1f9b
bf825fe3
3cf756bb
3f2dc825
3e3321bb
be2332f3
3e68f11c
3f0a2637
3e51977a
3ec1fc7e
3e9eb55b
3e6722d9
3e3320a2
3eb92d15
3eb171ec
3e886c94
3db6505d
bd48389f
be5239e5
bf2c273e
be51a772
bf16d981
be8b7281
3dd5a41e
3d983d5d
bdd7b386
bdf0752e
bf3af748
be5742cf
be98e1d5
bdcf330b
3f0c7aaa
3d9a9573
be3fdafe
bd872294
3e76be5d
3dde7f3b
3ee63eeb
3e3cf8a0
3e1cf1be
3e3e3125
3ec010d9
bc8bb7db
3f0022f5
3e8da86a
bea377b4
befe7dfe
bec9ed9f
3e2846b3
3e754b8a
3f14cf89
3de6adb1
bda0816b
3da4d0fb
3e3561b9
be883884
3e73f5b8
3e8fed6a
be73e656
be02be25
be679642
3cd62195
3e4a3db9
3e058855
3e1e4603
3e6b4284
3ecc30ed
3e66c202
3ebc8faf
3ee7143c
3e3c5b25
3efa7707
bd93f2f2
bed2b051
be55dfde
3dddcbc8
3e8c1249
3e9002a5
3f1a1843
3d1b1464
bd3c35da
3d7f5f51
bc55f032
3e66d296
3d5c331c
3dcdde24
3db78b09
3ebfcae4
3de8b164
be649914
3e2210f4
3ea0b877
3e56bc62
3d62781d
3eb18ac1
3e9ba527
3effab74
3e148aea
3ce4f14e
3dda41ea
be7f23f1
bec078dc
beae5a5f
3e39e8b5
3e1914ac
3f148489
3f384e93
3eb3eeb1
39cc5c00
3d979b0b
3d3ce6b4
3ecd6838
3c9236fa
3e0d09fd
bc1c2bf0
3e271f82
3e1baad1
be1aca39
3e8e9537
3e9b5876
3e0123e0
3d7d1f55
3dbb5bbf
3e2c7a9d
3e0382db
be8978dc
be9b0615
be4fe55f
be544c15
3cb9240c
3e0602ef
3ec4b646
bbc67dbc
3f30a235
3f75f879
3f00f7b0
bebc50d4
3d7002b5
be8486b9
3f27073b
3e1e0376
bc8e494c
3e0435e4
bd8c0d7e
3d72a52a
be28517c
3d9229e7
3d0edbab
be826fd7
3d942e35
bcb15dba
3da5de08
3c383bdd
be8500e5
bee08ba4
bea5c013
be9f7d16
3e5f5ed5
3e27d812
3f0833c7
3e1118c8
3eb8d31c
3f02d278
3ebe91dc
bc5e1ee8
bf2ef86f
bf033be8
3f2ec1bf
3e719914
bf06d500
be13a19f
be3af063
bf32ef21
bf3d82e8
bec79cc4
bee018c1
bee2c4a7
be8421d2
bd8ad0ca
bac9d486
bda08e2c
be61221e
bf1a6d75
be8a2f74
beefdbe8
be890977
3d768c45
3dfba54d
bd9b0eb9
bd15cbbe
bcaa3a51
bc9f5a75
3d963ddd
bca49b50
be8ccdbe
bdb31abc
befdd1da
bf872608
bf8a216d
bf31665e
bf490c59
bf42af19
bee8f68f
bef2f524
3e3c5acc
bacf558c
bcb5540a
be517588
be1d72b2
bede6641
be92c616
bf07fbb3
bf80b2a5
bf38bc63
bec9b7c3
bea7ade5
3ea473e2
3dec49e7
3d2b5168
3a2c5dbd
bbcd3670
bd817de5
bd8d5aa3
bf462130
be8ac08d
3d1fe125
bf1876d1
be9449ab
be86976a
bd376345
be3f4f67
bdd9673b
3eb5492c
be976d9d
be33d035
be72c5fe
be654b08
bee288aa
be0cdb34
be5d20c4
bf27c548
bf169c13
bf222d52
bf113fcf
bf41a4c4
becb89d4
bf392dfa
3d91981b
bd80ade3
3c9e6600
3c361f2e
bf160990
3e0de07f
be27c38a
bda638a0
bd7e7c50
3de5baff
3d7db5a0
be149dbd
bd9aa4fc
be39a62d
bea9db30
beb18bf1
bebd9be4
be1d4c22
bec8e5dc
be568832
3e21ff56
be927b91
be502c05
beab6ef0
beeb2b52
bdf77178
bf0c8137
bf240a56
3d6c4ee2
3d9634a3
bd40ca72
be4f43a3
bf0cbc33
3dfce5d7
bf151098
be9f586d
be47519a
3779b354
bbf98d33
bdff10ee
be22e09f
be1375a7
bea27602
be547479
bea78007
bd2bedeb
3d8e5125
3de51f45
3f181f2f
3d9f66ee
3e5147b0
3e2c3700
be57e045
3e29c3ad
bed7f501
3dac0385
bd995fa3
bc4eb1c8
bbebf180
be376e1c
bede877b
3f4e7fd2
3ba94b45
3e2737e3
3e08a94c
3e1dca74
3d5c6e04
bea0ea03
be826f11
be40d10e
3d873508
be0b7448
be8104cf
3d7b9099
3ec5b2ad
3cf8224a
3f202065
3e551958
3eda35bc
3e1bfe13
be39c181
3dd764e0
3d2faa9c
bd6f9ac0
bd479cec
3d6bab5e
3ce16188
3ead03b6
bdf67c1b
3f332120
3e82be92
bb9371b0
be87f789
beb9c303
be565ed3
bda25e7d
bde3d9fc
bec868fb
3e6ac2cc
bd5d8cf0
bef7bf1b
bde17eaa
3ddf8de4
3c9fee55
be6e8c4c
be1ffa44
3e105f3f
bec12322
bed20d9e
3c9ad5aa
3c032cca
3d193c17
bc540500
3c4fcef8
bafd8d40
bb96eb50
3d9b46aa
3ef90bd4
3ed5d818
3eea0efc
3ec1acfb
be1b4ecb
3ebfd8f5
bde380a8
bdc96e1c
be75343d
bdb29c6a
3f013ab4
3e46fc69
bdbabb1a
be0be8e6
be73aee5
be6d0c29
3e23a9fe
3e613110
be89a867
3ed50a02
3e08cbb3
3d4a3190
bcc3cfd6
bd1b0f18
bd373f84
bc47e948
3c830e24
3cc1f824
bd019492
be1c3c4a
3e407c1f
3eddce19
3edc47d9
3e99fbda
3ec8727c
3ec68302
3d748347
3d13d876
3f49328e
3f362002
3e676fdf
be5a9500
bd34b983
bd8cb409
be1b252a
be9a326a
beb78620
bcf73906
bd0ed1d4
3d4d6b9a
3d93dea9
3bdd6e50
be8b3290
