be1ac214
3e219e4b
3e3f7004
be2bca98
bdc844c6
3e843758
bf7493bf
bc7b6520
bea63fd4
3e991f04
beb66cbb
bef2e9ae
be934d72
3e984b54
be0b7375
bc1f1f29
bd399442
3e806276
3ddf9643
3ea6694b
3e492320
be59b49f
bf21325c
3ea68d6a
bf1dd5e4
bc6d272a
3eec1e23
3df482dc
3e6eafb5
3e4f72f3
3d9a5fa3
bf4905df
3ea136b5
bf586ed1
3ca989b5
3e564ab8
3d8cf614
3ddaaed3
3e057e54
3d5ceacb
bed5a449
3e765819
3ed4dcfb
bf52d10a
be5b2bdf
3e870260
3dfd98f5
3d684978
be90a5cb
3e183469
bf498082
3d0272be
bf4a0035
be38afe7
bbc90e88
beff2b20
3e7da108
3e4d3432
3e859a11
3e65e9d5
bedf1115
bf45e42b
3e7b59f1
be09ec49
be83b0d9
