bd9d511c
bd6491a2
bc103728
bb7cb6e0
bd82d8c2
3d1ecbd6
bd5150a2
bd5d8e78
bcba3748
ba4f1a00
3d225486
3c7e9230
3d745246
3d519bd2
3d8e16c1
bbf38ae0
3d2b80e6
bb3a3220
3cfea094
bcedf16a
3d9890c1
3d7b118a
bc8146f4
bd873342
bd14eb98
3c849c34
bd50318b
3d2dbb18
3ce9ca80
3d76c40e
bd930620
bc3cdc60
3d8b43fd
3c7a6d68
3d99f0ac
bc45df57
3d80c749
bd850650
bd200ecf
bd46b230
bc16c9dd
3d5a3ee3
bcce9d23
be0beef6
bd4049cb
bd2995fa
bcfe5b52
3d82f979
3d8909f4
3c2df1fe
3ac6a7e5
bcfc39ce
bd99aa8d
bc737e50
bd99b58d
3d57aab2
bd90a42c
bd7dcd44
bd138386
3d81bb63
bcf27196
bd47bc8e
3de2c2a3
3b114b53
bd9baf01
3c3c717c
bd60366f
be2169fa
3d306112
bb5530e0
39c9303a
be082548
be53ebcc
3dc87f59
3dd6bfc9
bddef6b3
be9d56e1
be716acc
be6b8b96
bde13023
3c966859
3da48649
bd452b3c
3d8db041
3d8189fb
3d851fd1
bc76f127
bdf5ed5b
bda665b1
3e630cc7
bde131af
bde1c0eb
bcdda314
bab4e2ec
bd534644
3f088b9f
3e4bd632
bce623ac
3ee878d9
3e906fa6
bd58ed7f
bd95b218
3d23029c
bf073831
bd27ba57
be6b0ea4
bef7347b
bf186bb6
be8d1e7d
be501fb8
bcade3ce
3bc3dd30
bd6f0170
bd0f46b3
3da3d0d0
3c153cf3
3d88cb04
3e26030d
3daa5f1a
3e53dddd
bdc5d11b
bdae2d42
bd4c156c
3ecb5feb
3ee5065e
3efd3faf
3e14c590
3d865887
becf24f6
3e8ae4cf
3f02bf6f
3dd011f9
be9f4b0e
beca0892
3dc37cf7
bec1bf65
be934cc5
bef5595d
38b2f360
3c69234e
3da15753
3d9270c5
bc2c6f9f
3e0a59e9
bf4b0ebb
bf6c7412
bf164239
bf0135fa
bf16ea48
bf157f4e
bbf6164b
3e59b35b
3e4f0e2e
3ebde686
3e417249
bd77f046
3cc28dc6
3db880cb
3eb4f727
3f28fbe0
3f17e87d
bde9ea58
bc3701b5
bee9d5b3
bedc4ce7
beee3ee0
be7bd39b
3d43a9ca
3cbe8cac
3db7eb25
3e8228d2
3f17e800
be65bea3
3dd1f116
bde964d6
bec0f705
be89bf28
bdf0e564
3edd28d6
3e49aa0c
3dcd1894
3e594fb5
3dec1fd2
3e95a3ad
3eaf0076
3e3505fc
3ba4a189
3e6a792a
3edb0ce4
3f250f31
3eee8265
3d642efc
3e08e054
bf2f3d27
be94fd9d
3dfaa90d
bc9ae825
3e984f58
be154db5
3f17c851
3f37fd5a
3f077369
bd20b516
bdce9431
3d88bdf9
3ed712e3
3d9485a9
3e7f32d2
3bddea9d
bce4b85d
3e955c21
3f08d391
3e4089b3
3d5faa0b
3cf85d38
3d26965b
3e543d81
3ee810e8
3ee490c7
3e45600f
3e87e7df
be7b9459
bb4a9c7b
3e17eca0
bd12adb4
bcd995f8
beac3504
3f6b36d6
3f7e4344
3ec18f94
3e7d0f08
3e2b2ce7
3e0a26ec
3e761ee6
bcfe0e95
be8c8eac
bd1dcc51
be760866
3e923786
3d3e7f79
3e6a928d
3e882aa4
bd75f9c0
bdb4150e
3e3c49ed
3eb1361b
3ed17cf2
3c0ec2fe
3c06faea
bdeed1f1
3de50cb2
3d2c76b4
3ce96a0b
bd3ee4b9
3f5b9fdc
3f0a6d2c
3f09385a
3da1c31d
bdce8526
3cd61bf0
be6298a2
be2e659a
be270952
bf19a098
beffc42e
3e120f90
3d7b44e1
be955a75
be6466ba
3ac5cb52
3e619038
3e18d220
3ee49a62
3e232cf9
3e889ac9
3e723ad0
3d088379
3d482fc0
3e095797
3e06df0c
bd9d0193
bd4762ff
3f38dc07
3efeb897
3c8af5bf
3c54fdf9
3e0c27ab
3e8b5236
be7f898d
bec93c0e
bf0e9f26
bf2fb818
bed55035
3df808b4
3d8b1a44
be11ef89
3d5690ad
3dd6fead
3e23cada
3dddc380
3e106bc3
3d837db2
3ee2bef8
3f16af23
3e40818f
3d9999b4
3ea4d8c6
bc903275
bd72bc06
3aea0437
bcb2801f
3d8df009
be8e246d
bf1ce938
beae3c6c
be197689
bca8ef8d
bf11d3b3
bedb9f82
bebba970
bd66b875
3e590b26
3e6fc4fe
3de1f66b
bdce5dc0
bdabf740
3deaadf3
bc0645f5
bd1eaec3
3db6aa1f
3e9bfbc0
3eb768d1
3e833fa4
3ea62175
3e28ba9f
bdd29c73
3d5da20d
3c315134
bdab42b2
bd936e23
be909479
bec57def
bf2f89e5
bea5e87b
be044c59
3da93647
3c08fabe
bd22bf84
3e0c573e
3c456b06
3e090fe0
bc938210
be26797c
bbc159df
bdb75463
bf063e67
be862f39
be38224f
beab9ecb
bd8e276c
3ef68b0f
bbb0c9ae
bcfdde05
bda8cf56
bd92ab05
3b32a7ba
be16c928
3e9634df
bd4c70e5
be1b9ad4
bed7e295
bca8a89a
3e29b220
be33fcf4
3b4ca353
3cc2ebba
3da9a271
3e903a3f
3e53518c
bd94eca7
be2004a8
be3d0994
3d4ede95
bf138f56
be4da40e
bde51c5f
bee403aa
bcb1dd3b
3e935ab7
3e934e64
bbe3e850
bdee3a4f
bd0753f8
3d33264a
3d5f9782
3e20816a
bd8eeebf
3e0f39d6
3cb2e037
3e5938af
3ea328e7
bd0f26d2
be979a90
3d928c06
bb006303
3e2099ff
3e8b5d18
be9eafba
bf0e0e05
3c2594b2
be4ea168
bedbd51c
be03ccd2
bd163529
be228dc0
3d9217ed
3d4124e1
3e79b7d2
3cc9958c
be02e9dd
bca1dcd6
3de12181
3e9230aa
3dd5facc
3da9a077
3e46f5d3
3db51a9c
3c06afd8
3ebcf193
bd33f458
bec628d1
bd243690
3e2e907f
bd177da6
be772f25
bee4399d
be4899ee
3d6e8cae
be65f1ca
bea88dd7
3e0a1240
3d98708c
3e51d006
3b1eb122
3e00262a
3e7ca18b
3ec084ff
3dbbc8f4
bda2fa7d
3dcd876e
3f05fde8
bd9ef54b
3e906765
3eb7da53
3dca1896
3e5cd467
3da9e8d3
3b9b3b7b
be68f582
3d53ad3b
bda68569
be69f5e6
bd7202e5
be8322a6
bd1fee48
3e945769
be7ca660
bebbf853
3e8eae9f
3e8cf9eb
3eeb3982
3e8ed703
3e12c2cd
3e8af29e
3ed10b3c
3e901800
3d33f882
3e1e39f1
3ef328b9
beb8d55a
3e0dbe63
3d0cd995
3d8eb074
3e54fdcf
3e43b61b
3c0144f3
bf117d38
befda4c7
bf51a94d
be75bc35
3d257716
3ebbc7cc
3eaae420
3e94b609
bea4b545
bbdc9d4d
3e6c94f8
3d8366d0
3e6d646d
be4c01fb
bf009d57
bed77f63
bd88cc7a
3d74c8d0
be38d1ca
3d8842a6
3f0fe6e4
bc03d474
bf11bc75
bd95b75d
3e3e4107
bbbc0ce9
3ecaf7ac
bdaa49be
bebea0a2
bf431989
bf65837f
bea4e95b
3d5be0b3
3dd0072e
3f06de59
3e49b9f1
be022e46
bcbecacf
bda486de
be73e766
3e973680
3e08dca5
be628f18
bf10c5f8
bdc83709
bda49685
3d49694f
3d89fe42
3f252b71
3e57c4f2
beaf9af7
3e49235f
3e442693
3e9823d4
3d7f579f
bdf85b8c
be6439f2
bf3271ba
bd9824ee
3e646d43
3c88d066
be4d73ca
be44114a
3dc723c1
be3b5af0
be64512c
3e0e3d0b
bbf42e9f
3e422c9b
3eacb6b8
bf57ddd8
bf5de6e5
bd33da5c
3c2f9d44
3d317e3e
3d700aca
3ef21e0f
3f0afa79
3e53d617
3e2bd95e
3ea2739a
3eb307ad
bbb4b59e
bd35ee5e
bd7a2bfe
be26c81d
3d884b23
3cc85eea
be33a2d3
be61c0ef
be6adcee
be0649e6
bf0b28b5
bdd21db3
bd989b4e
bdfb08dc
be07b638
bd5a30b5
bf0f7ba9
be7b059a
bdb8cb99
3c444815
bde78b81
3da70364
3ec500ca
3f1e51eb
3e36e253
be82b0d0
be26ccde
3e8ff446
3e738132
3d871a7b
3e9168cd
3df52643
be4cc5bf
bd8bf3ff
be3a36c3
befe003e
befac1d1
bebca9fb
bf3b6ab5
bdaaa0db
bf1441c7
bed25546
3d9d2904
3e28663d
bf165a28
be517182
bdbc050e
bd339d70
3ba6a612
bd5b775a
3ec3c1c7
3f0d4aea
3d7e9cba
3d9d244c
3e395622
3e492c42
3e4e1b8d
3eee96c6
3f32e61c
3ed32eb9
3e538186
3de8dc9d
bdfc10a8
be100344
bf0cd81a
be3c4622
becaf82f
bda02337
bec75159
be9d0e19
3eb414d1
3d42f66c
3d75be63
3e973a61
bdec0444
bd287366
3d838845
3d49e99e
3f03ec49
3f029735
beca18cf
bd9eb914
3eb72e6a
3f045914
3d847590
3e86ec8e
3edffb4c
3ed6c27a
3d811bd9
3e821f48
be3155f1
be321878
be12754a
3e974fcc
3e975153
be0044f7
3e351ee7
3f22de7b
3ee7e443
bb937ae1
bf0012b5
3c68d699
bdef0e9c
bd502d05
bd86a71c
bce04694
beeca00a
3e4bb889
becfe94e
bdfa014c
3ec470ce
3da20ba9
3e2211ec
3e041e9e
bd350a39
be498116
bd495fa5
3ee53809
3e2f2138
3f27ada4
bd39b040
be8787f1
3e838fb3
be31dab6
3e3a90e7
3cd202f1
3dcf0af4
3e02d0bf
3dff13fd
3ccc94a0
3d1619bf
bc13d5d8
3d4209c2
bd66f150
3d48236a
be5581c0
3dc83f1c
bc43bfa5
be506d50
be8ff526
bee420a0
bef74851
bf1007d4
bf246858
befc8858
bdc1179f
beabb1a1
bd51398f
be7e4c7b
be132ee1
bd90dcf4
3e052fc2
3e79c4b5
3d9d37a3
bd8f1ff5
beec4575
bd24eea8
bd098939
3cd88d80
3ca49108
bcfaaabc
3d3ebb82
bd91aaf9
bd9f6aca
bedde456
bf0352ec
bf11a99e
bf4f7577
bf475920
bf2165de
bf150bff
bf274eb5
3ebffba4
3f00ec64
3d1fe0c4
becd5b50
be5e2938
bf10b638
beabab21
3e90d864
3e8dd661
3e198c8c
be333ea3
be335dc5
bb9b5080
bd61553e
3d3a2486
3d790aaa
3d8bdfdd
3bfcd340
3cc4c758
3d83b405
bdf4d85c
bd94d946
be1645bf
3d3aa2cf
bc986232
bdaf17dc
bda3b941
bcd804d3
bdaaafbb
3d4de71d
bcafc30b
bd4a383f
bcdbc202
bc9064f3
bdb11f45
bd52e75d
3cdfd1c2
be21bc63
be7ecbd3
be346192
bd5c66ae
bd4d25af
bd98529d
bc4f24a0
bcf8cbcb
