3d439c6a
3f529430
be429507
bedd4557
3e1337c7
3e9ae0fc
bdaa4e91
3ed65f6d
bef0219c
3eaf8da6
3c4d5399
3d91ac1a
3e886c95
be800516
3e72140d
bf30958f
3e1112a5
bb128cd4
bd8c4add
bf4fc9a3
3d59c638
bea23140
3e540a3d
3e17c756
bde00540
3eac1b73
3ea7fbdc
bddf090c
3f0d165e
3e995537
beed8710
3cbd2f7b
3b20abea
bf1e1fdc
3d9a42c1
bf283429
3e758d0a
3d3cfd2a
3ebd1bfe
3e5e91f8
3e96259b
3df85d82
3e8d28b7
3ea11c25
bec96941
bddc7e7c
be4779f7
be0127f2
bdfa2f54
bf385cf1
bb90083e
be3ecd7c
3f1a17e4
bdd57f63
3ddc9ad9
3ecb4e49
be82f0f9
3e4327b3
3e0b314b
3d4de7eb
3e38e531
bd38d24e
3efad394
3e2f7e39
bd929437
be45fd68
bf08e6fd
3d08efa9
3ee6095a
3ec75be3
3d1afda6
3ca562f7
3da97261
beb57935
be2aea7d
bec88e04
3e55e9a0
3e957762
bea90bf1
3d6d5416
3f4e9dbb
3e233eb5
bd586445
bf351d01
be311b78
bed41eb0
3d27c44b
3ea05d0b
be2fa76a
bddddbfb
3e61d0fe
3e6006a8
bea0c68d
3e1fbbcb
be0e5c1f
3ed98c7b
3dbb2209
bee273f8
3dfeed15
beb19725
3e4c6bb5
3e3014f1
3e59f2ab
beab551d
be11be7c
be5229b9
3e556d75
3f3d17c6
3eaf35a3
bf23e939
3e863db4
bdb29e2a
bed07af3
3e49a37a
bec6ae88
bbde0cc4
3e892396
be01615c
be8ff9c1
3d40b0de
3e86742f
3eff07e6
3e613ffe
be1e06cb
3ddf79ee
bf05ed1b
bb8f65c4
3f071ffb
bea082e4
