bd465560
3eca98d2
beebb4ce
be31c122
3d34f3d3
3e510a89
3b9a3503
bea51771
3e7a11e6
3f34322b
3ec9c781
3e77ddac
be035523
be5b5f3a
3e950d78
bd8be942
3e21fa16
be851511
bdfdae7b
bdeb131a
3e75018b
3e9480d6
3e8f7574
bf2df845
be536b2c
3ecd200c
3f2c888d
3cae32a2
be42279b
be9d29b8
3df54a7a
bd350565
3e3e90b7
3da903b5
bebedde8
be0f9ca1
be225555
3e71d776
be12e876
3f0eeb85
3e9e72f6
bd862fa8
3dc96e6c
3ec26daf
bf039e21
beb98249
be85c37c
3ecf5bdb
bf54bd4a
3ef28039
bde13e6f
bd943b50
bca0148b
3ac64cee
bdd87efc
3e7835b6
be07cb67
be8c7424
bec3e948
3cfb536d
3d2e1367
3ecc2df8
3cd8bf7a
be211fd7
bec5a9b4
be81b53f
3cfb6dcb
3eb4b717
bd3e30da
be504bb3
bec09490
be9161c8
3e37e819
be85f61d
3f7d32cd
be8d4ac9
3ddd3e86
3f23cdbe
be874d14
be8062ff
3ec39f0f
3e4d2a8c
3e63c6a6
be09df5d
3e0758e1
bdb73f11
3ea5742c
be22c61a
be3f3077
be1202e0
3dc193c6
bc43c72a
3d8ba9eb
3d4f5335
bdd248ef
3d869512
be969ba2
3be3367a
3e741eac
3c92f382
3e1c9873
3e5fc62f
be82a429
3e9afe74
3e04de52
bc2853b6
bd93b093
be3e9234
becb5388
3d9eacaa
bf194d30
be57e5f8
3e80f286
3e2318a7
bf06132f
3e6c8600
3f4460a8
be99780c
bd7f244f
bbe72a77
be8ce955
3e9efd65
3f1b4b29
3dc58b6a
bcf66933
bee0f04a
3dbb379e
bd675f6e
bf36e7d4
