bf2e8c44
3d50fd49
be4d9527
3dd4aa13
beb4e8e3
3e2a396a
be63e219
3d1f1efa
3d29f4d4
bdccf440
bdedab8e
be8d97a4
bbf5889f
3d9522c8
3e3ca35a
bc8e0b4b
3e213982
bf6f135c
be0b31d3
3d8e1d6f
3e91ad08
3d99a5a2
be8efd35
be7db4ea
3d96807a
be0c84a9
3eb12d38
bdd485b1
bf487a86
beebbd82
3de45399
3e2eee24
3e5f01ab
3e661bc6
befac8de
3d904b54
bc030dc4
bd0dbb83
3eb1b3c7
be72319f
be97cf2b
3dd4949a
bd9980eb
3e41940a
beb4d682
bd08e1d3
bebcdc50
bfa38cbe
3e33a469
beacbffc
bdd54834
bae6583d
bdc8433e
3e380d85
3e8705ab
3d072dd3
3d611339
bef10f76
bf0428e5
3cb4371e
bea11476
becaf100
3da70f6f
be424c9f
3c851f31
