bdfe4ac1
3e29e211
3e7264da
be0b3139
3dbf1628
3cb588ff
bcceecd0
bd0dd37a
3d7837d3
3f17eca8
bec1f708
3edb3a6e
3ea8f100
bdad56cc
bec9b00f
3e943c84
bea94f02
3e094148
3f1a01a5
beb050f8
3d0ffceb
bd10d494
bec325d2
3e2d7805
beae6374
beb12334
3e670f1a
bd5f6c15
be730058
3ea5011b
3decc777
bc95786b
3d688edb
