be03ca0b
be602467
3e45dde4
3e04cdf1
beb5d4f8
be60ce89
be103aee
3e0752a8
bf1f6a65
be749c87
3d89133b
bdee9d96
bddb37f0
bd8d4ff0
3f288fec
be5017ff
bde73e50
3e4d09d5
bd9d7b26
3be8fd01
3e6d0305
be019e44
be138b87
3de64d92
3e3fad92
bc27f97a
be4667ad
bdb27566
3e839f81
3d511952
3e2e7509
bd25dbc0
bdbecb3e
bd478a83
3e1e51fd
3edae2d0
3dee4e48
be5ae968
3e1ac192
3e3bdd0f
3f0f53ef
bdd07327
bea884a0
be0c0420
bd8b95b9
3e0b29ba
bbbe4c57
3cc3f7ea
bddbcaa5
3c9a65c4
be0fa77d
3f10e569
be351b56
3d81438a
be65d15b
be5e89d1
be061b82
bf027314
3e222d37
3d8b5765
3dde6c61
bddae263
bdc7d17a
3de0658b
3ea4c7a1
3e9d72cc
be86b37e
3e42da3b
bea0365c
3d7e0a2f
3e9e2adb
be6f61bc
3e8b84da
bf1029fc
bf5f4274
bebebd1f
3dbe0116
bea7ab2f
3eaf1dab
3e5a53dc
be5c7e37
3d1ccd60
bd98673e
bd6e41f5
bdff0263
3e0c5517
bdfb3b60
bc481174
3f4c8e40
bee5619c
3d218e65
3eda3ccb
3eeb57e9
bef811b2
be4a9113
3e299889
be2d6b3e
3fbc1255
3eda0bdd
bf0a3cd3
bd8a0559
3de0a434
3cdfecd8
bf851120
3c056175
3dcf2230
bda665fc
3effd8d0
bea61bf9
3e9c4688
3c603578
bdb629e2
3b90c5ae
3e39b694
bea58095
bef34734
3da0e8bd
3d2bc941
be95d742
bca5a966
beb65ebe
beb92c04
be880043
bda026f2
bf071f6e
be4c9e4b
3d28df54
3e85541b
bc2fbd43
