3d1680be
3d880b65
bc4486b0
bda20e62
bc9c4774
bd5737de
3d4aeca6
3da2a4eb
bd93bf24
3ce24608
3d6287de
bb80b4d0
bcc136fa
bd9c3eea
bd5d475a
3d9da993
bd5bdc82
3d5def6a
bd9138f9
bc238b68
3c724550
3c8245ec
bcc42e74
3d53433e
3d1b4b22
3d90918f
bd18044f
bca03e10
bd5e0512
bcc89e20
bca1db9c
bcedc6b6
bb21dca2
bd3dcbde
3d6db772
3c667660
bc493898
bbe01bac
bdb16593
bdc7073a
bdaf9567
bdd7ce1d
3c8b5ddf
bccb8677
bdf0ae2f
bd8a1406
bc0f3a3f
bd4279f2
bddf023a
bda6abab
3cc66392
bd53cfa0
bd99eee8
bd11bfbd
3ccb9750
bc2d85c0
bd91ea67
bd1c7d98
bd0b6793
bda96211
3cc6adc7
bd415559
bd7835ff
bd4918bf
bd3c8e03
bd994e0d
3ecd56bd
3ea7d62f
3e64378e
bf5f863c
bf4dfb26
bfb7a494
bfd76b88
beddc601
bd280826
bee523e2
3b625b6d
be218452
be193cf5
be7a6c94
be8cffc8
bd93534c
bd23db65
bd30e249
bd80c2d6
ba914780
3ee7ea27
3e890203
bb86bbd7
bf3722f9
bf2182f0
be5be1db
be2961f9
3dc69a98
bf1204f0
bf3e5ae3
bf174a13
3ec04c72
3dbc527f
be807d6d
3e45f39a
3eff0071
3f864b70
3f2b6644
3e9b1c50
be6e6a62
3deb204c
3ec697f9
be20964c
3efb7010
3e837d14
3d80d80f
3c3263b0
bd4d2186
3f105d7d
3ebc846a
becce7b9
bf019a1b
bec6a61e
3d83f98f
bf11cecd
bf9b5983
bf9cab4c
bf06b687
beced387
3d8f134f
be77d162
bcbe00d2
be805f91
be6d0c8e
bec1a742
bec4e98c
3dae8b29
3e956f56
3e40288a
3ef9dba3
3ce083c6
3f074f3f
3f8a0ca8
3e179d41
bd9da3e5
3d43335a
3efeccad
3e6808de
bf178ad7
3e0f0de5
3e0b1e40
3eb4e813
3e281374
3e614226
3ec6067e
bdf3a182
bd557d93
3e808d6b
3e3365f4
be41dc58
be7dfc44
3c29e4b6
bedd6e37
be823c46
be9caad4
be29a8ce
be20ee3a
be91fe94
3e5543de
3ef5ac03
3ec603cd
3de0e451
3c346df0
bd687b80
bc520553
be6a5af7
bda67782
3dc10484
3eee1aa0
3ed360c4
3ef26384
3e27c092
bea00274
be61de38
be59e13c
be07fab5
3e02c13c
3d551fd3
3c771e1b
3e981918
3f3aaa8e
3e0708bd
3dcdf181
3c51060b
bedff624
3e82eb43
3d8c290f
3e71bf41
bd5fe9b8
bedbd2f3
3d49ed07
bc9289ab
3d5a5d0c
be54e43b
3e710e44
bf0635d2
be083a95
be0a0f49
3e396143
becedeee
bee06d1c
bef2ef2e
be550dfc
bd461725
3d52ffd4
3ea7aed0
3e880b53
3e67feff
3efd39b5
3eb08c5e
3e722ff6
bc8e3ad5
bef96ee8
3d263a14
bc36fcee
3e130e89
3e8806d7
bed88947
bf9da0c1
bd0bd40c
3e4311a1
3d31c534
3d5ac4a7
3de8930d
3d0c3c70
bf53e0ff
bf1922cc
bf0b7c09
bea94792
befb351c
bf050357
bd916581
3df602ca
3d83be8c
3e213987
bda85d41
3e14a5b3
3e31bbb1
3cfaa8cc
3da8f1d3
be72cd21
beaf9e58
bd9b6e0b
bddb9e88
3eba3077
3ea469f5
bc3e0082
3d6c66a7
3f009a04
3f164103
3ed7497b
3ea30ebc
bd5651b8
bf8e2d97
bf43ec56
3dca07aa
bd0d35e2
be6a053e
be52a013
3edd6fd5
3e57f15d
bda8a94a
bd781cfd
beac2185
be6572f0
3e43464e
3edfb3f2
3ed4f466
3e942f06
bd396256
bea67d22
3e568a78
3e5c052c
3e126d7c
bd34e294
bd913582
be8fd1fc
bf07e2e2
3dcb9140
bf1995d3
bed16ed0
bf1abc03
bf3dd46e
3dfdce1a
3e37c480
3df2c379
3d9c7875
bc90d964
3e0058a1
bdfe68a6
3d627b90
be819d5e
3d30b4de
3dcc507c
3eb157c1
3f09eb2f
3f13f55a
3e7bceee
be6a5840
3ee8c1a6
3e60fb2c
3e940c0f
bd569856
be906814
3e05ee61
bee1d07a
be8e4a16
3cdfddb8
3e156f0f
3df397e2
bc47186b
3e839ae0
3f1b8368
3ecaa759
be719959
be8a5392
bd26599b
bd9e2eb9
3db74271
3ddff6e3
3e8516a3
bda6c180
3cdc3c82
3edad8fc
3f16ea6a
3e900c4f
3e3447d4
3e6c1990
3f42d85f
3ef3348b
bc791bc3
bd42a77f
3ee60015
3dd0143b
3f1cbcdd
3ea5bbc5
3ec5fd23
3dc38eea
bed9d13b
3bee9c22
be0c6d39
be9febfa
bf73f2c1
bf670205
be7b7d1c
3eeb0149
3ea95986
3e9585d7
3e34989b
be99d094
bdfdf6b2
3eaa39c1
3e75119e
3f31be06
3e5e0ce1
bec96fa1
3d151f6f
3ea0e15a
3d1f4cea
be598884
bdeebbd7
be87c094
3eba783d
3c4cbae2
be2fed6f
3c71912d
be0abc6c
be555f64
bedf8d5c
be4bf3c8
be87d582
beea1a70
3ee2864c
3ec950db
bdb8a282
3daaf228
be58f9c9
be83bb12
beaca5c2
3ea0b94b
3edda6e3
3e859483
bec84628
3ee0b8fc
3ea1b6d0
3d703cde
bb9447a0
be0ae157
bde413b3
bf24841a
3ef865aa
bec50d78
3cbfd1d2
bc99a292
be81c3e2
beb1756d
bdbc4b81
be113c1c
bdb995c2
3dd4ab4b
3ef0364a
3d9bd4f0
be622e06
be2cc50b
be9b9f98
bed918f4
bebbc086
3daa7fd3
bdb704f1
bf191cb8
bf825f8a
be4c881c
3e7843bb
bccafdaa
bd97f5a4
bbe63950
bcd7634b
be3c1c40
3e8f9a5f
be95435c
bd0bb65f
bd69266c
3ec0b7c3
3e58b083
3e4380e8
3e0395cf
be55e903
be755eff
3e34451c
3d9e9738
bd6fb577
bda6a8b2
3ecd8451
bf26f55e
bf633dd2
be3b8c3c
bf07513f
bf3eed62
bf2f29d1
3dd9eb21
3e98a38f
3d14b2aa
3d65ee3e
bd0526a8
be06be1b
be91a16e
3dfa381c
3eb8aba4
3ee68db8
bd8352f4
3d14556c
3e843be8
3dca5118
be01c0c1
be061bd0
bd09a0a3
3cb56bcf
be416784
bd9694e8
bda52550
3d2bf07a
bf5a7490
bf9efa11
bf1dcff7
bf157c4f
bf309105
bee0c6ab
3e930b89
bc5f38a4
bbf1fd15
b9fe6700
3d0878d6
3e0dbbf1
baee9cf7
bec19c09
bec9ebcb
bdd09054
3e135d0a
3e3346d8
3d9bffaa
be553e8e
3de1d5bb
bd191fc7
3e31239f
3d0ab89e
bd5ff8cc
be0d5f8a
3e3dbd68
3dcf39e1
bf37df72
bf6aa4c4
bf37897e
bf2699d4
bdff74ab
3eaf0f91
3e914816
bd352950
bc6f0a41
3e1752e0
3d17d544
3ead1b78
bdde2087
bf2fe2cf
be798a90
bef959bd
bd22e13c
3d090e24
be2904f9
3d37689f
3e4de8ef
3d80b355
3e431f93
3e097877
3e9be83d
3df5c38c
3e276493
be9fca4f
bfc6723b
bec98bb8
be3c9295
beba5d8f
beb73fe0
3ee022e6
3e5803da
bbf81147
3cd9e55a
bc6712ea
bdfa2b38
3d65d4f9
bf8af3ca
be27a5f8
bdeeabb0
be197d05
3e69ef25
bba47af4
be1230ea
bd9c1299
3d6b93e8
3e90c542
3b20887c
bcc08f9b
3e4a7dc3
3e078279
3e8293a2
bc5648a8
bfaac305
bfb5de09
bf89747a
bd263a0c
be815072
3d821fdc
bd29dac9
bdbf1068
bbf71668
bc8a7b10
3c90011d
3f00ab97
bf2413f2
be1fa9e1
3e0db3d7
bd32806f
bcf67a94
be3ca4d6
bf1cd00a
be28c164
bd1da1c7
bdd536c3
bdba9802
3d82acb8
3eb96b10
3d89dd9d
3ee001ec
bf5134c0
bf940203
bfad9bc2
bf210857
3d9faf88
3c508aae
3e08a898
3a2bdd07
bd8b0fb0
bd888d72
3d8a2c7f
bcf65078
3e1c8725
be85ff8e
bd53f7ff
be35e968
3ec1dd1a
3e593285
be8e9bf2
be5af1ce
bc1e667d
bdd2a678
be362769
bcd93a5c
3e506158
3e8bce74
be652fc9
3ed4986c
befd270f
bf80af00
bf7fcb20
bf195f50
be46d0b9
bc8127b3
bf0760d8
3e53ef6b
be06a791
bd74d904
bbd8129c
bcfa7ab6
bee27c13
bf1b7052
3e4b97bb
3ed643a8
3e864096
3d2e6266
3df243ca
3ecc9df6
3d3fc730
be64028b
bdab7a26
3e777b02
3d09824a
3d2d671a
be516b5d
bec2f7f4
bf111d18
bf8504c2
bf9d282a
bf575a15
be873930
be58108b
3d8eb3f8
3e45405d
be3bb479
3da3dbff
bd139abe
3d9d59eb
3e48a8ff
bf6ed64b
3e447186
3f02fbd7
3dbd4049
3d8b6e8a
3d97e4de
bddbc2d3
3c05a7b5
3ddb8098
3e04a936
3e02cde0
be406e5c
3d68d043
be6303da
be952381
be7710b6
bf7eafcb
bf1c1391
bf6e8142
bf322da4
be36089b
be836f68
be2f6b0d
be816af8
bcc6a7b0
bd1708e3
3d0dc236
3d7cd21f
bef0366a
3efbd214
3f07b504
3e9158a5
3e2f0e11
3d930670
3d53182e
bc29f87f
3dc01ec1
3e97d166
3d9dbb1e
3e415df2
3f0a2529
3dcdc2b5
3c5ef52d
bf5e563b
bf552e4a
beada392
beecdf67
bf1a4d7b
bf0b6504
bebf083a
be385c08
3b87fa91
bda116f7
3cb29144
3d98a16b
3e9864d4
ba802c94
bf1ceac9
bd8c13dd
bf1e0a56
be280a26
3e25c4bf
3e1d6c10
bc89c8bb
3dd4bc6c
be19abf6
beb5cd89
3e569de1
3d05ae07
3eb919a4
3d66f6fb
bea83c77
beee6f9d
3e8ccedf
3d7444eb
3ea3ff20
3d43f47e
be0b62c2
3d8197fb
bd9dfafa
bd63a0e0
bc617950
3d7107ee
3d376112
3edaab15
3da59051
3de9e155
3c8c8fbd
3f2114d8
3f31922d
3e7e436a
bd9f4e35
3e8e1ce6
3de2c7d5
3e4dcef4
3f2efbf6
3efc93d7
3ed76fa9
3f006a67
3f440398
3f0cbab5
3eedf94d
3ecadad0
3e87dbe4
3dc83788
bd30f44a
bd75f734
bc31b2f0
bcd2a886
bbac0110
3cf78104
bd9ec0fa
3d4fd582
bdec7630
bdb20533
3c910c95
3d63a4ca
3e99c356
3f1aeca0
3ef35828
3ed84f6a
3f39e538
3f3ac939
3f8b2a8f
3f006a92
be86eb08
3e09cd71
3f171cb2
3e7ac84b
3ce1f42d
3d890c41
3d890861
bc3476a0
3c1c9e00
bd6ab08c
bda02ffc
3d88da17
bedf0c7a
