3e0d435a
3dc7237e
3dcc8ce9
be84cfd3
bd14375e
bea5b8b7
3eee0be9
3e977738
3ee2b75e
3ebf32de
becffea3
be9f84b9
bf166240
3d4395c3
bf19e754
bd01cb12
be8a7e0b
bf34b711
3eefbb79
3e0d0e5b
3e568f4a
3dd5796a
bbd63fdc
3ea98a2a
bde6774f
3e4f786f
be8b409f
bf1e89a1
bf53252a
bd925d5d
bf2a5433
3dc69c4b
be67db53
3e899ba6
3e9c2f2b
bf32206d
bf18daff
be617c56
3e71487d
bf5726f7
bf818996
befb503f
3d9a6c91
be5c370f
3e1e1ca5
3e7b0ea4
3e0781d6
be01579f
be276aef
3e7ead5b
be6504b5
bf89910d
beacd9d1
3e7e5f5d
be8e76de
bf0bb105
3eb6f8c1
3e6f17ca
be7b94b0
bf4224d5
3e9bef4e
bec47783
3f0d3c4a
3ea15cbe
bf19c5fd
bf38f57d
3ed353f9
be1d8b9e
3ebc9817
bf0cfc6e
3ecb1a5e
be77f67a
bee72e93
be6ce51d
bd91ac90
bd5d6550
bf10aa0c
3e3f9ce1
bf277635
3dc9dd3d
bf24d5af
3e202220
bedeb233
bf911f8d
3e5dd8b1
bc023e68
bf221296
bef55dba
3d0945b4
3edda03b
3e54b651
bf0c6906
bf935b27
bf03daf6
bd927cce
befdffe9
3e159af5
bea09c5d
bf3a9e37
bbca7799
be185195
be85b3c1
be8c41f2
bdd3c8d1
3c89aae0
bf183da7
bea810f6
bd9b2297
bf1fe72a
3e9d3420
3ce1259e
bdd25763
bdf8eef5
3eb9307d
3d615550
3e34d528
bea597bc
3dfa77be
bf2c4404
bf07d141
3f02dd37
be78d5ef
bf249d99
3d455fa3
3e89979f
3ddea691
3e2854c7
3ce43820
be366752
