bc427064
3e7904b1
3ce25930
3d8e6f04
bf13b358
3d2b60c1
be361055
3e385c8b
be8cf9dc
3bac4242
3d3a1673
3dfd0520
3e452812
bf835485
3f30d827
bbe3ba60
bf391210
3d8a0ff9
3e888710
bef5ffbf
3e4f5d65
bf173a2c
3e880418
bf57a184
bf18b791
bdb32ab1
3d042475
3c9c2864
3e8375a0
bdf3fa96
3dd65ebf
3e6bece0
be254971
be34d38d
3e06cd7a
bee427e8
be0552e9
3dd77e2c
3ee628c8
3d1a6f81
3f0f677d
3db1fc9a
3e980275
3ea2bcaa
bf2957a3
bdf9d680
3ccba8df
bef90db2
bdb0ea14
bf0c9385
be8ca31f
bd9a6de2
3dbf7834
beac19ff
bed0a180
be9177e2
be69f636
bcd3fd23
3f68cdb2
3e645102
be80df42
bc6eb669
3d8701c3
3e17e87a
3dcceb6d
3db2308a
be6f2320
be15f5ad
bf6c2255
3ef15dc0
3eca1480
3e27d10d
3e0550c5
bea15236
be68e214
bf4743ad
bd230925
3e8fd584
3ce16a90
bede2685
beba25ac
3ea00b03
bd83533d
bd8d8d0c
3d5d6d65
3ca6ce8f
bd99752d
bef474e3
3f00eda7
ba8373fc
3e87f481
3f445d22
3e8dcd9f
be98b676
bf41c023
3e0b636c
bdb62a87
bf563a5e
3f63ed89
be2c97fa
3d87998b
3e0217bc
bc11fe46
3dc42bc2
bd8a32a1
be68cbcc
3db19330
3ee8eb6f
3e68b751
3d2b9c2c
3e6d3000
beaeaeac
3dc16f72
3e8897cc
bd2234be
3e64e340
3ea46dc8
be17cc96
bcf039fa
3d57da0d
bd3ceb70
be6beeb6
3db4f1bf
bd63203f
bee6e7e8
befb9ab0
bea2feaf
3eecc84f
beafbf5a
