bd9bd828
3d297b02
3d7e425e
3d92c023
3d195318
bccf8b2a
bcd113b4
3da394ef
3d9c9c2b
bd8e9ea3
bd79d4a0
bd744d78
bd73848c
3cd91602
bd5b4442
bd840948
bd1b5088
3d2fddb8
3d383ae6
3d8f4d95
bd69b09a
3ca86078
3cad700c
bd263439
bc78b688
bd1a35e1
3c004328
bcc189b4
bd959348
3da3ac9d
3c77a4c8
3c39e9f8
3c86d4d8
bd0b5923
3d900f1e
3dbd60f9
bcb75312
3cc9d41b
3e9035a4
3eb02b7f
3f25a3fa
bbb86e33
bef62bdb
3d985ac0
3dd7f6c6
3edd965a
3ee7ebad
3f024028
3ee99626
3ece3da9
3e74f4ba
3e7864e9
3d158876
bd4aad6d
3d5b7a52
bd755df0
3c2fd600
bc820744
3db51077
3e11f66a
3e3361c8
3e2af243
3e1da395
3e1af37f
3e112c10
3e2855aa
be94cd3c
3da54adb
3f73a0f5
3f1b526d
be3c3e1a
be897653
3eb6f37b
3f09c8f4
3f32fd66
3f115e45
3e805ec1
3f57e569
3f495f10
3ef8aab1
3e83fcee
3d03463c
3d52f04a
3d7314ee
3d5162e2
bd89fc6a
bb9c56af
3c360d52
3e37c7e1
3ec4991e
3ece011f
3ed37403
3dc46678
3d127599
bddc1cb5
be19e21b
3df00a20
be2f28c2
be1260f1
be7fd7b4
3dfe2ef1
3ebaa30c
be835de4
3e03aed2
befe044a
bc874baa
bba87d2c
bd8acc4f
3edcfdb9
bdb251f1
be5b0dbc
3d3e4d3a
bd05f375
bda115ca
3be00d43
bda20a4d
3e59c27b
3d48819b
3e929202
bf0083e7
be840941
bf14eedb
bdfa2e65
bd79c374
3e0aea50
beab6440
be9f4726
be1b5fdb
3e715748
3e84deb8
3eb8495a
3effceba
bd30e6f0
bd814427
be62b6fe
bf18aedf
bedfb4b2
be7575f4
bde67df2
3d977905
3d4ae77a
3c8d57dc
3e8db43b
bdc5caa8
3f0ffd90
3f13b9d4
be023976
be4edc4a
beb5166b
bf52cca0
bd5afc9f
3ecbe97c
3e3fdc4f
3ebccce5
3d9675a3
be5c96a9
be2ded8d
bb071b52
3eabc5e0
3eaaec9a
3e6013a8
3cf45c5e
bf07ea67
bf0960c0
be7d7137
3c2df753
3d95bc39
bda3395f
bb894060
3d078125
3d58d0ae
3e12c98f
3e6d2c0e
be9f50ed
beb00301
be324747
bef12cd0
bebc82cc
beb4470b
bdb04f00
bd41ad5d
bd35dc94
3dc6ced0
3ea449df
3d558cc9
3e0f5cdb
3dd12c08
bdd7b27b
be23aad6
3d9a8f62
bd8512df
bdf21652
bea5a1d1
3dffa04d
3e1ed918
bd437e1c
3d6ad87a
be9ef66a
bcf0522a
bd9a32c3
3ecabf9e
3c9e3402
be02d4c5
bf066c4d
bee26cc3
3dd2a848
be2c07fa
bc9c9f82
bdfcf41f
be33c49e
3d851c6e
3ebcbf12
bdfd86d6
be42af89
3e0e8c27
bdf576de
bc571a71
3dd5c58d
3e7191de
be3f994e
be4e8ba6
be8aecff
3eb94d7e
be86f2ed
beb60cf6
3b10bbd4
3dc7d7f9
be8a1dd4
3dafb62b
be4c14fc
bebf3a2b
be9dad0a
3e2cce9e
bd8329df
be1c56b7
3ea53212
3d821bd4
3e23a782
bbbc28ec
be9201d1
be809985
be7f2200
bd16fc51
3e239997
bd84e086
3e3cccae
3d1ff4aa
be44004c
3e852f1e
3e740d98
3e0b1a94
3d642b4b
bd856b0a
be0ca65e
bdc35ad1
bebcd2fd
3e0a4ead
be1f7bef
bee7e568
bdc73a81
3e1a35d0
bdfb1f28
be653326
3e388206
3da76017
3e206cdb
be943139
bddb7b56
bd8e36e3
be712df6
3c59ed0c
3d7cc450
bebb3a0a
be6333c1
be2b2ac1
3e832a7e
3f264361
3e9b457c
bec608a4
bf3b163d
bda7ee23
be2392f2
be19dd80
3c8df95a
3d8dd385
bea0f74b
bda7694d
3d4100b8
3d457326
3e48877c
bce4ae99
3e810b05
3df3147d
3d105f3d
3dc67a28
bea3734e
be1f9504
bea1beb2
be89484c
be7c129e
bf1b50d7
bed5676e
3d55db8c
3f0f8469
3f1d597c
3e3d7c7e
bd4aeed3
bec94269
bd7d5763
bf487913
3ec08a1a
bea08d7f
bcd2083d
3e7aa394
3ed05dd8
3e33fd1e
be65ae78
3de764ee
3e0c8504
3cbb7882
3e28b3e2
3f160837
3e404b50
bebf3602
bf2749f2
bf11ca67
be498186
be424c28
bd12f35e
3e0d47eb
3e87048e
bc284a34
3f135832
3f1e16e7
3f88c991
be4f5db4
3d3f01aa
3d5e2254
3e9a600c
be0f4b6f
3f07f9f1
3edfa544
3efc467d
bec35027
beae6fa7
be4f3a74
beb04771
3ca0079e
bd318cad
3e734c27
bec07d43
bebdc3d5
be586567
bce488c8
3e88ee27
3d989969
3e8b2eb0
3f24303f
3eaf61e7
3dad0be4
3f262ec2
be3cbeb6
be8baefe
bf3f10cd
3d777216
3dfd9acc
3d764e8e
beaac8ef
3e98b26d
3e82e1c1
3e961761
be94eccc
bd59da65
3e588cd5
bc9a4716
bdc86ecc
be6e2a75
bea4f362
bf071ae7
3c7a3161
3e746f7d
3ebb8272
3e9b9b92
3e90d22f
3da8e213
3f1d9971
3eee43cb
3e9a4fbc
be59115c
beda3957
be118d19
3e14a48c
bd2eef52
be1e5348
bea22edf
be51ef16
3edd50c5
3e7ba3b5
3de3610d
bea551b1
bd8656bc
3e545c39
3e7f44e1
3dae8131
bf2c4022
becfde33
bd2c07e6
3e2f21b4
3e402507
3e3dfd1a
3dce3383
3e956386
bdbca66a
3eba9eaa
3e85bcb1
be24b499
beaf7be9
3cfffbf2
bdf19202
3dcb60e0
bc82c5fc
be7564b5
bed52416
3f0b4105
3f3cf001
3ea0b650
be3704ef
bea9bb26
3dcc96b9
3e491c60
3e870d97
be663d46
bf09ece6
3c877272
3ecd2d0f
3f0a125d
3ed673ca
3d233bb9
be938d10
bd9037a6
bc9c4402
3d9aa153
3c9161c0
bd922e4f
bdf6677f
3dcfd1f8
be2a5206
3c96d274
3d8d3573
be021bfb
beefbf4e
3e5585fb
3cbad238
3e9211cd
be725e5f
bf282140
bda83d13
3eb2cfca
3e3eac7a
be15552a
be2dd9c7
bd33a28c
3e9741d2
3ea88a57
3e145646
3ca40dca
bf0c141a
bef9d448
bd85fde8
3dd7ae26
3e0e3e44
3e2cf17a
3b8e523f
3eb5544f
bed8c9bc
3c68882a
3c8a9ff8
be38e8cc
3d1b4993
3f25d2bb
be40e556
be93b1b6
bf03b8a7
be9bd212
3ed8adb8
3ea265c6
3d0b2a39
bd99dd55
3eb7d062
3e8751f5
3c857bf0
3e446c1b
bd9c6e7d
bdec5886
bef65f8d
bf3efedb
bed5b991
be6b9c29
3c082cb7
bd090e2a
3db57a2e
3dbad135
bd8eb168
3d4aa18c
3da7e4bd
bd0c5519
3c9741d4
3f66937d
be87b479
beb85676
3e8bde23
3e1a001d
3e9746e4
3da4c4ac
bea0ae5a
3e249c8f
3ef41e91
3eda4a12
be10a6af
bdff8ae9
bdd9decf
bd1266f2
be9fdcc2
bebab106
be75d228
be4df676
be0220b6
be65696c
3d17b01a
3efc3d3e
bdb120be
3dfd7fee
bcec3e40
be5a45c1
bbddca72
3f42cb47
bea9b95d
3d736c1a
bcb36f65
be271556
3da0defa
3e80fc6f
3edab818
bca7a126
3ddef407
3cf34497
be843afc
be41eaac
bdb889a9
be9e6b76
3d05bbf2
3e759af2
bed32115
bdcd45c7
bd06c214
3e1a4ca8
3e918bf5
3ea8abc0
3eca0474
3d05a218
bd6d03c2
3dd475d3
3c70e444
3efb368c
bf27ad86
3db743ef
be0bdbf2
beba61d8
3d43a701
3ed54d13
3eb10d30
3da0227e
3d427028
be6d401e
bf0e0e15
bdf2c287
be2f2c81
3cbf615e
3d90646d
be84f82c
bee14e75
be20cbc8
3dbb47d1
3e82f655
3ecd4b8d
3f57bcdd
3e5ed14f
3dae5694
39a00aca
3d2c4c96
bc436201
3ee75ab7
bea4dfa8
3dd2e6fa
bd366932
3d0ebf4a
3d1eb027
3ed3b5ec
bd76dc98
bd60d80f
3e34e475
3d5c3ec0
beab9cc2
bcfff3ee
be1e89d4
3e37471e
bdb747cd
be8c53c8
beb8e2f6
beb83328
bca5a4a3
bed81bb5
bec0e427
bedbddbb
bd922139
3c918462
bda899f3
bd6adcfb
3ec88689
3f10357c
3e084858
3e513a78
be1d0938
bd6ce75a
be487a62
bca3ba3c
bb96eb15
beae8546
3de2eac8
3e3efbe2
3e2be921
bde1d5af
be1c265f
be3770df
3d2d3b6c
be32bb79
be8b3976
bedbb469
be74d1a3
bef28e35
bea05390
bf03409e
bed33d9b
3d35f018
bd8446c2
3ce9cf68
bd03a684
3e8d4e2e
bd9b4d2d
bd849332
be658b1e
bd52c8b0
3ebc7e13
3ca07402
3d7abfaa
bc002e77
3da7054f
3ebded93
3da386fa
3db8027d
3e92a4b9
3cfb9440
be31f18b
3d83a2fa
be890dbf
be01770f
3f1ea6dd
3ec62db7
be5544ee
bedcc9f5
bf0c36b7
3d3a0fae
3d552912
bc486758
bd125d96
bd069bbf
bd95b1d3
bf4b1070
bebb5b9a
bf0161e7
be10415d
3ce74fc9
bdc223e6
3d2b4c51
3e23aa8e
3ea7cde8
3dca3a80
3e451cbe
3ea8878d
bca41265
bdf2beed
3d86ff7b
3f34d000
3f4abfe4
3f42467e
3f1a9133
3d8c64ce
3d9e995d
bdee3518
bd8a5889
3c936bd8
bc57dd78
3e9d4be2
beb9d2be
be1495bc
be4fcdf3
bba58ad0
3e63e6fd
bdb38635
be9d9733
bd532c55
3ce2398c
bd268ef4
3e325dc2
3e07a6c9
3e9c0bd6
3f7ba53b
3f33bd2e
3ea588a8
3f4be91f
3f90af45
3f187813
3e4cd6e6
3f0e7314
3e6e3483
3d7e4832
3cdcabcc
bd9cfaaa
bb8240a0
bd1bfe0c
bb941a60
3eb41d01
3f420ace
3ef56457
3d8801ee
be7e8c43
3d6ff228
bd161e2c
3d2eceb1
3bea4d6f
3ea00e24
3efcc4d8
3e88be07
3d44500e
3f28df2e
3e924169
3e5b4228
3f1fe9c8
3f1abcec
3e636e6e
bda9f48e
3edf5367
3e4c5e8a
bda3c493
bd37b799
3d00769e
3d9e2405
3a7ce200
bcfa4900
bd5bf407
be0b85d8
be5c11b2
3e0ea55b
3eafee16
3e4e07ba
3e8d8714
3e261ea7
3ef61597
3f35de6e
3e932231
3df5faa7
bdbe61fc
3ec5dabc
3ea9a87c
3ea552f8
3f3c4ee6
3f2339ad
3e1481d3
be9ca65b
be2b9f1d
bc460330
3b85e660
bd6d6419
3cf6a730
bed1bd13
