3d1b436b
bddfee50
3c0c4967
bebf5050
bcfecf70
3cf1a7a5
3e287ea1
3e8fb41f
be91dad9
3f0b7c84
be6cae90
3e4d419e
3ed12309
3daa72e9
3dda0771
3f1d0ddb
3ec1d7b4
beac564b
3e95a184
3e89288c
3ebb14a2
3cfb918d
3ebbf658
39e3efc2
3d70cd9e
3e3a9740
3e4e58cd
3d9ddaa0
3e949b42
be3e55e9
3f27e620
be811477
3ef01827
