3da4bfd8
bf9fb484
3e8f3d74
3d14f86c
3dc373d2
bdd5918e
bf2dc2d6
bf465719
3e42d56e
bf0e0ac9
bf7cf3ae
bf4d5a2b
beeca745
3e925c5d
3df78d63
3e6d444b
3e7717d8
3ebff767
bde56d8c
be4d2cdc
3e344d24
be79a462
bef674ff
3c9321b2
bcd2351f
3cf060f9
be5838e9
bf0eb86f
3e6c6251
3e8b2ba9
be0bb5cc
bbdbee80
bdab9aa0
bf0b5bff
bd8f6df4
3cbf5f04
3ded5b6d
be8f9a12
bf78d335
bf8fb370
3e89ebaa
bd97beed
3e383b75
bf94f7c9
3ddf51b3
3cbbd34a
3d74774e
bf8e581d
3e678350
bf2419b3
bf30af6c
bbc33df6
beaa87b3
3e117276
3bcf2d49
3e31258e
3d931326
3e01b907
3e4105ce
399e05b0
bf884632
3e53550b
be4b17af
beddf7d2
bdac02ac
3e241c2e
be85baef
3e41d4c4
beb626b9
be7b9558
bf6078e5
3e23c177
3a616afa
3ea41f6b
be23cfdc
3e87bb7a
3e4abfe4
bf577811
3e361a22
3bc079af
bf3ef8be
bebc26ee
3ed07212
3efbee41
bed297cd
3d83bff0
bf28ccad
3da483a8
be220187
3dc490f8
3a89ebd4
3e35300c
3eaa2aca
3cee520f
3e7d1efc
beed48a5
3c85e452
be99d708
3e93b0a6
3ec21b40
be99379a
3ebd2d4d
bd31c599
3e4ce680
bed215fd
3e844741
3e81c8ae
bdbe0e37
bf3816d6
bf33851d
3d9677c2
be90bccb
3d7a8d49
3db588c1
3dcc1b5a
3dbe704c
be58d285
3e5bcc8e
3dfaf492
bad592b1
bd365993
bf514c91
bf7707cb
be6adee8
bd1cd0bd
3d64909f
bde85a20
bf99f244
3e83e473
