3e0dedfb
be1ef681
3d6172ce
3f2495d4
3f359a54
3eac524b
bdb1e757
3e6d51f7
bd175a87
3e96744e
bed2d212
bdef6e08
bf0bd63d
3e809dcb
3cfe643d
3d4479da
3e5d0911
3da74bf0
bd8d0f6b
bed6dec9
3cb7f75a
bf0bc863
be01946a
3ecbca2e
3e15bb7b
3eb81e2d
3e170e3b
bec96355
3d966053
3e407092
3efa7d92
3dc708e8
be6452f4
bedf4f80
bf02cffb
3dc5ab0b
3e9b7d79
bcc13cdd
3ea48aa0
3e9e1189
3ecaf64c
3e1842db
3e80b2dd
bed42a5c
bebdc018
3e02d432
bf68f6f3
bf04e448
bdfe247e
3df2598a
be5a24f5
3e13a9db
3e41d3d1
bda06242
3e98b4f0
bdb03005
bd959786
bf449494
be9a6239
bc6e96b3
3e9c678a
3d6f48a3
3ea5eb7e
3e295446
3daf0d0b
