bb877b70
3d91adc1
bc6d1368
bd64d808
3c11cbc0
bbd00030
bc92fee8
3d5ec5f2
bbc6b8f0
bd50e239
3d9a4849
3d1b4a78
3d799e66
bd8a76cf
3cc1b0b8
bcbcacdc
bd5cb6e0
bd0227bb
bd5167d5
bd19e51d
3cfe3230
bcddd7fa
bd8c6480
bd6e7804
bda073f9
3d9fd53d
bc546428
bd141946
3d14ed94
3d469076
3d049e4a
bc7ddb70
bd6f0559
3d866fa1
3c9f2833
3c9c58f7
3c5747dd
3d44d121
3d97e180
3e8697e9
3e2b14bc
bdd49705
3d9e97bd
3e8ccfa4
3c44a945
3df18484
3d2527f2
bd7e87b1
b94b3e3a
3d393d39
3e10a146
bd118ff7
bd23af65
3cd10990
3d07026e
bd18d57e
3d9af2c5
3d6f148e
3d06e04e
3c8a8dad
3d298eae
3dd66617
3e841173
3d929f22
3ec30161
3ea06dc6
3e5a9324
3ec4178f
3ebf6b28
3d282c6b
3ea8177d
3e1ec5b0
bd4e3fc5
bcf3de7d
3d2f04d8
3e8696d9
3b9ce5d6
3d9f0e36
3df1c7f8
3daa55cf
bd48189f
bda2eefd
bd88c951
3c8d16f8
3d37aa9e
bd14ec91
bd992f72
3ca0b467
3e830b9a
3eca5f01
3f31dfec
3ef1a37e
3ee434dc
3f2f755f
3e48aecc
bcfc91a4
bd54f13c
bd8fcd30
be2cc1c0
3e4e7c8e
be81aae2
bf1259e6
bf6e5b66
bf10775a
bec3a7ab
bf0c7465
bd2d94a8
be221f40
bd4f1307
3d4c30de
3d3601b2
bc883734
3a8df300
3b0ae350
bcdc6646
bd9f7ef3
3eac4efa
3f8156bb
3f0a2992
3e031489
3e3ce555
be08397f
3b9eaf28
be20b6fd
bee7c7fb
bf0a00a4
be973c17
be3ca0b1
bec1a278
bd644c40
bd38fd3b
bfac27c1
bfbdd71b
bf871bb4
bf6626ad
bf309dba
bf27211a
bda001b0
3cf31049
bd9361a9
3d226508
bcbffc1a
bd53d441
3f0ec5bb
3f60fe1d
3ef29fa0
be3e7fd8
be92772f
3e5be3f7
bd39b4c9
be430888
bdcbd560
3e3bc7cc
3e91ca5b
bd53b6e7
be233336
3e1c0585
3dec1e4b
bea3b90d
bec61c11
bea42603
3e87fd6e
3d239b76
bf20ff17
be303e22
3f047536
3f14b7f5
bd4d17b6
b9bae600
3d70f253
bea52bb9
3f730733
3f08420f
3e74ea5d
be1903f6
3e67c7bf
3df92d85
3e87b1f5
3ef2d9ee
3e0d1829
3eb29f42
bd7e0d86
3e8178b4
3efcf942
3edb26dc
3dd58bbd
3d8776e1
be2c39fe
beed022f
bdf9ac1a
be603f2e
bf16d846
be888168
3ee0ff14
3e9d13c8
bd1d0142
bc9731ea
3df34c4a
be601175
3f410b14
3eb5fa2d
bd7456e5
3e9045ae
3edd77b2
3e5d18ad
3eef9f3c
3d94a7d6
3d8dcee1
3eaca3f9
3ed36a1a
3e4df6c0
3eb04893
3e3c2368
be6a951c
bd04ef78
3e2a08f7
be67b725
3e9a166a
be7a1741
bf0e9997
bf43ac86
3d8536fc
be5f1f6e
bda388e0
bf5defb1
3e145208
be22d8ba
3d48d7bb
bd12315a
be1283d7
3de31a6b
3dad30cf
3f14ed1f
3e1210c2
3dcff372
be8af5a7
3e272d3c
3dfc98df
3ea49817
3b2c633b
bd786b1b
be6f01e4
3e0b7013
3ec00d48
be87c561
3d171751
3dcf60d1
bf237fed
bf23bf48
be6f5f1a
be4cf05d
3a926090
bb05f102
3e242618
bebe06f4
beae4126
be6579d9
bd8cbddb
be89111e
3def7526
3e84735c
be4874b9
3de7c1cf
be28e891
bdc1ec36
3d23e1c1
be29ef7a
be253c06
be6db7e4
bd3cb2e9
bdda716d
be2c593a
bec77703
be8b05b9
bf035587
bf61a007
be821af2
bf43a684
3ed1bb39
bde7ab3b
3da71d66
3e0eaf23
3d601650
bf09fc65
bd22099f
3e0658ce
3d91ac68
3e642f6c
bd7735af
be81fbe3
3cf181ce
bd84cb49
bf08133f
be8b3e3b
bf375d0c
be90a822
be19c24b
be9057b0
be25225a
be64a84b
bf0b695f
be6a55f2
bf3360a1
bf1b85da
bd68f6c5
be099721
3ec60245
bb9f4ddc
bce5eb19
befb0e3f
3c15249b
3e4ce08f
3e995ce1
3d86c17a
be3663d7
bdc08acb
bead5d84
bc933d80
bd9d50fa
bd663bd5
be18cc45
bec245d5
bf165d05
be1907c9
be944f07
3d9ddcf0
bd123d55
be0bf053
be846b07
bdfe5829
3c9059ab
3e8777e8
3f3cd7a8
3ec73ff1
3ee98149
bbb001d5
bd32855b
3a6b19bd
bee4146d
3e9889c3
3e799dd5
bde47d08
bec2773f
bd95927a
bde638b3
beb4a807
be8d16ac
be1bae78
be0ccfb7
bf2d2bb3
bea91ab3
bdda759b
3d80f3ee
3db6fa68
3d737347
3d06912e
be0fbda9
3e07b921
3e0494ca
3dae6b50
3ef60dff
3ea97f5b
bdc678f1
3d918046
3d3f837c
3e447fdf
bdc3c796
3f0be65d
3e204348
bdc6f092
3cb2665e
bdafd201
bde6e11e
be6a349a
bd6b3114
bc38d984
beb8cf5d
beb68bbb
be8e62bc
be0f400d
bbb3c3e1
3e827899
3e3b79cd
3f2ee3c5
be03bedf
3ea6dbb3
bd568f3d
bd8ffd5e
bc958e1b
bcca3e5a
bdd669ee
bd154c4c
bdc1a504
bce75e2c
3d15c58d
3e8c2e2d
bd852844
3c828860
3df13473
bd1a13a1
3caf8936
bd5c7d40
3e5dade8
bd9109aa
bed6506c
bbae97d8
be2ea8c9
bda489ac
3dff2375
3de2bed7
3ed5592b
3eac3212
3d83b58b
3e47e4c7
3e3be02e
3e27239f
be4e2f24
3e6a3ffa
3de0c18f
3d8143aa
bd85e7ff
bdb20f59
be8b193b
bebe531a
be2653cf
bdf25240
3e237712
3cc3e404
bea2bf93
be3d2ce0
be7c67c1
bf08b8ac
bf65ca22
be08db23
3cd6c3c0
3e955aae
3eb01739
3e68dd98
3e90d0a4
bd5567e6
3dc94094
3db48c0a
bd74e529
be67bd8e
3e5cbe05
3dab88e7
bdb10f25
3e852d0a
3d1239b4
3c915298
be20f3de
be660464
3da1f9ed
beafa30f
3e631214
bdadce18
be0b3e25
bd872f52
be872434
bf1fec2e
bf3af0da
3e6fbfcb
3f0ce9e7
3e3a485c
3ea79ec4
3e30cefb
3ea492d6
3e1753c5
3daecf91
bcf20b90
bdb6f07e
3d26d349
bb72b92c
3c034773
bd907ecd
3e5a4fe7
3d254866
3c50b58d
bd57c904
bdd26128
be50ecc9
3db5f471
3e2635ba
bf339628
be26f79d
be4622c2
beda78ba
bf41084c
bf28dd7b
3e841db8
3f21e3ed
3eda1367
3df4ceda
3e18eb32
3d2e4be4
bc8412f3
3d528f2c
be3f523d
bec3363f
3c31a13a
3f1a45ad
3f0d97db
be280ed7
3d7423e2
3dd53a96
3d00b71a
be5ea296
be5785d0
be2cd97b
3e0016f3
3d181169
bf270f88
bf68f63a
bf21b2b0
be9df355
bdf05638
3d6aef2e
3ee20df3
3eb7bdea
3dddb039
3e3a1ffa
3eb4e6ce
3d33b520
bda8e4ad
3d81ffbc
be162ba5
be3e02e1
be5817c3
3e8b62ff
3e4344b6
bdea9585
bb41a7b5
3d13106e
3d2b5eeb
beab8f48
beaefc12
be3146c9
bd042a1f
be33b95d
be87f70b
be48c293
be5d53bf
3c4f1867
3e95ee09
3ec259f4
3e76c5f2
3e26860e
3dd844dd
3d96a8ab
3d1f870d
bdf41fcc
3eb2bd7b
bd7d84ac
be3822d5
bec3444a
bdb79363
be389137
be826366
3cf29207
3d2fa1c0
3d251dc6
3dbe12b6
befa750a
be4713f6
beb91004
3e2be15b
3dc41fa4
3ea8d4ab
be2b9a03
bee0306b
bdd58149
3e847b30
3f30742d
3dad2bfc
3d65d4c2
3dc3534d
bc42a5f9
bdfd2974
be235520
be363146
be585949
be515c31
bf121e19
be91c827
bdc6a0d5
becedf33
3e45dcb8
bd98f26c
3da3ac54
3b9b1032
bf057ca0
bef55166
bf589e65
bdb546d8
bee69f8b
bf2cc681
be00cb8c
be9195ac
bdd77f79
3e81bf52
3e58c6b4
bbb3b678
bc1ab81c
bcc88004
3e42352a
3e4313b9
be2540f0
beb23ac4
bee951c3
beb1d270
be926e00
3caca059
3ea51a68
bede0629
bf8ee7ed
bd063ea6
3d20ad1d
3d1f839c
beb22829
bef4fe0e
bf00d410
bf7bd097
befd204f
bd82888b
3e03e203
be46f15c
befcf4a9
bed11d4f
be18dffb
be3b0e1b
bcb1fa07
bd6b83ab
3da837fb
3e31a59e
3d6c661e
be737b40
3d695c5e
be83ff75
beb63018
3df0a8aa
3f521c48
beba9601
bf9780d7
3d640ff6
3ca71f44
bd693123
be04cabc
bf109698
bf4c18dd
bee6e2e1
3e23748b
bdc093b2
3e062fb5
bd857381
bf14d163
bdb03c18
be4e8545
bd736882
3db2874f
be15fbe4
3e06ed8b
3d60e5b4
3d70cffe
3eb238a5
3f0dbe39
be495492
3e629ebb
3ec04abb
3e10170b
bf02e1e3
bf6739ed
3ca24af0
bafb7a00
bd37d1bc
3e710550
bdbe6819
bea958cf
beccdb9b
3e427f92
be039fa8
bd09f65f
bf52f479
bf4149c3
bd97e58f
be1abca3
be2c9b36
3d7a9169
3db43e50
bf05aaa3
be3118f5
3ea6d804
3ec48885
bda124cd
bd5fa9d1
3e127e6b
3e44e15f
3f1b4123
3e9352ff
3bab74d0
3d847875
3d141394
bc9137e0
becc37f9
3e5e7500
3e278a3f
3e84a635
3ea9c8b3
3e96704a
3e15a8ba
bc1b44f1
bec76a98
3cfb0527
3e04c68e
be195a90
3e9417f2
3df83997
be7ca75b
be8939d2
be384198
bdec7cc9
be941f76
beba471b
bf02ef79
be7d5ce3
3ee9cc09
bddec739
3d9ee895
bd52c9e1
3c9d4c04
bd9e71e7
bd2b5395
3cd22cd5
bdc4e1d3
3d33a218
3d16ee9d
3e808666
3eeca9d6
3ed9867d
3e562ca2
3db9f0fd
be38e527
3ec3eb6e
3eb63b96
3e8480c4
3ecf4d78
3f1df691
3f169735
3e7b1418
3d8de3eb
bf1b59be
be3b3b23
be3ecb3b
bdfaa7ba
3d7792f9
bd071d9f
3c1b27a8
3d5c8c32
bd1d5c4d
3d20835a
3bcefca0
bc3481a5
3d8b4e07
3e62ba2c
3e5a805d
3e1a3cef
3e9703b7
3f3d53e0
3ec38a35
3db44c80
3e2583a1
3e34ec51
3eb46d72
3efef809
3f30edbf
3ee45fa1
bd832423
bdd80a39
bd81add0
bcff9506
bd1c4b28
bda1ff3c
3d1a7254
3d936665
bd540ce2
be2401fa
