bc3ba360
3d2aaa4e
bd0d7059
3d4a7d6e
bd1c7ac6
3d4ef076
bcf2f692
3d163422
3cfcaf34
bd69926e
bd2527e9
bd729e1e
3e28e751
3dc510e5
bd23d146
3bb0c279
bd876cdb
bd106e3c
bd17b2ef
3cda0664
bd878d07
3cb5ca20
bbe1f800
bb876460
bd6c12ec
3d19258c
3cd027ac
bccf901c
bd0f3d52
3cb332e0
bd9c67d8
bda580bc
3d7455a7
bc034dbf
3e65f95e
3e82c731
3e7fa4fc
3ebf5e02
3ed536f1
3ea8766b
3f291f0f
3f4d283a
bd6f60b8
be7170f5
be833648
3d91fea4
3eb13bd4
3e94441c
3f055c3c
3edf5e7e
3ee22ea8
3ec301ee
bcfc57b0
bb785a20
bd8f064e
b98b9200
3cd930e8
3d85ec69
3dcef1d6
3de83041
3eba58c8
3ea155de
3e7a1c43
3ed55bcb
be649bb8
beac3c4c
3ce6a494
3f85442d
3e1c6504
3ea60138
3ee7f374
3efe7825
3e9b77d7
3e89d3c4
3f0e411e
3f004bf2
3e122723
3e97572a
3ee49344
3f0f9bb5
3c95d300
3d251596
bc9e425a
3c95e390
bda4f8a2
bcdba0c4
3b8e2d00
3f2acb6f
3f8012b3
3d6d2f46
3f01fd45
3f14ec44
3d8b5889
3da4ecd3
be537a8b
3df21fcf
be493281
3ef70493
3e89c16d
3cded2d2
be69f2ca
3dc30520
3efc1065
3eb169f7
3dcf55c8
3ed21ad7
be992d57
be844acb
3f191ab4
3ce79c80
bd239b86
bd602b3a
3d559d6e
3c2b5ab0
bd7e4d03
3f2200a2
be9dba25
be0c7d71
3e907535
3bc046a0
be8a7589
bdb8f568
bc126e09
bdb0f155
bec160a3
bbb50514
3eaa3d21
3d209658
bb5aa1b3
bdccfe92
3df0402f
3e79af7d
bc215e34
3f1b8400
3ecb896c
3e62fbe8
3d9daae8
bdc778f1
3dcfd5ac
bd90260f
3d0bc552
bb7f75a0
bc46e28b
3f3a930f
bec7932f
3e3e7cde
3dae092b
bdbd0be2
bcd07f01
3d7eb134
3e94c85f
bad893b6
bbddf754
3e250e0b
3cd642a8
be00e214
3e358988
3f0a53ef
3ecc8180
3da49b95
3effad89
3e17601f
3f13eaa4
3ea7eb9a
be0e86da
bf63fde1
3d8eb3d0
bd51b7d3
3a704a80
bd529a9d
bd38ce8c
be921996
bd7851fd
bd43d0e2
3d787edf
bd66d06d
3e44d3b6
be8074f3
be048fb0
3e30a569
3d1a6bff
bdd5f176
3e0bce0b
3dffc15a
3edf337f
3ef0397e
3ecfcf9b
3e4b7d9f
3e927630
bd112e31
bf0759ef
bec821ba
be3e9667
bf303b01
3f17551b
3f18b940
bd10af97
bd052b4f
be0df8d3
bead4ee4
bf4036bd
bc4f4878
be229632
bebc1701
be821079
bda91cdc
3e9229bb
bd01c5ac
39aeae16
3d80f486
3e58ed06
bd93679b
3e4ec24c
bde9c719
be940808
bec67a1c
bf456e92
bf989c81
bfcc70c6
bfb1adf2
be33fe26
bea35405
3eef6f04
3f16d986
bd5db9e7
bcf40275
beae296a
beeb663b
bf511831
3e96c51c
3e981c61
be5d0c98
bdd48d84
bc328d27
be0ff046
be0b7b88
3e110285
bd57ff47
beefa4fe
bf7e1989
bfaae88e
bf83ca6a
bfd770e2
c00504f6
c002db0c
bfc8d59b
bfa2b6b5
bf5e1b6b
bedaef3b
bf089970
3e6c1b1f
bdc26513
bd9bba6c
bd488146
be96aa51
bd3ed03a
bf256750
bedae485
3e04c815
3ca9fe5f
bd00c9a0
bdd22fbd
bea0d76f
bd407164
be28e4de
bef38b0c
bee8770c
bf33ce8d
bf9775f6
bf2dd390
bf7a7aeb
bfa1bd7e
bf0e3d63
bf8c7b79
bf523b57
bf08948d
bea65128
be327ed9
3e3836a8
3dd35feb
bdb475df
bd87f367
bdfd5f03
3bd35f0a
bf17564d
be703323
3db671a8
be3fcc30
3e07290e
bd981785
be4587a7
be5ae5d4
bc5250a1
3c4d67ae
bcffb03a
be293bb2
3e8da154
3e500148
3e958218
3efa72f9
3cca3962
3e662c22
beca2028
be848f45
be836e43
be4e72df
3e858215
3e5daf48
bd42b6f3
bd924ea6
be67e2be
bf10fbbe
bf44e7a0
bea440cf
3d09c0e6
3e540967
3e57cf80
3d672bb0
3dec2ab0
3ea6ef50
3de9eb25
3e72569d
3e2945c2
bd6bd489
3e9c1a85
3ec9be6c
3ec0d199
3e50c43f
3e06ca3c
3e49f9e1
3e309a30
3d52a97a
3ebd9fc8
be8ed102
3e3eab18
3efbfa4b
bb999e60
bdc30d5b
bee80984
be1db48b
bf590410
becc56a0
3d2c3a76
3e892046
3e663b2c
bd77402c
bdd25298
3eba9dda
bdf82acf
be10e115
3d863e45
3debf070
3eacea2c
3e7cc88a
3e94ed1f
be522fbd
3e4744af
3dbf404c
3e2a1c7d
3d4980de
be43cbd0
be57c084
3efb41ba
3ea063b9
3d4a4402
bcb73d6a
bef98e9c
bd652cdf
bf11da28
bec28630
3c571534
3e637d79
bce95d5e
3b8585d2
3e0fd325
3e6f8018
bd94da92
bd972cb4
bdd282d0
3d934f3b
3bf5c1bf
bc573125
bd9ad8eb
be3fadfb
bd6c4a74
be16154a
3d1e3453
3e8090f9
3f03598c
bcebd49c
beae7d3c
3e16b237
3e0a5af1
bdab468b
be178c34
3e574995
3e999fb5
bee9bd11
3d7f5deb
3e10888a
bce694bf
3ddc6016
3eb244d0
3eaa3b68
be6b1b41
bd862117
be028653
ba29238b
3bffadb0
bdc08ba1
3d12f913
beec6930
3e0fa577
3e2725aa
3e8f53a6
be53b6cf
bd8b3383
3f0e8628
bf1e8d2e
bdcdef93
3dfae32d
bd0fe178
bd069ca6
3ebc2c84
bd849f98
be0452d2
3c020b66
be405e27
be472eff
be2a56af
3cf8f413
3e34c43f
3bc230e6
bb02d052
bc5a509b
bdeafb3b
bca7a0e6
3e86d697
3dfc1f98
3d78bf67
3e81142d
3e7539d9
bdd57c63
be988798
bb80486e
3f4b7d7b
bf4a117c
be816145
3cb26d2e
bd1fbfdf
be06f9d0
3e8c37b4
befdf068
3de00889
3d2c817b
3cda8aa7
be8164af
beae55da
be1f773e
3d8fbe89
3e01a0c6
3e44ac83
3e387028
bd85969a
bd6fe280
bcc1b89b
3d8b27a4
3d1e02b1
3e9b4f52
3cc5b3c6
bdac99ac
be372a1e
bceffabf
3f3f16ff
bf0a5d46
bf13d619
bcdfcbb2
bd1c7ab1
bf02d4bb
be49a893
bc0be724
3d85531e
3e2f3755
bda01127
3cbf3a1a
bea413e3
be415e09
3e191922
bd31b504
3e8784cf
bdfb11ac
bcac8204
be04a084
be5ecec1
3e675bf2
be19b63a
3e7f8698
3e3bfd18
be34e03f
3b88c54e
bdde8f4b
3e5a5bc8
bf30ef73
bf0ac47b
bc6346da
3d222eca
beb32263
be852e0a
3e39a887
3ee708b9
3ddaab73
3cb169eb
be3af0f3
bd8d1227
bc4a230a
be516cca
bd4d71c8
3d8dd2b3
3ecf4e95
3e0c8455
3e711735
3d4b4429
3e92d10b
bdb2de8c
be7050b9
3b1b384c
bea7413b
bc9797d8
3e481b96
3ed2097b
bebbdc24
bd956292
3ce1a19c
3e0721a4
3e4a2f6a
3ce3041f
3f1c29fc
3df8a916
bd20e8fc
bdc1de11
3e2be45d
bcd49d84
3e2b89a7
3e049edb
3dd8cd67
3e1cbd25
bc32ab08
3e41f2ed
3e369591
bd9c22d3
bde89b37
beca57fa
be591a54
bd548b36
bdaef821
be717972
3e3c0abf
3ef3d09f
beb89fb2
bda95428
3d77ffe2
3d38b3e3
3ea452ba
3e9a0595
3f5a5d08
3dcabfa2
3e174e46
be730638
3d1f948b
3ece81a5
3e479644
bc8f738b
be78b753
be0f6042
be553f46
3ec34ea6
be1b507d
bd9e1e4f
be015d14
3d72aa40
be35e249
3dfeb3be
3eba7d4a
be3bb824
be0462bb
3f0bf72a
beccfd4d
bc9d596a
3cb30b2c
be15facf
bdd8f143
3df2b31b
be5137d9
3c88d2cb
bd27d39d
3e45faea
be3f8e4d
3dcf6321
3e332604
3e3015c4
3c1bd974
b90b0b85
3e094b00
3e1a51b6
be2542a5
3c47fdc8
3d39df9d
bea28af8
3ea825df
3e841066
3ac5afe9
be1037d7
3dbbd1d4
3f1544f7
3e9dfb65
ba9888c0
3d928f3d
3d3c6a7a
bdeb52f1
3e9f2190
3d816ab1
be5a6541
bf232f77
bd2984e2
3b1a75b4
bd9ad057
bc5c3314
3d8294f9
be69f8a9
bd09a6a3
3d6bf6f5
3e1338a0
be59c96f
be600bf8
bc994d7e
3cdbdc2d
bd1ebddc
bf0527e9
be5b7afa
3d8ea7f4
bc540ca7
3e5ddd50
3f50b0fb
3cdd98b4
bd4c37f3
3d380e76
bbde06bc
3d69cf27
3eabfd8f
3d9079b4
be28cdbc
3d371c1e
3ecceb38
3e77c000
3e5d08df
be974876
be7a50e9
bda194aa
3e70b41d
3e138de2
3ce0e6fa
be894591
bd55b150
bdfc6855
3e2243e3
be9ad8c5
3ea7dccf
3f09225c
3da62675
3ebf7e48
3f498a6d
bae5bfc0
bce0cbc4
bd6621ee
bb1d07cb
bd490d7d
3ea65ed1
3e9fd5d1
3f01497a
bcd0148d
3ede6dfc
3f655386
3f03b9e5
beb52094
be81ab06
be715cf8
3b1d0ff1
3dcd3086
3e5764af
3cff772c
bde716ff
be92ad94
3eac9dbd
bec582dc
befa0c99
3dc249cf
3e685dca
bd6f35e0
3c459927
3d6fa552
bd9a4a4d
3d0219dc
bcd8ee70
3c00c23d
bc6c29a9
3e7d7383
3f25c627
3f3c278f
3f145afb
3ef94e83
be0b4782
3e0455d3
3efb82bc
3e611843
3f0ae163
3f22b880
3f2aa514
3eab4880
3f1264cb
3f063b31
3ecb4a1d
be9daa52
be0676cc
3e32d4bc
3e7539cc
3dba5a92
bd7ee0d2
bd2b2ec2
3cb2a5e0
3c813d80
3cd82aac
bd9d94b2
bc96364c
bd810363
3da05286
bd532821
bdf79014
beb7e493
bcecbad1
bda25416
be604c85
bd93ec9d
3f694de6
3fb7b5fe
3f48756d
3f41e020
3f5d8933
3f098fa3
3e8401e9
bd6c519b
bc682518
3eb28c40
3d8cefef
bd427579
3d5bad76
3da18b9b
3caf4f28
3c548d70
3bde1e80
bd041a2d
bc4d1368
3d9e9525
bd892797
bd555e58
bd4300a8
bea4d131
be8ca089
beb82921
bf0dbe7b
bdda2e20
bf359248
3ec1573f
3f43fba7
3cb9c03c
be7e271e
bd5eadb3
be878d17
be9f023f
be9f6200
3d0b6df6
3d0c4826
bcc5494a
bcabd168
bbd251c0
be020433
