3a629500
3cb06030
3ab7ce80
3d892671
bd424683
3cbed648
bd493ed8
3cbe13dc
bcd4e726
3bc80e70
3d9255a3
3b0a0b40
bd5ab711
bd890761
bd2299b6
baee70c0
bc353268
bd097a29
3c317728
3d26883c
3d333a66
bd345190
3d579dce
3cf0512c
bd901256
3da2300b
3d2b7740
3d699d66
bd867b88
bd31fdaf
bcb92450
bcbd069c
3d1d0004
3d9f794d
bd370d4e
bd1940a1
bdee59ec
bdceb65d
bd301067
bd8d3a16
bd31b7ec
be924a42
bddab4ff
3d5033fa
3db7ceee
bd865725
3df172f4
3e9b617a
3e6606be
3dbf340a
bcf54144
bd5e8c1a
bda34985
bd9b615c
bc30e748
bcc144ce
bd4e7626
bd12df75
bb8cb8b0
3d4baa2e
bc061e7f
3adb9914
3d334658
3dbd9742
3e663d81
be9e96b6
bd13b50b
be025886
be25a4fa
be968d07
bd9fa56f
be7e5f86
3d27e725
3f19a48f
3ed17d71
3f35e97c
3e973cc6
3e4a87dd
3ebebd53
3e98de12
3e18c77c
3db123ca
3d391a7a
bd22157b
3d04a1bc
bc72a280
be22d435
be6b0079
3d23af38
3e6cabb8
3e466012
3f444dfb
3ecb8828
be8dd1da
bed02d9b
bf16c2ef
bf8b6d35
bf4bec90
bebdb489
3d0849b7
bc7367a6
bd43267c
be3bfddb
3da7eec9
3e8e5ee7
3eb1ed56
3eef196c
3eccaf57
3eb71c7a
3eb15261
3e81c399
bc888298
3d1b8e66
3d3ce74e
be410f7b
be8d7bb7
3e631d17
3eea49ff
3f3878dc
3ef040e8
be58fa3f
3d9313d1
beeab66a
be90598b
bfa331ac
be93c931
bc130e3a
bec26caf
be9dbb5e
3e5afafe
3d92adc8
3e0f5cd4
bd9c7c30
be2d9818
be6e599f
3ec7b904
3e55e405
3f21c1b0
3f1d314a
3ed76fdf
3ad45f80
bd79a01b
be580138
bd37151c
3ea1a78c
3e8b0223
3e5fac76
be458c4d
bf864d00
bf5588f6
bfa3ef7e
bf92ed6c
bf420002
bdd21fb3
bb9ed296
bd5a3f13
bd0c367a
3e106dc3
be300189
bcbb88f0
3e098c2c
bb61dd45
3dba9643
3eda79f2
bda841ca
3e4436ea
3f2790c6
3f16a29c
bd427d4d
be1ca88c
be4ba270
3dea8e1a
3e029718
3f2e8c2b
3ef5b607
3e9e56eb
bdc2cb61
bfb00400
bfb83ea8
bf3447b5
bd8173ca
3e840263
3e805605
bdf56b20
bd450b1b
3dba6772
be11ff26
be32c036
3e74e038
bdc95c56
3dc186d4
3e56a2b4
3e03ddee
3d639644
3f30adb0
3eba773c
bd20d47c
be27d65f
bdaab889
3e958b7e
3cb5bf18
3f3fa975
3e0c125f
bd1875e4
3e84a1bf
bf5d4469
bfde4b2e
bf58961a
3e7634b4
3ec02c67
3e4e32cd
be05c3e0
be8447d0
bc21f75c
3c78b2b2
bd71169a
be425c7f
3dde32bf
3ec0aa27
3e8538ee
3d95e92a
bf008006
3f862072
3e3e4df2
3c3a55b0
bed6453f
3e1d739f
3e0314a2
3f2749fc
3ef028f5
3e6ed9a5
be88d890
3e8d59bd
bf652469
bf92db5e
bf60cb6a
bd807657
3f10af62
3e87192f
bd9f3516
be913c69
bd559dec
bcf7df31
beabdf91
be0ddb51
3e59bab5
3e029406
3e127ae2
3e94e181
bc366391
3f49c29e
3ec01889
3d58c2ca
be311231
bdb2517f
3d06e77e
3f053c86
3edb55d7
bd9d1600
3dd5540e
3e90d86e
bf79797c
bf82b101
bf24b626
bec31f51
3ee89cbf
3e9728da
3e4d23d4
3e789031
3e23b492
3cd44f3a
bd004382
beb49539
3d89e502
3e08dee3
3ec967cd
3f2c5ca3
3f0194d5
3ea155a7
be839399
3d954d03
bd918ce2
3d486dcd
bec63857
3eb26503
3e9e950f
3e3b2377
3ef15d3b
bec19e51
bf48a194
bf154fc8
be97750a
bd1beecd
3e98ddaa
3ddd5f16
3e5b5a6a
be55f624
bce338c6
393a7b3f
be16771b
bf304fb5
be6ecc43
3dd9b239
3ebc122a
3f3b75ba
3eeab8e4
3dfd2f07
bede04c3
3d800c07
bc556916
be409e42
3c099502
3ece3453
3f009473
3eff96ee
3e1e94e3
bf26b425
bef54fb0
be8d5805
befad065
bddbcf09
3cafe442
3d7a6d14
3da002ae
be5ae9bb
bef6abf7
beac1e70
bf07abd4
bf155744
be9ce570
bec0b615
3e78f3cc
3ed3a3d6
3ec020b5
3ee88359
3e03a117
bd214494
bd6255aa
be268d67
3de479f1
3eaf03d7
3ef24f50
3f0c870a
3dc6186a
bef2bf1d
bef1fdf2
be36c633
3aa8e46b
3b6a4708
3ddeb35a
3e9f29c9
bda2d225
be0a74cb
beda196f
beeb0ce0
be91402d
3d9f4f37
bf514296
bf7a5cbb
bf4eb0d2
bed13d07
bd3c4d9b
be58749a
3d9218c1
bd2decc5
bd1a5352
be83fec5
3e3247cf
3e32bc18
3ceebe24
3e3d0deb
3e239e1d
3c9f5df6
be98ce7c
3de3898b
3e5ccd0e
3e835745
bc9025d6
3e6d3924
bd77dd83
3e47dd41
3e157700
be978abb
bd917754
3cb429ad
befba443
bf8bc4a3
bf1648a2
bf2b5118
be209532
beb6a669
bd6a9b03
3bbb1d90
3ccb3f30
be9736d3
3d5e3994
bd563239
3e9f4e4c
be835649
bea7c822
bd594aac
3e0bdca2
3e30a208
3e1875a3
bde63c35
3c03f487
3eb31d8a
3eab9710
babc3ad7
be8210f9
3df1c45e
3dff3807
3e2e61b8
bcfef267
beb450bd
bee2f643
bf2a603f
3ead0585
3ebcd0c7
bca39a00
bb2123a0
3c1bd1b7
3e06c05c
3e195578
3e4dc371
3f209321
3ed1ffc0
3ec33774
be758847
be609ba7
3dbdecbf
be17d620
3e00d693
bcc46c53
3ea7d0ab
3e39f1c7
be139e0c
beb8827d
3e9135e3
3e31ec16
bc3c662d
3c00638e
bee927bf
be758363
be1ad1f6
3f1d4ad2
3e4d3763
3be7854b
bc97c394
3b2469e8
be52f441
3e0f3e28
3d6f02f9
3eee3326
3eeea54f
3dc68bee
beebbc0b
bede5269
be337c04
bd3ac26f
bdd0181b
3da71d69
3e9bf12d
3e5979f2
be73d408
be82b25c
bc3ecf60
3e14de7c
bd849d97
becf270f
bf02ddb7
bf1a7e0e
3dd8e9ce
3f1109bc
3e97f3ad
bd8b9a75
3d8563bd
ba622e62
beb658c8
3f0da744
3efe504e
3dd5dab4
3e9be7d5
3d871b96
3d1c6277
3e90ed29
3d013099
be469981
be812c8a
bbdb76be
3dd9fe7a
3bdaf44d
3d992c8e
bea435cf
be3a1dfe
3e114d81
3ea2b5c8
becc4980
be4a82ef
3d71f155
3e9e6e6c
bcd7ebaf
3e862a1f
bccbbb89
beee8448
3da03387
be888c89
3ecbef78
3efc1845
bdcea842
be664e32
be81f677
3de878e8
3eb090f8
3d791ef3
3e045c48
bdfed59e
3e81b767
3e0d85aa
3da66170
3ce09227
3cf18cd1
be5b28d8
3ea62fab
bdac3657
be87d7e6
be2a28d1
be9ae7c2
3e151e33
3d57b202
3d918b16
3ed1af3b
3d7e766f
bce28f6d
bd18319b
bf2b20ea
be2862ef
bc369ff5
bc8480fc
be76ab5d
bd21ccce
bd94eee0
be60cf5a
be0c1872
3be5bf5e
3e9f478c
3dbeaea4
3db8ccfc
bd085126
3c83ec01
3df258e0
be2310e1
be6c4dd7
be4f8236
be0fdf4c
be1f1b4c
3e6e0c0d
3ebfa370
3eaeb2ef
3e63dc21
3d67cea6
bc9f7e47
bda1dd3b
bf423670
bf373016
3e8dccad
3e2976a4
be1e6217
be21b9a6
be632bd8
bd3b8780
3d504853
bd89d22d
bdbcbf00
3e338b3b
be26417a
bead379d
3eca5b3d
3e3fc437
bf095a8a
bed814e7
be93121c
bdd0f9de
bd938eb4
3e116c66
3f101eb4
3eaf9ba6
3da1aa06
3e0e3e27
3ce7285d
bdca9be8
be3fc43a
bf19c1ea
be2bfc64
3ddcb749
3cba99f8
be5ec3ba
3e2411d9
ba91a182
3eaadad7
3e8c742f
bcd07baa
3e76390a
bd882cf2
3e848678
3d8c2d2c
bd8a0b8c
be9813c1
3ad52875
be530dcf
bdf256c4
3ee1113c
3ebc09e5
3eb27a03
3ead6325
3cc94da4
3d309492
bd7b39e7
bc40eeeb
bec67dec
be8f0984
bf19ee38
beecb956
bd4df81f
be7e2a2f
3caa208f
3d12f767
3ea59eaf
3eb0d61e
3e882a99
3e2c3f5f
bd98258a
3f0b3515
3e09f129
3e91e786
3e06b143
be8e4d5c
3d28997f
3e941abf
3f052280
3f09fd15
3e303a56
3df5b6a0
bc078e50
3d68f9c2
bcdf3410
be191dde
bf2fa356
bdea8ee7
3dfecdaf
3cc9a58d
3cd2b870
3d9cec02
3e79dbca
3cac6825
ba352f28
bd43217c
3d508427
3d16a455
3ccc439b
3e2d1a79
3cce8fba
3e301636
3e7898c6
3e0d6243
3ee01c8b
3f0c0f69
3e4d3c37
3f193078
3e865397
3ea92a91
3d763ed2
3d6139b2
bd0e4065
bdbd9d79
beac9d70
bf0cf12e
be4877ef
3d8d1099
be844afe
be9ac650
3ed7a30e
3db3f97e
bc08a0d0
be2a9e71
bec9241a
bd86e2b4
3e4d42c2
3f2a32fc
3f18fa89
3f28ac6b
3f8a047e
3f120443
3f2b48dc
3f0d2658
3ee17fad
3f2da6dc
3e5a130b
3de4cc5b
3d262acc
3d583046
bd6a1ff8
3c785898
bdb8b6bf
be3fe325
be82fb8b
be91a2e6
bf1324b7
bf37fc32
be2d4281
bf4c0084
bf433fe3
bec45c0f
beba8baa
bda46c3b
bf41fe68
bf42f9c7
bf1f27ac
bf06c0b4
3e96c686
3cfecdce
3dc78466
bdfd2e91
3e67f689
3e70abc4
bd8f955b
bcb27406
3d0732d4
bc8f728c
3d9eb6a7
bd37d253
bd21e219
bcbf932e
be4ffc72
be48188e
bea0174b
bd79f218
bf005b52
bea6c928
be55e891
bfbd8b83
bf5f3611
bd9f1da4
3d83459a
bf57f6e8
bf46ec17
bf3a47ab
bead2c2a
be9c2682
be86c004
3e00e456
bd1cc8b1
bd9d8c38
3d0a5ddc
3c5f5c38
bd12f491
3ce7bb5c
bd875ebe
3d8d71ad
3a8df180
3c4df6df
bd771166
bd2e559c
3d336559
bd76af1b
3dbfcc62
3bef60ae
bd280d60
bc5a4f8d
bdd8620d
be3cf695
3cda968b
be56d107
bdc71504
bd36121d
3ddd81e3
3dcc7f1e
3dc974a2
3d927d76
bce24d7c
3d6fa7ae
3d71bc12
bd2d35e8
bd54ffa0
bdb5a8df
