3e3ab5f9
be90a8d6
bda91b9d
3e07e6da
3ebbffef
be5fed1f
be051270
3e1d0951
be663562
3e87c3d1
3db20184
3e7c3c65
3e7045d8
3df0e20e
3e348318
3eac2a5b
3dbf24b1
3d1bc2a6
3f16eeb9
3f006763
3cb087f7
be83d747
be272206
be8707da
be8f2325
3d3f4192
3e939bb3
be4ab516
3d618836
3ebbe22a
3e36ab4f
bedfb89e
be3d9f0e
