bd8c5db5
3dbe0f96
bec1a710
3dcd845f
3dd81b3b
3e06f5f0
bd443baf
be6c0b86
3e634799
3e9e7593
3e9937cb
3ea7b430
3e4c4f35
bd821a50
be33ad60
be5fdb29
3e9050d8
be36610c
becc6fb1
3e02f500
bee28a34
bdac1260
bdb35898
be94d4dc
3d774593
3d7d8f0e
be10acb1
3bb8814c
3e9fa914
3e9c3561
3ec8e9f1
be7f585b
3ed620f1
