3cf13768
bd3c7ff7
bd85692a
bd56bd45
3cf2c238
bd07bf94
3ca82f3c
bd935912
3d65272a
3c0b2228
3ceeb6d4
bd20d99e
bdb6dcc9
be0c0a22
3c107ef0
bd6219e6
3bc52ab0
3d73f426
bcd9bf2c
bd1d3d57
3d909381
3d860a33
bd184a3f
bd80e4ab
bd25127a
bcca39ae
3da1b0a1
3da37bcd
bd48a04b
3d9a550b
3ceaf388
bd052d58
bd5228fa
bd7b27fb
be61b09d
be31fab9
be244f49
bde884ee
bdb0cdc9
bb37917f
bde99a4a
bcf74459
bb7f93c9
3f0eecf8
3efd231b
3e84c187
bea89501
3d70af5d
3d195f2d
3c85239e
bd525c53
bd06b660
3d8770c5
3ce49a70
bd87f503
bd1465a4
bd318aca
3d077ddc
bd6f4b7e
bbf4c6c0
3d4df4a2
3af1676c
bdb35f7e
be8f6011
becac5d9
bebe37f6
3dd0cfec
befa4fc0
bf813b88
bf9c8e0f
bf89239d
bedb0a8e
bb9b510e
bed0c6b7
be84b4b1
bca36ca6
bd1d2a57
bcedc02c
3cb30b8b
bdbe1df2
bc73dba7
bcbddb4f
3d38acb6
3d6409aa
bd3f9246
bd53795d
3d8ad205
bcbfa6ff
3db0ae03
bdef5fd2
beb7665a
3ebf70f7
3f114483
be4b90d5
bf0fac56
bf483777
bf2f8af4
bebbfd43
bfb1e34f
bfb3bc0e
bf8dc28e
bf6f7b71
3b42abaa
be5c975b
beb1b3b9
beb4aacc
bef20ae0
bdeddc5e
be0b380d
3c1c8f45
3cc757fc
bc288010
bd8d94ce
bd70bcba
bd88cf19
3d24c575
3ee15ddf
3e16d09f
3f1d856a
3f14362e
3f20d055
3eae8c43
3db35484
be16456e
3dc7d451
bda32842
bf404a32
bef936f5
bf5678a3
bfa0b029
bf6df5fa
bf88853d
bf39d37c
3e60b71e
bf67fb6f
bcac9285
be2ee277
3d85f889
bd5e1875
bd77dddc
3d71b54a
3c8f9f5c
ba32f8e3
3f01316d
3f6eb951
be432542
be27cf71
bf042ea1
bed4eb5b
be756779
bed8d803
bcd12fad
bef70fdd
bde1f249
be80b3dc
3d3feb8f
bf2f65bc
bf3cc6c7
bf2542f4
bec4bf85
be2fde4b
bec5b9c7
bf4ced77
bf487ed6
be4c49f7
bd85f9a8
bdaac450
3d0b2bf9
3c1de820
3d43f797
be2a3e3f
3de49467
3d516138
bf37d93d
be3a146c
bde8be4c
be7bde76
3e10910f
3d42fad1
3b9ce40a
3ea3db31
3efd76c1
be8bdac1
bcada8ed
3e0f69e8
bd6e73a9
bf1b1833
bf678a06
bf806c85
befde651
bf1a3031
bf0a8ebf
bed8da7f
bdca6346
bd886f57
3e3f53dd
3d6714ae
3d9a9810
be97ed91
3d60670f
3f0fcf99
be1aab0c
be84b4ee
bf11acad
3dff50a4
3caa26dc
be38f4d5
be1a78a5
bce7c64e
3f08f939
3ea9e9bb
3d29dbbd
be0dd00a
bd4a353f
bee786b3
bfaed527
bfcee5b7
bf143b90
bf115e1e
be35546a
be983abd
bd1e7564
bd439db8
3da84b57
bd9be660
3e7ff72b
3e91ca68
beac3c86
3e93b9ef
bee848a4
be9b0b17
bedbce5c
3dead4d0
3e285204
3e656d21
3e84ebea
bb5f7bb4
3e187698
3eedcac1
3e5931c5
3e51013a
bb32a200
bdc3a0d7
be857c21
bf8524e6
bf5ace42
bebdac69
be44dbce
bee8469d
be85b239
bd259cfa
3c276ef1
bc9a76e8
3d2fd24d
3ebef77b
bb804ddb
3c79c2a2
3e33bb30
3e8f38bf
3e741e4d
3e43836b
3e2acf97
3e5e3ea8
3e1b7787
3d0e74a6
3e8f5b8e
3e571cd1
bcb6469b
3dca9de7
3e870239
3e632b15
beb21ae4
be977713
bf0bc9ba
bf7ae3c2
bf524676
bed7c5ee
bedfc4f0
bece2135
3d1ac49b
3ba6ea2b
bd91bb4d
3eb643dc
3e556580
bf2ded47
3e9072ed
3f34dc3c
3e74e18f
3e215a63
3e599ed9
bd94b10e
be2c61fe
bea6d79f
3eb74960
3e175ad4
3bdecd30
3e794be6
3e2058b4
3e0d63b8
be3133a9
be13a075
bede7dda
bf8b8ade
befab33a
3aa3bdfd
bef736b8
bf0ff590
bdd71953
3d9a5bae
bde2f035
3eba1fa9
3ea94210
bec4a730
3dab6058
3f08b2b2
3d8b2806
3d47ac17
3ea5d505
3e274c94
be57a420
3d208c44
3e33d858
3df0900c
3ecfddb9
3e92154c
3e5e41bc
3e0fa725
3dd0a035
3e1e9b95
3e09c034
bedfae94
befb845d
be229075
bbba1d02
bf4e7f32
be8f2e94
bd2ec049
bc88dc7d
3ed7dd08
3f2a0459
3e957c88
3e05ee0e
3e4cb267
bd4f3d31
be517af6
3ba2c334
be4c4733
bf15f22b
bf0767b2
be16ab44
bd312961
3e0f9b2b
3eac716f
3e9f28e4
3d2c25c9
3e0f975c
3e90469f
3e8075a0
beadf24a
be6d7c28
3ed1b68b
beb7cec5
bf60ac10
bd293f51
3d108c78
bcffb9dc
3e8f374c
3ec7336e
beebdd3d
be15a8c7
3b1d5dfb
3cf1484f
bd91d3b4
3d9e5bcc
bd8e4d5f
bf002500
beab3d6c
be97221f
be81c7f7
3d0873bc
3e50f48e
3eb21f68
3e2830e2
3dd6088c
bd1903bb
bbfeb77c
bc9b4087
beb2eac8
becec05f
bf487500
bf30387f
bbed4de1
3b398b4d
bda20f3f
3eb94eda
3ebca669
bf022d0b
bf09543e
be1e9689
3db54c04
be94beac
bd736a6b
3e14fd29
be7889f4
3c9a760b
bda06537
bec9be8f
bdac3e90
be346a39
3d0dccf5
3ebbf0c1
3e0b8626
bdffdf5b
bec612df
bec20ab5
3e12a830
3e651210
beae7fbe
3e15500a
3d7e34e6
3c071696
bcd72bb4
3dedf7f4
3f54287f
3d497dcd
3bfec882
bd08b917
3e311526
be42d8a1
bdf313aa
3e9a142d
bc94d34f
bde62ac1
bd46506f
beac8c43
be7cdce6
be6c7d7d
bcd219e5
be3407f6
bd8e0e39
bd26e6c0
be4614ec
be9ae21d
be632c17
3e145c71
3be6dc39
be6106ec
3f136344
3c9b6a62
3e4eeed7
3e525d81
3f678342
3f0728d4
bde4b4a5
bd0c4b98
bcfea484
bcc8bacd
be7eb7e4
bc3e3b8e
3e8aaaea
3d98671a
be6cd151
bf0300bc
bf0c3474
be918bc9
bddfaf65
be17c66e
bd047a9f
3cf0ebe8
3c356c17
3e5cc841
3db3ec84
3dbe5822
bde50fef
3b5a0c8b
3f980432
bd84a8e4
3e078811
3e54979b
3f9125c3
3f328b11
3e7ff9d7
3db075f5
3d855da5
3e10f426
bdb3c90c
3e8b3cc2
bdb6f753
bb7592a1
bde1530f
beb9dbd6
be383956
bdf7f14e
3e70738f
3de92dc4
bd33aa00
be86abe6
beaf4d79
bc8a0648
be1a033c
be8ab5db
3e4055a9
3e46630b
3f8f9509
3dd9c612
3dc5e6d1
3d8a4196
3f587ecf
3eb2fcd3
bd977931
3dc7f006
3d8ed9d5
3de7a00e
be847745
3d786807
3f09a57c
3e98b195
be97f039
beafc1cb
3c89a4f3
3e44695e
3dc4e624
bbb68be6
3bd23980
be8f5b97
bdce53ac
3e01d6ca
bc66639e
bebd8126
3f3d2e4d
3f283de9
bceec385
3d8f0b25
3f1ffd63
3dae224b
3f0a5562
3ccddeb1
3da25479
bf2da016
3d946b7d
be79f4c3
bea34331
bd228eab
3e312fe3
3e1d7e93
beb5b22a
3d94ec07
3e1be7fb
3ebe126d
3d4e1011
3e3cc601
3eae7f99
3e51e0c7
bdbf6d48
3ee2ae54
3b1621c6
beff7c56
bd476f76
3f2d4062
beead6d8
bd3ed356
3e095d72
3e3f1c27
bdb7b235
3e89eb52
3ecf2cf9
bf130e60
3ec733c4
3f02dd8c
bea1b09d
bbd5eb58
bd866b05
3d3cf9bd
be1962ed
3eebfa94
3cd8ea8a
3bb2b159
bd804121
be20e156
3ce7ddbd
bd223bd6
3e0095f5
3ea46fb8
3ea86f0d
be1fb7a1
3ef6a0b8
3effb7cf
bd00ff2c
3ca28860
bd63d244
3f0d6f07
3dc397de
3f1a1a5c
3e61466c
bdd4c547
3e5f3f9d
3f0db966
3c966d85
bde3afec
be0f0d95
bc826e08
be06f4d0
3c8f79ad
3c91e952
bd8e250a
be01886f
bd9bd199
3ce05051
3c939fb1
be723758
bd5c3115
3f21493e
3e362c2f
becae7aa
3f30a643
3d16acee
3d6aa31e
3d90110f
3e957039
3edd3c79
3ee579e0
bf135d2b
bebf7670
be9ef915
3e942a22
3e4be9ae
be074110
bd828c8b
3e780109
bc4a4b68
3e643e33
be2a0159
be9fbcb0
bd615aa7
bd83b0da
be8626e7
3e33c599
3d935931
3eaeb46e
3ed45e5b
be85b493
bd945b08
3ef369a7
3cfe94fc
bc9fd884
bda4a612
3d1d74aa
3ee4834c
3f1260dd
bd8700b8
be16be30
bf26439b
bde0fe7e
be937901
be2a32c3
3ebc4d5c
3e0e7644
3e826fcb
3eafed90
be31250c
bc6d6b3c
be0d73be
be7405a0
bf336e4b
3e09d729
3e29f453
beb2f445
3eb1a047
3f1eb58a
3ec391a5
bc9ca8af
3d114370
bd26d7c9
3cfc036c
bce478c1
bd8b6ef0
3d1c4b35
3f1315a9
3e74a4ea
bedad9cf
bbc5f688
be7bf4d1
be87edde
be36e6ed
be16ca70
be07cfae
3d8792c2
bd557a18
3e8fc8de
3e4183bc
be881292
bdc4fe86
3de26cc3
be8fe737
beb6a181
be55d795
be65bbf5
3debd4aa
be5edd2f
3d5681a2
bd959a37
3c5a2370
3de2f1f4
bdc2ed70
3ee0ee23
3f802985
3f4e18ed
3ebaa48d
3e9d463e
3ec0dfc7
be1452b7
be078765
3eda46ed
be69cb3e
be733307
be327e47
be188382
3e026824
3e7b5228
3ec061b2
3ef970ad
be001069
be826b01
bf35f6e0
bf236299
3d03c080
bd7caecd
bd2b4b78
bcd288ee
bd20161e
3cacdf6c
3d836801
3ec6236b
3f82d238
3f8eb924
3f188f88
3ee6562d
3f4b8f69
3ef418ae
bd81e3c8
3eb49f76
3f03e3cd
3e9c434a
beeaeaf3
3db40ddf
3f158e03
3e8dc68e
bebad6bd
3f010aeb
3f897ac8
3f14ce24
3eceaba3
3ed288eb
3d35f392
bd2892b6
bd83887e
bd3147a2
3d0eb036
bd87feb4
3d73a12e
bda4d9e2
3cf6222e
bdc9a7bb
bcdbfac3
bd490ada
be5d571b
be8fa3e7
3c9a459b
3db4a9cf
3e56847a
3efefaaf
3e05da6a
3edc8c2a
3d3cc312
3e5f8910
3e76cf44
3e4b7e7c
3e17fd85
3e079c46
bd01b361
3d6960c6
bcace844
bd89c4df
3c937964
bd90665f
