bef2d233
bd8e0904
3deecc57
bf2272b4
bf2f244b
3d28d75e
bf364e16
be48d888
3d619536
3d1363cc
bce824bd
3d0c05d6
bed86ec3
bf1aed90
be10a8ed
bd58985c
bf158984
3df36c90
bd863d6e
3de27157
bc557933
3e78a0a9
be6d4ef1
bc92cae1
bf6ea219
3e995eb7
3dcd4bad
3eedae01
3e458fc2
3e59559d
bf558778
be8535b7
3ca85e0b
3e0ebcba
be578f96
3e3f2395
3dfdad50
bd8eb6c0
3ded5d59
bdc1c589
beace924
3e34e78d
bea6c700
3e2518dc
be6e448f
3e276165
3e195069
bed854d0
3d99562b
3e3235d0
3e23404c
3e7503f2
bc8ec07d
3e4dc15d
3d02d515
3e315f06
be27a55c
beebc56b
bd11f0ba
3e860534
be84c808
3df7142e
3e1edc95
bd9b297a
3e418d59
