be836c1a
bd13b6fa
bf1e2514
bb0e995b
3de5ce21
be18979e
be66bea7
3e305ef3
3e956ecb
3d2a5d57
3db03e5a
3e89856d
3ee50c2c
bd788603
be957774
be486fcc
be7fe3d8
be0d55eb
3d8780f9
beb21b30
bed94cbf
3e2abdd8
be604be6
3caf7225
bd8735d7
bd845fee
be52eae8
3da38546
3e07ffb0
3e69b7e0
bd8185bc
be800bbf
bd286710
