3e8bd468
be2f843d
3d665dab
3de90890
3e052172
3dc73857
be47a2f6
3f0a55e8
3d0701db
3e83fcce
bc1f2a6a
3ef6c296
3e71d0d5
3ed53953
3c722133
3f1e8ab9
beb4a66f
be49cde4
3e52016f
be2a09e4
3e1884e6
bee55ea7
be0e7d05
3e1fe068
befae5b0
3ce268ed
3f1552f1
bdd2a211
3cd3f8d5
3eb50454
3e3e041e
3dda4a7d
3e70c7a0
