be1aa277
3dc85300
3dbd8340
3e255ed1
bf216140
bd815984
be40abf5
3e83a377
3c070726
3e4562b9
bef0e906
3e219b49
3db40fd4
3e108c4e
bd8a45de
3ed991b2
be9534a0
3dbfe82c
3e9c0329
3d8e4431
be64ad50
bda66a0b
3c4ba97d
bee17358
be86095c
be728dcb
3e204307
be59d479
3d1a6b07
3e8034fc
bd82e5e0
bd41a8af
3e172274
