bbfcab5d
be1036ba
3d868b18
bf475b40
3dbe7d14
3d3bcd4e
be994ce3
bef7a1ec
3eae1256
3f4edb30
becf3dd0
3df10302
3e44ecd5
3c9ae375
bdffefc0
3baf048f
bd875262
3e24a524
3eb6e060
be01987d
3e326864
3c62c167
be3dfb45
3d5fdde9
bd78db82
3dc335f3
3e3f18a7
bdad414f
beaa418e
be1f8869
3e8658c4
3dc908da
3e5e29ab
