3e089b67
be9c3e6d
3e2760cc
bf4704b2
3ee7f1bd
3e3a961d
bebbea86
beee41ef
be39810c
3d3557ea
be931edd
befc0756
be857dfc
3ecd92ca
bd92da32
3dedf06b
3eaf5664
bef988b2
bdb8dfcb
be835a0e
3a435d2f
3e8b7fbb
bdc45616
3e7716d0
3e1bdf57
3e8a9524
be1b5204
bed5df3d
3e07045d
3e0fb0ea
beccc6a9
3da3a45c
3ea2ba89
bed8e4ab
beed2b81
bde3f30e
3e83d980
bd984836
bf452dd8
bf152d70
3d84baae
3d92caea
be617c6f
bf430284
3e6c6d5e
3e69155e
bf28711a
bb5527fe
3e560eaf
bf0b503c
3e821641
3e9a182c
bec1a0fa
3e18c76a
bf68de00
3ea2cee0
beebb252
3e4f9368
bf0f5db9
bf8290e0
bf7611c7
bf6eadf9
bf1602d8
bea63524
bf80625b
bb8b71ab
bec2f6f5
3e857208
bf2f4da0
3e27c82a
bf5d8ccb
bf041032
be68ff60
3c2119b9
be9a3d6d
3d8930f2
3d8a1e99
bee4669e
beb114cd
3e9d73ba
be87d10f
be945d63
bea136ab
bc69fd02
bedcc792
3a7c1905
bf2778b9
3edf4cb6
3d3e77bc
3e57a43e
3e7d1590
3e730705
be8e19c9
3e7749ad
3e38631a
bf3c36e7
bf0ca4a6
bd9e1cc2
beb4d19d
bf5b7c6a
bf631831
3e0f0196
be01963d
bf1a2e7a
bf2dab61
be812339
3ceb058d
3ea8b24f
be8e8dd2
bee9cea2
3e2ea39f
3e266dc2
bdc18833
3e9c81c5
bf5219cf
3db3cd61
bc5397a4
3e032d35
3e4d84d6
3d5e6bcf
3ef75999
be5aa4ca
bf5f0c0f
bf0f3775
3e8bffe1
3e8b0e78
bd903340
bee0b7b6
bd841dfb
