bcd9a862
bd89d828
3da4d401
3d8d847b
bd5aa46a
bd6af6ab
3ca51730
3d358ae6
3c735628
3d2478da
3d19d5f8
bd53baa8
3d8c72fd
bcfc0bbc
bc739aa0
bd730000
bc50eeb0
3d33284c
bd636b38
bba26f60
bcc85412
3c3d90e0
bd8a65ba
bd04a80a
bd8ab8a1
bd9f00df
bd7b3fc7
bd3c19d9
bd99a66d
3c58d580
bd7ca9e0
3cfddd58
b91abe00
3d6335d2
3d418de6
bcdaac70
3d3ad04a
bc56299c
bd21fcc6
3d9d81a7
3d311d9b
bd9b1a36
3dc39683
bd2d0e8e
3c6de8f6
3cd8d065
bda7bc54
bd2020cb
3c5b1821
bd1db425
bd908d0f
3d824fb9
bda20b9b
bd706593
bc987128
3c8dc948
3aad3840
bd4c61f2
bd6b52ee
ba021380
bd5c5bda
bd6e342c
bc3e9c29
3dc45b31
3d8dc169
bd4c20f8
3f367ae4
3f43d229
3f36dd93
be0a71b1
3cf764c4
bf06caf0
bf1947ec
bd2ffd2e
bde2e661
3d997e13
3d5cfad7
bd03f747
bcfbe25a
3d14e77e
bd0a5bad
3d6470b5
3d03eefc
3d90830f
3d56e52e
bd027517
3d9ceb2a
3cf6fa3a
bb2230ff
bdabd54a
3defe504
3f010c07
3e903910
3e87d802
3ec9994c
3f0742ae
3f087e52
bef9a877
bf079d1c
bf71e092
bf777fa8
bf60dff7
bebfdb6a
3e1e8df5
3d95b291
bed4d290
3ed5b64e
3eeaea87
be2fc5f8
be6eafc3
be0bd63d
bd5551e4
bc6c1190
bd54dc39
bce88a14
3c30c2aa
be19313e
3c47238c
be1b1457
3da3a605
3e1b1432
3dd28e4d
bede62d3
befe2589
bf07959f
bf347763
be626547
3e203848
3ee10104
3e43e16a
bb57b6f1
3e7f4014
3ec7d03b
be9619c0
be62f763
be16a96e
be32fe6b
bf21c615
beef77ef
bebc2677
3d209f18
3d892e53
3dfb4720
3e270ed9
be404797
be781587
bf324b94
bea5f0bd
bf8d5922
be2565ce
bf347f64
bf1f4d25
bf4b4699
bf4b8f33
bf14df61
3dfabee2
bda5e597
bdee7337
bdc73c3c
be0b27c4
3da7bc30
3d07c585
3e644168
be1d23f4
be2f9da1
bf20a626
bec361a8
be0cb6ef
bd654d8b
bc68cf98
3d914d48
3e91656d
be1ae04e
bec99de5
bf38ec27
bf13eef1
bf2a2b39
bf154dba
bfa390e7
bea2b855
bec61d28
bf2fd5a4
bdece5a2
be179136
be3ffc6c
3c23124d
3d7239f9
be3b0bf0
3e923fbe
be194b69
be8b0d4d
3e3268df
bda3eb38
be02c126
3dc7cd87
3c3be769
3bf42e40
bd92859e
3cf6e25f
3d972fea
3ed60ad0
3b48dd04
bf1c29d9
bf006e78
bf1b74b3
bec78e1e
bfcbe97a
bed1f516
be686ee3
be8e4f8f
3d8867b4
bd9fd074
bd590009
be740337
be83c271
be0e5c7e
bd71b602
3d14e9d1
bc931519
3d46ec9a
bf02ffae
bdbc0410
3e940a77
bb579a96
bd628cea
bd8e9f53
3cac9711
bdfa8b15
3e61579c
3e0c54bb
bed47127
bf19be30
bf4acc50
beaae28f
bf964a34
bf6eb8a4
bf88ec80
bf7fb8fb
bde478f8
3b9309e7
3e6a5f87
bd0b65ab
be98fc4d
3cb1f059
3e1a0126
3dd73baf
3e226162
3d623675
be5def01
3d776354
3e8269d3
3efc1178
bd5b5f88
bde92d63
bd3ae70b
be1cb7f3
3eab4648
3e00b704
be560670
bd3d09a2
bf238b88
bf00236d
be35ea63
bf56f058
bec67827
bed42587
be179927
3e2120f4
3f1a8b0e
3d6aa54e
bdd61382
bd7519a8
bed8bc91
3d114f90
3e6330eb
3df6e512
3edcade2
3ee2ab25
3f47a67d
3e096005
3cd21a4c
3d5ff02d
3d3181c0
3e05a93d
3f0849f7
3f072f42
bc8d1d8c
3d577334
bec2b160
be8a98be
3e561fb1
3e9eae86
be4570db
bf1769f3
bddece69
3f00ba4c
3ee29dcd
3e19e31a
3eb0d2c5
3ded811b
be0ec409
3e054167
3e83ad22
3f1b4e46
3f5a8984
3f732abd
3e94462b
be832e11
3d259024
3d889ef6
3de93ba9
3ca8a4b3
3f467440
3f0f75c9
bcec3eb7
be5de92e
bea6bdb3
be55ea2a
be9111ca
be085496
bde8bf09
be8a669b
3d330977
3f0559c6
3e93feb9
bcd81fea
3eceeb28
bda97746
3dcd4019
3ec5f31a
3d652778
3ee5021d
3f114642
3ea2fd99
3d770c91
3ddcf622
bd161f7e
bd4a442f
3c8a70b9
be51729d
3f2e7eee
be0b3b61
bee7fbb3
be5ebabe
bed1c23c
3d66b795
beccbae8
bf159475
bdef42d3
bdf60b86
3edcebd9
3e8ab10d
3e2c6eed
3e04790b
bd3930c6
bcedd91e
be2a13d4
3df09563
3e87fd50
3e293954
3e92f3a4
3f276bda
3f6c4c83
3d685e8e
3dd5d196
3d7a22ca
3d056505
3e749c2a
3f21b414
bed286d4
be6b2a9a
3e699a7d
3e5a18ea
3e7d25f1
bdf1ddb5
be4a57a4
be1faeea
be095a37
3dfacbc5
3d576214
3cbd76d3
3d9af09d
be565ea3
bef602ec
be079eb5
bcca3484
be4a3fc3
be937eb7
3c942629
3f1826b0
3f727734
3aa07480
3be9a360
3d4aaf82
3ecedd15
3e9b0447
3ed6165d
bd75c9cb
3ce7b551
bd59bac9
3ee59b0a
3f1a289f
3f0962b5
3e3e82b7
beaa3d83
3dcdd03a
3e68ecb5
3e161456
3e6acb2e
bdbf8afa
bf8300d1
bfa5b221
bf80edde
befb2ae4
bed09a4b
bea6bbc9
bee56b9b
bec82e93
be1f3daa
3d91a717
bd2f844a
bcc2edd2
3ed67bbd
3e7bcc1a
be32dae2
3edf75c7
3ed50021
3ef8d6e0
3f03fcc5
3e9bf9a7
3cf4ae51
be5c3447
beaea31c
3da2f0b2
bd356756
bd5fed17
bd84c6df
beafc9c0
bf73ef9d
bf937295
bf8e6d1b
bf2c39da
bedad5bd
bed6e84a
be2d5334
bda12f66
be1cb06a
3cd921b5
bd8e21ee
bd461aaf
3eb5173e
be846591
be75fb09
3f3fc47e
3f0ba40e
bccc4ce3
3ba5e49c
3cc9d85d
3cdeb295
be79a7f7
be4a5301
bce45249
bd3bba22
3cf04484
bd1d38cc
bea85c29
3e39bfae
bf697938
bf56744c
bea08854
bf13dffc
be02c5d3
3a78185f
3ea4adfc
3d9df8e9
bd753c92
3d58670a
3d9d138d
3d8a45fa
be7738e2
3e76523a
3f026827
3e49082d
be349606
bcf2750f
3e90e039
3e3d86b4
3e2d7e13
be0bbead
be892aef
be3d88c4
be6379b1
be55a726
bf159136
3db8fead
bf8ac49f
bf1311e8
be6ba21f
be9e26df
bca1ef6d
3eb35414
3ef414c3
3d70b874
3d7ef4a9
bdb21435
3c2857c3
3d1bdfc2
beb3bf3e
3d07fee4
3d15fac6
bf15df28
be32bcf9
3ea86694
3e07ea31
3e1dcc88
3ce9d142
be2efded
be202fb0
be1a0d32
bea44871
be55d2e1
be9d2577
be948ccd
bf4b12f1
bf2ec368
be123197
be81edb4
3e272532
3eceaf0c
3ecfc4f6
3cac4755
3d3b75f8
3d5b3b59
bd648a63
3b23bb5b
bf05243a
bd967e9e
bea6b867
bead7548
be8703f1
bc0df560
be515a25
3dc5c6fd
3e1ddcb9
3e672944
bd47cb5b
bea49816
bf0b4dfe
bc90ef82
bd48e70b
3e1585da
bf21cdd9
bf269830
beb30552
bc28780c
3eb5b8ad
3f1f67e7
3f08e101
3da6bf5f
bc7af449
3c648ca8
3d88bc41
3bb64ec9
bedaecb6
3f2708bf
3e231763
3e900692
be0ded99
3b91670e
be4d51a3
bd336c2e
3da837bd
3dbd55ec
bddd8c72
be8d9958
be937b7b
3e222a74
bccada68
3e15f9d9
bf5a4baa
beccd830
be902a87
bd8c105e
3ecfa1a1
3f12c3ca
3f040478
3c1d2dc9
bd1d4a43
3c304bd5
3d5cb68d
3e189264
be5796cd
be955c17
3e15b0cd
3e30343f
3e81445a
bdc43cb6
3c05db5a
be44992d
be10d898
bd90405f
bd930a5c
3e104fed
bd2200e9
3e3402a5
3cb63f24
be76762f
bf4358b7
bf1e4244
be863261
3b826191
3ef9c68a
3f2a41cd
3f11980d
3e7e310c
3d98ee5b
3dd726ba
3a09eb7e
3e14dc08
bd302e62
3d943955
3ec866d7
3e387a11
3e4a8df6
3e7cccf5
bd31c45f
be81433c
bd1e0a76
3da9c391
3ed3bb8d
3e5f8be5
3e0a4d64
3eaa3c7b
be0f51da
be3ce689
bf1a69d8
be10eced
bea3c251
be1f045e
3e726f77
3edbadaa
3ef38d8f
3e52559f
bd362c25
bda374da
3d3388e0
bceff7d7
3e31e393
bd65bce3
3e91e501
bd094b85
bc5ffa20
3e917f8f
3e66aa7e
3da2a032
be401235
3e840768
3e1a3d47
3e81c8bb
3ecec675
3f07efe6
3d28da2c
3e038852
be9f336f
bde9e980
3e8c80d4
3ea84449
bc9cc1fa
3edaf522
3eb98330
3e90ecde
3c9713e4
3cc87ef0
bda383e3
3d82867b
3e0291cf
be806d04
bd8a0b73
bf21b28a
bee469b1
be8a5d78
3ed1515f
bf0317e3
bed38f69
3e92ab81
3ed6cd1b
3f168abb
3eccaf92
3e68c8cf
be87efed
be81fce8
bec707c4
bde5a877
3f01b8b9
3eac8ba1
bd760319
3d119783
bc31a9c8
bd2b2691
3c257bd0
3c5208d8
bc28c8f8
3d73570a
3d14a9a6
bf0ed201
be6151e2
bf36a1eb
bee6f40e
3ede5d40
3f1a40e6
3dd5bdf9
3d044450
3f18e442
3eb92b91
3e2bc5fe
bef8945f
bf38eb2d
becff578
3d8698b5
3dbbfa66
bd0ccd28
bdd32083
be24d17e
bd8cb527
3d626b78
bd1ac980
3d330fa8
bd4152ea
3d609f76
bd8ed179
3da1bae7
3d130438
ba9b8157
3da04759
b91d6841
bdb08870
bf183cf0
bf2659b4
be9a90e4
3e64b2a4
bf0f973d
bf1518e6
bf61e197
bf322d73
bea73377
be8812e2
bda71fb0
bdb3bc3a
3d066bcb
bc587327
bd2f0289
3d7b7052
3c9be93c
bd5163ac
bd783162
bd15a482
bd3bba7b
3c8999a8
3c4ce348
3ba20420
3d6d627a
bd433c61
bd2cc0cd
3d577daa
bd930a7f
bd8ab1c4
be863dfc
be8df01f
be95041f
be8492b8
be1a8faa
bd880f76
bd9d4cb4
3b12e737
be1976ef
3d62e497
3d8f53a5
bcd017c4
bd3571e4
bd6f5498
bc98bb4c
bd9fe3d2
3c95f168
bd879bf4
3da55b8c
