3d97480d
bce865d0
3d3c0792
bbb8a340
bd023bc4
bd94367f
3d1d90be
3c0cc148
3d4ab72e
3d5c638a
bc24b620
bd8f71fe
bd56697f
3d803c09
3d1c9439
bda2966b
bd585035
3d4cec46
bbdd2c50
3c1598d0
3d1dd29a
3cd52aac
3d87859b
3d8daac7
3d3d93d6
bd93e2bf
3d6e4ac6
bcf776ca
bd0da13d
bd34593b
3d546706
3d96403d
bd0d4350
bc0d8480
bd405024
bbeb8f82
bcbbddce
bccf84e4
be421dfd
be897457
be8a9251
beab8aa6
3eb039cb
3d9caa2c
3b75be17
beb25c13
bd9c1e83
be93ca91
be9a48c8
bdfd7b81
3c4b6c05
3c8871c8
bbb6c720
bc4350d8
bd242437
bd6f5dae
bd8d9591
3ced8324
bda55331
3e23b87d
3e129ade
bd355385
bc6f7818
bd6a363f
bb8436cc
be7d4e7b
bf31ef18
bf9948e5
3e87a601
3f67dcfc
3f009b9f
bf062574
bd56eade
bd3e4375
bf0df10e
bf40aa53
be630c47
bc62ca61
3bf26669
bc86b8ca
3c04cbf6
bd2c2bd6
bd7da2de
baf3e5c0
bce5da20
3cfbd308
bd51efda
3e1153b7
3e6b22c8
ba898421
bd4a16eb
be4d5c44
be66576f
be07dbe5
be7e7417
bf774dd8
3e6a819a
3f12e0c6
3ed0fca3
be85ec1f
be035d5b
bdd02d61
3e6a354a
bf2412c9
be9cb45c
be3a49a4
be7564cc
bf2c201c
3e0df2db
3f176350
3ef1518a
bc9fbc54
bd5c13e8
3d91f2d9
bc3ccd04
3eda45c3
3ee49675
3dd2c46f
bebe935d
beec69e9
bfaafcd7
bfb629e3
bfa3fd54
3aeb78d1
3f27128c
3f00edd6
be3ffcf2
be14ab18
beb14365
bf498c6b
bf17917e
bf6aa7fc
bf253ce3
beaf9c0f
bf1884ff
bedad39a
be8418dd
3f0370a3
3f2eee9a
bdaedf90
3cbe1de0
bda3602e
be97eb8c
bef74eb7
bf888970
3f21145c
3f0df54b
be44612c
be04ff79
bf0d35e0
be87c8d1
3e9c03d8
3e831034
bec4bfab
bf19cb8d
bf05c4be
bc99f20e
bed0faf0
bf2bac69
bb763a6b
3e46ea1e
bdc624c2
bf2c7a53
bf0fe522
bdfc937e
bd1fef55
3e42cda5
3e9faa25
3b291300
bce0bf70
3e3a1b52
3d4cefc3
bd08ed6f
3eb2737c
3ebe2a03
3e7a3856
bddeaec5
be0aca89
3d220b7b
baa0f6e5
be50b3d8
bd30f59f
3e0b4102
3eac7563
3b7c56f3
3e990006
3efb6bcb
bdb028bc
3d6f8c05
3f0480ca
bd758e77
beab80d6
be59a7c0
bdc6320a
3ea8e95e
3e4dc8cf
3d93e370
3d2a7243
3eddb811
3eb2c234
3da1fe68
bc7e4f92
3eddd4c5
3ec74533
bb8861da
3e691b29
3ebde5d2
be381742
3e70fbcb
3def16fe
3ebd993c
3ec4678c
3e065eb3
3eb5a589
3ed3f13a
3dcc68b3
3f0dedb1
3ee6adeb
3d901c9c
3ea7ad3b
3e966a73
3c7a5edf
bd9dbe5c
be1b4a8e
bfb9de50
3e6f8794
3efa3969
be2e4fee
be37ad50
3e624b60
bd25b656
3e3b9637
3c3ea460
be429999
be037938
bd91bfdf
3e6fb67c
3d2017cf
bd2acfee
3d805a76
3e4890fd
3d773e36
3e950c37
3e32ee40
3e958f1d
3ddf8c6e
bddfad2e
3c1c19ef
3e65c2a3
be8e9a47
be5e59ae
3d66c175
3df811d9
3eb00c6b
beec334c
bf289f00
b9520c0b
3e0fa896
3dcab01a
3df1a6fc
bda44c5a
3de93f12
be22b6e9
bd8a61b1
bd879b19
3e430595
3e6a78a6
3c8b2118
bdde9f0b
be1e8e09
bcddc78a
bd604383
be7534ac
3e385084
3f00bbe8
bead96b8
bea1b10d
bf38f181
beb98578
3ce734d5
3cbdb6ca
3e3fcdf6
bec6a98f
bf684ed7
be665d55
bf1234c6
bd2aee66
3e133b57
be06ce9f
3e805d0b
bd8ff026
3e26f792
be51f2e3
3ee9f17b
3ec5e67f
3e1f00b9
3d28a1a1
be09c4fd
bd74da66
bd40cd04
beb9bc0e
bae0661d
be6880b2
bf3a1d4e
bf194cc1
bdc75e38
bedecadb
3e5f4f85
3df73fac
bf871256
3f0b91be
bd887f1c
be76f78a
bee22a4b
3da4772f
3eb4456a
bb7fb10d
3dd6e108
3e016b72
3e1cac82
bdae89c7
3ca4d868
3e167100
3e0bd974
bde01fbd
3d682369
3deb92dc
be1befd3
be2fab6a
bdf181ed
bde80547
bf1bb349
be5df08d
beddbabb
be6125e4
3d307fa2
3d2e0ec1
bd69a756
3e6e1331
3e84b8f5
be6cea86
be105017
be57e819
bd4e3236
bd1a799d
3e92c5dd
bd3f1e14
3d47579e
bef8ae2c
bed5cadb
bc9200ec
3e8c6c04
be0b9d4f
be4ff3ad
3e4d5a62
bd448257
bd84b54a
3dfaae6b
bea259b5
bf3ce286
bf0e6660
3e8d6e67
bf0e52ff
be123fed
bdb8b606
be84b139
3ed33ed1
3ea41814
3e433cc7
beb3a508
beb51d75
bde888dd
3e198484
be099527
bd907c61
bcb9b255
bec784cd
becd689e
3d52c846
3d46c809
be3d1cef
be4563cb
be3d6f0e
be04affc
bf04369d
3dfd583f
be4dd70a
bf358c68
beccc978
3e00b826
bed17b79
be6bfc7d
3d32ae93
3e344c1c
3ee3c17f
3ee9f0f1
be697a80
3d304b04
3c01d1ce
3df8d7a3
be44c1ad
bec4cda2
bd59388c
bcb95e4e
beba9830
be091423
3d606879
be1ada34
3d58bb02
bd5c9523
3da0ae37
3dd75d4e
3de1a113
bd70f293
bead0b5f
bf020cdb
bec4524d
3db540a4
be473c28
bd202c22
bc71d047
bd463168
bead8dc6
bee8f548
3d163270
3baf837c
3ec8ac94
3dd515cf
be254bb1
beef0d5c
3e494f60
be1b29cb
be84dac8
bd5b6428
bdf88232
3e947883
3e31d1c4
3e1849a7
3f0ff00f
bb23c136
bcd49b51
be96950f
bf294b1c
bebbe19c
bc82bf36
be811283
bedc4d05
bbe7449c
3d952bd1
bead07d1
bf117632
bf2750b8
bee1ae04
beb2e89a
be37396e
be3bc65d
3acf3610
bcf2ad29
3d16c18c
bdace870
bdd5cf76
becd6273
bec5b026
3d070988
3d749600
bc3c36e2
3e39adc3
3e33e2b9
be9a3593
bf1ef96b
bf09e62e
bee4a485
3d2d5d25
bf445f91
bf2a8b2a
be97e66c
bd336d57
bdec37ca
be4dc33d
bc51368a
bf88331d
bef3cb24
3e0b709e
3e8e358b
3e36f235
be11e094
bcd53c1c
3bed865b
be4844f1
be9fa751
3cabea6a
3e0b886b
3eb2cc1b
bd51a100
bd2df336
bda7dcfc
be1c6a83
bf26e601
be433aa7
bf1df82c
bf14a700
bf9d3b24
bf06d866
bf0fcd88
3f1ec5d6
3d185368
3da37fea
becfa697
bf93e7a3
bf0da8f4
be8f9ee6
3ed6fa15
3f209f6a
3e4f34cf
3e2b0dca
3daeee24
bddce1cb
3e6442ae
3e690183
3e9c59fd
3e736d1f
3ecd547b
3e0223e9
bb67225a
3ed86d59
3d45711b
bd8b54de
bf186d5c
bed56fea
bf83ddb7
befe4983
3d4d8239
bda24892
3ec2e256
bf047025
bf7b8efc
bf8c032b
bf62ec55
3e085e01
3ebb6fb9
3ee4b8b9
3c950519
bddae8d4
bd7ca7da
3ea9055d
3e10bbe7
3e848224
3dc5924c
be2d9b43
3e884249
be17be75
3eabe2ad
3f0103e0
3ea50b3e
be33a39e
bf19aa63
3e88809e
be1eb523
bf18a2d1
3e1901c8
3d8a771d
bf09b8b6
bf29f9cb
bf8ad366
bf7a57b0
be9ec34a
bc84868b
3db6ad70
bea11438
bf080ce0
be948be4
beab4c0e
bd2c3ff9
bdb3c8f8
3ddd4c5a
bd18a873
bdb36d6d
be1fc314
bea486ab
beba48ea
bef3eb3f
bef37071
bf043900
be674fb6
3d800944
be9a38cb
bf10648c
3da50472
3bcbd070
3d7d78de
beb3f838
bf3edd76
bf39a3a7
bf505585
bf8defa0
bf3b9bf8
bfa28a19
bf8deec4
bf60c59a
bed73a62
3e23e8c3
3cc36d2c
3dc8b7f3
be8ecb77
3d07ef4c
bea8a1a0
bf847ca5
bf3fc379
be8a0d1b
3ef143a2
bd4c3369
bd49868e
bee39d6f
be6d4438
bee55f21
3da56877
3d76201e
bd802c2e
be2aebbe
be9bd792
3dcbbd45
be383392
becd8919
bf3fcc9a
bea291c8
bdec4a84
3d3f8d7c
bed380d1
bc202ef2
be52ebfe
3c0cf677
be25b13d
3cc245b9
be5de9af
bf348f3e
befe043c
bd03e3de
bf1b80f0
bf2fcf97
bed6dfd3
be7bc9c4
be9e8f7d
bf287039
bcba8ce4
3d14505e
bd92fccf
be4c1cb3
be14cf34
bebaf597
bf35c429
bf10d995
bda5d325
be313aa2
3e613e4a
3ed33eda
bcd8f922
be220666
bd46317c
be787383
be32b49a
bcf86810
bd54575e
bf4809bb
bf287e48
be13888f
bee70d9b
3dc845b5
be9f2d57
bce3f154
bf3e39e7
bf14ec8c
3d84a359
3d04a2ba
3d74cb3a
bdaf5291
bf013812
bf2f03c3
bf5c87f2
bfba2557
bf089265
be0a034f
bee02093
bdf0d6c3
bc6ed6bd
3e38941b
3d1aefbb
3c2b8357
3cf308fe
bdd40d1e
3e21da78
bf8bbc66
bf81471f
bed35d18
bf0f40f7
bfa58305
bf092bd3
be2743a3
be8d45f9
be1645da
bd92da01
bd37989d
3cf1f574
3dd236ab
be57a783
bf1d841b
bf208069
bf726225
bf1aa4d3
3e838d46
3e9a2462
bd28ae81
be812f23
3e0b470f
3e14d225
3edcf61d
3f077863
3f07941b
3d5b6e29
bf27f9ab
bf390a48
bf0300bb
bf5a5d00
bf3b79a4
bf01973b
3e9c3a98
bd98b76a
be56bbf1
3d7cdc86
bcb611b4
3d955507
bd06be6b
3c80fee4
3d9f3a55
be193328
be27825f
3d80d891
3f0f15d5
3f6866fd
3ee45a49
3e61c06a
3e1861b0
3e56d297
3f49ca98
3ed31298
3ea92c6a
3e852421
3edb47bb
3e949474
3ea35d27
3ea5a666
be19fafb
beb1fcab
bea1b434
3d979784
bccf0bfc
bda0955a
bc39bee8
3d9d8337
3c556d28
3d8dd327
3bc2d602
3e027966
3ec2fe80
3ebf7615
3eae5cb5
3f162ecd
3f6d11d0
3f415aa5
3d23cb3b
3e7fb915
3f6b4f8c
3f0771f4
3f02f057
3e8c37da
3e8b1844
3cbaa707
bd46f23b
3bbd4f4f
bdb7b9f0
3d72a5b6
bc2a1ad0
3d93b2c7
3d00d7da
bbfc77c0
bedb9eef
