bee02510
3d3690f2
bea83343
3ea454e4
bdde70e1
3d4ba263
bc03d843
3d9aaad8
be8a4656
3f14888d
bea4aac6
3ecd518c
bcef507a
bec65b84
3e669c0c
bed4e85e
3e104fbe
be5af46c
3e383d2e
bdd7143b
3e530913
3e1b525a
3e57dc53
be80cad6
bef125f9
bbc1b663
bb6b2580
bd3743ab
3e043bfd
3e1cd1f3
bdbaf8a7
be08193d
3d441bfe
