bd01e55d
3c65ab70
3d7e2cd6
bd82aa19
bd139cda
bd10eb4a
bb5a1b00
bd87a51b
bd3e320c
bd5defc8
3c090958
3d11ea96
bc19d150
3cd15933
ba046fbb
3cd9f82b
3ce96d6c
3d11b818
bb2613a0
3d90b3a1
3d6c9e7e
bd7d1c4e
3d15fca2
bcefa012
bd7148af
3c68f5e0
3c0f22f8
bce0a1ca
bc203e60
3d8b45ed
bd1c80bc
bca494d6
bcef0e7f
bda5063d
bd735abd
bc81abf3
bd9dc508
bc4a523d
bd9e0464
3d3e5516
3c5a32f3
3e7a4de5
bee48d3b
bf346b5f
bedb2b66
3de21fb3
3dde2d78
be52e8eb
bea4fd59
be7e7949
be7abf15
be8c4400
bb53d6a0
bd2ba46e
bd6294d8
3d0bd13e
bd354d6a
3d9af751
3be3b4bb
bed24afc
be913ba4
bdff981a
bd81fbbd
3d333ee8
be8f2858
bef28ddf
bf1dc478
bed1646f
bed042d5
beb7c090
be328133
bf207fe2
bf3cbdae
beb4b6b0
bf4b98b5
bf04aefb
bf284675
be9b7358
bead87da
3a999fce
3e065a1a
bcbe90bc
3d3c1d92
bd74074e
3b05cbc0
39e34b00
be2d2f12
bedc605c
be936d24
be4825cc
bf01b89c
bd951618
bf487789
bea5b20b
bf306c3a
3d15ce07
beb65c2d
be43c70c
3ea6b441
3ee8fe95
3d9bd1b7
be908927
bdcdff72
beb87e28
bda21718
be7ec555
bf210f50
bd2bce40
beea5aad
be720b5e
befe787c
bd896c04
bc266800
b98a8b60
be59c81f
bea414aa
be08aed0
bdc6d7c0
3e9645a7
bdb56eb3
be9c8f80
3ee5980b
3ed27134
3dc2075b
3eae4bb9
3da5ce0d
3d4e1768
3d50ae3a
be07c03d
3e8c369c
3eb2cce3
be29956d
bc2c8399
be8a62fa
bd5814c3
bd8057ed
bf50aab0
bf684b2d
bf48d25d
3f12fc45
bd6f1334
bd8d2564
be8a9ad6
3eea0c9e
3d7d86f9
3e494470
bdc53799
bf3d8059
be9d0fe5
3dc1ad44
bd609340
bd47c23f
be9ea94c
3e00407e
3e08968e
3e41ab3b
3c1b3b3a
3c6f2f2c
3eda0f62
3e4a0133
bdbc2c9a
bd1fd229
be097b02
3d3d8f50
3d909a4f
bd9308fe
3dae2bc2
3e4ddc76
3d52a28a
3d7e6964
3e9339ca
3f547941
3eaf60fb
3e885157
be80987f
bef73cd7
3d7f1e72
beb56cee
bf231f05
be805214
bdc2753e
bda7214f
bd0908fa
bdccd976
3d5f66b7
bda901c7
3cd903b0
3b9785f1
3d1d4441
bc3acdd4
3de11e58
becd32f0
3e9868ae
3e3d40bd
bd1c921f
bee2b5a2
bb060820
be19a38f
3ec2c2a5
3eec5757
3e932d56
be9ab948
be61678e
bdb9975c
bdd0fd58
becfbb18
bf521c83
3d993b6d
be5b40a1
be003745
3b4e79e6
3dc5658e
3e11b4aa
bd946a15
bdcbcd28
be7b9d0f
be002606
3b25541d
3eeb7804
bdc5cf4c
3d614f5f
3d19d999
becfcc23
be6691a0
3ef18bbb
3edbeb7e
3e04fd34
be11a014
3bab917d
be4fe4ad
be84fdac
bedbecd6
be7a02d0
be761521
bf0b5b18
bea73465
bd939069
be45bbd7
3e19860e
3dfbc0a7
bde2700c
be9cacd1
bde04a44
becc75af
be972fd8
3d91ad06
be9363a6
3c1a61b5
3bb3131d
3d369427
bd847896
bebdab3d
bd9c66b8
be480adc
be9cc723
bedf2c2f
be33ac14
3ddc39dd
bdf32e0e
bdaa9853
be95af3c
beeb7d71
be8e392c
be8c0aa4
bda20995
3dac76dd
be208036
3d8d9236
bedd536f
be66b261
3ea1fadc
3dc25973
3e07bfda
bdac55f4
bed42976
3e25b749
be6ebff7
beece618
3ebd863d
bccfd9c6
bde96380
be26ab8c
be98e21e
3f2c7f98
bcc269cb
bcc65041
3e2451e3
be34a0d5
bf06fd3a
be68eee2
be8d6938
be801cf7
3dee3513
3d55328b
be4d233b
3e40686a
bd9875a0
3dee81b3
bd2260d1
bc8d99b0
3cff4d41
be39e3b1
bebd1fdf
bec6b17b
bf4176a1
becd206a
be84c1d5
bd9c758d
bbf540d9
3e9d9070
bda57d91
3f273618
be880408
bf0e4059
3d88a965
bedfd3d9
be24bfc0
3e0d6a98
bbeccc1e
bd3780e6
3c3e045a
bd27a74f
be29ec6f
bdf9938d
be73cde5
bd33880b
bdb30ad7
3de98a35
be9c4714
bebc432c
be9f41bb
bf2ca225
bf0ed4cd
befeba1e
bef98f83
bc78e271
bd123dd3
3d549f54
3ea01d95
3e883812
beb40847
bee88773
bde1f52c
be99f9cb
3d81bcd2
3ea547e6
3e006583
bd37b5a6
3e7e3341
be387de6
be2535d4
bef5bfdb
bed081bc
bb229a9b
3cc1326c
bde35b0c
bee31b2a
be3d1bab
bde938bc
bee7fdcc
becd068e
bd0e715a
3f2e35d9
bae20cba
3d96eb5d
3e3b0f85
3d8fc5a1
3e43fc73
bea89123
be5b7a48
3cab50cf
3df51747
3e63a56a
3e2dd88e
3e60df8e
be70fdd0
bdc47587
bef96f85
bea26c7c
be7500b5
becd46bd
3dc9a5a4
bd990b09
bd343dc3
bdc8653b
be32416e
3b6a18a7
3e9486e3
be502651
3e816c19
3f0ad7e0
3cf59dcd
3d9214db
be06f67d
be0a11a3
be200257
bdfa1c83
bdf4415b
bcac1b77
3e72b2f4
3b91ba18
3d471531
bebbfb5d
bea9a7c8
3a1d2173
bf0005ca
bee6382a
bef326d4
be2af594
3e1fd075
be2625cf
3dc4223b
3d95b03c
3df10494
3eda9253
3eea1178
3e94693b
3e066341
3cfdf565
3c0bef35
3d65bcee
bd8a6628
3da96f7f
bea98b70
bc6dc393
3ea48b3a
3ea99a9a
bcba2b32
bb8737e5
bdb3a5f8
be30124d
be5b92ab
3d93c120
bed4af78
bf108fbf
be643cec
3e14c66f
3eb58df4
be3e3bab
bd739ed0
3ebdbe22
3e1ace08
bd25cbc8
3dfb2958
3eac401c
3f07d103
3e2934f6
bb339647
3d2ab532
bdc177ba
3ec3cc1b
be71b282
3d275291
3ed287cd
be25779c
3ddfb5da
3e9e47b0
3e19c78e
3e5e6a4b
bccff34c
3d2c0af1
be706291
be346135
3d68b4df
3ec969a9
3e74505f
3e1fc0d1
3ec47ad6
3f0c46e2
3ea43301
bbf0dde3
3d2ad017
3f1237c3
3efd6b7e
3edc2eac
3e676bbd
bd98defe
bd136127
3efe470f
be70d2da
bdd4fc3c
3ec2f571
3e46bee9
3e974cbb
3f213bd5
3ec783b4
3ee3fd92
bcd724e6
bd21a392
3dae5738
3e1078ed
3de06946
3e49ccdd
3ebb1bcc
3eaec811
3e4102a0
3e2cfe1e
3eb913c4
3ec6a1f3
be4d98a3
3f01137a
3eb98017
3ed4eb4c
3f00c4bb
bf2aad39
3d4e1d8a
3e2a026f
3ee667f6
bd2c7043
3e3f1a8c
3e7d71c7
3e8df119
3ebc94f2
3ea7f3a5
3ecfe7fe
3e571ddf
bd5a86a3
3d24c121
3e02a120
3e92dcc8
3e6ad6ba
be00bd93
3e13a617
3e192985
3d525ebb
3db27b13
bd7ae869
be78123c
3e7eb44c
bd9a0e7e
3dc773bd
bd0efdb6
bd244d45
3df0f499
bedf61d1
3f0c09ef
bcc63104
3eb5aae8
3c2d01b5
3d300325
3e48f8ed
bd11778e
3eabe42d
3ea4af4e
3eafd247
3dfbf4be
3e8288aa
3eb415fc
3ebe2bf2
bea89e23
3c1312d1
3e14425e
3de29056
3e6d9e0e
bd346a7b
3dce061f
3d309b7b
be6d90a0
3e900b82
bd263151
bd8663c2
3eedbb7b
be49c1ac
3ea3f939
3ccb4e6f
bc87f41c
bdc9f8d3
3c21c418
3ded007f
3dcdbd81
3dbb23d6
3eca3468
3e6c1fb5
3bc1b88a
3db0ec69
3d56d53c
3dc0232a
3d305a6b
be20e89d
3ebbb24a
bc40b93e
3f085eb7
3eb45cb2
3f0c6f89
3ecd156f
3ea5fdeb
3e0d99b9
3da2bda7
3d7adf23
3dd39335
be01c740
3e3384f7
bea2a336
bd66d357
bea6d209
be6f5623
bbf15b9c
bd4e3b82
3cd296f9
be5deb4c
3d0b21fe
3d459c51
3d2ea27a
bb9cb9be
3dfb047b
3d6e1174
be16f93f
3c2e0aac
3e98b188
3ee807fe
3ede9e47
bd0b1da8
3ef37cca
bbef2fc7
bdcf0d37
bd5d2f56
3a0445be
3cc753e1
3ebc952f
3c81ee3a
be6766bc
bc8955ad
be1c6ae2
be3a138d
bea791ba
be25d976
be0cff62
bec586ff
3c923d06
3e9da8e9
3e40d5f8
3e81751c
3e983a37
3e5a485f
be03de7b
bed80675
be37cf49
3efe3bbd
3ead9cd9
bee8355d
3e9028a4
be156f88
bd7dda59
3be89648
bda61b07
3d30876c
3dcba617
3e72c92b
3d606b62
3cfa5517
be8593ae
be333e9c
3e002d4a
be9a41f6
3d2f6b31
3e80be6b
be05cdd9
3ce88c6a
3ca5628c
bccededa
bcf997cf
bec6e1d6
bee5f7ac
bf0f3a7c
be49c270
3dde8688
bd7f1f2e
be87519d
3eb78db7
be111b32
3be61acf
bd82ac06
bd8eafe7
bd7b249b
be3fe776
bd90f737
3f030971
3d082f7a
be245a1c
3e8c734d
3ef7b196
3d89edca
bec24f68
be6821d1
bea12e3b
be866721
bf8fa7ec
bf079219
be69af9a
bf261f86
3f2092b8
3f360a1b
3e38e591
bef78c19
3e238fde
bc690b39
3cb48ee1
3e42f392
3e637737
bd8724fe
3d1efe5e
3d8075d9
3d8e9034
3ccd8404
bc7c0cc9
bf04092d
bf254742
bf61030c
bf1cef68
bf4b633f
bf25259f
bf1b6d21
bf949bad
bf7c545a
bf890f16
be5e0887
bea6a7f1
bf0b1d03
3e381229
3f148719
3f3631e9
3eb9fcd4
be95af3a
be3101d4
be90279b
3e337886
3e6a4f42
3da5e42b
bd508ea3
bd2d2580
bd9e25d5
bc81ff34
3b930990
3dbfca12
3e8f7f98
3d40de02
bf81611a
bf59f590
3d2abe3d
3d86fbab
3f68b240
3e87db2b
bf170f3d
bc32b8ba
3b500b22
bf395f93
ba2ec373
3eabfd5c
3ed7890b
3eb02bb2
bd6df398
3d107c74
3e813705
bc10b3c0
3d22891a
3d4b0eb6
bd8f204b
3b221560
bd953ad7
bd4d25ed
bd97fe61
3d1e63a0
bd932191
3c27a6d8
be18cce9
be0198d1
be964990
bdafa60c
3e33b73a
3d67d45c
3c84ce22
3df2874a
bc7d3eda
bd9c2fb5
be62383d
bb435109
3ea0646a
be0120d2
bec887b2
bed369fe
3d94dc6d
bbae8800
3d500f26
bc255c40
3e444a60
