bd3a0738
bda35abc
bd04ea92
3d9d7f93
3d81015f
3cb373c4
3cb13b38
3d65062a
bd284f44
bd0f609a
3cf4b248
3da52547
3d259beb
3cc129b3
bc31a596
3beb35f0
3cb5141c
bcdbee64
bd28ab54
3d67177a
3d4371f2
3d38502a
3d6aad6e
3d5d596a
3d2a7452
bc64a688
bcffbe6a
3d7de7fe
3c6a01b0
bd85cd2a
3d139968
3c89ee18
bbc696ca
bde916ce
bdbb9e1c
bd9c1469
bd848771
bdb92c01
bd3ba41b
3d821f70
bdbda434
bec63a89
be4c2621
bccbdeb2
3e157d3b
3c9435da
bde45b82
be698365
be168ad5
be25cd3c
bdec8618
bdba3c70
bd7644f1
bd8233fb
3d51ff06
3a382e80
bd668de4
bd819398
bd8c903a
bbe0f4a6
be382f0e
bdaa94e1
bdf99971
be045310
3d29b8f8
3f025cd3
3f0cffb7
3d916785
3e35d356
bde08fcb
be70427e
3eb9aa20
3e908681
3d840a10
3e0bb04f
be89000d
be86323e
bf085959
beca297e
be26fe4d
3dc20b97
3db06ec6
bd5c7b09
bbdd96c0
bd46ab1c
bcab8f38
bc8f8da5
be14de80
be3e5827
3e15b274
3e97a614
3e7771e0
3e226db0
3e92375a
be218eb1
3e32aa4a
3efb6b3c
3e1a3101
bd4fea3e
3e405c2c
3e8fea8b
be12b778
bf14f6e7
bdec293b
3cddfe68
be0bf5ae
bd346631
bec4c330
be57cc09
bcc50e57
bd64caf6
3d89864b
3d22490c
bd59e1e3
bdbc6607
3d25e821
3ea4a283
3ec63b7b
3e756c83
be3f0848
beeffd17
beab96eb
bc6fb169
3ec636d5
3ec36a42
3d4e3c45
beadb1d7
be4e30dd
be759c69
be4589d7
3e0a7269
3dffc1c0
3ef4c014
bcb7eed5
3d4a1dc7
bef0a426
bf0808f5
bd8f14a1
bc8440a4
3dd58b3d
3d8d2247
3d766632
3d7b7ac3
3e990f82
3cccde8d
3f058639
be2402eb
bdc075f2
3eda979d
3ea8a442
3e4b4e1d
bd042ea7
3db2886a
bde58870
bef4a886
bea85acc
3e70a4ba
bdc9f80f
3e27f7ac
be8af578
bddae6fb
be3cf42f
bf4ea049
bf21d896
bf324c73
be1d9469
3e2d5b88
3ddca048
bc1babe0
3d385b9d
beb1c67c
3ef8bd5c
be8e0181
bdb5a77b
bd815621
bc881217
3cc31e75
3e6f5f70
3e7e4667
be1c0bc4
bcf92bd7
bd461fa2
3c0a0176
3e183677
3e7ea722
be2e5dff
beb831fe
3e96e133
bdfd103a
bf08ba98
beb1b51b
bee081fe
bf91b28e
be28c7aa
3e03bc2c
3e08e5fa
bd8f01d7
3e0fbecd
bf15cc5f
3eaa7813
bdee401b
bcd036a0
3e8d649d
3e9ebb79
3e06b66e
3e698794
3dcce569
be931c95
3dcf1fa5
3e6284f0
be8c1c92
be6cbe3c
bb445391
3e5d1013
be0aa935
3e07443b
3e22a723
be2decb5
3d6b6bb4
be39dc3c
bf2ebfc8
be9e08b7
3c939fc6
3e85db87
bd8c591a
3ebfdfe7
bf16911c
be8497d3
bf5e4ec8
bde772d3
be280e79
3dbe1a10
3d69ced5
3db08d24
3e574f9a
3e028ca0
3de839ba
3df88253
3e85a8c5
3c819bd0
be058c25
be5d3dd5
3d0963e2
3d0c92b3
3e175571
be38054e
3dc6867d
3e9388ab
bf0385b0
bf22f37a
beaaab86
bda47264
bd0020f0
bd8cacfb
3dcb0633
3e6d6ed3
bec50686
be106ee3
3bc533bd
bd14f72c
3eb031ca
3dcd7ff6
bd8e7d14
3e443a61
3ee6547a
3e0f45e3
be287a05
bd913d31
be8b98ae
3daf094b
bd51709f
3ce44824
3d1ad69e
be339a9c
3ec62935
3ec5cdc7
bf1c9e88
bf48f6b9
be4bf352
bd83b398
3d4a2b7b
3d6c92a1
be3d9612
be723c7d
beb532da
bcd0d51a
3d3a8de0
3e21cda7
3e2b7a3d
3dd4111b
3e060896
be41bcd3
ba8e18bc
bedf7706
bf24ad9a
bee57405
3d50c3ed
3c9ee5f6
bd2c2461
3e2309c8
3db38600
bd79ddfb
be2c3d0b
bedab9a4
bf178783
3d7e64ef
3d9261da
bd1585fc
bd4b7701
be480c73
bed5170f
bce01fed
bf1927f4
bda68cf9
be3ef4d9
bc62cd08
be37f791
bf446017
bec71864
bf1b7280
bf852078
bf88b9c7
bf06219f
be44f9ba
3d93baa1
bd6855f5
beb6398c
3d6fbd60
3cf9b735
bdfec365
be62dde0
be87ee78
bea53f2a
bbe2b62e
bf3726bd
bdf627be
3da23545
3bc59d71
bf1b87f5
be147cc1
be8aab1e
bdd5b7a6
bf34feca
bf8748d8
bfbf85c6
bfee20ca
bf9fda94
bfb08152
bf191de8
be483bd2
be90bf88
3e1d4b0f
3e1536dd
bcca9efd
bea78640
bd558f5e
bed2b029
3d82a8e2
be9bf323
bf1f47ea
bf097e2e
3e83fc40
bf07a04e
3eb933e1
3cba19c4
3dd3570a
3deaaf59
bea13755
bf4a2f90
bf88fd10
bfcc0c18
bfdaac76
bfc811ac
becd0a8b
3d76ab9c
bde85b21
3d5b58d3
3e13af66
3e862ce8
3e7cc3b6
3e4c1eac
bdf18ebe
bd88f54a
be356dec
bed89f81
3e2aec54
3e8dff03
3e075a3d
3ee4dc94
3ea60c5f
3e1df178
3f28ae19
bd87f6db
bd5fda5d
3e553d2e
be3d0431
bf5c45d0
bf8d559e
bf8a4741
bda52221
3c78f6a0
3ef651d1
3ebf0c57
3ebbafe8
3e73176e
3dd11315
3e02955b
3e189ab4
3e79d7f0
3d92128b
3e424fbe
3e5e99c6
be0ba49e
3eda1e72
3e98ef60
bcf9e25b
3e182e7a
bdb07c93
3d3a301a
3e761a57
3c06c928
bd9cf0a2
3ed44259
3f01802e
bedbaa73
be3f7489
3dead222
3eda4522
3e973337
3e5b6ad6
3da702fe
3db143cd
bdc9f19a
3d414f6f
3d78d524
3deca15e
bd65630d
3e3e9c65
3ea94154
3e701f5c
3d15bc77
3e30388c
3eae52db
3e3155fd
3d08167d
bea2ba39
be31dd7f
3e1c4db3
bd9646d2
3e4f2a5c
3f383790
bdbb4def
beca0fda
3c701afb
3ea206a0
3ec0ef12
3ea2d30b
3e4435d4
3b99280e
3e0db64b
3b751387
bdcdc159
3e5af15b
3e9bbb63
3e610af7
3ed571ba
3ec71fb7
3e93de5d
3e86dfb5
3f1ec7b0
3e8e4210
3e16157d
3dbe78ef
bda04e45
3e88e44b
3dc2582b
bd9179ee
bd08074b
3f41687d
be11ad2a
3d3fcf91
bc8b670b
3eab6bc4
bde630f6
3e0082b1
3e6d37b3
3cb42542
bc0eaa28
be16dfd0
be558c2f
3e3ef833
3e88b78c
3e44a07e
3dcbab56
bd90c15a
3de122bd
3e500169
3edda94f
3e0ad08f
be314026
3c24423e
3ebcf834
3eafbcb0
3e868d6b
3d9122a3
3d536e4e
3e6b2fdd
3e1e510d
3e9aa042
3da982d8
bd0006f8
3dcc5fb4
3e2501e0
bad96a8d
bd236bc1
bdb262cc
bb177629
be24368e
3be7bd55
3d37cda1
3e83ac5a
3e8ac2b3
3e52b8fa
3ecc9a13
3e0e2397
be211073
3aecd303
be822e5c
3e7a6d21
3ec9563f
3f080734
3e8a65f6
bd6a042f
bee98885
bee62102
be53fd21
3efa97d8
3e0412b0
be5b3624
3e49313d
bdc75404
3cb1382d
bd5dbfac
3c471e86
be9ef09e
bc71fc1c
bc5d1005
be09eec4
3d879a46
3e1a16c2
bd93752f
3e026a52
3e1567c5
be032e73
3d92c8ec
3cd31733
38b54e30
bce121ee
3d978bdd
3daccc1b
bd604690
bec26aab
be4c4296
3e007e94
3dec37e5
3c031687
bda28437
3e2d44cf
be0c5b39
3d4c3855
3e44b74c
3c284868
bd554dd7
bdc3b6e7
bea6afda
bd433c60
be5c67f8
bec32752
bec3fa54
be1f48a4
bceb14df
3d557d36
bdb0bf3b
bd8e88c9
bdbc439c
3f0fb5d4
3e1d10be
bc114dfe
bd369c2d
3dc37ee8
3d01457c
3ce37b47
be3c440d
3e1126ce
bd8f03aa
be2624bd
bdbacd6c
3e037d19
3e2b98d3
3e01eeb5
3e1c80de
3bdae7fb
bc3cbaff
bdac8a17
bc0e3910
beab2418
bed1184f
bed91d61
bedd2c46
bda98035
bdf7091e
be008de4
3ce1efa9
3e59f429
be38be39
bd947f14
bd26fb3e
bd83a91c
bcfbfae5
beee10a3
3c7ca99f
3e70e4fe
be243ece
bec3ec6b
be2fd71b
bd83758c
3cd6f72e
3d517dc8
be46d35d
3e368a69
3b4ab5ad
be8790ad
3e6ac549
3d7e7e22
bf16952d
bf0b49a1
bed3f927
3b798685
3d9b4b3e
3eb91576
3e4e0259
bde7edb7
beb37d4e
bda52635
bcb593d2
3d76814e
beba71eb
bf3c00b7
3e20c932
bb401694
3f08165b
3f07667c
be322550
bdda66a0
bec26d4d
bc9060e2
3e16fe07
3d943a76
be3f91a3
be8d61ae
3d656743
beb22f42
bf3567fd
bf64d54f
becdaa34
3b1a1c2d
be827b7f
3c961bfe
3e0c1e3e
bdf8f492
beb96fe6
bb376e40
3d1c6fb4
3b66a8e0
3e00aec6
bf1f5aac
3e794900
3e4b1824
3e845ec5
3db7a270
3e620240
3de0f126
bc88c523
3e55ac32
3e69134f
be565023
be38cf7a
3dcc2cfb
3e27a369
3e9f5a77
3d26d2ae
bed36986
be7dfdcb
bf1f535c
bea57bbf
beacef28
3dd17b7e
3e95a38f
3e8640db
bd87e553
bd159e67
bd94299e
3c3820b6
3f0e0759
be162871
bdf909ae
3dbe4606
3ea495d1
3d361c43
be465f5e
be8c7ce6
bd7e37ba
bdff35df
bec76740
bcefeeb1
3eaa4882
3ebaeaac
3e073547
bcdd443c
beaf0f91
bf0e11d4
bf39f72a
be9ff63f
3d455fea
bb9dc273
3e00a821
3e4e8e6e
3d5d07e6
3c966aa8
3d23f226
3da030d5
bc657f67
bf3a921a
bf843b36
bf5fbd47
bd72afe1
3ef59f17
3f227b2a
3de64126
3e1f6a12
3e953430
3ed46640
3de9fcec
3e3ca25e
bdca753a
bf2517cc
bf42394c
3d788c7a
bdd5bd43
3aaa9ec7
bd567132
be091e92
3d37af39
3dbe0886
3d98e901
bc4b2d10
bd45f50a
bd8786ab
ba5ba300
3b985d80
3b06e11f
bc4cd468
3d785eb6
bbcc99f5
3de1ba56
3ed7889a
3f8716bb
3f55bf9f
3f28ad24
3ef153e2
3e889ede
3f28ce06
3f2c49b5
3e9fe03d
3e88783b
3cb2c684
bd67eebf
bbe612a8
bda85be9
bd6a30c2
3d7fcd96
3d44caae
bc0f53f8
3d903f0d
3d412dd5
