3a8fa8c5
be25e49a
bf2d1c24
3ed91d6f
beb0efc3
be82f143
bea574a1
3e720336
bef68fa5
bef39271
be8544d8
3e3dd772
bd2f5c64
3f02ca59
bec71ea1
3e828d8f
be85ef85
bf160a64
bd9e4751
bea77a8c
bdeda367
bea08a6d
3e957f33
3e108b74
be5a80d4
3cc4dcfe
3ec2d131
bf0bb60b
3d32e425
bec14a57
bebf5193
be349c83
be8595f7
