bda101e8
3c6cf038
3d2848a8
bd248253
bd94c019
bd94f29f
3d80ad6b
3ca5b100
3da468d1
3d0c4630
bd0a873f
bd4b1e9d
bd7bfc76
bcc00db4
3ccc73f8
3c2d0ba8
b988e800
bd0c2092
bd44b71b
bcc0dd82
3c7b7450
3cb3376c
3d64e4e2
bd37366e
3d1af420
3d878c63
bd70f478
bd1edb63
bd56da3a
bb929cb0
bd4d20d6
bd7040b0
bae47945
baf218db
bda01bc4
3d9f204c
bda39bc3
3d1cb74f
3d911e38
beb3f4bf
bef73bd9
be845a26
3edda2b8
3e2aa6f7
be2c8ffc
bedc7ad0
be851696
be8e3633
be75936e
3d77bc7e
bd46aafd
bd93c659
3cc60d9c
3d897ed5
bb385b60
3cb1d588
bd7f3607
3d816e57
bc041449
bf378d93
bf278ced
3cef788c
be851835
be2ef345
3d051911
bccebf65
bf2d2229
bf77a344
bd3458de
3ee1290f
bde199ab
be395421
3e1f6315
be651d18
bf293b60
bf549473
bf0162ac
be5028f9
3d987710
3d916e48
bcf93119
3d78f157
bd8fbf81
bd26e446
bcd6f60c
bda32f5a
3efd4bbc
bebba881
bf3bcfbf
bdba536e
3c5da0e1
3bf030b0
bf23e660
bf2ba23b
bf930e14
bf51aec0
bf1cc5db
be0e87d3
3ea795de
3c3d67ef
3da00c7f
3e241d79
3ee07e32
beb43b1c
bf682635
bf1cb4e3
be6a5f4a
be4f1d0d
bbfc41cb
3db37f8b
bcfd1b5c
bd029dca
bd32ed78
bd7e9578
3f27dc4a
3efae62c
bd1b21d8
bdbb1e03
be232af6
bf18fb84
bf272531
bf4a5aa7
bf20c4f6
be2c4544
bdc3c5ab
3f08cc85
3e910398
bd5b0062
becc1978
bf13d930
bd1a4784
be16efa7
bf6d0d87
be42f37d
bea14079
3d3181c7
be221c53
be67e7d7
befb2633
bd53a3a0
bd7159e1
bd9573fe
3ed3439f
3ec65ccc
bd0645f1
bca626ae
beb5c838
bf5df7a7
bfa162a4
bf2353e0
3e32fa80
3e5a27a0
3d46e859
bbdd4c7f
3e20321c
3f2b5f23
3dab0388
be269f0d
be5e18dd
beadeaad
bf4076cd
bf3c1ebe
bf38a71c
be767cdc
be5064e6
be373b94
3f2d2c5c
3ebf2178
3ca80d28
bcd4becc
bcdf3c25
be5ac1a2
3e671e69
bd68a91a
beac63e4
bf108718
bfb168d6
bfa4efca
bede8b77
bea9b70b
be11ee17
3db456d6
3ead40b2
3e879791
be0e14d6
bdf56c39
bed1052e
be97cc5b
bf2ec371
be15aa88
3f222238
3f0fc19f
3db2f258
3d685a4d
3e2deaec
3eb8deee
3d067eb0
bc4a40ea
3e2004c0
be07e879
3bff8e7f
bd7ee5fe
be0f93d4
3ecc3da5
bf570465
bece6c9f
3df789ec
3e40ddfa
bdae7228
3a57de54
3ea9b361
bdde712b
be0a4b11
be6dbae9
bf834727
bf0017be
bed9e39c
bed64759
3cf5c688
bd2bf093
bead3ad8
bd7cdda8
3eadcc0b
3e9a53b4
bd7c0d25
bec1877d
3e828d53
be8e8d9c
be24bba9
be888751
bed23e19
3eb64c8a
bec8c104
beeb3107
bebb54e0
be65e458
3e3784f1
3eac5f92
3ee2ea8d
3de7bc4c
bf01e2a8
bec4230d
bf1e7f20
bea923bf
3e8d02ea
3e1de0f9
3dc868cf
be09e4ae
be2e47ac
3f44bff7
3c2ef1c8
3f08bcd3
3cbc6e3f
bdaa774d
bbc5a268
bd2f0943
be652504
be6cae74
bdfd5863
3ea08c8e
be8da002
bed598ce
be8c5d64
bddfa7fd
be1b4f94
3ea89dac
3f001d32
3e5be401
be755f0a
be255caa
3e86f9de
3dcf4036
3e48fba8
3ec85823
3e5b99f8
3ef24ed9
3ec02f4a
3f0d0e2d
3d4903e2
be315c5c
3d857c8b
3dc359bc
bf22487a
bd3b3cd1
be831f84
be80a332
3ce0be80
3f0b93a7
3dddf44e
bf1a8fc7
be75ac3a
be9e5717
bd8d3ae0
3eaace5a
3eab3cc4
3f0e8023
be265384
3dfbed88
3ea1e0d8
3ee5641a
3e9eb332
3e10a68f
3e754729
3ebf6576
3f21d6e9
3ecd2be5
3cbdb9c1
be9ea567
bd59993a
3c800e6c
bdf557b7
3d3b7907
bf1b5d18
beb18eb3
bcc797ab
3cda096b
beaf5ea1
be90a52a
bdff1524
bdbbc67f
bcbe79fb
3dfb395e
b98f65e7
3e25ee9e
be2b3e2d
be795254
be90381a
3e89dbfa
bdb12092
3ee3b2c9
bd7109cc
3ea75cb4
3f29a684
3f2e8a03
3e201134
bda929fb
3da33d93
be666c7d
3dc91af1
3dba75bf
bf04d3cd
be942dd2
3ca98568
be2ac301
3ea6ce77
3d8d5bcf
3e3ec34c
3e3f9e44
3e2c169f
3e24f6f2
3e2751e8
bb34e614
bea56ba5
bf1983ca
bf2d6b81
3ce13dad
3e31c07c
beda9219
be2eae8a
be9440fe
be046c9b
3f0e4adf
3eda6af1
bda08bfc
3d04a8c0
be911f04
3ea366e1
bdb3ad52
becb8517
bf2b4afc
bedd0606
bd90a89a
3e9abf76
3ea42e38
3e69a677
3d775a10
bceb0a81
be779f05
3d59241d
bc3a297a
3e834274
bd8578a5
be21a269
bdda17c9
3ea2f329
bf0ccbfe
befb9bfb
bf6300ef
bf8a438b
be1d8096
3e8954a7
3d5f64da
3cc84990
3d83f08e
3e63bd63
beef0e31
be478291
be9620a6
be3182ea
be56082d
3e854e93
3eb9c55f
bd9cb38f
bee1ee60
be1b48ec
be149124
3c6d6a6a
bda6fac7
3e6a8dba
3e8d716c
bd8aa466
be87179b
bdf4d9b3
bedb06b8
bea9bba5
bf292fc5
be7fdab5
3ed4765f
3da15ee5
3d2ba9d8
3d9faeb4
bd584bde
bd178784
bf0c29a2
bc7594bb
be0f31d4
3da46b32
bd2cc366
3d708019
3ecb9f8b
be30a9f0
be818865
3eb07b45
be0e22de
bbd879b8
be61b9db
3b806569
3c7202ba
bd940b91
bde02f02
beb3939c
bebecfaa
ba9be13a
bee79632
3c7000ea
3ecbfc5e
bcb9a486
be24f80c
36d97522
bdc48ebe
bdeb4133
bf0cdc98
3e9ec98a
bc309e84
bf006b75
be56f5e0
be0dd605
be679c04
be9f1c7a
bd59377e
be78cbc2
bdd58fa7
3ce6f2fb
be83a56f
bea5fbe4
be48e650
3d88e2df
bedbb075
bee6cc9c
be14c43b
3cf28665
bebbd8c4
bdf1c944
be034b72
3e2aece2
bf39cb87
3d983457
3d9f2423
bd4497ca
bf13b8f4
3f242392
3ddc0f3c
bdbae763
bec787e0
bd5e06eb
bdb2c53e
bf081898
be03a035
bc3e044d
3e7f6545
3e8302c5
3c8be1d4
bc93752f
3e175b1e
3e889d8f
3e90fb5a
3e4b0f98
3f000877
3ee2718f
3e96e155
3d006312
bebf3320
3da19d30
bf4587bc
bef38b7e
bd15430d
be25371b
bdee8c53
3f1052fa
be542e6c
3df5f84c
be05df40
3e215a40
3eddfcaf
3c94940f
be32ae44
bd78126a
3edd6b51
3e90e64c
3e39a5e1
3d540241
3e219440
3ed68213
3e9158a4
3edbf3a2
bd8ed649
be78cccd
3dec7be8
3ef7718b
3e69441c
3d554bdd
3dabf4f8
bd61adc2
bf030983
bea994a5
3edb05f4
3d8f3c32
be576479
3eb5a65f
3eaf7619
3e0d4229
3ddd67b4
becbef88
bdc68958
be5a2980
3e13f674
3e793e3f
3eaec76e
3e5c45cb
be6feaf3
bc98985e
bdce9271
be2be47a
bf491b3a
be3e29c7
3eafa264
3f22e143
3ed7deac
3cadbd9e
3ea2e0cc
3af6db00
bd342e44
be180128
bf34e807
be00eca8
3d3e572d
3f3a4f83
3e01f6e1
bed958b2
be82d0bb
beeebc68
3d1fc376
3e8580a8
3dc86a15
3e11d200
3e2047ad
3e8a602f
3e6c74dc
3ce938f1
3e966910
becff480
bedcab32
bea08112
3e7bd7bb
3e908c47
be26ed52
3d9bda70
bd86739a
3c9954a4
3d86f7fd
be41fc15
bf4fea38
bf4569f9
3e6e2e00
3dee72f8
beb98b4e
bef0c6b9
be247676
be4dd80c
3dac607a
3b887f00
be98a95e
be205ca9
bde1766d
3d845550
be373ef1
3cb5fecf
3e37c71c
3ea50658
3c61ab62
3d65f41b
3cbd04d5
be8019fe
3e937ebe
bc689e81
3c633970
3d770da6
3b4f6d40
bd6c5a28
bf07e303
bee4a640
3d7fc680
be28b796
3dfdb185
bf180fb6
be3e6690
bd39ac25
3e24da90
3e87a79b
be88c59f
be80197f
bebf51f5
3e814bd1
3e410d8c
3e2fba56
3e9d65f7
bd3b8c93
3d7ea055
beb65fdb
beda7461
3e414fc1
3f4de1ee
be554cd3
bd9969c4
3d8aebb3
3d0d14a2
bd86e4a2
bdba66a3
3db201e0
be800007
beb64d03
3dbcb4df
bd4f59db
3ef2c9d1
3e155c39
be9879b5
3d95579f
be13ac1a
3e5e4abf
3e420b55
3e67c3dc
3f4878bb
3e0213dd
bd71bfbe
bf0ee853
befda105
bebe2cfb
bea997d7
beab2d82
3d85cb68
3dc3a29b
3d94d1db
3d999be9
3cfc1a34
3d3a396e
bde22a8a
beb25196
bd65cd4d
bed7e89c
bd22350a
3b460651
3d4b5f26
3e89c8d2
3eb5c73b
be0d6a3d
bf01197f
bd8c46eb
be12f918
bf2164cd
bc90eec3
be38d549
3e149c5f
3e62a7ad
3f797bae
3f11ed7b
3f182f4b
3ebee01e
3e851c24
3e1a32bf
3cd86048
bcea9850
bc0d0840
bd220db7
3da9871e
3d3b291b
bd6681e3
3e0c1e4a
bf19207d
b9119e24
3d8ce632
bcee1e68
be408713
be831e52
bdfd67f8
bdf02574
3e06a6b0
bf5ac976
bf4a0413
bdb804cd
3d33fd3a
3cd20775
3f130bb3
3f1f74ba
3f2d2f2a
3e83ebb7
bd46d1dc
bd8a215e
bce803ca
3d8d61b3
3c3a9e38
bda52328
3c17e808
3cf9609f
be012eda
be9df23b
bf52add9
bc2e3e3d
be8a5352
be7fe062
be3a6626
3eb6781f
3e61de96
be0ced66
3e842176
3ebc9940
bf10d9dd
be1ae454
3eb0f816
bdc74f35
3943650f
3d55d44c
3de469dc
bd3e0fa3
3d3987e8
bba689e0
3d0cd764
3d057ba8
bd72a9b2
3c1ce728
3da0d9ab
3ca3a79d
3e4322b3
be1cc290
bea6ddf0
be8c333a
bf199d8f
bf6a78d9
bf40a569
bf50119e
bf74ace4
bf0f77ba
bec3819d
3d408ac1
be335d84
bed26f5d
3e8e744f
3f0fb111
3ef87a7d
3cba9e9d
3d92aa69
3ce1768c
bcee6de0
bd959e89
bc460400
beab713a
