3e0be397
3ba5f14f
bd6cf0d0
bd9efb22
3e2a5d12
be1b6e1e
be890a24
3ea0ebd6
3e9b776b
3f3e4e29
3e181b7d
3f473162
be09a576
3e00734b
3bc89469
bf32227f
3da8f28d
3e3d4573
bdaa63e5
be0fadd8
bf3dfd29
bcf96e65
3aaae14f
be9a8fec
3e28d032
3e539823
be979881
bdd664f9
bdc63c02
be55277f
3e744f44
beac5d20
3e96daa6
