bcb9aab6
3b94f1b0
bd629ec2
3d8e7101
3d74407e
bd803645
3d154c90
3cf7c1f0
3d8e8203
3d81bd0b
bd5fe09a
bd9e4442
3d3e7d65
3cdd7790
3dc80622
3d88af7f
3d011546
bcc5e1bc
bd8cf730
3cabe758
bd002ead
3d7aeb56
bd922fd0
3c857b9c
bcbd56a0
bd897767
3d23c5f6
3d69840e
3c95d958
bb5f82c0
bd11fba8
3d034df0
bd6e1da9
3cde56a8
3e863869
3e90aaab
3e1c45bd
3e31843c
bcc3edab
bd9524f0
3dc01fef
3ed593ba
3e9cb377
3e271386
3dda6834
3e48665e
3e90467b
3e8e6e8d
3e4fbd38
3e0fddb6
3e6d41e8
3e5d0f4a
bd52934b
bd5ef5b5
bd47b0c1
3d3d1176
3d7a06ca
3d7a47c2
bcd4db0c
3de6f022
3d92f49f
3dbf4e53
3e8b576a
3edf0605
3f050f44
3ed183e6
3eebf533
3f199eb6
be955d39
bdcab7cc
3ecc1cfe
3ec29ad2
3e4978fc
3e8f2ee8
3e8dbd63
3ec0d143
3e211236
3ec766fd
3e51e26b
3e410683
3dac62b3
3dd45d89
bd221a01
bd63b50c
bd21fa4f
3cbffe88
be96980f
bdff8f6e
3e9068d4
3e455b5a
3eede1ae
3f31b6f8
3f3485bc
3dae90bf
3ca3a78e
3f069e17
3e8a44d1
3d7c8425
3e32bc90
3de4cad9
3e990f33
3e275f83
beda6e08
3cf05341
3edf459c
3e594d83
3e2ccc21
be5242a6
bec04bbf
bd3b5008
be3866f6
3cec9708
3da10d39
3d4190a8
be571a79
befd71f7
3d5a63cd
3ef52784
3e823f98
3da3b9ca
3f172e9a
3e4370cc
3ddd6b3c
3db247a1
be70b5d3
3cfa632b
bdbfa8be
bdb21a3a
bf08d858
bed8b9ff
bea37db2
bf0d362e
beac35bf
bdce1329
bf567bf8
be9d7096
beeb7a68
be134188
3d347af7
3d2b564c
bd68cb0f
3cbb18e4
3cf7c27e
3d325796
3f02f0b4
3e14c509
bf3025e8
3cf9c90f
be2fc78c
3e196d3c
3ea76ffe
bdd53119
3cc29f0f
3aa98325
bdc0f2a4
3e82c0ba
3eaf721e
be945d6e
bf0a3605
bf17864d
bf40951b
bf020605
bf225d88
be8d99ad
be62c7c1
bd7a87d7
be2aeb9d
bde61dff
3c497160
3dd6979e
bf138c7e
bed630a2
bdcf2c97
be952939
becfef83
be0d22f0
3d6bb2cb
3ea977b8
3d24be91
be9a2042
be1348be
be0643a2
be4384ae
bd399921
3ce73f66
beadcb24
beb918ab
be001423
bf1874d1
bf2fd934
bf5aede3
bec7c97d
bdfeb70a
be433ffc
3da49ca7
be1bb0f2
3d877a62
3e361df7
bf088585
be7e97fb
3eba6ce6
3f188a15
3e0b96fa
3ed57be8
3d205c2c
be15b409
beaa82ec
3c906f30
3c17b8bc
3e12e437
bad34c53
3e6e559e
3e19dccb
be0027b2
bd34c47a
be49ca94
bf6f0e49
bf837c28
bf9717ef
bf3513cf
bed229c9
bda9d439
becb5c86
bf05f7d3
3d1900d1
be4d8c53
be8f9eed
3dcb5af9
3ec8b842
3ef23426
3e0b721f
3e4cf603
be760d51
bf110ab3
bd443e1b
bece57ae
bc6b28dd
3e955678
3ec105dd
3e02a51a
bda4aacd
3d8ac8c2
be70d96f
bebef929
bf2f1b2e
bf2a12e8
bf8cec31
bf6efa05
bf03fe0a
bf455b78
bf401e5f
bec0683f
bcf4c5eb
be959bfe
3ed428a7
3d6fe1cb
3e8ad53b
3f814e37
3e8ea28e
bd4821e9
beefad78
be4ffa78
becd284a
bf0d81ba
be05675e
3e607bac
3f14e5e7
3e5db31a
3d3ea615
bd8743b4
be7d0ba6
bec6476c
bd0f968f
bed2e737
bf7d20bc
bf39f953
bee7f5b0
bf063ddb
bea903c3
bdc1923d
bd426dc8
bdda083c
3f30fb5c
be8725d7
bde0359a
3e93947f
bde3a7bf
beeeddc1
bf7bc5c4
bf16ebaf
be395689
be92573d
3c00c912
3e69c2a5
3e15f06f
3e1930a5
be16dd81
bdf4c602
bf084dbc
bea00b5a
be18bd40
be947c68
bebc1a4a
beefcf98
bec1eee7
bf01df55
beb66a23
3e95cd31
3ae74c1e
3d0d4785
be5bf5d1
bf17085f
beb7dce1
bed0910f
bf0db905
bf141b8d
bf18298d
be579d92
3e632e00
bbcb935e
3e2a4d57
3df4cbe6
3e162542
be5ffb07
bed563f3
be8d625a
bec54df5
3bb23c79
3e42fd86
3de541f2
bf3e3f3d
bf387490
be9edef3
beefe677
bed33556
bef11e04
3dab93d7
3e6f8692
be93fd18
bf6dc47c
becca8ec
bf1ac630
bf198a1f
bef01013
3d90e227
3e915c0c
3d6ac198
be04a057
3d4690c1
3ca1f780
bcd4aa73
be02c946
bdffdba1
3ce970a5
be54bfda
3c96d977
3e85b20a
3d0480be
3dc6dca0
be4bc6ae
be1a9b53
bf647e72
bf313de5
bf3b5c9a
bd5af980
3e761308
bdf7d866
bf151dcd
be2293a7
bea1debc
bf05eea3
be872eb3
3e9345fa
3e291fc5
3d6e0cfb
3dd4632c
be32cba9
beee0c75
bdab5288
be43216a
3eb0636b
3e2b124c
3d5473b0
3e157403
3e749354
3dce0c3d
3ec70ddc
3e32f1a7
bd15ed83
bf236fbe
be9010be
3e9fdeb5
be3391ec
bd9a6cd8
bd41d0bb
3c8b51ab
be79787c
be9eedd9
bea58efa
beb4eaef
3e1243fc
3e56519b
3df179fc
be01fb63
bd773081
bdb40ac0
bd8da08a
be07c5ad
3e1e055c
be458887
be7512cb
3d69727c
3d53202a
3e6a04c0
3e720dc3
3c9bf808
bf32ab3b
bf6de510
3ef26e3b
3d8d4954
bdabd663
bd46343a
3e09078d
3e33ace9
be4f25d3
bedfb4c8
3dad454f
be70ac43
be43c8cf
3e8dd61e
be02b644
be82ee68
3eb350b9
bcb376df
3d6b6168
bec95194
be76868c
beac5e35
bd2f2c78
3eaf02e6
3e21e628
3dc3ad77
3d41bac6
be904baf
bed92a5f
bf007fcd
3ea6d8fd
3ecfa776
bd47fe07
3d5793b3
3ef9b4ac
3ebaf16c
beb12050
bdd74cfb
bec47928
be982fa7
be872a8b
bc0f6891
3e4f7c37
bda9f213
3d9c2a59
3d888c2c
3d29b5fd
befda50b
be359144
bebaef29
3c8a00c7
3eb9678a
3acd674b
3e7799a0
3ed71a5d
3e107194
3f31e502
3d3bcc00
3f1b517d
3ef2fb69
bd0ebad0
bd91e7d9
3e6af4e6
bcf0c5a8
bee5997b
bce46e92
be8fc308
bc884423
be6a30ad
bedafa7b
bdd21e08
bd4b5544
3bc59475
3dd3a4bc
be4fb263
bed41f74
beb1521e
bdc3ab51
be771463
3e85cd01
bddc479e
3ebb19d4
bdca584d
be320a19
be7db1ec
be3df022
be59ae08
bcfc8eb2
3d852bf7
3cfaef37
be7e0d2e
be278dd0
bf19f9a6
bc774066
bd863fa8
be691d0a
3cbf1845
be32d3be
bd9201fd
bc8c5ee3
3cdebad4
3e611dc9
be99a40b
bdc28ba6
3cf26cbb
bc346dc4
bc194ef0
3c84782e
bd8bdd36
3ec3ef0b
be7dcfcc
bd87552f
bee34b35
3e0244ce
beb4e9e4
3e073691
3ca7a134
bd4dd2d9
bf2c0eac
3dbf6691
beea9b77
3f00b75d
3cd98ac8
3d2e3fa5
be280b34
bce9ac10
3e4fc971
3eb8db50
3edfc0e8
3eecc548
3e043bac
3d6b7772
3d096859
3e076bb9
3e503e2a
be179eab
be3c749d
bce46464
3b03e771
3eecf327
bdcadca5
3ea1b17b
3decdcab
3da74514
3cc07f38
3cef1709
bf34957d
3d6f68a1
bf3526fb
be07d2fc
be4f3296
bd9426e6
be6ddd96
3ef0631b
3e74cee4
3eba27a7
3f142515
3f1e404d
3f0b0213
3eb90ea2
3d1f1847
3e14d8e7
3ee83ebf
be2fe7cb
bda74aa8
3e264907
3e4765cd
3e47e5eb
3e27280c
3ec4d27c
bdaafac9
3c2fb6d6
bbe1fdc2
3e0ae2a7
be3b968a
3ec1481e
bf085677
bf8f0a71
be964dcd
bc3aa5d5
bd82545f
3cd4b011
bd2e84e7
3cff1bc8
3d9c8bc9
3e8418a9
3ce1c2e1
3e97e9ba
3eaa8c27
3e6f3c8f
3f3014fb
3ede11ee
be28c4bb
bf3438a2
be1fa6c8
3eb74cef
3f4b14a0
3ef2bb63
3d16dc93
bd8a3c09
3d73f541
3d4c11c2
bd95acdc
3f195d28
3e773ed5
beb0f981
3d3345f2
3ed1cce8
3e14fb6c
3e57c5dd
3c9b8b08
be33d517
3e251fa0
3caaaa8b
be4d64a5
3ebe7972
3dec0955
3d1aedf3
3edb0ee4
bdb13a85
be86532f
be2c5545
bd574953
3ebd1204
3f1a0a6e
3ce9f1b9
be84e330
bcc3f6d4
bd87e284
3d9042f1
3e491e82
3eb3e696
3d56ef99
be3d745d
3d70fedf
3e228f62
be298bfa
3ed8a746
3edf9283
bcf4f854
be734029
be3c2a43
bd24844b
3ea72f2f
bdadbac8
3da32c38
bd58496a
bc0523d7
bd85b2a5
bdb59c97
3ec62355
3f7ebd97
3f4ef8c9
3e027aa1
bd8e3ae0
bbe15c40
3c77e7f0
bd11f396
bf211d69
bf1169c6
bf006c90
bec75026
3ef1d843
3eb54cdc
3e6915ab
3ecedabb
3e856bee
3dc34e42
bc385df3
3e2f2049
3ea71007
3e5aa106
bda3f11c
3ebd34b6
bdd916d7
bdde1ef9
be478bb9
bd3f6b1e
3e7f94a9
3e747ba8
3f065afd
3ed2c37e
3d347b23
3d211c4e
bd9810ca
bd3a920a
3d27e0c4
3c63d421
3e2b090f
bdbb2ee6
3dbdae9a
bf09dd94
bed0c4a3
beed8047
beca3aa4
bf244cf1
3e63e139
3e6b855c
b99cbc1e
befd8543
bf510915
be4d1dda
bdf186d9
3c2c177b
be1b5890
becc5543
bed1b815
be48ba88
be1e7b2c
bd9b79ed
3d71dc76
3d3f3eae
bcceb620
bca91f70
3d906037
be838e07
bea6a774
be021135
be0e7c5e
bf0642d1
3db15e28
bd9a63e9
3e1fcc17
bf015ac6
befeccd2
be6bb813
be89f66e
bcf26968
3cad457b
bf54baf7
bf3e3c9f
bf3bba77
bf000fbe
be093c95
3cce8420
be14b1ee
3c570a5c
bd92ffd2
3d2d6c6e
3d450b9a
3d70bfea
3d647ef6
3d29dc34
bd5dc3f6
bdc4a9bd
bce4ec2f
3ae2f01f
3b222809
bc823820
beb5e975
be6af85b
be4b4afc
bf338283
bf072b2b
bf2c221a
bceb85d9
3cf5db73
bf0b0ef1
bf32edee
be8999a3
3c841dba
bd733556
3cd7b2f8
bcc84682
3cc5abec
3d92df75
3d18767a
bda58348
bf3d184d
