bd1e8ddf
beab5f1f
be589812
bdbbda8c
bd5bf06d
be8ece24
bedc603b
be022c74
3e1cff93
3eb57666
3e780b34
bd6be1d4
bea40045
3de606f8
be7681b9
3e7da74b
bca0c229
be6862b2
be959dd1
be063a69
3c866b04
be84fa64
be8f7619
bdedb8ef
bddbdcb0
bea175ea
be295659
bc017957
3e507c28
be0fb1fb
3d6c38e4
bcf09548
bdd2fc66
