be164f5d
bea82678
3ead497a
be0492cd
3e557842
3d4c5337
be933fcd
be8ddd32
be80f163
3e8a49c1
bd9f2839
3c8118a1
be271745
3ebee568
3dbbe904
3e0978e0
3f0b979b
bee638cc
3eb82b54
3eb4b612
beb1d6d2
3e50640d
bbd56a2f
3de03ab8
3e3dea92
3eb7054c
3f02f34c
bdd2ac66
bd9690af
bdafe185
be948d6c
bcb2d5ae
3e2c119e
3f04b008
bf33bcf6
3f24980f
3e0609ad
3b844447
bf39ccec
bd97ac9d
bdb66371
bb7795da
bdfcb7a3
3ea01ce1
3e392f7c
3eb1bc85
be2b02b7
3f37868e
bdc1bdd0
3e67f393
bc1e56d1
3e8da1ed
beec057b
bd99a303
bf4e1c8d
3e344cb5
befb39a3
3ea0d95c
bf6f04ec
bea8635b
be2ab428
bedeaea0
be0f1d95
bf6ad746
bf471db4
3e0cef96
3eb71785
3e28b8e6
bef3c433
3d10578b
bef655d9
bf0883c7
be2f6f23
3e363e11
be986e6e
be3d20b6
3dbccd9f
3eb469ea
bd19aa6a
3e434035
bdfd6fca
bec54e07
bea34e32
3dcd2fc0
bd2d1d3c
3d382753
bea9d3a5
bceb7f9e
bdc32a94
3ed0a73a
3dcdb582
3d15b8bd
3e1f3b89
3e3d26f3
3ea7d7c8
bf1bee42
bf0899e0
3d30a6b2
bf0dfbf7
3f20905d
beeb4dc2
bded2444
bd8782de
3e06137d
bc13e4dd
3e459da4
3e02dd3c
bebe7725
bef78aa0
3e896f76
3e14a3cd
bcf4e95e
3e801d76
3e4b4d49
3c0b8889
3e16583e
bde82cd3
be17df53
bdf19f7d
bc14d287
3ebd78da
3da0893c
be88875a
bd8757a6
3f10d2be
3ed8606b
3ed245c1
3e92fb07
be61a535
