3d6fa14e
3d619dbe
3c9e232c
bd3d75b0
3d9026a7
3d5cd60e
3d47d54a
bd7f50cb
bb902810
bc0f1fa8
bd963533
bd1427d0
bd648a3d
3acc69ed
3d12c4e0
baf5df40
3cc971a8
3d8854cb
3c54bff8
3d80c0f5
3cc21d00
3d269fb2
bd8cc0ea
bd950d22
3d9f59ef
3b9cf060
3c158930
bd99e8db
3d0e0820
bd8c16fa
3c8808f8
3d97d7a5
bd4378cb
3d78da94
3d7a4c9a
bd05a00c
3d994a17
3d85be5d
3e2ba57c
3e0ba2b1
3bf148df
bccedb4e
bd2307fb
3ddeb7c8
3e433732
3dfbe641
3e138bcb
3d662692
3d7e094f
3b9be57b
3d6d5b8d
3d2e0494
3a000880
bcf3ab4a
3d21e4ea
3d800dbf
3d0ae23a
3da26de1
3c83e240
bd5753e6
3e367fef
3c889f60
3bccee53
3da163f4
be2b814d
bf17b5d9
bf0f4055
bda5a56c
3e867f56
be55d889
be8bc494
be6d22e0
bdcb25e9
be39e49c
be489603
3edac7a4
3e3e60e6
3e4dba8c
3d87258e
3d39961d
3d7eab75
3ba7710b
3d6d5b3e
bc0b05d8
bd644c58
3bbdc830
3c286ba9
3cbf9c05
3e07db91
bcfa0ca5
be800fcb
befc6e82
bf13058e
be46d55b
bd1bbd36
3d8d742a
3de939f1
3f04cb2d
3e853203
bf1be008
bf145833
bf20c206
bdc40b97
3e8d20ce
3ead2263
3f249295
3ef0bbf1
3ea8a26e
bda4064a
bd692ab5
bd581322
3beb3820
b9feca00
3d49c23a
bd746033
3dab2aa8
bdc54017
becd964b
3d2c6c08
be412dde
bddf433c
3c6547b6
be876c03
3e8c1468
3dddcb1f
bcd4f437
be0a443a
3e338b69
3e7d0dfc
3d3ab514
3f02e09c
3ebd999f
3e1c423a
3d709508
3ee7f513
ba8c519d
bd8a7f62
3e08a228
3c8373a1
bd75068a
3d2a2980
3d5bde32
3d823509
be945e05
bf14b5a0
be8fe3e3
3dfc06ae
3bfca146
3ea10a8d
bdb99975
bdfd5a73
be19fc88
becd055c
beb8555c
be25857a
bebaf5c4
bebe6f9c
3d5b07e6
3e7b1288
bd82f995
be81a13f
babcdd0a
3e52379e
3f00fee2
3ee070dc
3e9c7c47
3e796e7f
bcac7789
3da45d23
ba0c6480
3b18796e
bf593adb
bc83a720
3ee21bf8
3e3b39a7
3e54cb09
3e89aaeb
3d838560
3e6286dd
3daa5536
be88deb1
be8786bc
be4b1e88
bcfe53ff
be0d253b
be52b68a
ba71ca64
3e413e79
bdcab1e9
3dbdb6ff
3e21d049
3eaa28fb
3e9cfa18
3e905f05
3db61691
3e1cd7a2
3cb1e008
bcfec5a5
bda1cdc0
bf0ed1f2
be5552a5
3e97a4af
bd91d621
3e97fba9
3e6d9046
3ed0af83
3eceb2c9
bda529ba
bdf0bd24
bd45795c
3cf42d04
3dc2ca53
3e25dbfc
3df2495d
bda64dfb
3e42368a
beb35e49
bee30af7
bdb1378f
be398dfa
3de14f1e
3eb2b770
3e832be9
3d85f130
ba1117de
bd4e96a7
bd30a577
be8ac3d8
be333c61
bde79b18
beb79d64
3db7175e
3ef983d6
3edff6bd
3e97fb68
bd9f42b2
be61dd71
bec0bfa2
3cfcf9e3
3db9291e
be6001fa
be6bd404
bddcc432
bde67461
be5eb940
be8c973c
be0f8208
be16b42b
3da04fa6
3e53908d
3f109681
bdd10e50
bda0c459
bcbd7c76
3eaa91d5
3c9a8b30
3e415e89
beacfa8e
be0dcc90
3e8f73fb
3e4fc9e6
3e8dcdbf
3ecec50f
be288b00
bef6b5ec
bea556b3
be5f988e
be647910
beb3a340
bef80935
be4f9c0d
3d62bbaf
be133370
be4d1ca3
bdfabd8a
be90256d
bd3bda28
3eace433
3f1b8e18
3e85a476
bc7c74a6
bd5a255e
3f2fe8e1
3ed10a4a
3c31d772
3e518373
bbebac6e
3d84967b
3e61db7c
3f172907
3f10ff71
bd45af0d
beaed649
be9f23c7
be6045b1
be94a6ae
bc26c021
bab6b089
be76dceb
3cea9326
bda5f770
bde5f507
3e0e5567
beb51b4d
bd86c72e
be9aa38a
3e977f36
3e8aa306
3d26b439
bd6b8ec7
beb1b4cd
be1faa1a
3b528c63
3ecec61a
3eb40e16
bdb793d4
3ea283e0
3f05d3c3
3ed4a68d
3d275cde
bedfd82f
bf1c1e7d
be1121a3
be0450a4
bdff22e8
bd689959
bdacc167
be873834
be70795f
be084106
bdd0cc7c
3e8a5985
be4d2940
bf4a32cc
be06ac48
be51b221
bd46f000
bc7227f1
bea93e1e
bd9ab069
3d869dbe
3ed69088
3f005c68
3e8921e5
3e941d40
3f2cb71a
3e4f5497
be186e3f
beedd055
bec9405b
bf0a38a3
bef0c80d
be84a692
be2eed86
be8d96d5
be8caabc
3db484e7
be25181d
3dffd914
3f4ff9c5
3f03ec89
bf081a66
3ea7c94c
be9ff020
3ca8af48
3ce3d5f2
bebba8ea
3d143fbb
3e215657
3ea64df2
3cf82d1d
3ed0c896
3e3ac72c
3e81f8e7
3edd66c2
bdb668aa
bef1a98c
bf1fb929
bef7a1c5
bf1c4970
bf23b37b
bdc336c5
bdf89bc4
be6032e2
be75a20b
3eb307ca
3f0be949
3e485ea3
3ed0c0c1
be02f0d2
3e8a1030
be171c6d
3d83868c
3cef660e
be50ad71
bec2f7e6
bda7bef3
3e987d33
3e7a2131
3e6dca76
bdbdc618
3e8b82a2
3e4b16f2
bdf28347
bed01ee0
bef0af53
bf0db85d
bef397bb
bef5fd54
bd997868
3e2a3098
be4c9091
bd19474e
3d0bfb62
3eb9a748
3d1531e9
3ee4f891
be361b73
bebc296c
bd8830a6
3c39fa89
bcc40b46
bce71514
bc16a152
bdccc1a0
3f1ab646
3e19d926
3dfe6437
bc2bd461
3eaa0283
3ec08f87
3c457d6b
bd2706c6
bd5d88d3
beabc0b7
bf0fe89b
bf4a7481
bed521e1
bdb52625
3e164fba
bcd53d93
3d80a9f0
3e07fd0f
be08783c
3eb8e318
3e07680b
be80bc88
bf24fa53
bcba3bb3
3d8e2ccc
3db0824f
3e0c2cc7
3e08546d
3ed9a647
3d74e8c3
be079727
3e156660
3e59fdaf
3dba4d79
be0224ff
be6f2cea
be863c1a
bdced937
bda46785
bf526709
bf26ce21
bebcf60a
3e3db685
3eaf12d7
3df16519
3e8a2a71
3d2350c8
3ec5dd21
3e2b5e7a
bed6e29b
bf37993b
bd2b778e
3966b64a
3ebed665
3ef2eeac
3e8f36f4
3db54fbc
3e0a0a0e
bde98bc3
be664b0f
3dfa26d2
3ed6f599
3eb85130
3e3e5842
be69e1b6
befbf40f
bf3b0b8a
bf6340bd
bec441b4
3d29de2b
3db5d02a
3ebc96e2
3e527bd0
3e5e0ab1
bd629a62
3ef6b642
3f0d2e0d
3b94670e
bf2331df
3d00a774
bd35d22c
3eace01b
3f125e00
bedf27e8
becece45
be3beeeb
bda6c76e
be2b9c1f
bb8c9af4
3e976e62
3d8c3d8e
be4d4ec0
bee40431
bee84599
befe38fe
beb10a20
3d96fd80
3f02fdb3
3e5a2c6a
3e4e284d
3ec0eb08
3e6374d4
be24ba06
3e9b83b4
3d7f9716
bef6473a
be90817e
bd51aa6c
3d6bef6b
3f0e2e04
3f369749
bd88b973
bf2aaf7c
be7ce671
be456068
be5dcc3a
bdaaae65
be119247
bdfecbe1
3dc5e3ee
bec3fbb4
bf164b40
bf1f5b47
be9d49fb
3f1c9c3f
3ee79bb4
3e3ef7fb
3e99f947
3e190db2
bcaa7a55
be4481fa
3e52a05f
bd7dd793
beb6446b
3cba4200
bae86900
3d90fbc5
3f10eb8e
3f3196a7
3e919e16
be914f4a
bedd5146
bf140bc9
beec5530
bcb1c1e4
be5536fe
be0d97e2
3ec139c9
3d148a6b
bec5d7c7
be9d92d3
3e5f7323
3f096e93
3e6e0bb1
bdadb8e4
bc9802c8
3e15acca
3e2c126e
3e7a6462
3e31e8f4
bceba30e
be3ef86d
3d9dafc3
ba569980
3d67f594
3e36dfb3
3e06a8dc
3ee97e80
3e7e0dfb
3c27e625
be859cd5
befab5b0
be944f1e
bd0f69ed
bcba20f1
3e61098b
bdfe2b10
bc11607c
3e90f72c
3e5e559b
3e45ee91
3e16f33b
bde8936b
3d4480b5
3bcb15a3
3e82253e
3e6ccbe9
3ef939f9
3f05ea62
3f0958e9
bd8cd695
3d95c31b
3d9b4e0b
bdb47aae
be330fa6
bdaf75d7
3ea8bf5a
3d97ac6b
3ba9a91b
3c8093e5
be3a3d3d
be3d9574
bcae3b59
3d9fb8a8
bd46017e
3e6b85e5
3e78837e
3e90536e
3e377335
3e018053
3d65fd7c
bd328785
bdcc72bb
3e1f14ea
3ebf3658
bd267d1e
3ee5d6e2
3f409bd7
bd67c858
3d83bf9d
3d13db8c
3d2cc0d9
be3863cf
bd9e8d2c
3e14cfc8
be2e9437
bf1ff395
be78df67
3c9a9f31
bcb2be88
be6176f5
bd09899b
bd454085
3dd21940
3e48eac6
3e48cea9
3e194284
3ce95b13
3e2a0340
bd99e21e
3dcb654d
3d895ce3
3e2a1e3f
bcba3356
3f021674
3f1d060a
3d833d05
3d74e6fe
3b8ef5a0
3c91669a
3d44d9f7
be39c141
be5757b4
befb4166
bf0ec110
be2be1dc
3e0a137a
3ddcbbd4
be0b22cd
3de69ee1
3d946b6f
3dde16e5
3e852f56
3dd5ce3e
3ed7dc7b
3c679983
be4d0f9a
be905ca1
bd9fc48d
be8302e9
bec66103
be0b7527
be80bcf0
bd19e5e8
3d45622e
bd3193e5
bd21f0a3
3d079d10
3d7c9dbf
bc475555
3debcf7c
bf0f7248
be6df3cb
3d6ace9b
bcfac445
bc52f609
3e37c4db
3b511fe0
3e038354
3db2ffe5
3e385b00
3eb6a1a6
3d0c3486
3e163e0f
3daeb193
bdf2ca1e
3dcf3a03
3c265c6d
3cb74ab2
3e7e7753
bcba7295
bd0e46e3
bbd2b680
bd5c8d49
3b49d280
bd07ad7e
bcc1bef4
3d484d0a
3acf1e9e
bdba46d8
bbc976bc
3ea1be0c
3e8e7bbb
3d0290c1
3e2d2398
3eb0391d
3e1498c9
3d142d24
3c4c6f70
bea6d460
bf454723
bec7fb31
bdc3c0b8
bea79b4c
bf1550c2
bf231fcb
bec94f64
be2f3f7a
3d42263d
bd15d1c9
bd8d3626
3ce8546c
bd824537
bd15b974
bd05a9f9
3d6a9d4e
3d601fe1
bd2a6261
bd93035e
bd2470ac
3db21d85
3d1f0d25
3e119f1b
3e11d8bd
3bb41e10
3ea9ed90
3ee447e3
bd281ec4
be9a06e0
be8689d2
be60edfa
3dd2ec12
bbd88354
bd6d5e19
3c05478e
3d41cdbe
3cae91b0
3d986aaf
bcfe46b6
3e64aa89
