bc00e168
bd513ae6
3d9e4287
3c31bcd8
3962d400
3d876005
bd23907e
3bf2e420
bd9ce5df
bd646d84
bd0da4ed
bd9f5c00
bc21bece
3ce92143
3ccd6d3c
bcd45e82
bd06310b
bd9a6deb
3d817715
bce4e946
bd75e2a8
bd9e3aa3
3d3c802a
bc29d790
bd662de5
bc4e4f78
bd056108
3c6c94f8
3c23a5c0
bd4659ad
bd170d4f
bd61120c
bdb29af5
3d64abb3
bd2b117e
bc9d4f7f
3dc4837a
3d0eec9d
3e491ae3
3ea0a255
3e4e2699
3ce0ea1c
3db1ca39
3e43e272
3e7794f9
3d13d1db
bc2161cd
3c9d34f1
bc62ad18
bd3f6490
bb0ad997
bdbdc28a
bbf59e30
bd8cfae4
3cdfb810
3cef4eac
bd5b5644
3d378caa
bd6e31b1
3b633c40
bc8ef0ae
bd87ce50
bd0173ee
3d577c75
3d57532e
3ea0d6a8
3d849103
be12eeb1
3d81ff05
3e88b2ff
3e944c5e
bba35a64
be114306
bce8743b
be9f76c8
bf0484a5
beab2f82
3ea32caf
bd8c359a
3e3686b8
3edcdc60
3dccbd78
bc8b0270
3d22f6b0
3d38b05a
bc0862b0
3e61524e
3dc55613
3d064ed9
3f238b22
3f39ec81
3efe2bfb
be033ff7
be5a74af
bf02b921
3d84edbf
3d2e56fd
3e42177d
bdbe7f89
3e325086
3f110420
3ee0d4c7
3e505d12
3cca64f0
3d1ab37e
3eacd48a
3f02ea63
bed5d7b3
bf0fba38
3d3cbc84
bd3604d2
3d8b9db3
3ce0a7b4
3d8efe56
3e86d95e
3e95f344
3eaa94ee
3ec4bddf
bc8a95d3
bd253b44
be0d3f15
3e2cb0f6
3f0b9bc5
3ed5ec95
3ee604f6
3ebc3afe
3d5f0abf
bda68c5c
3eb2df3f
3ef2d330
3e8bf02b
3e9d4eb1
bbcbe31b
be9f4786
bcd067b2
be1f2443
beb9dcaf
3e25d499
bec54051
bee9ebb7
bd36e98f
3d5ed2de
3eb4a462
3e2fce9e
3f016cd5
bdd90087
be1ae6f6
be0a0fff
be017858
bdeda602
3de0470d
3d023b2d
3e0e827a
3d96c84b
be56d777
bea4031f
3ef24759
bc3118be
be4d8f2d
3e56b30d
bde581fa
3de7b92f
3d90adfd
3de0ddf2
3ea12e6b
3d94b33f
bebdba77
bee6bc8c
bd17efb0
bd2c4cd3
3f0e6e92
beef5080
3e85a59e
becfe7d5
3d31efcd
3eba9850
3c6ca7ed
3e2b5fb2
3f051652
3e657d23
3e722b3f
3da8c7d2
3bcb9e1f
bd15eefd
3e9b4097
3dcededc
3e0ffdc7
bdb64659
3e2af565
bda55bd1
be1fdbf1
becf85b2
be4b38b2
bf111fbd
be9abaf8
bd91c45e
3c69ab28
3d3a8b97
3ea13227
be745aff
3ebfcb74
3e6c0f4e
3e2baf80
3e6cd7f3
bb1ba589
bcb8c62c
3de4b2b6
3e0f76e7
bd703514
3e0954ab
3d356b4d
3db30f13
3d809eca
bd731ba6
bbd70dff
be493184
3e25d118
3e9d630c
3ebaf4ed
be923471
be77b577
bf6018f9
bf173795
bdb98413
bd48638f
3d67abd6
3e4a2310
3e2ba377
3eb8a88d
3e87c3b7
3c95bf09
bddc12ab
be89d48b
3d2909ae
3cf44075
bdd5b235
be673658
be1d1309
3da555ed
3e2e3b1f
bd6a92fc
3e0aeb85
3e412b2a
3e1462bd
3e265040
bd25959d
bdccabc3
3d827f5e
bf6618da
bf71d2dc
3da7e4db
3de96949
3da03411
3cac2b12
bd41708e
3e18895b
bdc9ddab
3dcfac3a
3b78e029
3dfacaf4
3e4cfa47
3cdbd1dd
be8ce53f
bd2fe007
bd94c3b4
bea36961
bdb575a3
bd102416
3d45512a
bcaf9c96
3e9763dd
3e8737c7
bde442f9
be128b32
be9150ff
be0af1cf
bf32b762
bf62a804
3e39e03c
3cc9591b
3d5d6777
3cf730e5
bd81eb32
3e6e6526
bee1e49f
bc86e9ae
bd450d1c
be98f3a7
3e97b930
3e35fb2f
bd44ed37
3deded0d
3b44e1fd
be7a27fc
be5fc0cf
bd850f25
3d9fc757
3d3b7a08
3d08c492
be17744d
be2dcf5f
be11d1a2
beb8ead1
be5fb93c
be805691
bea5b166
bd965005
3dde2b03
bd92ba80
bd933a3a
bee17ce5
be156c2e
bedd541c
bf2d3b4c
bf23df86
bf4d7e4f
bf4cd913
bf839165
bed720e2
bf11085a
bf6f620f
bec2d02c
be3b0f64
3d470fa9
be519716
be82da2d
be8e4a1f
be480378
be35dad4
3dcc2af0
3d8e47b8
bddecd8f
3e4152cd
3f0a0199
be89c65f
bd61de4f
3d1f40ac
bca75aa0
bdf08052
bec0ad21
bf756600
bfae1416
bfa93217
bfadb2ca
bfa66c40
bfcbcebf
bf838c40
bf74a51f
bf37520b
befeb897
be038da7
be6e84e6
bd0bae3b
bdfd7feb
bea42fbd
be27668b
3e5d980f
3c3a4fce
3dabb313
3eac386b
3eb5db7d
3f2dcd3a
3ed5a3d0
bccac96d
b8d87b93
bd1ec9c6
3e57a5f5
be9f521e
bf073b8b
bf2328b1
bf75e470
bf5c1011
bf0ff384
bf7e74a6
bf26b54b
bee87ee3
be26dc99
be956a85
be8f58c4
be87375e
be647674
bdb0a466
bea2efb9
be1f9e60
3e37ee24
3ccaf937
3ddf82c8
3eb71fd2
3eb5da10
bcba9528
3f15f13d
3dbccb1a
bd4de16a
bc18bc78
3c8c6e3f
3e344993
3dc3ca56
bea33adb
be9b85d0
3e236a70
3c887f30
3d6b5572
bdb703a8
3d3106e2
bd7a03f0
bdab97db
bcdf6762
bdd4576b
be590e64
be6ba111
bd3ff29e
3c5a440a
be06295d
3c8e3f35
3e00ddce
3ecb4f7c
3efe4b46
bd9e2961
3edd0035
3e2a1297
3da01775
3d1148cb
3e69c96a
3f088293
3e0632ac
3e90745b
3e522bdd
3d1bd543
3dd0b72f
3ef1455d
3e76a265
3e947e59
3e9340c2
3efa2541
bcf92e30
bddc1862
be8e731f
befb8d69
be68e772
3c4a31e0
be561526
3d9cab7e
be2a610c
3d9adc73
3f1bad74
3e21b5a5
3f0ebf9a
3da9832e
bd56396c
bcd81d66
3f214f55
3e4c7ce7
3e18181f
3ec812f6
3ee251cc
3eabac15
3e1e809f
3eb79c1c
3eff5e3e
3e9831ef
3ecf60af
3f03900c
3c84801c
be0ce91f
bee816b2
bedef653
be4bb766
bc1274d3
bed99b60
bea8f3f4
bed110f1
bc849da3
3e8af7f9
3e9be2fa
3f180782
3e870213
bd158754
3d4253e7
3f0e5c73
3d7d1344
3e76db40
3df9db0e
3e723c84
3d2c5505
be7edfc6
bd834196
3e9e517d
3eaa1b26
3eec4177
3ea31e07
3e80ab5a
bcd01af1
bec76d71
befbd491
bee287c3
3d459ec9
be5d2108
be90f889
be81ef17
bddc3c3f
3e1d179b
3f05b5d8
3f2ee5bc
3f1c37cb
bc55038d
3d545a04
3e3af70c
3f1ce569
3dfccb10
3dd769a9
3e4c6f48
3e6da085
3d315f45
3e325bad
3e27fe4d
3e67a182
3ee00c1f
3e79d287
3dc4fac6
bec32e29
be2ee6f1
bea738fe
bd6e2d15
3dc16f61
becbe9d4
bb349583
bd334472
bed0a1bf
3d65ba70
3edf351c
3f3481c1
3ef072ee
3cd098a9
3d9bc26d
be50aed5
3ed712bc
3ea4d4db
3ea1b77d
3e4444a5
3e03182b
3e250d83
3d4ff8d6
bddc7534
3e20f1be
3e39b9fc
3e9bfb48
3bd4da89
be8e01c4
3e2db471
3de27274
395b2778
3d43bf9f
bea51324
3e0cf3bd
bd807a4c
be654472
bdb99966
3f2e52e8
3ed80bd7
3c3b126c
3d810d63
3cd4f69a
bd2da136
3f33c734
3ec551ed
bcd3143c
3e6106f2
3e16c38a
3e902ebe
3d48346c
bd85f660
be1788a8
be31d85a
be8868fb
bdeb7b29
3dba9a77
3ebefcab
bcfa2af8
be831531
bded8b7d
bdb6a47a
bd320f06
be4d7506
bdb797d1
3e89c59f
3f7c98c8
3ecad043
3c901272
3d2410a1
3e2f1968
3ea0d44e
3ea1fbf3
3e6f93d8
3e78b80a
3d495a9e
3dec6066
bd9d37fe
be185905
bed0715c
bf10b4b1
beeb3c7a
bf0cf982
be220396
3e4c3ea4
3e5bad09
3e6454c7
3e47f5ae
3e3d757b
3c833c2d
3e0add78
bddbb2bb
3e64ec3b
3f0cfb83
3f394566
3ead3250
3d5fdd72
bd73c330
bcc2a308
3ef9ab78
3e564298
3e4cc8af
3efdefba
be5a98d9
bd9aeb7e
3e6b83ca
3d0165e3
bdef3854
be8aa8bb
bf0ef94f
bedfb945
bd5d9ac7
3d3d4809
bccdab4a
3e86bfda
3eb734b5
3ebeff8d
3db6a5b8
3e73cb59
3d12ae80
be6eb7d4
3f138352
3e512d6f
be5555dc
bd8ac6ce
3d73a902
3d48ca26
3d85a24e
3ed2d776
bccf3cba
3ea1b2ed
be29e617
becc47de
bc9b6ac9
3ebc0257
bc9b2ac0
be99a922
beb57d21
bdcfdb10
3d8bace3
3e8d73d3
3d8e2123
bd6aa131
3e878aea
3ea28d7b
3e03783e
3f1d4938
3ede9bb9
3e670f5f
3efb110e
3d0f9480
be443f2e
3d2f6318
bc109408
3d9e7147
3de5f264
3e0c835b
3e0a8fac
be9c6822
bf6c2ad4
bf0827be
be768620
be9a318c
bf112a49
bf154077
bdadf533
3e6621ae
3ebc807f
3f0ba5c5
3dda5fa4
3dc731bc
3bb23c42
bd1cd107
be488d45
3e517b51
3e999d8c
3df38f78
3f4101e1
3ecc7629
3e82a0a4
bd7f11f9
bd99c7ae
3da43adb
3d889ad7
3e04f9e1
3ee80745
3d316ec0
becc88b2
be5b2b6b
be4465d1
bf03e3df
3da85192
3ddd66a4
3e81c908
3e41f526
3e096b31
3dc9d6f6
3e8708ba
3eedc0cb
3e98ae36
3e7237e8
3ecf90fa
3ea551e9
bee81845
bd91b3ed
3e5db7b8
3ea5e51f
3ea2b93a
3d17a5a8
bd8c997f
bcd38b10
bd429d42
bd893c53
becd8ad1
bf252f78
bf17dc81
be551fc1
be924d34
bd8fadc5
3e646bac
be1cc29e
3cf9a966
3eb81579
3eb0d6d1
bdc25457
3c1e4f66
3de9caf0
3d95e657
3b8be0d8
be89332a
bebb0dc0
be24cee8
3d5fcb7a
bccbde32
bc63fce8
3cf27bd0
bd44c4b6
bd75b46c
bc81f3a4
3d7c69c2
bd983b84
3bee4686
3be1e629
bd2a6fb9
bd045823
ba26ae6d
bca11bf3
3d967ba4
3c0fa732
3c22b0b5
3cd7282e
3d9cde1d
3daf2371
3d800c2e
bd989bcb
39ea0307
3d81a5b7
3bd046b8
bdfbae3c
be560bb0
bb4e9da0
3d826217
3d9a724d
bcb8e240
bca1d2ee
3da18229
