3dc9200f
3eeee7ec
3e38c71b
bdf7b95f
3eb5555c
3f1594a3
3e03bdc7
bdc073a9
3d82ec6e
3d9a05f8
3da1b7fd
3d2683cb
3e9d6b8c
be6d7446
bc56c24a
3ea2ee20
3e4ba7ed
3cbf380d
bdb05efe
bdf751e2
bc802b44
3e265165
3ed53eac
bd4e01c1
bf1b5251
3efb0231
3d0ab8ba
bd7b4479
3ea26366
bdfe2418
3e922bc4
3e6ab296
3e86714a
bf9647b2
bf518a27
3e92a8b9
3f467e62
bbbc21a1
bdbff222
be2d4c5c
bd995c53
3e846f66
3ee6e099
bccee2aa
be56faff
3e7387f0
bedd8dd2
bea0dbb6
beb4838e
3df976c0
3ddd89f2
b9675182
3d9efe4e
be07172e
3c74dbe6
3ea44be2
be4fe0f1
3ed65092
bebeee39
3cc8d555
be2ce00a
be17f748
3e098700
bc01c81b
bf375714
3e32bf0b
be1df63b
3d6fc975
3e2da076
be10c4f8
3df516da
be9cf28c
3c88ae2c
3eae41f2
be3f916d
be87c231
3eb7c18c
3c55afbc
be5e4a95
bf7c8a46
3f396556
bec55b6d
be1a9961
3dacf718
bf4bd366
bddef75a
3e43d911
3ec4ec53
3ec62252
bf2fffdf
3f02638b
be142340
bebf2e3c
3dd2d467
be07b3ad
3dc37a50
bde2b9f4
3e58904c
bd21ab80
3d32bfe4
3c341d59
3e9dca62
bde43989
bdf5bfd5
bebca1d9
bdb639b0
be4075e0
beb11059
be2bd40d
be56e088
3e3d0ebd
3e5cd03f
3ead6351
3f157091
bef768d9
3e8f5603
3deebba4
be2376a9
3f4befce
3ee0c152
3e0eee72
bd052fc2
3d0b08a8
bf234028
be008065
be904b81
3d9f357c
be57ed92
be7b494b
