be323182
be7a9b6a
be0dfcf7
3d95577d
3dc68fc8
3e6dc8d2
3d631cb7
bf215e21
bd5b8a7c
3e0222ad
3e0d1162
3e584a4b
3e6dabb7
bdcffb79
bde0658d
beacca11
3dd664fe
3d491647
3e99e100
3e0e16bd
3ca85b05
3db50a75
bee2efa9
bdb29bb6
3e443c71
3db17d6a
be41403c
bf206628
be4eae92
3d3ce4f4
3e0b38f2
3e15257a
3e7ecacb
