bda26a6c
3d5e0f7a
3b8b18e0
3da572a9
3d1acd74
bcc4aa26
3d1a7b40
bd877bdc
3d94893f
3d8721f3
bd115b52
bc742b90
3cdf64bc
bccc7526
bd698ff0
bcba7e74
3ca42ff8
bd5db1ef
3d87e3af
3d18e3d4
bd716104
3d377996
bb957340
bd1aae7e
3d87547b
bd929a98
3d071990
3d4bcbb6
bd67fe6a
3baf6c60
bd96a1be
3d7c6332
bd9b2206
3d5e9286
bd5ad317
bd950636
bd40efcc
bd8084b7
bd5378ac
bd1b434a
bd801926
bcef3e88
bc62553a
3d9c03b0
bd396453
3d993590
3be0d88e
3d063f08
bcc1b8f4
bd91f7b4
bca16fd0
3d00947e
3d890ead
bcf730b6
3d76a77a
3d3d4956
bd2ffa35
3aaa9740
bda016d7
bda072c7
bd8e0a9a
bd929ecb
3cd28500
3d40c5ae
3d812a27
3c65f858
bcee52e8
3da2c2ad
bbf378ba
bd203091
3ce392f1
3d12de3f
bbc51f21
3d7a3740
3d5fbe00
3d79aec2
bd8f769b
bda03626
3c29c948
bcf0db64
bbda8c10
bd94a149
bda0de71
3c40bdd8
bc052b50
3d85a53b
bd9be417
bd57c98b
bda5a520
3d1d40de
bd565834
bda0ddfc
bb923b30
bd2d325e
bd3e63ee
3d5c51b3
3bc8e018
3c3ead5d
bd04bbee
bbbccef0
bd9be904
bd51b172
bd6365a3
38f89952
bd8d4bd5
bd894c21
3d350456
bda30abd
bd91afc7
3d1106ae
bd1190b7
bd0ccf81
3cda3eec
bc907ef0
bcd62742
3c99ed40
bc58a578
bcf72cd0
bd8c31ba
bdacb1c4
bcfc8a7e
3d8fde56
bd03f873
bc7713fd
3a409b50
3d680217
3cc24a57
bd90fdd0
3d6e8dbc
bb73b9cf
3ae2d7b0
3d868abd
bd5b6e9b
bd83c90c
bd02296b
3d0b7c99
bc6e4ec5
bcc37b0a
3c91aef4
3d103ee8
3d9130a9
bce32eba
3caaa0c0
bd1a4910
3c9368d6
bce5a48b
3d8a098b
bd76089d
bd745857
bd0d5805
3d493bdf
bc737c05
bd94e1b7
bcff51d2
bc67feed
bd8e8c93
3d42f2c9
bbf9dba3
bd674604
bd904d5c
3b903ec5
3cccd7a7
3c88bed9
bc1ad947
bd518299
bd600902
bd96b579
bd92456e
bd3cd663
3ca38394
bc401018
bd76a0f6
bdae8f2d
bbe37bde
bb9d6564
3cbb348c
bcdad8a2
bc7f8419
bd4324c6
bd452020
3bba879b
3d11366d
bcd4aff3
bd01f90a
3cf71132
3d560db2
3afc276d
3d7a9cee
bd3439c4
bd886818
3c3063c2
bd88d791
bdb4c56b
bd9aacf6
bd8310ea
ba694a00
3d8167eb
3bbac6f0
3c316b00
3d4d687c
bd842b3b
bda0a55f
3d408150
3cc88c4e
3d164a6e
3c4edae6
3b392c62
bbfb5260
3d0897b4
bc196550
3d43f9fb
3c495784
3cd91f33
bdbaaa92
bd881e98
3c8723a0
b98a8492
3d92f30e
bd153844
3c600f7b
3d6be67c
bd9c4474
3bdf0c0f
bd8b53ed
bb745460
bd6839ca
bd179ba8
3d3433f4
3d235224
bd097b33
bd4903a9
3cd65f1b
bd0ca871
bda82c66
bdabf34f
bce0960d
bd5271af
3c9b4502
3bdc7d9e
3cc02aab
3c6e0369
3c146e63
3d52068d
bd9fae51
bd1dd7ae
bd159f3b
3c41ae1c
3d6d8167
bc99647f
bce60bf1
bd552566
3d251f8e
3cdae57c
bc178518
bca6d470
bd5ec86b
bc52f7da
3d6c28dc
3cd52e9a
3a1090e0
bda43646
bcc6b3ac
bdc36e67
3d1a7b82
bcf2c3a1
3d209513
bb73240c
3c7c7205
bdc6f4f6
bc9e4955
bd96357e
bd826b4e
3d6c0442
bc820381
bc842777
3d163e99
bd181030
bd5a2791
3d62d4bd
3d9ace05
3d88ee15
3b917b40
3b325cc0
3d987e19
bb9a9c80
bd20b992
3c273916
3acf2fc1
bd1caa5c
3d486433
3d4775f0
3c45f0ed
bc2c980a
bd968c8f
3ce1405a
3d611d5a
bd5ef043
bd177975
bd9258ed
bcdaeb29
bd927e75
bc27d56c
3d845d8c
3cc91303
3cd52b72
3d2137cc
bd12cda0
bda321bc
3d1b6bec
3ca67eb4
3c40beb8
3daea089
bd20c37b
bd294cbb
bc8d0e39
bdc61e17
3ccd85ca
bc947883
bdaaf50c
3cd7ba08
bcd04b5a
bc5e3387
bd0b45a7
bbf18129
bc9ec68b
bc4d45b5
bdba5efe
bd4dd455
bda9d04a
3ba4ca5f
bd86b4df
bc650d58
3da42eee
3c822a23
bc576e00
bc11dbe0
bd8f8743
bd95cbd1
3d41c586
3c177f90
3cf1bac6
3cc19ad9
bdb1f57e
3d61e170
3d605e90
bd9d4dd0
bdbe685d
3d8131ab
3c7683e7
bda1e867
3d48e784
bd8d4a20
bd18922f
bc503781
baf8a346
3c6bb8db
bd87b316
bd99c202
bb4b8e4d
bd1eb613
bd9ce476
3d2c6908
3cef7185
3d930e47
bd9e003a
bd23df74
bd59fb6b
3d37efae
bbdb73da
bd94d1b6
3d8ad106
bbf23c55
3d30ca95
3d163d66
3d150e05
bb8ce8c4
3d22863f
bda74791
3b52a411
bd90b1cb
bc685cc4
3b76d24c
bbf66756
3d22f3e3
3cfa9405
bd836fef
bd305328
bcc4c099
3c3edf8e
3d9cb5f4
3d662317
bd607f4c
bd462960
bd920dee
bc139468
bbcc3dc0
bd7a3d43
bc87ad28
bd749e21
3cf1ac0d
bc89dde5
3d2e34ea
3c0d2b6c
bc36e3da
bdb6ce0f
ba8926da
bc1abccf
3ca148e3
bd883ada
bcc03943
3d6c5fc2
3d64aa82
3d400964
bda0c95a
3d5607f3
bd87958f
3d544eef
3d9fdbee
3d16bd50
3d0d6a82
3d27b97e
3d8c6757
bd1d034e
bd94b346
bd22e5cd
3c1f1c0d
bcb53352
bdb6b820
bd5031ff
bda413f1
bc42d59a
3d2a3827
bc4a13b0
3bbf5e99
3d61f7b2
3ceb5201
bd84e9c3
3ce0f8c4
bd306ef9
bc99f0d2
bcec02b9
3d765c92
bcae6cf2
bd8f3599
bd99c9b0
bcda8b97
bda1515f
3d4d765a
3d0387d0
bbe6b570
3ca42ce4
3d83b845
bd42406a
bc63e695
3d46f3b9
bdb7d0f4
bb9f40cd
bda83080
bcc5dafd
3c6cf41b
bc09eb04
bb2d2d35
bd6a870a
3c8040b5
bd3b1f5f
3d418cdd
bd800140
3c6f009f
bda61db5
bd728a72
bd57c5a4
bba2b535
bda2891c
3d5cdfcd
bb6829c8
3d81a8a1
bd4877ae
3cfb86e8
3d8f7815
3cff4a6b
3d3446cf
3d84f324
bc9e6694
3c58faac
3d5fbe34
3d3219d2
bb911159
3d70b9d5
bcfbecb0
3c1a2e9d
bd171d06
bd19cb15
bdb21ec7
bdc870f1
3b6b56b2
bd56436e
bd485b31
bd9e4ce5
3d1cd8c5
3d91e737
bb6237a9
bcab3ad3
3cd1cd8d
3d02409d
3cb352e0
bd859d5e
bc9b805e
3d80c4dc
bc087d5c
bce845c4
bda3d4dc
bd62fe5b
bd9e3e43
bda1bba2
bd0f38b3
3cd24277
bd89fe88
bbc7b128
3c9cb1d6
3d3ee0f6
3c842017
3cebe8f4
3d7c544a
bd8c2a1f
3be6b8ab
3d98ae97
3c28bea6
3c3b42de
bceeeda2
3da28a13
3d8ea701
3d96cfe9
bced910e
bd693ac0
bd889f2e
bd1ca50b
3c0270c3
3c69fa50
bc09058f
bcf9f557
3d39637e
3cc524dd
3d271332
bd7c807d
bcdcba57
bdb82fed
bd9e4dc3
bd2bb2aa
3c29e4d8
bdab0af1
3cb8228b
3d841707
bd2aec0f
3bc387df
3b64a565
3c5fb8b8
bd1a7fb8
bd4dc036
3ce8885f
bc801408
3c9a4a1c
bd964756
bd83034b
3d608d39
3d5a573f
bc6ba3de
3d99dada
bd8ff877
bd4a9bea
bc9e5330
bd77bb02
3d786574
3c591990
bd238e74
bc9bffaf
bdb5b257
bc8bfcdc
3d59ab06
bda0563a
3cca616a
bd0cb015
bda589d4
3cbff4f0
3b8604ec
bd17946b
bdbd7312
bd998130
3ca07e8c
3d70086a
bda5c28a
39ce10de
bc54f7f1
3bfe67cf
bc9c7445
bc10f4a7
bd41fc1e
bd7c2a2a
bd06f52e
bb1e62c3
3d103e68
3c640b84
bd556640
bd974f58
3a0019f8
bd912ce1
bc75d732
3c7bf3de
bce8d449
bd1afebc
3d277d97
bcc91c3a
3cde4572
bd47d484
bdb5e14d
3ca31af3
39229000
bd14250e
bd2ac659
3cbf3e78
bba95e47
3d64ba3d
3d36ca8f
3d0a61d6
3c836ce6
3d683069
bd8e9c4b
bc63545a
3ba9871e
bdbe068d
3d307c30
bd8cfad0
bbccdb9f
bcd4b28f
bd135e52
bd63509b
bcd86db3
bd9b92f3
bdb9236b
bdad5e0c
bdae1bb1
bd61b2ea
3d0d325c
3d0e15bc
bd3ca78c
3d91c03f
bd9447d2
3d3bdbe6
3d3b4421
3d8d0cae
bd80f0a1
bd3ecf62
bcf0670c
3c88bb4e
bd703408
bd8456f6
3cebc6f6
3c8eaf94
3d416a5d
3d22e931
bdc73b17
3c8bdcf5
bcaace10
3c9e0319
bc978cd8
bdbea427
3d6ab13c
bd89de5d
bda0b55c
3d8a9d4c
3c4bc780
bda2ef75
3aa94000
bc51d990
bd7001a6
bd6e4ed0
bc8571cc
bd8dbb60
bd04d7f6
3d951def
bd9109c8
3d333fdf
bd877e6e
3d2bd482
bd51a473
bd463e44
3c962912
3d326773
bd6716e1
bbb81a40
bc9c1f07
3c5b3f0d
3d532dcf
3d404cf4
ba90646d
3c10e153
bbf78550
3c82d944
bca96ba4
bbfe6a40
3c87234c
bd6ce192
3d909a63
bc8995cc
3da00b99
3ccedd58
3cf35780
3b038ae0
3d027d12
bd43deec
bd985a3b
bb86b449
bcb22a5b
3d81c251
bc05445b
bd9bbd02
bd407710
bd068e84
bd808689
bdb7a9f6
3d87b1f7
bd7504a2
3d197ba7
3da2be2b
3ccb6a80
bd310b39
bd3d87e6
3acd9c40
3d28daa2
3d5a43ca
3d5a5ea2
bd4854dc
3d68558e
3ceec088
bcc65960
bd7016db
bd94dae5
3d4dca36
bd00b036
3d32ab85
3c8fd568
3c59fa38
3c5147dc
bd9a0707
3d8ff7cb
bd8cf0f7
bc112976
3d9462cc
3d29d7f5
bcf9848c
bd0f5858
3cff0828
3d7401a2
bd45ee2a
3cb5aaf0
3d15cb32
bc88cca4
bcf43f30
3d949d55
bc117138
3d874b45
bbbf0cf0
3cb79ac4
3d91556b
bc5e2238
bbf4e130
3d856f13
bd59a08e
bcd0e63c
bc653598
3d5d6975
bc349902
bc282453
bd82267b
bc9e3b78
bd7e7f39
bd7049a7
bd6b2c81
bd795426
bd87f6e3
bd8e46cb
3c5a6930
bd7261da
3d0b00ee
bc550500
bcc1496b
