bdd30720
bec0f40e
3e10ae8c
bc6066df
3e805677
3e600026
be6155a1
3d771798
be22a83d
3f586ce9
be873f52
3f1056f3
3eea1b07
3e63d5fb
3dfbe824
3e1523ab
bd9d98aa
be5acf26
bd7cc972
3dbda465
3ea6d9c7
bc29c339
be597d9e
be84e838
bd95ff47
3d020811
bc749834
3e0ac5f9
3e0f37c5
3ecf88f0
be2324b7
be783d03
beb5782b
