bd92262d
bf3d6ffa
3dc22a38
3d38cb5c
3ea26fbe
bf2e6e98
3e49a5fa
bd1aec21
bf2a14e7
bf1bfa57
3cfdb5ec
3e6b232f
be755c2a
be19282f
bf6af8a4
3db900c5
be5d6d2a
3eb13da5
beb47e0d
beac6c13
3e33922c
3e638b63
beea0643
bd9c26f3
3e80b968
3d575f9a
beb77018
3e872a2e
3e43b602
bf044e06
3e892652
bf06e7ff
3df285b9
bd738bd5
3dd6ca80
be0b6a8c
3e734392
be1a63f3
bdf43e84
beb6b926
bf384881
3caea531
be909cb2
bf21850e
bd416a4b
3dd6e6f3
bdb88667
3e6d4ded
3e2886c5
bec092e2
3e57c4a7
3d0c0058
bf475abb
3f04d85d
be37d2bb
3e664a4f
bed46336
bed91c6b
bf13c43d
be674c6d
bdda510d
be8bde52
be98cb58
bd12216f
3e161873
3dded350
beb92999
3ea866cf
be46672b
beb2fd42
be2a1099
be5cd11b
3dd36f37
bf2dd584
bed67c38
bf380a88
be4850a6
bf22611d
3e56d5e4
bb9ff24a
bf1269ec
bda4c877
bdbe38cc
be4f9f74
bca53549
3ee49ec1
3c85120f
be22858e
3e102f0a
3d7ccfe9
be07ce1f
bf313997
3ebf4607
beb68530
3e30ce10
bbd44b5e
3ce51269
bde1ace0
bf477b98
bf95cd0b
3d891ef4
be5e91e7
3dc2c064
bf57d585
3c6c2735
3ea6ccf3
bf5dbd07
bf034342
be58acc9
3d733ebd
bef523bc
3e9a1fd8
be403e6e
be5d74fd
3e241e86
bf22ee19
bf1c7d2b
bc3347fa
bebffb85
be89ab1e
3e96d4d6
beaeea12
beaf2425
be69ce8b
3e875f33
be762eb4
3e22e396
bf128e9a
3f5668e9
