bf4f9cd1
bfd0efd1
3c99941f
bfdd1db9
3e1c9e8f
3dbebfd4
bd8d8d1d
bf284505
bf3f26fb
bedf63e1
bf8fbc11
bd786df7
bfb43b02
bd744f24
bee63fb5
c0184d20
3d444590
bf714c40
bf75c2dc
3e22c645
bef231fa
befcf4d6
bf0e4fd2
3e656120
3e0ceb9e
3e85cee9
3e0cf678
bfb15656
be50752a
be1b6b10
bf9e3c26
bf6e79d9
bb5717db
bf1a208b
bf1c18da
be04120c
bdd83e15
3dbc24dd
be381c32
3e3e3a81
3e31f4f9
3e05c61f
bfa00ee2
bfc4201d
be5778ce
be4a3e9a
bf89d89b
beb0d873
3d9844e2
3dadad62
c0d124e2
3d817f73
3e6c9c74
be87d149
bea67bda
bee3543c
3e420872
bedc6432
3dd5ae43
be1611f6
bf19c87b
bfcc1251
3e215681
be945f8f
be9129cb
