3d50d412
3d82860d
bd87518d
3d2155b6
bd9e386d
bc47b8f0
3cc7fdd0
3d861fef
bd16f191
bbebc060
3d1b0b58
bd642b4a
3c32ee96
bc74352f
3d87d91b
bd6361b6
bccc72a2
3d7973d6
bd33f18d
3c0234b0
3c6d81f8
bc022a28
bca7718c
bd422989
bd87dfab
bce7679c
3d4617a6
bc3e4ff8
bd3402b4
bd55b3b6
3d9facc3
3d0e5562
bcd6affe
3d812cbe
3e2352b2
3e82713f
3dd05017
3e01a393
3ee30874
3e5e1fe9
3ec1975b
3e180f57
bd24faf6
3e3b0d96
3e645146
3ec557f0
3eba8f11
3ea02bc4
3e87eb0e
3ea71c27
3e93163e
3e927b82
bcc2bec8
bcfaeb24
3b864b20
bc083078
3d8b3beb
bc74e278
3d66ce37
bf0dcf40
bedb6451
3e1dbed5
3e21d517
3db0d493
bd430e52
bdf82855
bcff36d8
3f2f8a10
bd68bc4b
bcda420d
3e0ae53c
3f08976c
3ed8f91a
3f0eaa8e
3edb0556
3e554eca
bd6fa546
bcd2f800
3ea4cbb0
bd435218
bee14d2c
bdc59f56
bd830064
bd9969cc
bccee43c
bcf69064
3cfdb8fe
bf128216
beb2e456
3e009c4c
3ed65803
3ec0486d
3e57b7bf
3e0d000c
3cda960b
be3b5f50
befad620
be9a09a4
3e656d0a
3ca683fd
3f168018
3edf8e0e
bcac4b87
beae0fd6
bf09ecbb
bec85b38
bf40eed1
bf2b2b6b
be104b21
3d7540d9
bd2fd8c0
bd597fe8
bceeb0f4
bd5c128c
3d957d2b
bca2f480
3de2e47f
beef0bf6
be50a8b9
3cfb2a0e
3e85d63e
3e6e1cf5
be5f3aab
beab1c03
bd1dfec6
3e9143f9
3ec8ad75
3e08b12f
3dfecff3
bdc2f68a
bf80905b
bf5fae9e
bf8f1c48
beaa52ff
bf2558c6
be3d61c7
3dc4366a
3e0de6bb
beac0b8d
3eaf9b5e
3d1e8526
bcb0d422
3d4e6cbb
bd1c1b32
bdc08b15
beee3dbf
be8a9ac4
3bbe8cbd
bea621d0
3e1eecb9
3e9df3da
3e18b6bf
bd88b0e7
bdedb23a
3d21c0c0
3e591f3d
3e89a104
be9275c2
bfd9a8cd
bfe6c419
be9bcc3b
3c673f20
be270b44
3c94590f
3c79d028
3db05bce
3db58642
3e81a910
bbb03280
3d793eb6
bd83a977
bea74554
3d7854de
3e964095
3ccd157a
bdd0098e
bea8cb17
bda71b1a
be4c5bda
3d8c99a1
be3cd14a
3d874f70
bde092e0
bec99f3c
bec3603e
bf168fa1
bfe2a450
bee8d2e7
3d98a21d
bd4864cd
bd099f33
3a65eb6e
3e379ddd
bd909400
3e16537a
3f06ceaa
bd1fcdf8
bde1dba5
bd169129
bf25fe72
bd8e77d0
3e901568
bde995e8
3dc67dd7
3b07fd9e
3cfc8898
3d89cdf4
3ec30d58
3d808b88
be51fe22
be8f4f70
be9563cf
bef04f85
bfb60d14
bf25babe
be57cef1
bd43712e
be063387
bd3252b1
3e1b1bef
3e7d781d
bde9ddd8
3f14e272
3f1b07cc
bd1d0490
befff0f8
bcfea0a4
bf139fc3
be2724af
be6ffa27
beb8a6a5
3e8929f9
bda7c6e9
3d09e817
be4b6f5d
3e186213
3c81e6c8
be85b3db
bdf1e71f
3c64ac62
bf60adbb
bf6fcab6
beca8d58
3e2c58f0
3ebb5fc7
3e7cb464
3e85f3d0
3e17da34
3ea59560
3f299020
bdc43a93
be665be3
bd49ffdb
be9b79d6
bde84128
3e52d668
3c72d20f
bf096ae9
be2fd19b
3e2688ba
be06faaf
bd659ac3
be8dc695
3e806468
be58945b
be13c33f
bd239c5e
bef95293
bf4296b6
bec933a9
3e886139
3e958382
3f031d0a
3eba5c3c
bd72f02c
3ee20ff3
3ed95548
3f3c8219
3e8f2287
3db22bf6
bd5c40d7
be74608e
bf150fe2
3f2c0ff7
3e49ed36
bef32654
be8f07d3
3e154500
be1a4dc2
be49cc42
be9eb989
3e2ceaf7
3c9cc5ac
3d8ca1c8
be624ed0
be9abd27
be7280a8
3e8c472f
3e825083
3f066716
3e169c11
bce40a9a
bd9b47d3
3c01ca29
3d6316a9
3ef97ddc
3dd40baa
be744e55
bce67325
bc85de4d
be11861d
bf29015c
bf29787a
bdd19f4f
be06cc00
be7133c4
bd83332b
beac58d4
3d5728db
3e8e234f
3e1e873a
bd635f4d
be69e1f2
bf2ff8a8
3d3cb1d1
3d6df16e
3e79008d
3d48590b
bedd01cc
be94478f
bee9d2c1
bf60b3d8
bed1adb3
3e784b81
bef4c453
bedeb1d9
bd47b208
3bfb33b2
3cb9bc16
bf3a301e
bf9f6a18
be8de2d1
bd103250
3d42add1
3dd73bee
bdd4693d
3d3a7e7d
3e38a0ed
3d3421af
bdfc0a7e
bd118d21
3d3947f3
be2e5fd2
bc9c0ea8
be4beee0
be6c0b12
be08200d
be05322a
be1df2a6
bf3beff2
bed614a5
3d0316d9
bf698ba1
bf17bdb4
3d573b86
3d074273
bdeac1ba
bf2be84a
bf9f480b
be57b8b0
3e24dba5
3df74b16
bd3fcf4c
3e5070ab
3eb36d37
3e90941c
3d1afff5
bd441b9a
bd1ea1a4
3e4b4b50
bdb027c5
be1603e9
bd069415
be6459a1
bd701dfc
3f03f92f
3e8a2d58
bf1583a2
bf3db9b8
bf1af47e
bf5a8fd7
bcd8f3c2
bd6e4974
bda378b6
bda33c90
bd4af1ca
be68f673
be9cc982
bd8fd674
3dbb86be
bcd551ed
3d5e58a2
bdd26ca6
3e85280f
3e8340b6
3e337366
bd8334ed
be704937
bca086fe
be120ec9
3e8e28fe
bdf4d762
3d5482b9
3f34916f
3ee616fe
bed3e69c
bf384b38
bf39712e
bf0f1dca
bd8aebfd
39aee767
bd0d89e1
bda90ca4
3c40eb1a
bd0a9865
bf0e6936
3d984a3a
3ef93b78
3e952ec1
3de9a3f9
3dd09a5e
3e608c27
3d646e10
bd77cad9
3dad7fd7
3d9c9685
3d237516
bdb902fb
3e9b6140
3e4d8832
3e8bf2b5
3e772a63
3e9c0eb1
beb96930
bf65542e
bed2f751
bf3cabbe
3cd37c48
bd9266b1
bb938d02
be1cf750
3b974116
befce932
be11fd0c
bebfb257
3dc0f87f
3ed67ee4
be18d2fd
3dc91563
3ec2db1d
3e252443
3e72fe11
bc4dfa55
3db6aecd
bc4773c5
3e5c14be
3ed2c0e8
3e37d0da
be771227
be6c0dd7
be8efcd3
bedd2864
bebb8813
3de20840
bf80ef26
bf117ec4
bd0a5ff7
3d2c7224
bd983be7
bd82baae
3e10cb5f
beda0391
becab280
be05ae38
3e90dfe4
bdb8dada
3e348f8b
3e95eb12
bdcfd580
3d9e321e
bd867115
bd8eb35c
3d7e86a4
3e9961a7
3e1d0c14
3e6f6f14
be381f4e
3d84797f
bea6f99e
be572488
3c1c9c75
3ee5f398
bf0621d5
bf41f43f
bf114d22
bd5b9bf3
beaab141
3e1a40fb
3edd355c
bf39f15e
be8440fd
3d364095
3e079aff
bec6def0
bd6e7f48
3dd7ac0a
3e503309
3e7b2d55
3e8dcb78
bd4b5bc8
bd7a0add
3cd9f1bf
3e1dcefe
3e42c437
be8a50e7
3c928001
be6543de
bce1fc28
3e388062
3ef6d91e
bee9a349
be64a6c8
bd563767
bee588a2
beb76b87
3f01a953
3f24451c
be115743
3d95c320
3e41e0cd
bdf9740c
bdb631b9
bca9cca0
3e0a22cd
3dc8bb15
3d9b80ca
3e9f8025
3df6ee0d
be60c9c2
bdd2b9d8
3e81bea1
3d8b275a
beacffd8
bec7232e
bea813f0
bd2948fe
3e26252c
bd661052
be8bc28c
3cef99dd
3d48ce32
3d3f0b17
bde4e76d
3cb46a70
3ef561e7
3d281fdf
3e098b76
be22215a
3e2fd600
3d453600
be2e9ab9
3d87c805
3ec60e1c
3dd93b2f
3e802a40
3e424aa8
bdd6aaeb
3cf669ea
3e8e5e16
3d55e800
be9979e3
beacee15
bd74ea90
ba811d5d
be4cdbaf
bed3782c
bd4a8047
3daf929f
bc6a1800
bd8a54dd
bdedbf41
bdacdd28
be52a647
bef7bb4a
bebbefa9
be86b45d
3e2814f4
3e65ca70
bccfccec
3dc84e61
3dea2cfd
3dd5fc75
3d4486b6
3e31858c
bda8292e
3ea422e3
3dbc9eab
be96ac1d
bee4ed6d
bf3b71d6
be52a5d6
3e99dbb8
3e006347
3e2754cc
3ed8d7de
bc9cb404
3d6a1b8a
3bdcad20
bcd27075
3d8a05cd
3e955db6
3cd51b3c
befea02c
beb8fa52
bcb4dbcb
3cbb03ff
3d05b503
bdee917b
bea0239e
bd91ef42
be8b136a
3d19219e
3e3ce9dd
bec445f2
becf757e
be1912f7
bf004f98
bf3b3b08
beb616c8
3d46f68d
3d9efbba
3e1d3eae
3f031a83
3c1ef038
3d2a5552
bd37b746
3b396558
3da674d0
3cbf229c
3e2f1e6c
be483906
3dea2823
3ea610da
3ed377bb
3e931f2f
be3305a3
3b883ebf
be89f73e
3d299b9e
be33fd7d
be4b33a0
bf3f4b50
be4da302
be80f71e
bf5760d6
be4441df
3ec877cc
3f486885
3ecd439a
3ebc8ef8
3ed93a17
bce4403c
3d56dada
bd509f92
bc0a6d2e
bc8613d0
be9bbad6
be3f46c2
be3cd8e0
beb6a1fc
be03f900
3ebf0c78
3e62bf9b
be886544
3dd9bf86
3e2c13cc
3da6ec23
bdd8e586
3e32734e
bf1f8fb2
be9b4c8a
3dfa151a
bde2869f
3e3a2429
3f5da20a
3f7f0c08
3f11a5e0
3b6c183a
bd90c955
3d242b3a
bd88fcc8
3da29f33
3d2b17f7
bd1ada9b
3cdcb88b
bf158b25
bf4c7382
bedbfd1d
be9cc7d4
be992330
bc829466
3bdfc7aa
be0de2db
3e67da22
be364116
3f3c1417
3f0defb9
bdf29688
bde59b69
3e8751d6
3e89c00c
3f0ce83b
3ee455f4
3f1a76e5
3f182821
3ce28348
bd4cc66b
3d6c133a
bca4c558
3d559612
bd4a844d
3d3fd7af
bc96118a
bec6109a
bf3a0a30
bf6e0ec0
bf5442fd
bedae62f
bf11e0f5
bef49dd9
3d875dc5
be2a3008
bf569056
bf835fcd
befd6f4c
bf5854de
bf32fee5
bd5c90f6
bf11e8c6
bd6133aa
3e80afa9
3ee2538d
3e6959d4
bda0d902
3da18fe7
bd92b75c
39ee5300
3bb30480
bbc16cf0
bd956ae1
bd9c3af1
3c317572
beaa702b
bf0108b3
bf065f33
bf096e58
bf0d8662
bf059dc1
bedb1235
be79e156
be7fccfe
be6af39c
be3184bc
bd84f882
bb209fc6
bd132ff4
bda684ec
bde24f38
bd8e6577
3d3b64ad
3ccd1dd0
bcedc216
bd9c8beb
bd2dc4f7
bddd8704
