3d9c19d1
3cc9e3a0
3d1d6ee6
bd903140
bc9132d8
3d98107f
bd938d3d
bb9c0680
bd4a002c
bc6b6128
3d8d90d7
bd7c5d30
3dc098c9
3e1e999b
bd78ecdf
3d5ac0de
bbcb9780
3b4c3900
3cfe659c
bd9197dc
bc82f92c
3bec77b0
bc9f7266
bd6641e9
3d61c7b2
bd815ba6
bcfdf7c0
bd359a5e
3d087f2e
bd86a5ef
bda195ea
3c8e5750
3ceea178
3d89d80f
3d9d1579
3ca9290f
3d3a5d3e
3d955410
3d13fc0d
3e25bdf6
3e9ac1b8
3ecfc294
3e524812
3dbdc5ff
3de00294
bab261ab
3dab14b9
3e87f347
3e944f48
3e10f2f4
3def2160
bc1dee5f
bcaa71de
3d8e4217
3c93f89c
3d4bedba
bd79dc64
bd1453fa
3dcbf0eb
bd3d518f
bd8268c0
3b3a142d
3ce3b30b
3c8f200c
bbfab286
bf0d5aa3
beea7ea1
3f13eeff
bc2baf81
be78a67d
bec49a39
3df8fde9
3e2533c6
3e81ee5d
3d6f2ea1
3e762c78
3d969ee0
3e1a3b7d
3ec6cc67
3e857897
bd981d9a
be1eed91
bc0b0208
3d66eed6
3d822fb5
3d59ef7e
be74d87c
be929fb3
3dac0c76
3d93656d
bd91abf6
3ca4e63b
3ed50c53
bc948681
bebcb27f
3e0c40e4
bed9ee36
bedf0559
bea4aa62
bf04a6aa
be32f599
3edc95cb
3d683aa8
3db8df3c
3c464ef5
3ef62243
3e120eef
3dc4a369
3ed2fd96
be335032
3d8aef2a
bd9025d6
3c864714
bbbd51c0
be87e696
be97f607
be3f2274
be03b91f
bf0f5dfd
bf449a9c
bfaedaa9
be855942
be1bd5b7
be2a049e
bee8c832
be36ab58
bf0e60de
bf0ae8d4
bdda3a8e
3dad2d11
3cfad18f
be0eafa3
be5af9c8
3e111e8e
3e6a9ee7
3f033508
3ed19ab5
3e180c65
be9580c3
3ef5e699
3d9e3599
3da31b09
3cb7465c
bea26ed2
be795a87
bd60ab00
bf2efb26
bf324f79
beaaec8b
bd5af7ba
be6777b3
bdabb193
bec75538
be86af09
bddf16fa
beef1683
be2d7d94
3e69b0f4
bdbdcafb
bd089ae9
3e73c516
be3fdde9
bdadbc85
3c1b5681
3dbec8a0
be0a94f5
3ec59e35
3ed92901
3d9006d1
3bf232b2
3f14acab
3f27a4d3
3cbb3117
bded6c0c
bf1dc185
bf5318b9
bf3f82ad
be9c56c1
bc8f9ade
bdc72c6e
bca54ad0
be1e762c
be8ae7dc
be23a3ae
be999bed
3e645bd2
3e956a1d
3e380f12
3ecb01ad
3ccca7fd
bd0f287a
3da05e68
3efa2771
3f281331
3e649398
3e9c86ce
3d79147e
be2520a6
3f1910c0
3f12d11b
bf1da523
bec82dd9
bed44b6e
bf29291e
bf2c59ae
bdbea53b
3e92c602
3d4cd04a
3b873d66
be75c022
bd969338
3ea5bf20
bbd98332
3da31b5f
3ea9c15a
3ebb0587
3f22aaf1
3ef4930b
3f0ca95a
3ee1f90f
3ee29a5b
3e83bac2
3ef9944b
3ec3aa40
3d6bca48
bd0798bf
be6ea988
3e238d55
bf0555c6
bf12f5b3
bdc478d2
bee0e906
be383372
ba9cf983
bdab162b
3db68873
3d494e5f
3e0bf769
bdead3c4
3d92602d
3e0f94ed
be19068e
3ded3eba
3f21dc73
3f270e74
3f25bab0
3f20b7ba
3f5c3a04
3f220327
bd62220a
bccda8ca
3e7b108d
3d59a886
bde1a3b6
bf055c84
be41d720
bdb51ba7
bf60426e
bf00efb4
bea3e3e0
be24929d
bddc819e
bdf5f3c0
be42822c
bd13bbad
3d67a74e
be8d2f30
bf09c57b
bed9781c
bf089010
bf26e787
bedb26ca
bf0b7bb4
3d17c24a
3e8f7852
3ed9a179
3f287fbe
3e9502d3
3e44c381
bddf82e0
3d7d69aa
bbd30844
3e948417
3e133c2a
3d8e7d30
bf674bb1
bf0803bc
bef59e5f
bea6a243
3de022fe
3eb02add
3e383a2a
3eb7356f
3dccf8e9
be26faa5
beb59297
bf0368a8
bf5b2e1f
bfa2897c
bfc218aa
bf7bc145
bef68f5e
beb40b68
bf34e246
be1e152e
bded5005
3f0c8b8d
bdcc0729
bc94e730
bc600821
bc36f43a
bd2c2b7c
bcb63cb2
bf948559
bf69d9cf
befa161e
bf1bce81
3ddaab47
3e80671f
3e46bf82
3ecb1e70
3d110f5e
bdf3e24d
3cea73c9
3e16a9a4
bdb78b49
bec6a153
bf32e834
bf8dec23
bf0a0f82
bf2b145c
bf00a1b5
bf291c60
be27eaba
3e820dbe
bda71434
bd1134f0
3d678084
bcbfe883
be132351
bf25a01d
bf9e0476
bf54c005
bee42959
be800a59
3eb0689e
3cfc707b
3e5df272
3e78304a
3ee9c173
be724a40
be831a9d
3e3a45ca
3e44d9c5
3ee93867
bddd73e3
bf78e1df
bf1656ed
bf36d04e
be68e40d
bef6468a
be8668fd
3e1cba37
bd9597bf
3cb382bf
3d1d5a2d
bd9e1849
bcdd1f17
bf56f9b9
bed93740
bee111ee
be79e079
3e853ae6
3cac879d
be45a254
3c811f41
3f107433
3e9ca384
bce0befa
3e418874
bdad51f4
be3f0e9a
be3b85dd
3d4b8769
be255030
bf33108e
bf2b3054
bf0bcfe0
bf432015
be75dd96
bda9f590
bbefa4a2
3e9f04c5
bd904bce
bd1864af
3db310cb
bf35416f
bf3a079d
bf228caf
be159aa0
bdd5a875
3dc6d00b
3e2bf71e
3cc05a68
bd2f2c6a
bd729c06
3db148f6
3e7d5852
3e3fd76b
be550d37
be2f4f08
bcbcc001
3ec1a3a2
bc906df5
bed763af
bef3f40e
bf873de0
beda8b58
beae4b5d
bc5c9404
3e277fe8
3d97fa1f
be86c864
3b705c64
bf511ce7
be5c3db8
bd64c3ef
3e2372f7
3c353f61
3c7d395e
3e231c3f
bce0803a
3e6bb544
be3fab0a
3cdf37da
bdaf1ad8
3d9f52a1
3e433b43
3e6994dc
bec73fac
3e84dadf
3e8e0a9f
beb6ed3a
bf5cfde8
bf543804
bed85852
bed1046e
bd3a1109
bbc96561
be36c05a
be948782
3e84d86a
bed91c9b
be849292
be1ad737
bda71ca1
be18e0b8
3d609e98
3d752689
3db37183
3dcc251e
3d4eef4d
3e018932
be511855
be831272
3db03e63
bdcadcc9
bde03397
3cf4ae1b
be5adb5f
3e08ef68
beff7702
bf2ce0f5
be7a95d0
be5d07dd
be74a297
3d8755ef
bdd225d0
bee4bb1d
3e4e107f
be9d74e2
bec7e6dc
bc8c2376
be85dd4a
be963d01
3ddab054
3ebd5e19
3e1e4800
bd86e68a
bd468fb4
3d13b131
3d8bd97d
be95b6ec
bdc104e1
3e3c8588
3e0637b6
3e258290
be20936d
3dc1a54f
bed11a4a
bf3b2a45
bf1b50a5
3e6f85a8
be27523a
3d8649e6
bd50d5d8
bee206c5
3e2a06c7
3e6bf8d9
3cd646ec
bc5cf366
3ea56bc8
3db920ba
3e8e55dd
3d9e512d
be4b8a6e
3ca7c2a5
be206c68
bdba78c9
3e22c251
3dec6a28
3e779276
3e12d650
3dffe865
3e95aacf
3da95009
bf168b40
bf8e6d6b
bf07649a
bf05e690
3e5698e7
bdb4ccc1
3cf59342
bc9fbf7c
be1ef399
be5efaad
3ea6bea2
bd3a2413
3e7989ca
3d76e750
3d6bb4cc
be113081
3d0e62fb
bd2ac83a
3ebad0a8
bd35533f
be0a7a75
39be1a23
3dfea84c
3c88a9cc
3c043c51
3e682d84
3ec62ce2
3daef174
bed27561
bf8ba2a1
be274a8d
bd0f6c75
3d447538
3ce79710
bc03f648
bd620f99
be43a3d9
becff312
bd830cc7
be1af691
bc06c9ab
bda01de7
3db13dcd
bdb58714
3e69c2ec
3ec90dec
3c44f6c0
bddaa803
bd36e1cd
3dbcaf66
be4e56d8
3df85295
bd42c4b5
3ebbd34f
3e51e43c
be8a00c8
bda3d3dc
3d8f0bad
bf40c61a
be563d92
3b35008f
3c1e1180
bc7ff0b4
3cb36ef3
bb0dba76
3de58d43
3e0a1f1d
bced5d41
be63f504
beae1dab
be586cdb
3e23842f
3cc553e4
3cb62af8
3c3f4de8
3d25d430
3ce9ec0e
3d11ffca
bdd4cc7b
baf8665a
3e19643c
3e341494
bc2872c8
beeb9e23
be3b09c3
3d80bf9e
bf43a309
bee0c548
3c1fb242
bd982aa8
bd9150ad
3d1e7e01
beb60666
3e6a6341
3dbf46a9
bdfc5b1b
bdc73d0f
be9c6206
be2eae1f
3ea6f820
3eacb695
3e8abe3b
3d911def
bc95729c
bbb9b20f
3e36d6b1
3ceccc8e
3e26baa1
beacc4c2
bca50d9e
3e1bd52a
be96a6cd
bc8f0839
3dce2054
bf24e4f5
be35fc11
be8db694
3b870120
bd7e56fe
3bbe3240
3d9980bb
3b955b5f
3bf62254
3ee50441
3e6ea318
bdab44b9
3d76ce8c
3c0a2f6b
3de8194d
3b819d94
3d082c0e
bd12bb0f
3e319377
bd134789
be33f165
be7a7f7f
be92a38e
3de74500
3e33400d
3e54d93f
3d94a05f
be61bf25
bf14d4ce
be971a88
beb8a914
bd886e1c
3d2a4b3e
3d818987
3d062dd1
bf006763
3db13f50
3e8389ac
bdc6a0e4
bd3ed46c
3e08939c
be4c12c9
be9603fa
bd52070d
3e827ba5
3f074909
3e9748d7
3e56fbb3
bdadad78
be8eef0a
3cc9b1f5
bf213721
3e0bab84
3cca6c62
3e196cb2
bda8ad76
bbc31371
bdfcc847
bd4d4452
bbb35ee0
bd5b4cc2
3d934a4b
bcfa3387
bea00236
be5bb55b
bcb7e8ac
be407141
be99ea84
be8107df
3d2565a2
3cfbabd0
bd0a8f77
3f06d605
be819ce4
3d50d239
3ec20d72
3f100335
3f3d2d2a
3ec07ca5
3eb39fde
3f53ff47
3f179d82
3f4ef7db
3ecc11f1
bec01f81
bcb6bbeb
3d0f2cd4
3d3b4cb6
3d018e30
3d9cc55b
3d8cdedb
3da0442e
3d9ed637
bf029c6e
bef77803
be2d4b4e
3df203a0
3ec96a63
bdb7c033
3d0b3fce
3e98f21d
3ecb79b8
3f2ca4e7
3f2cfd45
3f7cd8bc
3f75c343
3e382b84
bd51be4b
3eaf3e9f
3e8a5a48
3ecf0b0b
3db5c9da
bd460df6
bc58bd68
bd879283
bd9d5679
bd845e5f
bd594caa
bd3e632e
bc1cd1e8
3b5fd520
bd1bd6c5
3d6667fb
3db078c3
bbab47d7
3d34b9a5
3d08ae0f
3e347977
3e4bd21a
3e277198
3f2e1487
3ec4f484
3d6c4f4d
3e58f01e
bdc93f81
bcd38937
bdda9467
3c75d21b
bca0560e
3d7e028a
bda1840f
bce42672
bd57edd2
bd91ece5
be98d6be
