bf15e9ba
be8e6ccd
3e02dd03
3e55b5bc
3e027679
bdd12dac
3e3dd469
be4cc4d5
be637950
3e597196
bd9cd41c
3db25488
bd94695b
3dc05117
bd49779f
3d2ad788
3e31cf20
3dc37b66
bd9bd153
3d02f841
be0ac786
3dde3f8c
bf26e771
3e9072c4
bd89365a
3f00ac1f
bf21dab4
be8f4694
3b9b8a34
bd697e2c
3d916d04
3e2650a5
be22fc39
bf92b497
bc5153e9
3eabc92e
be2e2998
3cfaffd4
3e1e5688
bd87cf44
3def5157
3e5fd9c2
3dbb13e5
bf535cfb
3d29f258
be9c3319
3df8ec5a
be063925
3e3c5691
3d9ec9f9
be6659e5
bf0af021
be5d7ff8
3e6d0c5a
3a6f56cc
be05651b
3daf045e
beace9d7
bdb8aa0b
3de89229
beeb1612
bf6a3ca3
3d5afde8
3da4afb1
3ed09969
