bcebd344
3cd32954
bd7c6ca4
3d777622
3c115730
bd3bde0c
bd4b6145
3d85b213
bcddbb0e
3c6f3970
3d7109de
3d9cce57
bd96a548
bdfcf0c6
3d161155
3d53fac2
3b102760
bc7e85b0
bd51e57e
bc6e29e0
bd8d5213
3d5ca0b6
3c0d9d80
bd70602e
bcb832ce
3d58435e
3c927204
3d9eeadf
bcbe60ca
bd2a348d
bd32d561
3cada200
3d656ab1
bd7c1b69
b8a3478d
bd055f6b
bdb3b961
be06188b
be1e28f1
bee761b2
bf18a8f7
3e4ef287
3f108026
be854def
be9e0d12
bf22e53f
bef21c1b
bee36728
bf176f08
bee7e29a
befbf2ce
bec95385
3b9e7be0
bb8b9da0
3c3f6a60
bd816cdd
bc9b02d8
bda027b6
be0ca378
bf3db427
bf47e140
bc3b0809
be04c2d7
be20d68a
be69a412
bed0f34c
bf57d0fd
bf8c8380
bf843730
bf4ec0b6
bf379b80
bf2fdedc
bf046665
bed2e144
bf2f10e5
bf85fc59
bf30c71d
beff6bde
bed37f0b
bf08f53d
3d94210b
3d9dfb15
ba9ba440
3c712fa8
3d569eb2
bd3d56de
be2f59b0
bf44f74f
bf1865f0
be22f232
bd4d3822
be2f92d4
befd313a
bea14500
bdb806f1
bde95665
bf40135b
bfa03cf5
be0994d0
be42dd1b
bf1cac0a
bf348022
be9ed79a
be458ec8
be912e56
bf7cf81a
bf4d5fdf
bf846e80
3ecd25d3
3f09812f
3f0beb5c
3cf05aa0
3d3781ae
bcf121e0
bebbda3c
bbcb2dfb
beb3550a
be86a2e7
be10ed3f
3eb51494
3e8ccd27
bd57cb92
beafe084
be88ceca
becccf5c
bea3b269
be85a820
3d90f4e1
bec63975
be5e4aee
bc9fed91
becda7b6
3cf946b1
3e277db5
be86ee08
bf072ed4
3e7aae25
3eed31d5
3e1b42a2
bdfa3213
bd99267c
3bf66970
bec536d4
bdc9f555
becbda31
be7d3225
bbc3fecc
bebea035
bcb82348
bdeae2c6
be8ea8cf
be1c6654
be9e97e3
bd9ea1f6
bcb1b6fc
be559980
bea5307c
3c5846d3
3ddc885f
bd6a994c
3e9c9e75
395095e5
bcaded4f
3db4f3fe
3ef72f85
3d9dd85a
bdd78733
be18da8f
3b3f9900
3d13cc4b
bd05b512
bf23b203
be075afa
bea5f1b1
bf1d5282
bf033b72
be33259d
3dc0ca08
bd83460b
be38cbf2
bdadd3f3
bcd16f36
3e04ff3e
3cdba6fa
bd9bad68
3e82ae17
3ce87e88
bd60ac64
bd72edf2
bec36f20
bdb9ddb9
ba38d541
3e7252ea
be786a8c
bec40ad4
3d924103
bcb25eb2
bcce2f22
bc0da4cf
bf0f12c6
bd7aa4db
be4eb861
bf0738ee
bee95c92
3d127dde
bdfdd706
bd2b0d82
bd070988
bd735744
bdbbbd1b
3db4a8fb
3dfa0725
3dbac4ab
bd0598dc
be0502ba
be1b73a1
3d011eda
bcc75d8d
be1a461e
bd435c07
3f007add
bd471db2
bee70ae8
3ed46675
bfa65ba9
bc6bf3b3
3c86b26e
3d5748dd
3e745a9f
be8dd152
be707eb3
bf0400dd
be5bf668
bd94311f
bead7d61
bcbea8c3
bd675398
3d278a49
b9c3c0ea
bd6b90c6
bcd7d292
3cdedacb
3daf3190
3b9607f6
3e233495
3e843f98
be888347
be2d63de
3e0b6b27
be1da65c
bd26cb45
bdb3c89c
3d303b5f
3d3bea9b
bed90661
3da33210
be042dd9
bdf1c42b
beff4b57
bf1304bd
be0bc073
bd3e728b
bc92f1bb
3e12fb97
3e03548a
3dcece90
bea99a74
be613f6a
bd9720a3
3c48426f
3e973e10
3cadda05
be5379fa
be9deaff
be77d08a
bec3b78a
bd6c22c3
3c70500a
3f3b9eda
3e128cd3
bd4bda6e
bd0e7e68
bf25efc2
be121c6e
be34512d
bef1b7d5
bef20f67
be125ff9
bdbbdff9
3e3fd4f7
3dbeb883
bd4a683e
3ea81ca8
3c9162b0
bebde09a
bdbc29fe
be4f1214
bdd89be5
3e3ee3df
3e3aa5d6
bda4c375
be99c75d
be423c26
be176d85
3ee841d4
3f6c732f
3ed778eb
be20ad5b
bc95e2c3
bf897782
bdade252
bef90915
becc411a
beac440d
3d354799
3e262775
3da980e9
bdfd7586
bea68722
3d650671
3e6db10c
be7bd66a
be51ed57
3e07b0ce
3e1e1e7e
be21e115
bded330a
3e1188d8
bd8987bf
3d764bde
bd47242b
be9b703b
3e6929e8
3c0669f3
bed21350
becddabc
3d253943
be996ee6
bda24704
beb28b79
bd985f0a
3e2166aa
3eb7c8a6
bd9afe88
bddf4bea
be2882f1
bd560ae1
3d8224fc
be587a4f
beb07b16
3de3aa3d
3ba105b5
be83569d
bd870bf2
bd8b1f06
3e96acc9
3e48afb4
3ce91faf
bea0b155
befffcca
bed63e50
be18d8ba
3e88b928
b995ce72
3d92fa02
bed16b6a
beb416dc
bdb3f523
3e2b7376
bd1ff176
3c164d4a
3d3047b1
be69ec8c
be4d5214
3e818167
3e81c041
bdce284c
3e83beb9
3e8eabc6
bb9725bc
3d0ca176
3d77bf23
bbd40c7c
bd352ec3
3dc4c493
bd5edb81
be076fba
bec82e32
be707e5a
bdb9bd44
3eea0930
3db433b7
bb9c08f7
be0afa58
befb9d43
3ebf3a59
3e192460
be3ff1b6
beb0bf9e
bd2e2d42
bc621dfc
3dfb191a
3e7b0f5c
bcfa720f
bdf1dd1f
3e851bdf
3d8cc801
3e290692
3e81371a
bb840d4d
be32e875
bd806913
3e500cc1
be0139e5
be936d1a
be2827df
3f29f070
b9315cc7
3f8a7631
3c8e1974
bdb6b882
3da90046
be9d02b9
3efc29da
3e86fd13
3e90a13c
3da75cd9
3da62153
3e936b85
3d2fc86b
3da73087
be01b7aa
3e1cea48
bca62166
3da3fee0
3e5c146a
3dfa22f1
3e73f21a
3cb39b5d
3e47d273
be408596
bf0aad28
bee85073
3e05ea41
3d9c2ebd
3d83f2af
3f526fbb
3bf39170
3d3188fa
be1ce6b5
bef68912
3ec8b662
3eb1bfc8
3e9a5604
3e421470
3eadde62
3e6c5fe8
bda065c7
3ccc2e95
bc816d7c
3ce99208
3d8ad609
bc310e23
3d841133
be208dc7
bc5740c8
3e068c36
bcc793c7
bd0e6cf5
bea2aad8
be75f5ab
bd5805df
bec7b94d
3e848e78
3f6b812b
3b90d4f0
3b17bb40
bd99bcaa
beb559bc
3f02b6d9
bd92f94d
3e859b8a
3e07a50a
3eb3dadc
3e8b8bfc
3e87e14f
3e5c98df
3e362d87
3dcf9ac9
3eced3e2
be024cdc
3d40597e
bdb2d85b
3cf3f369
be256ea7
be471ef1
bd26e7e5
bea9b27d
be820d45
be522e95
bf6d51ee
bebcb766
3f4e3a82
3d8764e3
3e078aad
3da320b1
bef7a7e9
3f0c2777
be793da3
3ece9e01
3d38cd32
3e146abd
3ed6c568
3eda2a78
3ebca8ce
3e95d0ee
3e99dde8
3efa7c56
be80cc19
be2dc44d
be453270
be4b86a2
bde7f937
3d24abb5
be566994
bdb6c34b
bcfd3df0
3ea8e686
bfa591dd
be50b4fb
3e5ee911
3e41af32
bb498241
bf2eebb6
bf0b47a7
3f275271
be1242c4
3da593eb
be5b4e8e
3cf28d03
bdb20154
3c1b78c3
3ec57290
3ebbde57
3dad82d3
bd8ab97f
3e20c4a2
3e20aadd
3e3eb9c4
bd6daebf
3ea73ad2
3e79ed4b
be875d83
bdb73de2
3e23a0c8
3e6e681c
be730257
3e55c5f4
3cb71478
3d61a5b6
3cf60310
bf525650
bebf5dc9
3e86c9a8
3eca9f7d
bd186fc2
3d726272
be47540c
bd87ff25
3e2e5803
bdb99b87
bee2c72c
bf886abb
bf1a29e6
3cea344e
3dc78a82
3ed84dfc
3e0d6e90
3de64ae9
3e424aed
3e0f99af
bd53eeae
3e667ac2
3e653b07
3f554117
3f69da75
3e0737c2
3cf10bc5
3d931323
bdb19fd8
be930cb3
3dab7a8f
3ea5c3a4
3e8ce0f4
3e20e038
be4ba540
bf078ec3
bf58f2c9
bf844610
bfc2f959
bf63a040
bedd6e52
bdefc882
bdaff20d
3e4532c1
3d4aa31d
3e8a93b0
3da46367
3e111d08
3e933be6
bdbf9794
3d402c22
3f46b0d3
3f33439e
bf4fbda7
3c0ddf58
3d9ffb3d
3d4a8c12
be107b79
bf159aad
bf2e694c
bf5446c7
bf101d35
bfab0c50
bfc0f2df
c0001287
bff57d61
bf28f73b
be436902
bd40cfd4
3c7fe25d
bee94f37
bda8b2b9
be53b78b
bd9b5dd1
bda65145
3e131dc8
3ebb6122
3cd3e6e6
3dd9b262
3f47cffb
3ea73e17
bea9a77d
3cb091f0
bb91d960
3d6e230a
3b5c71b3
bec3c8fd
bf94a467
bfbad8c2
bf678781
bf5e0bcf
bf8c7dbb
bf5c0914
3b6e7bbc
3f10e750
3e91b00b
3e224438
3e27a123
be23401b
be1b8661
bea6ddfa
be8896be
bd39266e
bc8c5dcc
3d3bf7ec
3eeb165e
3f0fdd68
3f5436ff
3f12f705
3ed14b44
3d85c2e9
3d2d09e2
bcbdb0c8
3d1f9175
bd893e43
bf1bc340
becb9c57
bd34cc58
bea2bc96
bbdf3495
3ea5ff1c
3eca3abc
3f067240
3e1e781b
3e6c6908
bdb65462
be236669
be8a301f
3d82b1e4
3df1828f
3ea58115
3ec5b9fc
3ef44efc
3f2c0b04
3fbbef95
3eecdb0f
bd363fc6
be793b57
bcadbd96
bd1875be
3c8407b0
3edc6758
3ca219ad
bf11cfa9
3d884031
3dfe8915
3c04a349
3f1512a3
3f0e62b8
3f1e55ae
3e7c224c
be074858
beaa9c99
bdec4586
3be6334e
3ea87b5f
3d50543b
bda00fd9
bcedaae8
3f4f8f32
3f52ea06
3f253b63
3f617275
3ea69d74
be324f4e
be908b4e
bd3262b0
3d706c62
3d402536
3d7c2e0e
3d0816cc
3e08d99b
3f3e7185
3f63d9f6
3f6912ed
3e314c6f
3e4ca2be
3f05a145
3f145f33
3ecf9136
3d0805cb
3f5f861c
3f5bb6b9
3e93bddf
be0c6ffc
bdeedaac
bdf912cc
3ee2c071
3ea37aec
bded0fa8
3e403123
3e845822
bd68a3c2
3d8388b9
3d25200a
bcfbf878
3d763bfe
bd96e26c
3d977737
3dc21941
bd582f9c
3eb14241
3e99aeb6
3e68da16
bc8039f1
bdb0124b
3eb45f98
3e9d8a2e
3eb2a39f
3ef20453
3ddd2458
be121d75
bdb72ed5
3e44fdf4
3e033245
be2f00c2
bf12c5ba
bef7fa8f
bed890f6
bb1f1840
bd5a3e65
bd6e7acb
bca89012
3e6af905
