bde0a449
be58a90b
be3c4d46
be3adeee
bd3dfeef
3dea88ab
bdefefb2
be40d5e8
3d73ecf0
3edf8a40
bdad81d3
b8d6999b
be1320ce
3c614ac9
bebc4956
3ebd2ec2
3da63962
3ddd1a55
3ef0c2e5
bf288a38
3e20a14b
3d84cccd
3e1988b5
3e01aa68
3e6000e7
3d010447
3e884a26
be272059
bf2adb68
be8aee85
3ea90dac
3e581263
3e9e452c
