bef5bcce
beedc51f
be06a703
3d957610
3eba2279
bc67bdac
3e9563cc
bed7da77
be99cf75
bcc3b7d0
bd848f7b
3eb32954
be244dbd
3de0fb64
beeb024d
bf416e08
be2dca71
3ea0d464
bf21f715
bea08f84
bf2aba50
be748772
bf1aa996
bd38d92d
3e26dfed
3e64a5c4
3d951cba
be86a6dc
3d960e90
3ec00749
3bf52406
be9c431e
be495093
3ec602d2
3eccd9d1
be8ccb48
3bf0fffb
bdba2749
3d105e12
3e74f2e8
3e91774a
3dff99c1
3e2b52de
3ece716b
bee28f41
bf13fd34
3dcd0ac7
3e8800bd
3e55fa68
be5ecd8f
3e248e11
be902d9a
3db14982
be236fa3
be6f0607
bec3a6f6
bee37e32
bee7b28c
3e56dafa
bc2bfb85
bddcef66
3f008324
3d6c6f5d
3e420b6e
3f705b0c
