3cc2eaf0
3d53062a
bd40cc3b
3bc23690
bcef7aec
3da53f29
3d051e18
bd53a0ec
bbffb410
bae54280
3d9effe1
bcba22f6
bd36faff
3d47475a
bbe93370
3ae94240
3d3eab5e
bcb148c4
3c4ea5a0
3b4e38c0
3c368808
bc201fe8
3d22589e
bd2582ff
3d84aa87
3cbf7790
bcb7fb88
3d824ab9
3cc839a0
bd7d54a2
3d85095b
3d4cfe66
bd1ab262
bd09cd57
3d748e17
bcfb31c8
bd327d46
3c94e9bd
bc88d1bb
3d4f87f2
3c60ac14
bc50bb1a
bd4e5952
3c8adc75
bd822cbf
3d53d70d
3d505694
bd7ac8ce
3cc8904f
bd08c95c
bd8cc55b
bca80a3e
3c433a10
bd607e77
bd94e362
3d312002
bce856d8
3d244b74
3d4d888a
3cd15dcc
bc5fcca9
3d055243
bc98c1e8
bddefe0c
bd530984
be4e5787
bd8a67b7
3d739a6c
be1c9f10
3e8de5b9
3e8c80bc
beba639a
bf4e18c6
bf1ffce9
bf2a7c6f
be737555
be3a4d85
bd69a6cd
bcde73c7
3dadb1ba
3d2f4096
3c68a883
bd94b0c0
bd1829e2
bd905fba
3cd1219c
bda83ae6
bd143f3d
bdb274f5
3c44762a
be28cef9
bd13aa71
be8907b4
bd83d178
3e9f8c46
bf020723
bf065e06
3edcde55
3f38c227
3ef412f9
3e64c206
3e5e4e05
3dd1504d
3bea1ef2
bf2e9bab
bf0a914b
bf14c895
be2334b8
bd78d2a2
bd3f45fa
3d657522
3d647b82
bce79a6e
3d9fbf67
bce15235
bd81af32
3dca3029
3d06214e
3f1674b7
3f1bb519
3e1c0c3f
3e3dca1e
bdf40626
bd1f3222
3d455b1d
3ed53da0
3e8aed09
3c86d90b
3e156b1a
3e508e46
3eb939d1
3e666a72
3e7be043
bdd0e6a1
bf0d1874
3e84ad55
3d32117e
bda158f6
3cad9a72
3d6ef77b
3d7b2a06
3b380d80
3e3e4b3b
be7de4e7
bee4445f
be042801
bce769d8
3cc55092
3e2568e4
3e8133d2
3dde60ad
3e936222
3d4bf491
bd702811
be38ecd3
3df34c8a
3ed815fb
3d888c43
3d701ab5
3df8f9df
3de1955a
bd24a114
beb2cef8
bea3e30e
3dbf703b
bededa8b
bd52bb9b
bcf1be28
bd952940
bc7ae7ba
3d93a827
bf04697e
beebb958
3d0e1cbf
3dba9a7f
3d6b042a
3e77088d
3e013c92
3de88866
3e020395
3e8944db
bcadcfb7
3e27bc45
3db809ea
3e9025d6
3e3809e5
3df6db17
3e16e7bb
bd94de8a
3d9234ef
3e7880d3
bec1f3d9
be8bce0a
bf296bf7
be5f8086
bd874694
3bae2f3e
3d72ce42
be029305
be4c0b3a
be7e7dd7
be030e80
3d51d6b6
3eae704d
bcfd9731
3d393c0f
3df87fa5
3d2b3699
3e0624ef
3e0144e5
3e0749d5
3cabc5b0
3e830655
3e752f87
3de8ae38
3e062507
bdc76002
3dc3445d
3e7b8651
be63bfea
bea4662d
be4206e3
bed63c66
be9775fc
3c772546
bb922592
be4c2662
bebd28dc
be0bde41
be8dd4a7
3bf433ad
3dd7123c
3e554adb
baae8da9
3d4964ce
3da7460c
3e8cbda1
3e586cd8
3eb3388d
3ddf81e8
3d4f35f3
3e54026a
3e111089
3ebd854d
3dc86071
3e3ba6a4
3e9ff20d
3e83a1f7
bd88c576
3e2b4a7a
bedfde24
becf928f
bcd762ec
3d8e05b9
bdb298e1
be44b5a4
be80a911
3e068813
be93a9f5
3e76cef0
3e336546
bcee2c41
be26d9c4
be8d0b40
bea2caf7
be9fa49b
bf336c29
bec86a6a
be8f01ff
be0e7c57
3e8da00a
3e628148
3e86d379
3e36a9d2
3d815d52
3e43cda5
be60abd9
3cc884e2
be399138
bda3915a
bc8aec6e
bcc84657
bd680ec3
bce123b9
bdea1baa
3eccd515
bd974345
3ee2e31a
3e3aa756
be606168
be2a3b73
bec165f3
bf08b8bd
bf43f5a9
bf572584
beb457f7
bd5c0350
3e0261f8
3daf6e69
3d0a0050
3c5c4a99
3e40447c
3e52c0f8
3e897aba
bdaaed00
bc0351c0
be0c52ba
3d2631d6
3dc1eef4
3da1c659
bdde7cfa
3db547ab
3e027329
3e931a75
3e0c3a82
3e147aaa
be3004de
beb668de
beb5ce8c
3b238f22
bddae9a4
bee85b01
bf1d1664
bd9d3489
bd961dd4
be074850
3bb46314
bd1df5ab
3e1cd8c1
3e8bd0f8
3d342448
3e1e7145
3dac9bac
bdd74a55
bd5fa2b8
bd04d10d
bcadd181
3dcbf01a
3dbed464
3edb3029
3c0d2e5b
3d816aac
bd4f445c
bd1ba89a
be6c4ecc
bf03baa5
bf1466f3
be7af7fc
be389a2f
bf34cc91
beefce9b
be84c87a
beae18be
bdc19b16
be3720c8
bccc522e
3eb671e8
bd06f731
be113edb
3e978dde
be451815
be33443d
bea7abed
3d722608
3c2846c8
3e2754f3
3eca91ef
3ef471f2
3e5153d3
bd1d484c
be4901b4
be2eaa5a
bee7a6e5
bed198d5
bdcd70b1
be81c27f
beda45e2
bf12c4ef
bed473f1
be98d6a9
bedd9470
bf2e366f
bee86e5a
bd61059c
bd829e44
bd91bf51
bc50298a
bddc9ce4
be6a8b80
3dd9bd98
be2a468d
3e02426b
39b5e700
3e2bcb24
3e603755
3eb2af19
3e9d7d11
3e28a947
bee90835
bf08562b
bec4b795
be34ef40
bed392ce
bf3b7ffe
befbaee9
be45165c
3d15dac7
be907965
bf4655aa
bf1823d1
bee30234
be8e84c6
bdf1f818
be27a1df
3e02823e
be7cdc10
bd54bd28
3dd3e670
3e8e28ba
3e0d1fd9
bd8be5aa
bd7d4395
3e2aae83
be5f0911
be306c1c
be624cc8
be9e797c
be9aaa92
beac67d8
3db1ecbf
bdfd1dbd
bf3c24a5
bed1665f
3d38754b
be04c383
bf10d477
bf12f3c2
beb784ba
bdd8486a
bef056d7
be1e4de5
3d004727
be2ec333
bec77c2d
bec5b0a4
3e85dce7
3e97cb00
3e60f7e7
bbbafa00
bc6e3b43
3d7d4cf6
bee0c874
3dba806e
3e017eec
bea315e7
bbe21f9f
bd843345
3e832ca2
bd92af38
bea60dc8
3df50ffe
3e92fa49
be957ad0
bf027447
bf2e7e82
bebf7fe8
be1f4dc5
bd366e0e
bea3fea6
bd94e423
bc83b5ff
bedfb1b4
be706927
3f14e4ba
3f0fcbfb
3e79081b
bd6feb66
bca17a48
3c7034b0
bd370c0b
3d939810
3c812bea
bc8c29b6
3e243533
3e29d7ee
3ea19d4d
3e885540
bd9c9384
3e4880f7
3d544086
bebd634a
bf1d2a45
bf05fc0b
bea7471b
bd752826
be2d5c3e
be6d8bd4
be498141
be2b39a7
beb11f15
3e680b8c
3f7deea8
3dccdcdf
3e089261
bd63f099
3d36704a
bc6060da
bf0ed1b6
bf0fabd9
bea5d2a5
bcb0c919
3e86e0bb
3eac7eb8
3ee3d2ce
3e4b444c
3e14b5c0
3d3200a4
be5f8803
bf67745d
bf6ac7a3
bf2405a6
be2d1000
bd2c9796
be6c7db1
be71cf74
beaa0702
3e11b3f7
be19119b
3ea641cb
3e658555
3ea9b78f
3d31ba0f
bc94c6fa
3c48d7ba
3e48b5cb
bf5fede3
be82a532
be4b499f
3e49eeda
bda51e41
bd68e79d
3e9956de
3eb44cfa
3ee8bec3
3e2f24a1
be904c1d
bf6b4d1b
bf23f370
be5bf105
3e7cf585
3d0d5a34
be979e0a
3d8417ff
bd7dd089
bdb4e08c
be6c77d8
3de80b87
beb0018a
3ee30ffb
3d43a2da
3d867e3b
bcaa3312
3e01d973
3dacd754
be7af820
3e842f9f
3e0656b2
be0f7f0e
bea1693a
3c45f695
3ee69acd
3eee3f42
3e2a6aa0
3daa8f7f
bd9282de
bda60482
3ed58d28
3ee99823
bdc329c2
be35bf12
bda44708
bccc75dc
be09ac17
bd5b0948
3dd0729a
be10c2d9
3de55696
bd640c4c
3cc7dd68
3c943d87
3e1e5424
3f1553c3
3e89ff5c
3e3cdcd6
be4c1799
be8ada3a
be7fbf20
3deac626
3e76d2b1
3ec36395
3e9c809f
3e4858f6
3eef9a84
3ed63485
3e971aeb
3d4e5d77
bdb08b97
3dbe18b9
be81c95e
be87c086
3e392e1b
3d5fb2bd
3ee3ddb5
3ee4b017
3e740a1b
3da272ee
3d3eb78a
3d2c9bbe
3ee32d59
3f1e6377
3ec9dd7b
3e0955df
be2f9afb
3db25fe6
3e60b789
3e75e38b
3ea9d509
3e995da5
3e301ccd
3e27ba46
3e49b5ca
bd620b19
3e57e10d
3e29b4e7
3ebc1f9f
3e62d91f
3e28155e
bd4c089f
3e6d3b4b
3d9790f9
3e456140
3eb36899
3e88c637
3c4aa9b8
3d613fba
bc17c910
bda5b1cd
be84f37d
3d9ffd3b
3e441712
be1e1e11
bd967832
3e01f827
3e456c7e
3e49ab51
3e4898fd
3e4112b7
bda2fbb2
3da921f4
3de84adb
3e119395
3e80fb37
3e94fb27
3e7365d4
bddbe270
3e02cb07
bbac2d2f
3ddcc17f
3e83e7b7
3ed87e3a
3e8f7741
3d84cc05
3d998589
3d233430
be84ad76
bebb20c5
bc1ed2d3
beb8f471
bd10b014
be2a4883
bd66907f
be5f82da
be980675
be5e93d7
be9a9c7e
be9e8000
bbea5c2f
3ddf631b
3cb266f3
3da49b71
3ea44ffd
3e1ca6ad
bdc557e2
3e15b0cc
3ee23e55
3eb0e979
3f0d5f00
3e9732c8
bcb81d06
bd3ec8d0
3d0e2bd6
bce881ac
3cbe3519
3ec52f7b
3f713902
3eabfa24
3f075bee
3f4dc235
3f2bbfd7
3f0bc05f
3edbb729
bd6230b7
be3c5173
be2fd9c0
3d2aaf77
3e33ecdd
3ebce8f0
be99bd62
beb46154
3c2309a4
3e5c1b61
3e27dcfc
bea65407
bdc2cdf8
3c979ce6
3d17caf6
3d6a5fba
3d5dfd36
bd30302f
3c80fb28
bcb08e94
bd93253e
3ddbf6c1
bea2c59f
be5bfbe1
3e041c55
3f074437
3e8598fc
3db876e5
be015857
3c88ecfe
bded401e
be8dca92
bebfa630
bede77cc
bf22e55b
bed31021
be41c6d2
bf008c2b
bef033be
bc8c209b
3da262d9
bd477fcc
bd95a78c
3d9dd5e3
3d367c42
3d9ddda7
3d9aecdd
3d2002c6
3da271a7
bd962e09
bd35e386
3c4e4c57
3c4d0af9
bd2943cb
3d8bb254
3c9e9e73
3cef829e
3d187527
3ddca95c
3e241248
3e38349f
3e7b010d
3d38144a
3d85f1e7
bcaabc09
3b34ad63
bc943c28
3d810ab5
bb21d1df
3d361382
bd819fbd
bda0b0c9
bd372ce6
be3980ce
