3dc763ac
be8d08b5
bcd3b422
bd3d162b
3e1da494
bdd5599d
3db58276
bc6ce3ea
3ed041f2
3e4ae5f5
3e92c0b2
3e15cb26
be70279c
3e6f1ae3
be583985
bef4205a
3dce9776
be250c8e
3e0eefb1
bec3235e
3e82233b
3e5bd7d3
ba6c8ffe
be1645cb
be273b77
3e83cc40
be735e9d
be047146
3e968ddc
bf115e51
3e0e799a
be077480
bcb5f6cf
