bd0cf9cb
be35799a
3e034e37
3c966588
3c90699e
be630543
3dd63113
bf33da8c
3e5320b3
3da8500a
3e910a0e
bdc75da0
bdce9381
3e8ef9d6
3f0c440b
3f1f44c3
bed229f1
bea05bf0
bf574fc7
3e745ecd
bd7524f7
3e3e0f3a
be85d06e
be9c0b92
bd15ca04
3dbe9654
3eeb4d03
3d3c0321
be439b4e
3e01a948
bebb5d5a
be5da240
be60a176
3e8e20ba
be31f14f
3e99ff69
be4b9721
3d51d3e8
bf61dd0d
3e380ac3
3e964138
3e80fae2
bf90b474
3f1b51ce
bd5bd816
bf587fd5
be19e2a3
3e9c501e
3e049bfe
3e9d52d8
be30e4f2
3eaaf07c
beef84b6
bda17ad5
bde67b70
bf2de707
3e92f2f5
bf5ccfbd
3e8190eb
3dcdbe7f
3b7dc20b
3ec580c3
bee704fa
beb83933
be549122
3ed558bf
bb22492d
bed5ea9e
beacaab8
bd8f86d7
bf16dfe7
be1bf82e
be1a491f
3ea4a113
3de4f166
3cc9e54e
3e8f1547
3c0772a0
3e2fde53
3dadc65d
bd0dee92
bf60e51c
3ea6e882
3e7e38ff
bdf30f26
3d9e0ca0
3eb11b1a
be12ae8c
bf12766b
bf0dfaec
be81201a
3de8570e
3ef012a5
3e5c9aa3
3e3bbeae
be859c31
bf1f183e
bef80dd6
3e0fbace
3d288dba
bcee4bda
be05f810
be561a02
3d24adb5
3e21b917
3ea6045a
3e975056
3e48fa16
beeaa525
3e8bb0cb
be39a232
bee716e5
bda1d621
3ac3a588
3ba9d094
bf2df6c6
bda5fbc8
bd8c234b
bf095621
3dc64e34
3e9dbdd0
3eb9a463
3cdf8540
3eeb07e2
bf37083e
3ebbc2fe
3e0a076e
3d2201a1
beb96461
