3d73fc9e
3caaf614
3cb53408
bc4b0b50
3d641002
bd942a04
bd70badc
bd9c15e5
bcad99d0
3d1d81cc
3d5216ce
3d255958
3cc43289
bd046123
bca6c447
bce8dbd8
3d941229
bd81b541
3a458900
3babb620
bd885377
bcd02ff0
bcbbac06
bc3f0660
3d0c6c54
bd570e23
3b412e80
bd70610e
3cb01180
bcc66d14
3d91ccd7
bd8ee45f
bb21579b
bd1ca27f
3c805786
bcc3a562
3da8d047
3c9506dd
3e5579f8
3e8ffd8e
3e9f3280
3e4ccdcf
3ed6e4e9
3e9d68f1
3e0fff76
bdc73c1c
bd9895e2
3e18093d
3d5277f4
3c30fbc5
3e01f980
3e533592
bd042535
3d263cc8
bd9e5084
3c338310
bc08d1f8
bd10ce2b
3d4646eb
bd72eea3
3ce01636
3d54a4fb
3e1402a2
3e3a2167
3e005c38
3edd308b
3e998bfa
3ea287f6
3f16eb10
3e27cf00
bd9a7c40
bde59096
bcc7d6e1
3ca5c857
3e2d859e
3ef86546
3e8328bc
3ea59956
3e898806
3d1fd534
3d3bbbfc
bd36ab70
3d3f4b1e
3ccb7da4
bd9d6c8c
3bb022e0
3ef41294
3e32a5a7
bdd96a7d
3e3cca6d
3e429f69
bd8ee939
3a5de853
3decdf98
be72c29c
bef931c0
be817389
bf1bd973
bf203b8a
be9cd7ac
be9812cc
be8f0d8c
bee3abe4
be94bb9f
bf0fb7b6
3edf070a
3f3202b8
3f5e1bff
3f38d199
3e68da10
3e2214f9
3da57151
3d4f85a2
bd8bdc70
3eea3bff
3dc18299
3eedb7bd
3dbf90f2
bebee5e9
beadfabf
3d206cde
be9a4ea7
bd0c805f
bc5ef274
3bd3de9c
be12fd9a
3dd0b33e
3da69ec3
3e56d802
3dff5d07
3c944ed7
3e2125e9
be84b281
3e326331
3ec3bd82
3e6c900f
be9dfe63
bf48a629
beb11af2
3e62a73a
bc27bb60
3d254fa2
3f2acd41
3c74433a
3d903a82
be877861
be475d41
3e3db06d
bd5e48ca
bf1b92e7
be0eac1d
be31742e
bdb71aae
bd5f393a
be5e087d
bd767284
be055f88
be5e7fa7
be04a5ee
3e38a5bc
bdf29217
3e40e7f8
3e28d39d
3d09cd24
be74c598
befeb681
bd8cb5a6
3e715826
bd8da7fd
3ca4c0d8
3ddc639c
3e97dfca
be975b8c
becd413c
3dfbcdb9
3e1603d0
be9e4a59
beaafadf
3d947814
bd8bb946
3d3e0aca
bcfb7b30
bec46272
bdea99e1
be423604
be44d8fb
be8221cb
be39eb82
beabae82
3e31f121
bc8a71df
be3ea64f
bf5bab80
bed432bc
bedf1b16
bd198a1f
3d8c6045
bd25e3d1
3e46edfe
bed228e9
bf1dbf68
bf096315
bec1b5a9
bd9d1077
bf0b29ca
bee8a803
3d24f027
3e4efe71
3e998500
be375faa
be089cf7
3d1d847f
be3b88cb
3d833a10
be071afa
bd2edb73
bd25c344
bdadfb5a
be499b75
bf344ecd
bf0d314b
be9e54de
bf54c5ce
3d8616c5
3e527508
3debde8f
3eb1c55d
bf542ac3
3c690790
bef6b972
bee39cb0
3d9a50ba
bf15273b
be682d14
3e4f9300
3e80aa59
3d10af11
3d0f5ad2
bd6eef0f
baf73c91
bd53e29f
3e9c9672
3c8c5593
bcb56c1a
3dff79e9
bdfa4a6a
bd845e44
be6f37dd
bf7f1f6e
bf0aa126
bf015ec3
bdb361ba
bcacbd66
3da9217a
3e654b59
bed159f3
3db758a0
be9ab92a
be87df8b
3e241a43
be8c169d
bda81f9f
bcfc44f1
bd3de0c4
be0f9da1
be1547ba
3bdd9273
3e8b07ef
3e283e41
bbe72cd1
3c6bf1ee
beb404d0
be5fc7ec
3d4bf492
3b8124a8
3ddeadd4
be4fb208
bf4badc5
be18f6a5
bea3d329
3c168530
3bef68f9
3b93449b
bf53159f
bf14f272
beb1209b
3e8bca24
bdd9b9ae
be899734
3a7990c2
3d87e1d7
3e4ad3ae
bd945965
bd633856
3d3eff9c
3e101af1
3d2697ae
bdf21261
bede6b80
bf155529
bed9038a
3dc65435
bd0bfb24
3ea2b656
3eda1d35
bf0cb1e1
3e5fc087
3d2315ab
bcd6221a
3de98702
bdb09594
bf577393
be725f97
be3a13d2
3e8dc67c
3c05f089
be20ad85
bdccc1d7
bd96bce0
3d1937bd
bea4d8db
be07cc91
3d36b877
3e5e095f
3db3bff2
be8bca6c
bcbb73db
bea4d750
be0e6736
bd0429cc
bdd8d792
be234210
3ed2ff2d
3ed8e8d5
3efa5eac
3d422220
bd36dccd
bd0ab04a
be9b6b5e
beabb730
bd296a49
beb698a5
3dcf8738
3e20d976
3dc3b386
3ea606f9
bd3848de
bd90b854
bce87f54
3e1fd015
3e262962
be0c2221
be4e11b6
be9a996f
bd5e5969
bc5c7095
3c9f891a
3dec03b2
3de9e360
bf0c94dc
3e59b75a
3e277f77
bf48511a
bed371e9
3d91d213
bdbb1e2d
be3531a1
bdc1c3d5
bdaaf539
bd3bdac5
3e869153
3e50d3f1
3ebcdcec
be6554ba
bf147e37
bf02b557
be585516
3def9d1f
3b0139dc
3dbb63ea
be14cd0a
be0f476f
be7f9310
beaa405a
bd40e540
3ea36005
3c38e4ff
be8ee981
3dd53b0a
be026c39
beaf1c47
3ed0f41f
bcbc3d21
bd88a0a6
bc86bf44
3e7a68b6
3e7e71e7
3e54724d
3eb35e5b
3eecb9c8
3e9de40a
bdac466c
be91501f
bf14f4d6
bea200ce
3d1f36af
3d34e387
3e2aec76
3dee3ccc
bdeaf9d0
be37809d
bea2aad3
be0d6433
be026d8f
beb6943d
bef9ebf9
be3fbc9b
3f194bd1
3f0b98fb
3ea7ffff
bd6edcab
bde2345f
bdb5f833
3e14bd4a
bea60251
3e0ce912
3dcf5831
3d28b737
3de0814e
bdc0d98f
be8eeb18
3d6be560
3e0d53ff
3eb63d68
3f11b780
3d1ec025
3e3d546f
3da644e1
bee51fc7
beb38659
3d4e6fbd
bdfffac1
be99c91d
bf0d42f8
be6b204a
3ea8a61e
3ecdd1e6
3f0f2de3
3d794d4e
3d4cb92a
be1a10eb
3c86d156
bd87f81a
bc872466
3e1b4898
3df623c4
be5660d5
3c2e9b7c
be11d287
3cc7d9c5
3ddc65d6
3cc1d809
3eeddee9
bc7b6bc7
3e1a8a38
be01a7d6
bf026c9d
be873b96
be6c8832
3d0200ca
be48751b
3eda93a5
3f01f4b9
3f54c310
3f071ec8
3f2acedc
3ba58650
bc81c05d
be929649
bd4c44a0
bdea5c5e
3f0f2bb8
3cf5fa57
3d507c69
be0136d3
3dc793a5
be774c5a
be85b824
3e34ff0f
3e8521db
3f0db169
3ca1a6ab
be059554
bec64620
bf197c71
be385c3d
3e9b3fbe
3ea11bd6
3ed76d4e
3f024024
3db62f5b
3f51d275
be0bd375
3eef98ae
3cb07221
3d1f853e
be19b535
3d75f6e3
be34fbe0
3eae5fa2
be0e649c
bea6dfe0
3e1f9808
3ee0c37b
bd414eaf
bec97407
bd98c24a
3ebdd217
3e930833
3e52c2f3
bdf85e81
beaf30fc
bda38d9f
3bec0276
3e716f3e
3e5e8547
3e2d3dfa
bdda7a04
bf18be88
3f1eb67e
be4e39f9
3e6beff2
3d2e85a4
bdb07c72
bf070310
be2aea95
bedeb704
beb6ad8a
bebcc53c
beb9519a
be5fcad4
3ed1f07c
3e1d1d32
bcc36b35
3df3db90
3dc3d6d9
3e1b58ce
3e646956
3f03c66d
3ea16079
3e88c65e
3eb519e7
3e8becf8
bdbba29c
be3a06ae
3e4e47d4
befd9e40
3f4a312d
3f0a73ef
3e8ac53d
3d3c790e
3c61f792
beedb933
bde347af
be7ede8a
befe6e2c
bee1b702
be8fc026
3d84bc3c
bc419216
3e4b7284
3dd09851
3eca9127
3dc95b17
3e47e381
3e21552b
3eba90cd
3ed6213b
3f0cced0
3f48dec7
3f399562
3ed1e952
bb4951c8
3e8d2172
bde06ebf
bd8231ec
3f06af70
3da875af
3de04409
bc623d4f
bead7451
3db4d3fb
3dd64608
bde88f93
3de61bde
3edb7ae2
3ec56812
3de38cbf
3e63fa18
be4c4ade
3d1ca309
bc1dfc0a
3e250356
bd859355
bd23dc31
3c24fe16
3e5ba3e2
3f40c50a
3f32fe58
3d648545
3e24fa01
3e6db441
3d88c6b3
bd17adaa
3ebc1121
3d57d282
3dcfa3bb
3d97d6d4
be078f1f
bda4e170
3ea5ed90
3e20617f
bd892a57
3e844ca7
3ed2fa45
3e842cb8
3e37833a
be8c2d4d
be131e03
be73207a
bcd58056
be9f9a1b
be960080
3c8ca706
3ecf01ec
3ef2d4a1
3d24d049
3d8c02ad
3e3a47f1
3dcb45c7
bd2997b0
be901532
3e3f8417
bc90bfd4
bd3bd3ba
bd68e238
3de62b14
bdfcc78d
bd0615ae
bee9f6f3
be36f892
bdcbce89
3ea0ff7b
3edaa50b
be8881b3
bee693f5
3d07aaac
beea1f41
bef21363
bdbc2264
bea603e3
be4c0710
be85d876
be6468da
3d999790
bc37b7fa
3d950cab
bd2676f7
bf0536ae
be8d9e71
3e489d36
3cf06150
3d815d35
bd655df8
bb591d8d
bf14c79c
bea456e8
bf0f8a86
bda7b8c1
bcac5a1f
3e88dda3
3eb66c4b
be50e52c
bf0ccdaf
bf109805
bf4edd0b
bf21e80e
be8ce309
bef5f562
bf6f76b7
beec3ee2
bf1472a5
bef8deed
be2d1cbb
be975ece
bf0e0139
be880f9c
3ec54c8d
3ec723ae
bd8982f6
bd645f90
3d9d00ab
bd4bc985
be9b2e29
3ecf6253
3ecd6e47
be96155c
bf72e6ba
bfc09f55
bfbf5bac
bf9623c6
bf388f22
bfa60de2
bfa1bfc3
bf9012ca
bfb75441
bfa0229a
bf48a45c
bf9865ff
bfc51fa6
bfa67df0
befa7908
bf73b5c3
bf46477d
be62cace
3ea699c5
3e98ad65
3d71d282
bd85c19e
bd86870a
bd05b671
be8f3f48
3f14906b
3f2e349d
3f01cdfe
3dca1650
bf5dcfac
bf43c085
bf4b3035
befbb108
bf02b508
bf233dba
bf2e2f18
be8d4798
be74c567
bedcac51
bf0cc1fe
bea41374
bf0c1d22
bef9c5f8
be9fe04c
be0c63b1
3d69b8d2
b93b0880
bcb07f88
3d6c9b82
3ca93c1c
bd6c4358
3d04dec0
3d97f731
bc15a163
bd6bb289
bd9270ed
bd3df423
3d852bd0
bb8fb7bf
3d85b887
bd6976fe
3d1342dc
bd8fd827
3d71fe3d
bd92db83
bdfa74d2
bdb47974
bdbb4695
3bf01686
bd669548
be09f4c0
be3a7532
bdf14342
bc7fd488
bd2b3352
3d80db7d
bce22f08
be145727
