be2fb997
3f69a615
bf0af3c6
beb22dd6
bdaeef5c
bf1775c6
3e345f64
beeb050c
3dba2233
3e3e7301
3d8be2eb
3e9919c1
3e06ae45
be87377e
be8b969a
be261c11
be64715b
bd4b7d75
bee35028
beb562b8
3ecd6cdc
bcf3ac54
3f544904
bf1b9404
3d08184b
3d8c7ccf
bea6da19
3e812633
bed1858f
bbfc0a92
3da450ce
3dc50809
3e988aa8
bf5c2040
bf449c64
3d3c8ce5
3eb6fb39
bd9ca14c
3e52141d
3dda2233
bf26e3eb
bde228cf
bee2094c
3e11d427
bdd41b2a
bf826326
bd8939f9
3e869e48
bd94fbce
bf501c6b
be2fa98e
bf15076e
3e9733ab
3d750249
bbbbdcac
3d7e7808
3eb6bab3
bddd0433
bef2e3fc
bd8314eb
be1497af
bd219a08
3ec15395
bd3114eb
bf088f14
3e3b9b10
bf326950
3f07ceb5
beacdce2
3ec7b1e6
be88faed
bf101943
3ea16e91
3e56f993
3e1d3cab
be6ad86d
bea2ee8d
3d2a0e30
be50b925
3e08db72
3f04277b
3f120a5f
3e49509b
be67db80
bdd064d9
be9a4c43
3e1e829d
3db0b269
3e5b948a
3df67b61
3da88739
3e9d726a
be608569
3f12394d
bf002560
3e276e35
be936955
bed4259c
3f4b62b6
3ddcf67a
3e6aa8d6
3b8704c0
be143086
3e859f8b
bea05b42
be021dbd
3ef57f75
3ee0b0e7
3e12db69
bf1c52f4
3d6e1e94
be9b3585
3aff2c5a
bec0a59f
3c896736
3eb5cf40
bdafa45b
bd9eacc7
be0e43df
3f01dfa1
3f18505c
bdfe6961
bdb79936
be7eecc0
3d4dd3ed
bd07c7c8
be277c66
3e17e30e
be2ddf6c
