bdd8629e
bddb3c49
3d99c4c7
3cdf7e33
bda59764
bf58d8ad
3db9ce7a
3ea2ac23
bf6406ef
3d53bf56
bdbe3e77
3e48c8ce
beb5938d
be8525bf
bc17e720
beaa5bb9
3c6fc986
be38945e
bea7cc04
be332751
3e835109
bda3c9b6
bec00d47
be00814e
be857ab4
3f156f10
beca8929
bd897e2f
bd0b6e96
bf80e8fb
bea47867
bf78caf1
3ed90c20
3dcdcda0
3f066def
bef39f47
bf03ce66
3da09948
bf1f8c00
3e44e862
3e22e882
bf0ddd0a
bee2b5a0
bd2a1f89
bea00e23
bf09d844
3e289dd0
bdca02f2
3b81ddc7
bebd087a
3e565cd6
bd813eda
be9317e4
3d4d27b3
bc8e951d
bf767025
bcd4fbfd
beb5a312
3e3363e7
bd4dc7bc
3eae9307
3e4502ec
bcc69616
bea50bfb
3e2596d2
3e04eecc
3e74e99f
bda97b31
3da96b27
3de01f12
3e5fdafd
be04e72c
3ec83c58
bf21589b
be6dc3ef
be6c62db
bf0a86a2
3abcc050
3e05af6c
bf2c3996
be9c7368
3e9d4365
3b0d494e
3e01f65f
3e3f4b0c
befedf74
3dd66a0c
bf3007fb
3e99bfe2
3f36f4ba
beece870
3d092d05
3df416e5
3c8b1c44
bed0f81a
3d84f019
3e3eab84
bed24d6b
3e2167da
beaa2999
be56b05e
3d91c6f5
be81d30c
bf26a18f
3e95c763
3d3cfcd0
bc27ea94
3e811fa4
3e353b2e
bd2a5d5d
bf65d33e
bdbe6b51
3e44045f
be050cfd
be0f26b7
be021bf5
3f0c28a1
bdcda16b
bf99c9ca
be773217
bf4d5128
bf1c07de
baad9b7f
3e9c6310
be4deb8d
bee6dfeb
3de7b750
bf06c0e3
3e8fce8d
