bc6220b8
bd9f2934
3c91e260
bd9e84f2
3d201a60
b8906000
3c384218
3c387e08
bd0bde9b
3d6fa626
3d910e1b
bd4c9ffe
bd28d6be
bd91d7fb
3da0160f
3d8cb013
3d80cd47
3d3f3a8e
3d763076
3b8c1a60
bca43e6a
bc0e48e0
bc8227e0
bd89924f
bd084441
3d54dbf2
bd85a052
bc4ed578
bd0eb532
bbdec860
bd6b4cf3
bd40aa6e
3c9a0678
bc73ae68
bd8cc395
bd9198ee
ba0899d8
bdb2dd49
bdfc70c6
bda56a85
3c7ecd6a
bd594a89
3d102af4
bc5e0956
3d16ca6a
bd1639e1
bd9f0a08
be034339
3cbb8d31
bde69108
be1d26b6
bd88b094
bbcd7270
bce6dffe
3b766f40
bd7a9f33
bd573294
bd75f66d
bd4ad4ed
bcab42ab
3d48fdfb
3d6ec5b2
3c497a2a
bd1b7e0c
bd291d58
be8e4a4b
be89773a
bf0af897
bf360b39
bf13761b
bf108047
bed4e644
bf122c85
bdc05dd5
be2d5b07
be82b5b7
bea5671d
bec47ea7
beb46736
be2ef3fc
3d78d6cb
3dc9e009
b9723200
3d837ff9
bd9891b2
bb574240
bd114c8a
bda07ae9
3c62c19b
be3fbb99
be7f1d34
bea33a67
bf113021
bf522b11
bf19e360
bee3e058
3e464028
becf20f5
bf48be08
bef477b8
bf4330e4
bf2a3674
bee320b6
bea027bc
3e5ca31e
3e49fad6
3e3691b1
bf1610ae
bf026981
3f0d3120
3e5801ac
3d2f2600
3be8f640
3d7ca2f2
bd5be738
bb811866
bee9afb8
bf307f0b
3ceb366f
3e6b2a68
bd83bca7
beaef44c
bebc4078
bc08108e
be351e8e
be7141f2
bdbb0c87
3ea27b42
3ee75e22
3ef94dcb
3eb8ad2d
bf3bd89c
bf1a7d0a
be9ea2d1
be8c08e0
be8afbaa
be496db2
3ed221bc
3ee86698
bf26e308
bd40dd10
bd7f502a
be4c1932
bec7ef4a
bddef15b
3dde8463
3d653bf1
bf1d679d
bd8171b3
be7985de
becc6ea3
bef69193
bf0c419b
bf275226
beb22958
bf3eea22
bed0a657
bf384f05
bf01c4aa
bf4b985b
bf0776b0
be396895
3e22fda3
bec5c574
bf38e37c
bc912161
bd827576
bea4dd46
b9f4ac00
bc6ceee8
3ed760ea
bf091ea6
bee26522
bcb22ef4
bdce5b90
be939f35
be222cc3
3d90ee41
3da05fe2
be015a2f
be6a55e6
3deae591
bdb51608
beafcd52
bf0001fd
be95c5ab
3e0c23ef
bc99c6e5
3e0f67e4
bdb3021a
be19918e
be29a020
3e44d399
3eaefba8
3d9a220e
be9dfdd1
bd96935f
3d435de6
3ef5c38c
bf2f17cf
bf7f046e
bf1f6e51
be142b90
be25711a
3d4e133b
3c70ab3d
3ed0e539
bce5a35f
3cd11f99
3e6886f4
3dbfd902
3e74eeb7
3e821504
3dc10476
3ee04ab8
3e679f39
3e152be1
3e447a7e
3e32e2be
3e9a6990
bd457ed3
bb00d56a
bd0043c4
bec97c2f
bf5b9bac
bf07a379
bda745ad
bec86530
bef8d545
3d46904d
be51e770
3dc7d376
3e29c90f
3e18d744
3e9033cf
bd8afa2d
3eb4bfc8
3ef111b2
3eaf8eb0
3f43a475
3f1366a5
3e538ec3
3eaa6c70
3e094546
3f231345
3dd6014b
3e1c848a
3ecd369a
3ef33a33
3f07f8ce
bd11005b
3d8de08e
3bbf32a8
3e31f1ff
3cf543d8
bf1f9abf
3d9bc133
be81bf55
be471173
bba4a88b
3e7352d6
3e998a33
bbcbd1d0
bdb06ca5
3db7897c
3e560046
3ea142b7
3f0acced
3f062b73
3e8cb75f
3e345569
3c1e483a
3cfa5b50
ba92cf33
bdeb4a87
bd4101a3
3f195c29
3f2a31cd
be94add7
3c6e8b22
3d23d191
3e2adac2
3e694aa0
bf25e36a
3e1a4d8c
be6359a9
3e411079
3e0b7e49
3eadc549
3eeac8d2
3ea0883d
3e0e12d0
3db9f796
bc8c64c5
bc08392b
be22d4a1
bce6bf23
bee8a638
be1c7c12
be91fc37
bf14f4f4
bef28313
bf30e04a
bf54434d
3e09377f
3e63afaa
3d2a758b
bda67f37
3d906dd4
bcec0f02
3ebba45f
be747539
be215613
3d1c9f36
3eeaddb1
3e3c8620
3d2eb2ee
bd252261
3e2bbb17
3cfa366f
3c47763c
be910ad5
bef3f03e
bf0b4896
be885662
bf0f6abd
bee678b8
bedf708e
bef2fc25
bea1ea78
becdac68
bf699dfe
beebd826
be59d332
3f61e702
3da71fae
3df38fb9
3dfbb3dd
3e6775f8
bee98315
bef52913
bcb1e242
3e2f14f5
bd504c6a
3b0b030f
be6d429b
bdcf1ae3
bd921fce
3dfec73e
bdd31bff
bf2a6a3f
bed4e6e3
bec57863
be0b3a99
be8e68f3
be69d8dc
becf9888
beb63004
bf0576a5
bf8dae28
bf8a518f
bc8bcf55
3f80fc55
3d85ae00
bd38a054
bd202d5e
3ea835fc
bf0effeb
bf24b329
beb967bc
be99f55c
be346496
b9e34c96
be6e8fd8
bebe8b98
3d813bac
3ddf1779
3e0bf41c
3eaa7efd
3e83d7ee
be0ce232
be0bffb3
3c44b375
3db1da2a
3c8e6f97
3ea02c39
bf1641ed
bf5d9e35
be50e044
3f2a7ba0
3f1fee5e
beb7d4be
3e062c1b
bbc62caa
3e8ba7c2
be9b42e1
be0c9480
beca8ce1
be548c18
bdd22abc
be0702a5
be60ccbd
bdcf011c
bd424244
3d370c60
bd18a9dc
3eda9655
bd04fd87
3d53b2ba
3da93fc9
3d94eab3
be61762a
3e2c7c02
3ec168a3
bec9c130
bd6393ed
bdd4e254
bcc9a2ff
3ed558f7
bc9fd055
3d508d28
bd722198
bb50f011
bf3593be
be0d1dc1
be8588e3
3d95ad2d
bd342c0b
3d85fe33
3dc1aebf
3df7030e
3f1630d9
3dc25162
3d86738c
3e677588
be7235db
bea03e86
bd56aaab
3eaa76a7
bd7a8ec6
3c094fce
3e6da7f3
be72ce4e
bee2b370
be820223
bf537451
be7075ae
be2cede0
bd14780f
bd1aaab1
bdedf3c0
bec5ea8c
bf1406ec
be84aa75
3dd837af
be76e677
bd3259f8
3dba7d31
3d9d8b84
3e8c3e88
bac66ae5
3d725bc9
bdf54840
be9502fc
be6b9447
be635ecd
3e31953c
bd678211
be7da89f
bcb3daee
bdc97cbd
be8a3a27
be4d2649
bf619c32
bf12c755
be9b2ccb
3d51c17e
3c9892f1
3e156cf7
bef609a3
bf4bfc0c
3d96ba45
3ebe9481
be297813
3e9aff3d
3e323d96
bde0dd71
3cae9837
bd8484a9
3d994a3b
bc804c79
bdbf0100
be228562
be98d116
be9eb5b4
bec6fc45
bd94f32d
3cd9b9b8
3ec5611f
bebecf28
3dbcc8b8
bf7aa5e0
be901b1f
be24ef7e
3dd0bf9e
3d985c95
3e68ff9e
bf1fd225
bf0ac6dc
3d9a0280
3d610091
bd8dbd7b
3d8c2e17
bda977a6
be70d40e
be5fcfa9
be3938a8
3e864538
3e12c806
3e37e4d7
bd994d35
bcd275d2
be9536fc
be78928b
3e12ba21
3dd15f85
3e2d4565
beb5a156
be12bdc0
bf9a897e
3d19d132
be0a2228
3cbdbb12
bc04d96c
be435f74
bed85cf1
bf3e1871
bec3ff57
bd05ef35
be504e9c
3e72f92d
bdb4827b
beeefc86
becdd952
3d4fae65
3dea9d41
3e0c06b9
3e962666
bd969312
be22f513
bd9a668b
3da7657b
3cdd8a68
bda40182
beadc19b
be07b29d
be4be883
be44e624
beb0b448
bd6069b8
bd39c989
bcf1d22c
bda85aed
bf03f0e3
bf9c58ea
3d493ebe
3d6c2570
3d0e4f65
3dc2b967
bebc768e
3d1129f6
3d1f876d
3db243cf
3dce9c35
3e3e2997
3e86b06d
38608faf
bdf9ec3a
3bb64d3c
3ed627a0
3dd7c1ea
bd87e38c
bde2f8aa
be77c193
3dee675f
3f21db2b
bec9d451
bcef94ad
3d6098ff
bdbfcab7
3d380e49
bf24d4fa
bed08428
3e390195
3e2178f9
3e08d913
3d5318e3
3e24fa08
bd5834ae
3dbf6105
bea5a271
bd96d43a
3e42acd8
3d71754f
bbf294f8
be894786
3d0dde65
3e859364
3e0389ab
3e52bbf2
be29c555
bed9757c
3e06a94d
3eb6c2a0
be8ccc9b
bd772f1f
3d446eb8
bd190cd6
3becfded
bda6717e
be0de1e5
be371bb9
3dd022de
3e8d88c1
be7756f1
bd8c5f00
3db6ac94
3de62151
be05e80d
be3bfa91
3d253d81
bdbdd31d
be4a79d4
3b23c7dd
3dfc7c8e
3e895045
3dcc2ff1
3d2eae67
bbb2313a
be5dfcb0
3ed75a8e
3ed71d4b
be646bbb
bc51021c
bda1493e
3d99cfbb
3e1c9ac1
3ca836e8
3e21b899
3e29fc34
3e139cf8
bbfd6b6d
be8e82be
bd5d25a5
3e1833cf
3dbc4e34
3d1503b7
bd9e568b
be6f082d
beace40f
3e3ae24a
bcbcd8c5
bd611875
3d9e0e55
3e6b1e0d
3e9a709f
3bb1a956
bdb5a073
bd4f7e3b
bcb3924f
bef074f1
3d9dee4f
3d23e020
3d8191bf
bd985686
bead8565
bd92489b
3e8191e7
beeeceb1
bef08572
bd0fc755
bd44e48d
bd4dcca6
bd5850d9
3dee77b0
bd5c4571
becd10a7
bf1210cf
be0b8b29
be5ba378
be023972
beabe840
bd81c5d5
3c21a4fd
be55ebc6
be1698c7
bed34972
bf2230dd
be2a3a7a
3d758f02
bd75ea0e
bd11d850
be29e6d4
3ee7542d
becfe872
bf338b3a
bebf2a6d
3caf4f5b
3da19d89
3bfe2ded
3e845824
3d238fce
3df19bfa
bde98ab4
bf35dc33
be97bd92
bd917d72
3f18afc1
3ea7091e
3f1bca75
be298a52
bd41e2f2
3ec3373d
3ec0aebe
3f448e58
be6636d5
be33a214
3d8fa241
bb88a660
3d62370a
bca0cfbe
3d6cd0dc
bf83d6e8
bf665adc
bf5ccb26
bcb06088
be462284
bb61aec0
bd4e3dfe
bda845eb
3f2233bd
3f10eeb5
3e22ed95
3d108b7e
bf17348b
3e05fa43
bde24531
3dfabec2
be71c65e
bc262269
3e9809f1
3f188ed0
3c9a2f99
bc88d32d
bc3315d0
bd822a92
3d8dd7b9
bcde6fe4
3d3e3072
3d8495f7
3de66eac
3e22293c
3d935707
3bad711a
bd99650c
bca9f6a9
3e856268
be26b0ae
be85c798
3e660a7d
3e1a7d36
be114a1a
be30a662
3e9cc4be
3d24d607
bde26909
be85b5ce
bec84cc3
bdc26779
3ea18055
bcafbe0a
3bb24eb0
3cfb32a4
bd09507d
bee1043c
