bf0190a0
bcc4ccaf
bcd02504
bd82b3b4
3dbdc897
3e8d1e1f
3f054bd0
bc7b97f3
3e14255d
bd0ad1f1
be13408a
3e5d50b2
3efa96a3
3de102b1
3e59e38d
bd9a895f
3ccf178b
be5570db
3ec51662
be52d10a
beb32984
3dff764d
bd4f2eef
be5d331e
bc9066fa
be3da99f
bce1c7b1
3dc161b9
be08c314
bdbd427c
3e6306c4
bda969bd
3e8d12a1
