bd5f8c0c
3d5203fa
3d4ec35e
bc1ce6a8
bd904f46
3cd55474
3d93b1e7
bd7927ad
3c7244c0
3d05e2c6
3d5d0872
3d805b03
3d5f182a
bd5533c2
bd1ea4ae
3d89744d
3c809250
bd905f57
3d15e472
3d79392e
bd1e306d
3da5ce83
3d302e38
bd8d630c
3d401992
bd752dcc
bda00a56
3c0374a8
bd6c4dee
3d288ce8
bd8405cc
bbd86480
bd7ff9d4
3d85baab
bd8b1593
bcb6257d
bd2e1446
bbee105e
3d6dd65d
3d515095
bd9d3b84
bcefbe48
bd635c11
3d1e9444
3d25cac4
3d9cdbac
3bb3bf7d
bd8bff4b
3d4ecaba
3d98b2de
bda63650
bd3e3cb2
bbd9b010
3d4b5fae
3c634958
bcd8098a
bc729668
3d94f6f9
3d93c5ab
3d7f5276
3cb42c80
3d389eee
3a8c436c
bddc6c5a
bdcca894
3ea4328b
3e8728d9
3dadb685
bed3ef96
be398bdf
3e854522
3f250514
3eb4ce94
bc2d205c
bd6c0cf1
beddfed8
bdb10f69
3d80944a
bd2c02d5
3d43e682
bd3e2429
bd2838c2
bcc03e54
bd71b461
3d34480a
bd2cc8bb
3e37adeb
3c70e5d6
3be2c20a
3d877fe4
3da15c83
bda73f36
be21e2aa
3eb4db3f
3ea0f54b
3ecb928c
bb599423
bf102850
bf3b2861
be8b6d9e
3e653fa0
be3cc5b7
3e3a4d50
be6396b8
be916de8
beb0a0d4
be691a3a
bdfcfe7c
be2562a3
be2a980b
bd287f1d
3b94bdc0
3d732bb2
ba2ac719
3e7f4f83
3f16d05b
3ed6e950
be8ad935
beb74616
be320c3a
3ecd0990
3e4d6103
3eebb8ad
3e7892c1
beb28b2e
bf0a1b39
be9030d6
bddcaa0f
3c620404
be1f038c
be8fe2c9
be755880
be10dca8
3dd92e14
bdeffd62
bdac4860
be3cd1b2
bea5b213
3ca33b9e
bda51bfe
3b5a1e80
bd9b4076
3da305c0
bef096d0
3dd66482
3e7aeb52
3dd3a3e9
bd863032
beb8e13f
beacd59e
be213083
bebef27b
bebd6de7
3da519db
3d1d4c58
bd29a064
bd2b72c1
3d85fb52
bdec7975
be82e414
bec50126
be3c2ab1
3afac42c
3de8374c
beb4dbe0
bf3b53ff
be11f030
3d147a8b
3d949211
3dca41c2
3f3d4bfb
3e1851a6
3f386837
3e395226
3ddc5085
bd53e972
bd1a7eed
3eb0ad64
3d34af76
3cdef39c
3d94aa31
3d4db3ee
3d60fd88
3e4a66b7
bc721f1e
be178e52
3c5d611a
be6a4fc1
bdce0f71
be988d35
be640f54
bc5faba3
3ebf5514
be8ba5e3
bf4c2737
bb0e98df
3d418ce8
3f08495a
3f5f2b2c
be2ea4f0
3de91993
befd42c6
bd425789
bab28407
3e21abec
bc0c403b
3e01626d
3e5409d4
39cf44c9
bd8a70ce
3e902f80
3daa75c8
bd241f1f
bd0fd5df
3da5d583
be3f4006
3d918ad9
be509e9b
be479742
be6156b1
be51865b
be89f672
bf47364f
bdd15b13
bc05be71
3e10e2e5
3ed74ce9
bf0afce1
bdc982b2
bd1d0cce
be6e59f1
3dec3626
bd253f4d
3d022f06
3dd7ebe3
3e5ecb07
bc1249cc
bdcc690c
3e3c2008
3d5af40b
3e0ebcb8
3ac1d785
3e45f5bb
3de6446b
bdcc1e75
3ea86db4
bd69bd36
be42906e
be95b5b2
bc3c67b4
bf33cda7
bb9b66e7
3da4b420
3e1c8820
bdbc772c
beb39700
3f063991
bd171422
3e32360b
3d508fbb
3d9ba98e
3c3a559d
3e3eccf5
3ec18890
3e122087
bcb80d48
be8c81c0
bd7f8a84
3ea846da
3c59fffb
bd6d37bf
bc86d9f0
be2686bb
3e86c587
3d8712f6
3e0a2ec7
be86330e
be38f61a
bf69a193
bd3588b7
bd5fef0e
3e14c40b
bf098aac
3dda81f6
3f20e830
3e94dd36
3f0a2c1c
3eb3a4ef
3f02a01d
3db530f3
3c9db9da
beee1e17
bf499b0b
bf408bf5
bebc7770
bc7dcb15
3d6298cd
be6760b4
be0c71b8
bdad5fd2
3d30efa4
3e9eac79
3d969b04
bd0c1df0
bf5d84c8
bed314a0
bf089a9a
3accb76c
3d2cb032
3d9e44a4
bebe3964
3dda58df
3e46daf1
3dd6f5ab
3eb777f8
bc5109f7
3e4fd061
bf1bd2e7
bf938263
bfb5392e
bf5f37c0
bdfae1b2
3ea15bfd
3e29e40a
bc8906b3
bd935247
3e0f45ea
3e92ace3
3ddf2d78
bd8d5bf0
be925895
be86ae00
bf3371e0
be122be9
bd56fd0c
3c1b2de7
3da8fbbc
bcafe49f
bf0d51e0
bf442d0f
3dd2f50c
3d827412
be8a19df
bf578809
bfa5d270
bff1761c
bf8ab46f
bea95ba3
3e2b13ec
3eac2a26
3ea19339
3de05379
bd6aed5e
3e04075c
3ded995d
be3f3a2f
bec2558c
be85b859
be45181f
be029d37
bf3164a1
3e92411a
3dafb250
bce25bd9
3db245a4
3d8dffd5
3cc057fe
bef8804b
be625d39
bf1441c6
bfa18135
bfda40a9
bfa60070
bf431bf5
3d8818d1
3eebd529
3e56e7cb
3db227ed
3dde98b9
be357f17
3e028455
bdd6ca28
bd1820d7
becb1d29
be7818a1
3db575f0
be31c026
be86b41a
beeb9d5d
bde02a73
3d9430fb
be5733eb
3c39f5d3
3ef0b9b8
3e6374fe
beb57f97
bf39dd96
bf8f9565
bf8bedf3
bf9254bf
be6a9205
3e43cc39
3eb931a4
3e8bfbe7
3db1512b
3e7dc7a1
3ea47da1
3e76b59c
bd5491dd
bda4730f
bba5d1b9
bcd8a986
3c9414a3
3eac7e50
3e696014
bc2a7c9d
bde9855b
be34e808
3e893514
bdef3e10
bb595d70
3ead1d6f
3f13b91e
3f1086bb
beefa048
be392023
beae8864
be55cecb
3cc831f4
3dbcb7b9
3e84d204
3e9f1777
3e8c7115
3e0bb718
3deed690
3d174bc2
be271771
3a83f2f0
3d9e1109
3bd2d8d3
bd14b02a
3e8568ce
3ecc7976
3e452362
3e284855
3d5e0036
3ec7c77c
3d78cae6
bd9b24dd
3e7c3d83
3f5b12df
3f325db0
3f140b50
3ea450ee
3df64fcf
bd115127
3e03a771
3df08ada
3e404559
3ddfbe7f
3e735148
3e310c5d
3b4aa59c
be172824
3c8ae7c7
bbc8035d
3e0b6b84
3e98cf40
3d6e340e
3e5e3c59
3d850c88
beb23ff1
3e7b5984
bd627896
3f3379fb
bdc7767f
3ce548a8
3e754144
3f5cd784
3df17486
bdcd2159
bd3c6312
bee65c01
be9df98a
bf17df55
be37342c
bf0b5ef7
be4f29ef
3cc91bcf
3e4dbba7
3e146d28
3e1d6602
be11bb12
bd38e4b2
3cf77813
3dc98f0d
3d8edf42
bbfa227e
bba947e5
be522d4e
beb6a0fa
3c5637ac
3ef4c5ee
be890670
3d867f65
3e3d52c7
3f534a70
3df74bab
3d94ec5a
bec6082d
bf3232a9
bf5be582
bf997fb3
bf684e12
bf2e15d4
bf0f6b5d
bea20464
be8d9089
be2d21a6
bd19009e
bbe841dc
3def2c4e
be830772
3dec7431
3e6b100d
bc0e2b8a
3eaff6e7
bedcee78
bf9459d8
bd8ec820
3f05f4a0
3d0b884a
bcdd49a8
3e810bb6
bce7f80c
3ea71027
3e16a09d
be84117f
bd7500cf
bd6098ce
bebc2fa9
bd9bf731
bec06506
bf27b076
bef8633d
be26efc0
3df606c6
3d42d03b
3c581b40
bda79ffa
bddba74d
bdc90df6
be3a8df1
be389424
3e7068dd
be4862c3
bfb1708c
3e01cd22
3cceeb30
3de0ee41
3d8c6b23
3e31a24f
3dcf372b
3ee2336e
3e87d7b4
3e2384c4
3e839ac1
3e81e357
3e2d6616
3ed69b57
3e88b359
be1cacfb
bdfd3cf5
be24294f
3c7e8d01
be1fa955
be0b8f59
bd5ed5fc
3ea549d4
3dd7f7c8
bdc49a86
3ab98de6
be14f003
bf84eb17
bf92f756
beeb9da9
bd2a15f0
3c841591
3bd3fc23
3d3e81bc
3f1a372c
3f17b83c
3e5d12f1
bdfc6ef4
3e0ebaad
3ecb074f
bc1383cb
be01e06c
3ea83960
3ca0f979
3e4e9c71
3e130f66
3d08d4a8
bd9d572c
3e00f1e4
bdd47e0a
3e279aca
3d9c6e01
3d3d623f
3eda35ee
bdbfc2ec
bfa46f22
bf7ca9bb
bedc38c3
bddf38f6
3cf249b8
3d77a5f1
3d6adaa7
3e4a2a98
beaf144e
3e3a14e1
3f1630ab
bddd7728
bd42c15e
3ce80d99
3db294d0
3a8948eb
bd23a72b
bdeb0266
bde71ab8
be741c60
3e20d1c0
3e05c551
bc2d4fd6
3e0850a0
3edd837c
3d858097
3e27bca9
be374c18
bf7e2a3b
bf084485
bed5928f
3da775b6
bc06ee78
bcdfa202
bd9e8ac4
3f4e8b3c
be99863b
3dc8e5ec
3e65a444
bb34bec4
3e6a55d6
3e9442c7
3e8dab4a
bd9ebba8
3dd2e956
be54c324
3de8747d
3e25ea78
3e44ac1a
bc77fe1b
bdfc4e7a
3d992f53
3d868958
3d8ebd48
be44c386
bef93741
bf5f0271
be71a61f
be09ed4b
3d3bae0c
bcc69f9e
3cc25dd0
3ad23d40
3f2166a9
3f7df0e2
3f03d2e3
3e60e9de
3e05eb8a
be1499fb
be10c41a
3e71204c
b9dca814
3c07a10f
bdb6ae40
bea2a819
becff5bb
bee992cd
bebc19d8
3e8d24ba
bf102210
bf0ab6a0
3e0c2156
bf1148eb
bf5bbb35
bf491141
bc7d5d8f
bb95aad8
bd240898
baa28b00
3c1f6968
bad8a240
3d119e91
3e728287
3e4cf62f
3eaab8ad
3de5d048
3e8dad0d
3ec15e01
3d193d5b
3c02327e
be0ba255
3d43b545
bdf97647
becf3632
3d834f85
3eca33e6
bbbefbbe
bdf93dc2
3e4d73f6
3dd6605e
be90d824
bf1fe3bc
bec46ec9
b98ff9b0
bcb2c10e
3bbe6b60
3b84c040
bd20c093
3c7055f8
3c29a858
bbbb8d25
be7a6e44
3de2d9c0
3e4ed597
baf29703
3f0d9217
3e162b9f
3e9c938b
3c9339bd
3e8badd6
3e86cbe5
3e682f4d
3eb9cf6b
3dbcea52
3d0f56ab
3e5d71c5
be9907f7
bf411ac4
bf18b67f
3dade922
bc7a7f1a
b9b69a00
3a1f8780
3d6ef732
bd0371b6
bc262e68
3d9a69b1
3d906a09
3d23af8a
bd932ab2
3dabec83
3c04fe96
3e016ead
3e303487
3e663aec
3d8789f6
3d2fd7a4
3e33e844
3e956d2a
3e92664f
3e6d6ea8
3df798e1
3ee98c40
3eb2e08b
beeca386
be2389de
bea38453
bdfc5aa3
3d81e359
ba1af900
3be66380
bb597580
3d8a39e5
bf11a2f9
