3e7d63dc
3ba8818c
bda19931
bd5d6bc9
3e8b7c0c
bcc1e950
3c1721c1
3e0e8423
3e3cd92a
3e3bd3c4
3e87a517
3f3c839f
3e351c14
be15ff30
be5d5bae
3e786179
be262ed3
bdc62410
3f17993f
be88023c
3e8c4099
bed8f26b
bebedceb
bd7264dc
bf1c5274
beb9d7ea
bd52ee0d
bdd066b2
be0f060f
bd6663c8
3cecadf4
bdd6797f
3e1f3dec
