3dc86dfb
be1b66a1
be557e1e
bde1413d
3f0d6240
3e898972
3dd483f4
be475810
bec8cf61
3e950066
3d003cdf
3d890a12
3ec4f7ae
bed1b362
bd66a8c5
3e4408f1
3dabee4e
bf0a0d5f
3e487ed3
be156e14
bec57af5
3dc2b631
be0e2b2d
bcbe6bf8
bea6da73
3debe2c4
3e136f34
bb77268c
3e6d904d
3e90e5d5
3dfed117
3dfd4862
bef00c08
