bf0bc6f7
3e9f877f
3e9113e1
bf2f8943
bdece494
3e18ee4d
be8fb578
3ee28bfc
3ebf81fa
bf026636
bd1a3ff0
bf44eddf
bf18794a
bf0bbe60
bf298100
3e89b9a4
bf6e8758
bf1383b8
3eb6a557
bef30ca9
3e34245c
3ea94edb
3ea2f093
be2f7866
3cefdefa
be1e1a05
be0203b6
bf4c4351
be5010d4
bef27077
bece134b
3eb7d01a
bc849919
3ea76341
bf0daa31
bf4481bb
3e643be3
bf28fa12
bdbbf281
3d4fcc80
bf179e90
bf5ccc3d
3d8b57f3
3e60cc0a
bdd7641a
3e42fac8
bf5281fa
bf19ef85
bf91248f
3e4bbb43
3e073c97
be9a573c
3eeef827
3e6b6f8b
3e87a984
3d65e739
bf498943
bf0aee4d
be72495b
be9e1195
bf0abd93
be7436bb
bed48765
3e69d03d
3db80c46
