3a2e7080
bbd1a480
3d61a51a
bda106e0
3d5859f6
3d24d4b0
3d540c0e
3d7229c6
3c9b6b98
bd142105
bd55f58e
bcfda8c0
bd9bca5c
3d64185a
3da24725
3cfd84e4
bd0a4d93
b9051a00
bd9e9773
bd0803e0
3d8878f5
bcb9b876
bbd59560
bd89a050
bd92e52d
3bed9840
bce9a3a6
bd40d40f
3a567380
3cbf602c
bd4d90da
bd929e6d
3c032508
bd98ee05
bd5335b2
bd2d57cf
bd7003ea
bd7b4d0e
bd8d6e26
bdb7f32e
bd4471a6
bdadbb75
bd070de8
3d4d52ce
3c7250e8
bcfa21d5
3d0c49cd
3d8899d7
bd8ab8b6
bd14ac35
bbee0860
3d349bbe
bd76db80
3b8c2e00
bd954858
bd8ced99
3d138aec
bc127010
3cf71b40
3be0d54c
bd32692a
3c3fb3a0
be07996b
bd779689
389e11f9
b9c11e72
be106bbc
3c17c9c2
bdde5d40
bd4701ee
3b3e71a1
be91ee2d
bebc32ff
be5ec962
bc9dc4e7
bdd0c653
3cc83c49
bdcf16a0
bda77f78
bd61312c
3d805445
3d39ec1a
3d74d956
bd5bb12c
3d9e1f91
3d8fb2e7
3d42f62a
b9099cd0
bdb2218c
bc7f4554
bc648068
be272972
bde233b5
3d94a79d
bc6ee032
bd0c025b
bdc9477b
be877f64
bec25634
bef42d0f
bf1ef2b5
bf396d4b
bedad6bf
bea669ad
bea962bc
be4ffb5d
bde17c18
3bd5dc2c
bda4d85c
bb03ebe0
3c280d20
3da17bc9
bd0415b2
3c59c188
3bfcc720
bc4b20a4
beaf14e8
be3f4562
bebcee54
be49bdd3
bd955c84
be49e15e
be986223
be913723
bea55a30
bead700b
bedfa6d3
be1e5afa
bd70b2fa
bd341dd6
3e1e2832
3e461d91
3e6391bf
3e371ea1
bed49dd3
bcae34f9
bce8cc13
3cfbc8ce
3d562872
3d5946ca
3c926568
3d26101c
bcaa87a6
beaec0b1
bf047653
befc75dd
bf2ea4d3
bf6fe9a8
bdeccfc6
be524104
bf9ac661
bfa113fd
bf26e51e
be82473d
be80da1b
be12e40c
be813365
be1abb5c
bf42758a
bf893afb
bf44c8a6
beb3881a
bf00cf50
bf0d7420
be70aba2
be2afa5e
bd0116fe
bd2a1872
bd2ac87f
bda574a1
3ea0e488
3e9c3250
3e911b73
3eddedc7
be35d938
bf14962c
bea9ccde
bf5c9b12
bf8fd1d2
bf439a84
be4b13e3
3e48492d
3d8577a9
bf535ac2
bf06bad6
3d3b1304
3d5baa9c
3d45a897
be64211d
3ec5b17e
3e65c876
be31032d
3c93dd8a
be6ef5ac
beaecfe3
bc6ff0b0
3cc2abd0
3eafb7a6
3f027aad
3e2cb3c8
3e97c384
3caed5bc
3f084ee9
3f000091
3dfdd67c
be197e9d
bf39abae
bf62c4a0
bf2824be
bebc2cc4
bee9e1c5
bef878cf
be2d7abb
be08e782
3d8ae368
bebb6573
bef4753e
bec3e17d
be29d415
3e0e2e8f
beabad73
be4a898c
be67667d
bceab99e
be37d340
3f28efc2
bdddcccb
bd96f658
3e24976e
be10e16a
bdc93f30
bdd5c7f4
beb3f21b
bd9112f3
be383bdf
bee0c66b
bdc85699
bf1b78fb
bf0ea955
beb05199
be6070a1
bcf9e5d0
3daf9bd8
be577072
becd3b34
be888bb0
be57e25e
3e7d5954
3d902baa
3e172b2e
bd337fc4
bbdd3237
3e3ddee6
3edfb8ea
bf1139d1
3cf5370f
3f05f6c0
3e0f1c3b
3e01d177
be1a35be
be083f85
bde299f5
bf0a4c4b
bdabcb57
3bef331a
be34fd95
3e076675
bde76a59
be2f8c29
3e6f016b
3ea57e6e
be778f43
be28fd2f
3e9c78b5
3e8d9188
3e7ac793
3e43a6a6
3ef95352
bdf69672
3d3d3e6d
3e1d4150
3ebdad7a
3e5d27d5
bce4604e
3e80dcf8
3e071c4f
3ec6cea1
3e639e0c
be66946f
bc0ab7f1
3dab21bf
3eaa712e
3e57f345
3eebfe05
3e3e374b
be34a97a
be7552cd
3cf3a0ef
3e188191
3c50b1a7
3df74ecb
3ed3b23b
3edfc824
bd86c76c
be5cfd02
3ed0ddeb
be15dd74
bd8d466e
3d1a0a9e
3e79df10
3e80b9d6
3ef97ffe
3e7a6312
3e3542fb
3e2ee40a
3dda16f9
be139f73
3e0448fa
3ca3df16
3ed3234c
3ef65984
3ee2cda5
3ca19c1a
be5c5afb
beb9301e
3b297e88
3e3d71b2
3edbd5ca
3e490b80
3e4898dc
3ddce8b8
bd84d5aa
becef3bc
be8f7658
be4b3bfc
bdb9fb0a
3d4d4ed2
3e858984
bd8ba1bd
3ebf3002
3dfc7672
3df3c460
be5e5882
3ec477d2
3e5b60fd
3da5a1ed
3e717f20
3e9141c3
3eaf8618
bdf9c7a8
becf231f
beb2a767
3e0a9399
3e5b1280
3d36f583
bc4afed5
3deeb709
bd8b6254
bcd94253
bda07918
bf23fe43
be3104a0
3dcad882
3cf23e40
bce3d1a4
3e3017d4
3ebf206c
3d0ec7f3
3ecdb161
3e9073b0
bb973f9b
3ca81ffc
3dd25133
be6c50f6
3dc72a6b
bc83293c
be812a65
bf3102f5
beb32aae
bd3bc3ab
3ebbfed4
3e13b61f
3e3512c9
bd90b9d2
3ec075a5
3eb7174e
be4ac6c2
bee58eed
bd90cada
be99a209
3b2e5fbc
bd95f2d2
bd7417ac
3d9c2aee
3f23fece
3e02a0b7
bdeeb927
3e6f67ed
3dd4697e
be51f5f8
bd81c795
3da9fb77
3ea414e7
3c9d1123
bed67b0e
bf919cec
bf29eb6c
be199c24
3c8cfe0b
be64b095
bcfc55d1
3e99d261
bcbf7b9d
bcb831a8
bef20f49
3d6239a3
3f11af6f
bea10eaa
3d14e160
3d6ea596
bcb8231f
3d09db78
3da33c7c
3e9fe932
be734550
be21a73a
3d45258f
3ef5a5d5
3e830a9c
bd6a93ee
beae40b8
bdd2a3b6
bfa9cf98
bf310f3f
be8e3a1c
bcf4db1b
be59d034
3c843572
3d09a963
3e5c21fa
3d6cc0ec
3d51f1eb
be980c65
be9177cd
3e32658c
bd60f851
bd7e4f82
3d47e3d6
3d585462
bc57d2c0
3de5e0a0
3eff068f
3e46db92
be1e23fe
3d487602
3ee6c272
bd9015d4
bf31e3b2
bf4e3d8d
bf5970f0
bf283955
3dec34a6
3c66799b
3d90393c
be28241e
3bbcb3ef
bdedbe41
3ecc49b5
3e1190df
3f38fd7e
3eb42985
be1f0dfe
be9f009c
bf6f7b28
3bcce310
3d9988ef
3d222bf2
bd7b6295
3e5a2b12
3e8cf85f
3e076c1b
3c597e74
be1bc4ce
bdd7a9e9
bed608b6
bf9f98b8
bf6ff94c
be52852b
be24571b
3e15dc73
bdbb00ca
3e3864dd
3e4ab5ef
3cb437d6
3db158e0
be8ceddb
3e416a93
3ec4ed8b
3e8b99e6
bec7bb5b
bf6689ec
bf321060
3d1901b3
bd06dc9f
3f17b96e
bd8094aa
3e68044c
bf0fecbd
be1f390d
3d80b6eb
bc190c69
be46b2b9
bebb6696
bf65f79b
bf668e0e
3d9087e5
bc235a34
3dc104f8
3e36668a
3d9aadb0
3d22fd7b
bd9c63cf
3c70b11c
be49b0fd
3e5f5216
b9cb8309
3e18703a
bec40cd2
bf309ff2
3d5f1140
bccac39d
bd91ed59
bd3b359f
3f083c43
3e474e77
bf47e89e
3e903cf6
3e863b42
bc64e67f
beae3779
bed3b4b4
bf3e57df
beadedd2
3dad42ca
bdd9675d
3e2b0660
3df2c112
be0656fe
bea7bb24
3c247420
3d3386bb
bb7e02a8
bd2b4a25
bf06b568
beddb37b
bf14be55
bef026c9
3e56c834
bbef9330
3c07f460
bc858524
bc19b9d0
3df3a208
bf318559
3d26c8cf
bebea8d9
bf0a7222
bf031b9f
bf0d81d9
be966230
bd1d4a6c
3cf38746
3e72c0da
bd40f8d3
3d9ff8a9
bd4d2715
bed81617
bccaa678
3e250469
bec748aa
3cd2d540
bea6ba49
be250bfe
bf1e5d77
3d038446
3e7abd5a
3d9feb43
3d8bc15b
bd36399b
3d839fd8
3d78a967
bf18e050
bf126835
bec03784
bf4d4f2f
bf0e7cc2
3e0d0587
3e8881ea
3e26a7da
3e96f0fc
bdcc98e9
bdd4d03a
3d7a0fcf
be75e432
be96fb2d
3e3baf9e
3e3bdac8
bda74987
3dc615c4
3e16594c
be97240a
be96bc10
be9de14c
3ed6b053
3ad28880
3d13b9ce
3bab4d00
3cf07336
3cb97698
bf10feec
bdd132d6
bdfbfd16
bef55659
bdc9f010
3ea60aaa
3e4c8a58
bdb34595
3d3fa34f
3be42ca7
bcf6997c
3e0d5ab5
3e23fc2b
be24fbc8
3ec39558
3e9efa94
bd820f7c
3e2f859d
bec38e7d
beda8f02
bea29751
be689ecf
3e9cd5d8
3d6ba335
bcc90c08
bd6e3f47
bcdf3354
3c8ddbad
3dcf3658
3e335d2f
bb96db54
3dea96ad
3e330b6f
3e2471ba
3e1f425f
be0ec759
3d2992b7
3dfe0d99
3ddd0158
3e8c7b91
3e4a48a9
bd98e509
3edfcc33
3e8345ab
beaed19b
be19f833
beb24f0e
bee2c3b6
beaa9403
3e085329
3dfa698f
3d1b2009
3cd8a9d0
3cc653bc
3d8f84e9
bca109cc
3e797a4f
bc89e05f
3eacad8e
3e0aa042
3e32b193
3d919c5f
be1212d1
3d5d5c87
3e964bcb
3e057a5b
be39766a
3e52286a
bd171961
bd317ade
3ecb5fff
be9e592d
bea3821f
3c9e1aed
be5751fb
bc425ecd
be807940
3cfb22ce
bb49e04a
bca64688
bd147231
3d23176e
3d4cb9ee
bd42d0be
3da17859
be963566
beaf3e59
3de185e2
bd56b508
3cbdc4e3
be08e770
3e48675e
3dcf4809
3e5df6b5
3e20bda6
3f05ec99
bcbd88da
3edd5ef5
3ed2b4e5
be3ce7a1
3e7e3803
bdc0a514
bd5ac3da
3ea95242
bdc83ed3
3eade259
bd6f3d70
bb204c20
3d84fd1f
bd3be904
3d864f71
bda25dab
3d59962a
bedf3733
bee09006
bd21a99f
bbca8db7
bc62c3ca
be13e707
be073c29
bd7c9c4b
3f14fc90
3f3029ac
3e9ad146
3df1c7eb
3e50f933
3e838332
be437fef
3f019904
bdf43b7c
3cc287a8
3ee99571
3e6ccd3b
bc8b9bef
3e5211dd
bcfa032a
bd9f43a5
bcf2893c
3d318db0
3da4aaa5
3d7dcf6e
3e7deb27
3e41d2b5
3e8bc2a5
3e22c9da
3eabb9e1
3f07b71e
3ecb82eb
be3728bc
3e7b894b
3ebbfc89
be3c5dc7
bec7ff7d
bdb766d8
3e9614a4
3f192aab
3f2314bf
3ed29cf8
3eef714e
3e934235
3dbbbcee
3bc63ea0
bbaef360
bd75b4f8
bd9e9cc0
3d4c8138
