be5c427a
bd78eb1e
bf4dedc5
3de86480
bdaf1f27
bf1d5359
3e82a610
be75219a
3e850fac
3d09552a
3e968953
be8fa33a
3e6bdb09
becddb1c
3df93d64
be897a19
be2ebc39
bede3dec
bf34b079
3dd2fd7a
3d554da8
3dde24f9
bec2a2ce
bf37e684
be77cefd
bede13be
be85c828
3e30ebbc
bf10c2eb
bb0397d6
be81c979
bde9f364
3ea08e7c
3dc2d566
bdc81b8c
bf2c551f
be85a649
bf2e807c
3e95ce42
beeada27
be780f87
3d55f607
3da4f4d7
3d63f147
be4e2e6c
3d36c927
3e385901
bd3198b6
bddd892a
bf14a7b3
3e18257d
3dfd560c
be821fe7
bf8ee7a3
3e43f2ab
3dfd063f
3e8a0993
3ed12519
3c9f0c2f
3e9174d2
bcb10dda
beabc8a5
bf69dd65
3d39d95d
be338347
