bd91e413
bf0acd34
bdb24126
3e8519f4
be8b8dbe
be1b8a9c
3e88fe87
3e483e02
be703f84
bed2c62e
bd4fc246
bdea3f85
bd35b82f
3e6f6a7f
3cbbecb1
3e6f609d
bf31bbf4
bafd718d
be3f91a7
3c46a5b9
be25adcb
3e85d9ef
bf6c554a
bf3684a9
bf1c1521
bf306e66
be8fc5c0
3bdf970c
bded5e4e
bf0a4935
3e9182fe
bd515534
3e327151
3e26862e
3e4d9257
beabef67
3c908c5d
bf34ce78
bee73a46
3e98d787
be27b479
3d25b160
bc8507a2
3e71661b
be6a59b7
be16401b
3e83b27f
be70992c
3cafd95c
bea59d1b
bec9e878
3db6cb61
bf7c5357
3e08ccbb
3c808c5a
bf054106
3eedd008
bebd087c
3e91fea5
3eb7b9fb
3c65fe6d
3df4cc98
be836d3b
3c6ebeb6
bed0e8f9
3db2df7c
bef83672
be43e3bc
bedfc16f
3db08eaa
3d824bc7
be3dc3f9
3e195c15
bd6623cd
becc68bd
3e0d2742
be21cd6f
be2ff3bf
3e561f7d
be1bc432
bec8673f
bed0c116
3e7a8f43
be3ffd02
bcdd3fd6
3e8eef48
3e81a8a5
bdbd24b5
3e4540b9
be9e312c
3d883b5e
3df76a7c
3e233578
bf3ad249
beffc0ba
bdf9a304
3e46e8c8
3d603443
3bbcceac
be07ea6d
3df43f61
3c54128b
be46478c
3edaa099
3e024629
3e47f5db
3e9f744c
3e59cfb2
bf526368
3ce7917d
bed5cadd
3c64c438
3e932f7a
be3f6da6
3c039840
be8a4010
bf09733f
3ea17ada
bd0f2747
3e5e143e
becff4de
3e4be056
bdfcf67f
be6eaaee
bf7d0d69
beaca992
be83dd00
bf7df68b
3edb433d
