be80d7ee
bf1e1424
bdf5b03e
3ea71e40
be71f2de
bf0a09bc
3e2a6900
3cb77108
bcade3e7
bebd18f4
3e6910bc
be2d54e0
3e05863f
bf3cf7e7
bedfa5ef
bde81db2
3e21c3f7
bdeea40c
bca5b18c
3928008d
bf012f23
be051390
bc97a465
3db48b81
3e74eb94
bd04414e
bf0f7b08
3d5d8690
3e0e2e4f
bf1128fa
bf3c8f17
3e992769
bf6e8f50
3df5a2cd
3e236cb7
3e26614f
bf20b7c9
3dc3c409
3f12ba8e
bd657b20
bee1ad70
3c4e109c
bf3cda7b
3e0eb87f
bed58fda
bf09b9a3
3e5775cc
3e0983bc
bcae53a8
3e99b2e1
3e922d81
bf0ead32
3d31b0df
3ee3ef9c
3d5fa120
3dbc201f
3e4cdc76
3eab9992
be9ab8bf
bf4e1fe3
3ed5632f
bf2f3d62
3ea44227
beefa81e
bdd3ed1e
