be342a01
3ec5e351
bf26073a
bf00eef8
3ca6c9f1
bf2ab6c9
be345eb4
be69aa3f
3dbbf564
3e7496c1
bd5e4852
3d17c810
3e3ca8f7
3ef07cb8
3ea69051
be66761d
3e0022d0
beab0e27
bf2bbed1
3ec74e1f
3e195e85
3e6c2836
3e193218
bf367fc6
3d6d825d
beb2a8d0
bedf4ff8
3ef63dcb
bf73ea9f
3e815687
3ea0463b
bf2d3172
3c2533ce
be0af9fe
3d2ee0ff
be20bedb
be762822
bf2a9132
3dea69b1
bf048b17
bdadf347
3e6ed795
3e8eafdf
be5813f5
3f2f89be
3d8cd3d3
3dccbba4
bea94937
3ef84e80
bf008fb1
bf2d99dd
bb33e92f
bef615e3
bf1315c2
3e393fa3
3ebc36bc
3e0a4fba
bf2eea91
bed43727
3ea3408f
bf1887ff
bdab8ed5
bef57697
3d36abdf
3e83d962
