3d92f756
3e799a49
3e8353fe
3e0c7848
3f1ef9fb
3dcd448e
bd0128cf
bf22c480
be865194
3f66a842
3f30d9e6
3e87b3d3
bd60bcae
3e0ba7f4
3e730a1d
bd92c74c
3da373dc
bdb0464b
bf303cc4
3e3e7d3c
beb4d8f1
be8752f9
3da13bde
bf0405ca
3ce934a2
3e58ee07
3f1f9216
be9a11df
bd8a5817
3def5a90
bf8ccfad
bc8d552c
3e0e356d
3e9aeef2
3d8e44ae
bc80acdc
3e44b45d
3f0e55e5
bed195e9
3ea3466b
3e90cedc
3dfe6d2d
bf0d405a
3f2851a9
be486d36
be933cf1
3cd5625e
3f28a1d2
be555af5
3d6fce04
3e573da5
bc049a02
3dc8ef4a
3d6cd7e1
bf238e63
bd93903f
bc533c86
be4acd49
3e9242e3
3e44d7c1
bd482377
3d9c91c0
3f21ff87
beeab6df
3e820ebd
be66e12b
bddf773a
bd323775
be7d90ab
3ea21e71
bf10f523
be80f9aa
bee5fb17
bc49cbba
3eeb7ee0
3e9ac07a
3eb39dbd
3f08eed8
bd2e2cc7
be1cfecd
3d0eecbe
be4741e1
3e1abd3b
3eb61029
3db02d33
be9995a7
bd2b5c81
3dfa0afb
bf13199e
bdff989b
3dfd9209
bd5bc93b
3cf91724
3f23c5c3
3e4c89ee
bec0a0a4
be978cdb
bf32ee92
3e262bf9
3d9a2339
bed4122a
3d9ba158
bf3f4f60
3e22327f
3da1d2b3
be1fde2e
bdfe036b
3ecacbe8
3dbfc21d
3e234b6b
bed4709c
bee4c887
3d37725b
bef4f8ae
bde7dcac
3e7a49d4
3e9afe78
be9c8173
be8be67f
bc96dda4
be387eea
3eb9e6c2
3ee3350e
3e2a0dbc
bde36797
3e3581cd
bed9a538
3cf27e0d
be9691bb
