3e3dc63b
bf17dd93
3dd5e33b
bd8decd4
beab494b
be2b83fa
3e5209ae
3d0c5efd
3d9a55d7
bf3a2a42
3e805cac
be398c34
3e2310a2
bf09601b
bf1fe231
3bae7ff1
bf17f586
3e945811
bd526d18
bd88842e
bede84c5
3d28f134
3a25f5fb
bdb0d0b0
be76ff69
bd76f845
be0be814
3dc5edbe
3e886975
beb558cf
bf0b4819
be53f935
bf32f8b2
3ebbbb9b
3e24d773
bf2218e5
3db67bf1
3cd56b8c
3ab8038f
bc685338
3e1e3071
3e28cc41
bdf324e8
3e525664
be5e1fbf
be860627
3e222dbb
3e5e5bb0
be189f00
3caba792
3e7448f1
3db3182b
3ed514aa
bdb03a64
be575971
bdc697a7
bdf59b0d
3eccbc34
3e794eb2
becbe88f
3e92152b
3e8d5899
be5edeb2
3e080c9e
3f118c17
