3cf65a74
3d950523
3c4bbf60
3d2acbc2
3d8956af
bd95e882
bd4a1031
3c670b10
bb8a9360
bd8f2396
3c370028
3d46521e
3d1b5c39
3d29983a
3d6c1d84
bd645b94
bc5fb3b8
3d63ed92
3d859899
bd214a76
bcd57cb8
bd8e909b
bd1bcdfd
bc745338
bd30ce01
bb024e40
3ca1a9b0
bd2e399a
3d51cc12
bd836fb9
bd6ccb82
bd605590
bbdcaf08
bd90479f
3e425f00
3def5c27
3c807e66
3da2fe68
bd1e3d96
bd164e82
3e2aece8
3f1d79a2
3ed3e3aa
3e95df41
3e291111
3d97c39b
3d0b6d5f
3de5c5c2
3e4ef824
bd4b092d
3d9da298
bbfe72ee
bc16d868
3d94a9c1
3d07e99e
3c72e258
bd1b35d3
39e4ae00
3d633143
3df152cd
3dc57cdf
3d51f332
3dbc7bae
3e7c210f
3f65465c
3f821ca6
3f43eec2
3ec40035
bf5776e9
bf72b2dc
bdb432cb
3dbdd477
bf14191e
bdb46f13
be774e34
bee865fb
be8f7bae
3ee8b27e
3dbc6626
3ea80db7
3ea0519a
3dca1824
bbe081f0
bd90ac4e
3d6ae27a
3d4efee2
be46f785
3e263bf0
3e59224d
3f11adb0
3e4d6e4a
3eeecb6c
be01636f
bdcd2001
be567a93
3d0343d8
bea6e7e3
beff0905
be5d9c53
bd2a1ac5
bedacfba
bd6c6530
3f0218d7
3f3238f0
3c6edebb
3f15c343
3ec84fec
3ed5827b
3f145a5a
bd7ac169
bd824227
bc4c6060
3d855d23
bd97e4dc
3d81029c
bd5b3ee7
beba7ca4
bed61507
bda053c3
be963223
be415092
bd33414b
3e1d83e2
bd20ce24
3d21fb0c
3dee13ea
bebdef60
bebbafe4
be9614a0
3d932321
3e78c140
be6b94d4
3b9ae102
bdbf1368
3ea2c5d3
bc97cf91
bebdd0eb
be844994
be68ccdd
3e6fc424
bd8286e8
3d01d7bc
3ea6c4da
3eeb6bee
beca5a9e
bf0f92e4
be525b27
bd5cd496
bead16f6
be82b6a7
3e86b178
bd8a43c3
bcd0d27c
bde8fb7d
3ca30977
3e55c504
3df2d682
be5c336a
bce01edd
bebb2ba7
bb077208
bd1e6c6e
3c1dc346
bce63899
3dd77487
bdfb3e22
3e6d49aa
3e24c7e5
3d38220a
3db18056
be4b1339
3f171ad7
be7c107b
3dc8ecc0
3e445e78
3cf2f871
bdcbe600
bcfed849
beaa75b7
bd1ed42f
3ec2a28f
3d81ab65
b83b97d0
bde78d9d
3e05d98a
3db5d2c9
bd3b87c2
3e51f633
3d12a3ca
beb92262
3d14fecb
bd6ac3c5
3e8af7d5
3ea40d40
3e6e2769
3e63b565
3c7d4908
3e0b176c
bd852158
3f03e464
be2e09e9
bea223d3
bf04bacb
bf159712
bd8ca348
bed7a46a
beeafe33
3e3f4394
bda4bdfc
3d467eaf
3e11cdca
3b34633a
3d623827
be0df5c4
3e19a717
3de35732
bd246eea
be81f8b2
bca2d9da
3de79fe6
3d28ecc0
3c4c692f
3f11db6a
3eca0699
3d4f54f2
3d66361e
3d8e6f6b
3ec3a15d
be493143
bf0d5626
3c74afce
3c8f438d
3e17c761
3e149c9b
3eb02e4d
3e469398
bd2a52fb
3ce36ea9
3d7a0692
be16a540
be096af7
3d92a8ae
bed889c5
bd24244a
3dc742dd
be3be833
bd2b2b9d
bdede96e
bd837fde
bdb3fb7e
3eb02842
3d2bc890
3bca1e1a
bc01066d
be5e6960
bd4db4ab
3e3f6eac
3de8f1e9
3d6beb29
3ee26fa3
3e64dbd9
3d56fdbd
3e63493a
be3c1794
be39a213
bec0c44d
be089961
be82131f
bcb9277e
bc40d68e
be48b324
bd415eae
bcfd3d35
be7d5626
3e0da650
be434b2d
3e8bdd16
3f1b20df
3d83175f
3e069980
bca8a4c1
3d0ada23
be84987c
bee9fd66
3e247873
3ef7bfb2
3e2df9e9
bbd56975
be27eb11
be93750a
be81fafd
becad73d
be014288
becc0701
bc8b1296
be413b0e
be3e5ddc
be7e4a52
bea5bce8
bde4145d
3c95c55c
be15e57a
3e0575bb
3d97cf3b
3d2bfe53
3eb26ab8
3e9beba5
3dcd072e
3d15456d
bd76c6ad
bc14fa53
bd72567e
3e6823f9
bdc73783
3d86c7e4
bf27e72a
bec22a0d
be451559
be86ebd5
3daf1a4d
3bd29852
3e8cdbe5
3e0c5ffa
bf08037c
bf0aa45b
bf1b8397
be8b733b
be633f48
bed2e2a4
bea3bb38
be081392
bf055583
be9dc63f
3e22b737
bebbac53
bd1c63c2
3d6fdd2a
bc8c3ed7
3bf02896
3de2e56f
bec95506
becf0ca3
beca151a
bf373d6c
be9c7d9e
bc078c1a
bdb4c37d
3da14900
3d9407d4
3e232e38
bdd62f4b
bf323aed
bf4e40bb
bef3ac27
beb36fca
bf54cff4
bf126f38
bead89a8
bec59af3
bf445751
becc1cce
3e89db69
bea20467
bdc8a64f
3d5b2562
bdb83f17
bd578d71
3cb6cde9
bed73de5
bea88852
be928810
be9a5795
be4c95d8
3e3bc6e0
3d8518c7
3b13e913
3e45f028
3e8061f0
be981b32
bf1069a8
bf139d83
bf00f4c6
be566f12
beb97efc
bf2e248a
beeafd4d
bf0d7686
bf10b309
be48197d
3f394e4c
3edceccc
3d25e6f8
3d02b634
bdcbaad2
be0e20e1
3e789be7
bf0d25e5
be999c76
bd21ca6f
3e6e5caa
bc7e1058
3de06b70
3e12f4e4
3ee90853
3e44e48d
bda168d9
bdae479c
bda2d6fd
bde13966
be43c4e6
be822d33
be7af5d0
bec11568
be66a1d4
be78fcfc
beb7006a
3e06efbb
3ec5d0f4
3f422481
3c49e463
bd589ed9
3c8cf1d1
3dddfa75
3e0b3f8b
bf083d2b
3ef9ec36
3ec053f4
bcee325a
bd7a013a
3e52fc4f
3e66f5d4
3dcce8f6
be08af20
bea65ee3
3da93fc6
bd8d94ce
3eb38948
3e8cc84a
bd1d8141
bdfbd755
3b38e09d
bd49b936
be839916
be224862
3ede0124
3ea7a442
3f7b1668
3f512cb9
bcb75f5a
bc2747ff
3f177ff7
3e61e69d
3e11a1c9
3ef36de0
3d9abeb6
bd566e7f
be953c31
3c86eb4e
bd039ed6
3e032a2a
3df966e5
be0cb085
3e992521
bdd86ed5
3e4f04a9
3e9fa862
bc880c7b
3e2575d0
bd3e1bb1
3e80ebd0
3f19aa2f
3f3a87ed
3f1e4327
3f47913a
3f823ae6
3f60b1b3
bcfc81ca
bd46c914
3ef932a5
be4bf904
3e3bb1ab
3e313e2b
3dd8d86d
3e3c5a31
3d89de7b
3d7cd86a
3be28c50
be318d57
be22a61e
bd050d70
bdca587f
3d445825
3d7b0bb0
3d80506e
3eb054f5
3eb7b1f8
3e509bd7
3ea0f8d3
3ee9e296
bbb8427c
befd585f
3f259294
bea545f6
3f375f86
bdb87189
3b95d51a
3e5711ff
bed49202
3e3c19ac
be22ddcd
bdca3d49
3d47b354
be2ed17a
3e08c34d
3d509dac
beb7bae2
bd45edf4
be383cdf
be19cd13
3e6a44d4
3ebb22e7
3e76dfc0
3f01704c
3eae2924
3e17ccc5
3dc42b3b
bcf14fba
3d4c346d
be2eff01
3ee342cc
bf083bbf
3f0b8bda
bcf84e63
bca4fd90
3e829aee
becce2ab
3dc8c638
3de315c1
bdf2a544
3e3437ef
be91c990
bec85c98
bda30850
bdf0bd97
3c8925f3
bdd54468
3e6c9c18
3e9c2596
3e158c82
3eadf149
3f00eb42
3e27ed21
3ecb805a
3ed24111
3ef5d87a
3f0a470c
bf5a905b
3d06f97d
3f060754
3e615d0d
3d941b09
3daafc4b
3df980cb
bec9e051
bdfacc91
3ee921db
3e911b02
3e83b81d
3dca6c00
3d8491b7
bd528c26
bd625132
3e03bbdf
3d89184a
3dc45de2
3ea4b27a
be609a38
3e9c88ed
3e5293f8
3e4876e4
3ee45e30
3f2d1889
3f0964d2
3f2fe132
bec2faef
3f27a229
3efd9615
3d12721e
3b0946b1
3dc0407b
bb5a8465
be592307
be557cbf
3e94d73b
3ac1d6ef
3ea458d8
3e67ec77
3e342fb3
3e9626e5
3e16bf59
3ec36a1d
3ec0e32b
3d64908a
3e59f931
bddb57cd
3d2136ef
3d714f36
bd37f39c
3df22d11
3e29e83f
3ed1de02
3f6bdd0e
3e4302cc
3f73a300
3f101e8c
3d8aac3c
3d1b1439
bc0022e8
3f1fa4d7
3ee1c816
3ed500ac
3d8e0b09
3f0044e4
3ed7fac8
3ec62a44
3ef091e2
3eec880a
3ef9958f
3eee2a91
3e733d94
bd309d0f
3eace375
be88a9f9
bc744278
bedd3b97
bef68371
3df50490
3ca36521
3c030fd2
3e0427a8
3e144fd7
3cb229e3
3e3af236
3db0c349
bc9e846a
3d80b8fb
3e4967db
3f149498
3f74d8d1
3ea1d50d
3dcd77c8
3ef3f19c
3e8c521c
3eff66bc
3eebc42b
3e4aaa92
be11ada5
be9be1a6
3cdf35e5
3e2a9822
bdedf7b6
bddd49a8
bf27491e
beaab492
3e4e8643
3dd7de49
3ea178a7
3e69ac48
3e5be1b1
3e8e10c0
3e84bb58
bd4a4ce7
bd0824b9
bd4dad67
bf21599b
bee08f3a
bc0f4bf3
3ecfc8d6
3e3d1ce9
3d41c374
3ece7ede
3f2590b3
3e190684
3dd92680
3e04ffc0
3dd95b7b
3d8151c2
3ed4c19d
be22701f
bebaee74
3d88d286
be031e36
bdef2b03
bece802d
3d1adcca
bf0a6c70
3e05401a
3e98e1ae
3bdb0e15
bb245340
3c383e98
3d37a7e6
3d3d9387
3c944e17
3e5db42a
bea3d034
bf3292c2
bf22720d
bf4f284f
bf4e60c5
bf1160dc
bf09bda9
be68698d
3c97ac02
bf128709
be5b6664
3c43dde6
3e50873c
3e343875
3e6b087b
bddae005
be032295
3e95cb3f
bce62798
3e72325d
bd1b5aa8
3cd096c2
3da1e113
3d381892
bd8bf2d8
bd64cb0e
bd05b234
bb84fb2d
bd635ebe
bd6aba8b
bf081c5f
bf06b82f
bf041efe
be726182
bf3eae34
bedfadd5
3ea85c72
3e415129
be5ccda4
3be7a4d4
3e6ceba7
3eb36ff2
3f503abb
3ef7e425
3e68d355
3f252177
3e4b322f
3cde520d
bd29e500
3c6a9008
3d9b0bad
3b849060
bbbe5480
3d6440e2
3c907ea0
bc366a30
bd4ee9c1
3ad43c7b
bc532483
3c6000f2
3d7a8076
bd1b7a39
bd72f8c3
bca4c29e
bd1cbf39
bc75c5cb
bdb9468d
bc724676
bda6f78d
be4b39be
bce117e6
bc8f0e0c
bde96d4d
bd8655fa
bd687342
bc09f358
3da2e0ad
bd5837f4
3bb13e00
be09b161
