3eb3e2e2
be3912b3
bdb6c65a
bf16a4a3
3e86f6ad
3c9a63ea
be53f5d2
be989496
3dc9413d
bea6c8a9
bc976d70
3cd195a3
bd513984
3eaab3aa
be97ac5e
3ea45adb
3dfb2d3c
befe77fa
be127adc
be82821e
3e3be0f3
3eaca9d8
bcf3229d
bd9c0a4c
3e76c033
be5a62b7
be0f2020
3b9e678c
becb08e1
3ec93917
3e5f8b7c
bf0d2a70
3eb3fd66
