bd88b313
3d95f171
3d10c3c4
bd88c69a
3d164f44
ba600f00
bd7c8772
bc5c75b8
3d946e0b
3b3ab820
bda31f07
bd5fba62
bd7f2d44
3d948d69
3b800d30
3ce9d30c
3d82e1ab
3da3626b
bcca139a
3c3fe508
bd7fb244
bc5e0968
bcc7174a
3cf77b68
bd967bdb
3d9a073d
bda4f186
3c018b00
bce605ba
bd08321b
bcb18dac
3da2d415
3cc0976f
bd7e55ae
bda3259b
3d2cd010
bd4c5641
3d06c2ac
bca3d691
bd15ae90
39af1d8c
be12b92d
bda4d2ee
bddacdf5
bd9f42c7
bdfd717a
be12192d
3d15c150
bd0c8f54
3c2e769e
bc35dc9a
3bd0b036
3d52eb96
bb9b7e30
bcabb63c
3b3dd2c0
bd833fa0
bc61b088
bd3766d5
3c070880
3d853768
bce4cc4c
3d7622ee
bcf00049
3dc3fd7d
3e5129bc
3cafb743
be63a842
be49c758
3e571e36
3eb1302f
3d5bf642
3e00ecde
be10ba59
be8dd8af
bdcab129
bdec7b51
3e2afc93
3d7677f2
bdac247f
bde3c2cf
be121793
bd8bf29a
bd83d078
bd03344a
3d7d4716
3da6434f
bc373646
3d010c02
3d4c7550
bddce119
be2c3dc2
3d624299
3f2d197e
3eedcf9e
be172416
bd85314c
3e10aa41
3e4e789c
bd802068
bdf30314
3ee9c955
3ea0dced
bcffc268
becc7a9d
3e4bb592
3eab7760
3e656905
be9cf823
bf1489da
bf030d1f
bc09de58
3d4d0c6a
bd23e3a6
3d739aa8
be4d557c
3d7e3bb0
be1fda52
be9bb306
be7bc88e
bdc8a29a
3e8f2d1a
be1a0007
beefc62b
bf2387dc
befe092e
3e374880
bd9d36dc
bd2f7f4c
3e2787cd
3c3802f8
3ebca466
3e6490b2
be0195f5
3d8c26dc
beb3d168
bed9498e
bf87af01
beff932b
3e1f4067
bd1f918b
bd9497fd
3daf27be
be4de7e6
bd225487
bec6b0d9
be37e92f
3da3a559
bd6169c5
3ec169e9
3e7f89b7
bcab7a0a
3ce0570f
3e9a1226
3e58241e
bda287a9
bddd6392
3e809cb6
3e5ad166
3e691fb2
bcaaa3d9
3df52969
3e2d3490
be17db01
3dbbfde7
be6ee85f
3dafa255
3eca2584
3b3320c0
3d7149b6
be39439b
3ded547d
be133604
bef5cc4d
bea5960b
bd913c89
3e0577ed
be0dc2b6
3d0c3ffa
be282e1d
3cc1b5bf
3ce31f62
3e4e6bf1
3e3168fb
bd959855
bdd0af85
be0ce32d
3ebfd07d
3e19a77a
bd9d5042
3e73d2f7
bda63329
beac0da4
3d73b4e0
3d3e22c0
b9a8ecff
bcf51c0e
bdfdcf73
3da988be
bdee7076
bf4512d3
bf245062
bde3b8e4
3e6d3929
beba4ce1
3d82751e
bd611bcf
3de35416
3e353bc6
bd3f9524
bddcc411
be17aa8e
be0a56a6
be8cc508
be81eacb
bdf80333
be22c295
beaf3e93
3eeaebc6
3e09a34b
be9b252d
be0e4e36
be8cc9c1
be73acc9
3d870535
bdc8f9f6
bcc474ff
3dddb0d1
bf82d73f
bf4e385a
3e7f0ca0
3eb06aa4
bd1ba36f
3e0085ef
bdae76c8
3e830f84
3e80ecb4
3eadef4e
be95e3b0
beb383f1
be4ebaf5
bdc12ad7
be82dea6
be1d4025
bea49aa9
be47a65b
bc14b516
3d8d92ff
bd6f939d
be236500
3dcae6ee
be90a525
bd03c724
bd862e49
bd77b420
3e14c52a
bf69a797
beddd6b8
bda81476
bedafd1a
be4b4a91
3d069e8b
be1a213a
3eb231c0
3ee85b18
3e58135c
be425d74
bdc072cd
be76dd9f
bea5a1f6
be928696
3de5660c
bee2ce6a
3e1ea734
3e69862d
3d170838
bea4428c
3e41b791
3d6fc79f
3def7071
bd3a0d7c
3cd1daec
3ada6084
be66735b
be0ad5a6
bedafe0b
bed1aed7
bea245b0
3e9ec8c8
3e7183f0
3cd7c3ba
3e958ffe
3ee2b5da
3ec149fa
3e4d4cde
bd73b20e
bebba0cb
be4084ab
3df6023c
3e0021b1
bea78d21
bdc4d7ae
bea197e9
beb67880
bf2e23bf
bee9497d
bee086db
3e70620b
3d9c01e7
3c008b58
3cc266b5
bed1077c
3e3220a4
bd31b49b
be9a030e
3dee389a
3ed2d797
3f0b04b9
bd019553
bcc5fac1
3e8ed6d8
3e4aa087
3ec02f94
3e3dad2b
3d071bcd
bee1d79b
3d06176b
3e84aef8
3dd1d3b8
be8da97e
bf1b2abf
bf664ae8
bfa27584
bf3f4169
be4aaf2a
bd94d121
bc3b2638
bd4af3df
be065e28
be33cd87
3e5a6d26
bedebb10
bf0fcb82
be385c67
be82192b
3e6ccf22
be1e6056
3d6ea295
3d6632dd
3e3a2284
3eab3112
3e6c7235
3e0b551f
3e02e950
3c550792
3e5e1382
3eac4a28
3e6e860c
becc67cc
bf5e3cf3
bf8a4cb9
bf1a5fc9
3b246b4c
bd89997d
bd337b8e
3d718410
be32e3a2
bd8ac03a
becbe516
beecce35
bf2ac3a0
bf074c9b
be8184bd
be45bf01
be9d9185
bdc01c24
3d4e5f4f
3e9faf90
3e8e7cb4
3f17e5b4
3ee85cee
3d696379
be8003fc
be9ceab3
3df440b7
be51ff72
bf0d6fa1
bf9bec08
bf5b5c5f
be0e5788
3d15dda5
3dec2253
3c89bd10
bd61bc1f
bdaebf3d
bd54e406
bec77108
be981d97
beedd630
be921b94
bea8a486
be0a69ec
bbde5c38
3d5b9f9d
3dcbe857
3ea4205d
bd56677f
3ca2d619
3e45d199
bdea3ca8
bed52a51
bf186556
beba6f11
be26baca
bef9a63f
bf372782
bf83b762
3e261313
3e1afd82
3e0de975
bd0a14bc
bdadb023
3c57f70a
3d018a32
be6f3288
be305341
beebbdbd
3e92f271
3e8d3e04
3e7c67ea
3e0c5824
3d86a973
3e2c34ca
3e8d7516
3e8c5349
3d64db50
be67f0ce
bf818969
bf07ba8e
bedfb5c0
bf0fcca3
be3cd675
bf207f1b
bf4fe813
bf4cffe1
bdc95f6c
bdafd62a
be5143a2
3c6c7408
babb28ca
be02e900
be3fdb45
bd3ae975
3c83c55d
beda713f
3dfac60c
3e8a5fda
3f3b6f1e
3ecb97d8
3e5b8879
bdd20304
bde1522e
3e540832
be84c17f
bed02a9a
bf2e736e
bf487568
bec266a1
beaf3827
be846328
bf149a26
bf1b361d
be975db1
3ee20fc9
3de2e786
be61f69e
3da43efb
ba88c40f
be9e6b35
beea463a
be7a279f
bdb76b03
be5834f3
3e36539e
3ebb35ae
3eb5d94d
3f0fbae8
3e9d6cc2
be2c9ca2
bef2d7a7
be36db87
bee76412
beec6d90
beeb92db
be65ae94
be6d2f17
be85fe16
bda13828
bea5a733
be286cd8
bdd5889b
3f1e0f5c
bdef843b
be60b206
bdb6e8c2
bd683f5c
be95af5c
3d29598e
bca1e0d1
3e16e3b4
bda4e93e
3ec209aa
3e0bb8cb
3efe7373
3ebfe329
bdfa5681
bf35e7b0
be8b31af
3e1f8a97
bd990264
be62a580
bda7a812
3dce375d
bc015fe9
bda80165
3e37a8c6
bd94abbd
bdd9673a
3e51d2c0
3f01d7c1
3ed43b5e
bdd41547
3d0277f4
bd1bb00d
bea1fec9
3d42ed36
3cd3875f
3cca72b1
bdcff7ac
3d1387b4
3d1ccdeb
3ee58e8d
3f17f07f
be87bcd4
bf83a1a2
bee4fa3d
bd5db489
3dc2942e
3dcc90fa
bda7f93b
be07e151
be093138
bbab5d7b
3ebc14ed
3e081d95
3e422f5b
bebacd56
3dbf8469
3ecb6243
3e1d8158
3d980601
bdf6e231
be8d2552
3e575c80
3ef08039
b98f9d74
be704aab
be6dcc17
bd32a15f
3e37b24c
3e812138
bdea8806
bf29726a
be80488e
3e3692c3
3e0e54bf
be89a2e9
bea2cf2b
be6011fc
be7768cc
3dea1c46
3ebc3e46
3d1abfca
3e937bb0
be436d87
3e86b949
3ed90480
bd31837d
3d81a57c
bd75f004
be72c3b0
3e023d2e
3e10fd62
bce9360b
3e9e97d8
3e1915f8
bda39e77
3eaac484
bd5ea86a
bd76ee58
bea9760b
be8aae9d
bd9b9398
be3182ca
be4959b0
be3a099c
bc4f9218
bddc3e6f
be261a21
3e9bc6da
bd899bc0
3e19c2f5
be2af5a2
be11ac43
3ef35c62
3d326d0c
bd12b869
bd85a189
bced4f8e
bda8519c
3d0d46b9
3eb3e035
3e7f1b16
3e78fa62
bd8b954f
3d3950f7
3e5df2f4
3c2ef552
be28df82
be193e61
bd8500b0
3e64f48c
3eaba944
bcb72331
3e2d3c48
3b94e387
3e13a844
3e4e45cc
beb5e7dd
3e30bf64
bd918201
be94ff11
3e2d9e75
bd276c66
3da49abf
3d1606fe
3d080fe8
bd4f2c67
bef0dcc9
be19ebc7
bbca98e1
3e07376c
3eb5d552
3ec33781
be861d1e
bed376d0
be3a1103
bd5773e1
be85b508
bd16d7fe
bd3b93fb
beaa6b77
bd29b0ce
3de5aa3e
3eb96ce2
bec325d5
bea00d78
becbf4cd
3e0087c1
be195380
3e374d9d
3d6aa70e
3d12c6a8
3c03a108
3ce7eb11
bdbcbe5b
bf2d11aa
bef45658
3db4d0db
3d655741
bdc4001d
be2d849e
3d7c938d
bafa6a03
bd8a67d6
bd33a579
bdef978e
be8bd045
be2f0ddd
bee8f550
bef5a702
be65f746
be0cd606
bf4a8808
bf43c1a0
bedcb856
3ea70407
3ee8c615
3eebdf9f
bd1c2aa3
3cf3b364
3c6ddc28
3ceaee9c
3d0b7472
bf0a4728
bed433e7
be119e11
be6aaed1
be53e9c8
3ea4919f
3efd7dac
3e488035
bf2085cc
bf963fac
bf907fd1
bfbc15b0
bf9eda73
bfbe6bee
bf9ee66f
bf428c5b
bf668e1b
bf401cfc
3dac014c
3edb3de1
3ebed89c
3e99b106
3ea39d18
bc98f766
bce07d2a
3d62b7d6
bd375dbf
bc95bd0c
bd5460f8
be7cb888
bec5bf13
bea092a4
bdbf87ba
be3c12f6
3e077653
3e2a03fb
bf1a1764
bf26bc76
bf0ee5af
bf65c6ad
bf18692d
be95f42c
be1ac610
be260ce7
bf154e6f
bf2b5697
be61be9a
3df4e894
bd9b4a60
bcbbabbe
bc2c9b18
3d219394
bc9c281a
bcf9d606
3b41c5a0
3d9951b9
bce5523a
3c92c300
3d93cd6e
3d519ba1
3da11eab
bdb148db
3ba656a7
3ce21c66
bf32ff99
bf31b75a
3d0d6ebe
3d4e9ee8
3d5a92d1
bdb9a002
be5c9d8e
3bf6977b
bd35cfd9
be4bd8e5
be80cd35
bd50bf53
bc272e10
3d246450
bcfef468
3d330782
be4055df
