3c08c648
3c0e6010
bce24a00
b90f8c00
3d82a0f9
bd7fa7de
3c8c8820
3d9d7f9d
3d6fe106
3cbf9a68
3c1d2330
3b875ab0
3e05a618
3dd4a041
3cd6b7e3
bc5def7f
bb8ba700
3c1dc708
bbcb00c0
bc54d1f8
3d4c375e
3d6dab4e
bd7212ef
3d3e9372
bd384a49
bd278941
bce21d58
bd0744cc
bba68ab0
bd5f4e48
bd89ba70
bd59c044
3cbdf653
3d8075f5
3e0f309c
3df502b0
3e518053
3e4a312a
3ee486fd
3eae1d80
3f1261a2
3eaa9a08
be9fea8a
bc44c113
be300ff0
3edb4967
3ec38e13
ba2be6e0
3e6d963b
3ea2a088
3e8b86b8
3eb749a0
bd8ddf1b
bbbe4690
3d64db76
bd4bf16c
3da34b2b
bd5488e6
3d19d6c8
bda6a409
3d3516a8
3dc6ae3b
3e49e852
3ed1b45a
3ecb3749
3f54a729
3f11f985
3f82bee8
3f2f37b4
3f47a0db
3f1d01af
3f2d3791
3f4efb52
3ea59b97
3d1f3d11
3d71d47f
3e9fad90
3e9781b3
3ea014d4
3ebf4643
3afafe9e
3da827be
3c12a508
bcf26258
3d2e8c84
3d29d942
bd24edf9
3cd5b930
3e6322c7
3f451c67
3f5e4236
3f8be26f
3f9c77c0
3f138e6d
3cfdcc19
3e552db4
3d16b214
3d95a124
bd7f9e35
3dd4af1b
be22f7e7
be46496a
bf0a27e2
bf02ed5e
bdd6edb1
becefd23
bf23a2aa
bf400192
be15e10e
3c842319
3c24c6da
bd9299ae
bd6675f1
bd7c7c2c
3d915d77
bebbd071
be8354b6
3ea7690e
3eda39e8
3f197ca1
3de22ec8
be6a4501
bd429a57
be26a9f8
3f2f1dc8
3f6b3b2d
3ee5db30
3d5d8dd9
bec548a7
beb6ef8a
bec99436
bea5e194
bee0ff49
be4594f9
bf12aae0
beae0116
bd593bcd
be3cd178
beab54c6
bd97b35a
3d62c69a
bd53fbcf
bde18953
3d5746b7
3f12d89f
3eea0ae7
3ee9aebd
3e3824dc
bee7bb78
bf42eaa7
3e2c87af
3e2b2c31
3e9dac6f
be6d817b
bc6ba0f0
bf0c0110
bf5a7a0f
bed6f653
beea880b
bd3af4a1
bd3954c9
3d2aaf19
be99ad96
be481463
3c981573
3eca8a64
bc874e73
bcaa3b52
bcd4ae6a
3c845390
be0edea0
be0c55cb
3df96209
3ed6e8e6
3f17e21c
3e1ebb43
3e3719b9
3ec3edd0
3e11b0fd
3e20aab1
beca2e7c
bf1b7d52
bf2be9b7
bf81dae2
bf858782
3dac429a
3e0a58e7
3dd964a4
3e6ae3c9
3ebbe8f7
3e1156b9
3eb4cc25
3e8dab10
3e43cd0c
3f087afd
bd11880b
bd9ea667
bc781086
bec49b44
bed6dccf
3da021ac
3f11965f
3dd10d3c
3bb34b0d
3f197e6f
3abcbf0b
3f0d0fc4
3ed1bf96
3e985d1a
be831ff7
bf8c3ca1
bf42f0b9
bf2c2fad
3dd8313e
3debdeef
3d84f0f7
3c239aab
3e0dc808
3e78267e
be1182d0
be7fe959
3d31e7e8
3ee67440
bdb3d469
3f07f126
bd561480
3eaeb17b
3ecbc4a2
3eb6c7e7
3f168d37
be99dbfb
bd95549f
be46bcfc
bce7a301
3deb0b97
3e885f95
3e2df9f2
bf2ba49a
bf95bdfc
bf3825dc
3c32418b
3e7c2b26
bd9056db
be7bc3b0
3e1865f8
3e9a10db
3c1e10d0
be9c3b8d
bf2c8a22
bcc8ca6e
bcab6c51
bebb1829
bd9b8622
bd42c397
3f376a27
3ee8b1bd
3bffb759
3e79c3fe
be583992
bdb0c51f
bd3b7166
3dee8b3f
3ddb7b4e
3e9c5662
3f3b549e
bf6822c5
bf3ac59c
3db8615e
3eb693c1
be3f9c44
be1f9e2e
be2898ba
3ea39428
3e687a6e
be93bb2e
be931539
beea1828
3cc98259
be74d497
3d59e5c7
3c29743c
bda39c85
3ebf1de1
3ed481e5
3e3106cf
3edee1a5
bd42c20e
be78b29f
3e46be40
bdf688a1
bc7f1eb9
3e92c130
3e659c9b
bf962603
beebe067
3e6d88c8
bcad9ae0
3dde0627
3d6ea6bd
3e1cb485
3e24c8a4
3bc8bfa9
be92ac01
be5f4193
3eb7f8b6
3eb086bf
be61907f
bec0c362
3d7eac49
3f61ab50
beb382aa
becb66f8
3daa8e97
3f077b2f
be6db5d7
bec17460
3e1742e7
3b836bd2
be55632f
bdde15c1
bf1b3213
bf7ba105
bccf9a22
be1fce94
3e693ff7
3e0e34a7
3d860173
3ce50d02
3e141d36
3e039d88
3d5258ee
bdab73b8
3eb4104a
3e9c5714
bf1ddf1d
bf0753a4
bd69813c
3d4ee33a
3d9a6dad
bf32df12
be53ab67
bdc3c61d
be2bef80
3dafc6b4
3e576df7
3e9555d3
3eb25732
bc27061e
bee4f008
be789366
be3a1960
3deab2ed
3c3a889a
3e475220
3debb692
3ca6a20e
3e3f87bf
3e070948
3e8cdca7
3e3acd31
3f1303ff
3ea7d00c
bee4740d
bf29483f
bd94d77c
3cbaf1f3
3e718ea9
bf1b1d69
be9d52b2
bdebef35
bdd68069
3df3de20
3e7b77a5
3e8ee038
3e0769fb
3e6c1169
be05dacc
3cd23122
bdd8b2db
3d92a2e7
bd5c3274
3ec2ef3b
3e228a55
3e4b18fe
bdc51632
be078b9b
3e6570d3
3eb8cd95
3e300b12
3e2fa0fd
beb16ca6
3ead1726
bcb98ea6
bd3ba77d
bdad8061
be8a8c76
3d511723
3d832a80
bd40d512
be1d38c5
3e28bf56
3e4741e3
3e8099c4
3cf283ee
bec3e877
bdaaeae4
3bce90b9
3ea85077
3e2bda1f
3ef69d50
3d8c6569
3e692cde
3e01fe7e
3ec6164a
3ef52fa5
3eb4c4de
3e18cb71
3e9c7b33
3dfccee4
bcb8dbe7
bc4f4262
3d47fa6e
bdedcbfc
3ea663dd
3c1fefa8
3e097974
bd0f543d
be4c4f2e
3e010e0a
be8b6d3a
3d51ca6f
3e17fcff
be684c51
be303dc3
3ecb54cc
3dddd20d
be300f67
3e556b78
bb4c6e47
3e16e468
3e63f88a
3e7f5996
3e986be0
3f001d55
bdc2b99b
3e4811b6
bd90395b
3bbb2ac9
bd52e2ad
3d238dda
bed34757
3e03c308
bf06cad6
bdf6b3aa
3a86edd2
be415cf2
3cdd287d
3d459326
bdb278ba
3df185c8
bde3f768
bec3e049
3e4f0a02
3de47eaf
be24d727
be9e220b
bebaa66b
bea91728
be97dbf6
3d48ac51
bdeebfac
3ea93d54
3eba1791
3e91914f
be5f5f51
3db0597d
3ca8496c
3d5615f2
bda83e64
be84a546
bf19fbcc
be1d0c7c
bdf66b02
bcfe4cc5
3dde6c53
3e01fd8c
bc80febd
3d20f4d6
3d32a1f1
3e3efed9
3e427be1
bebe7dba
be0401ba
bebcb6ad
bdf54c1e
be98ec46
beb5cf05
bd5a7b52
3dc75e0e
3ee356c4
3e2b16b3
3eb22b45
3ef03917
3d1d742b
ba8f9476
bc680820
be9b9d45
bea03399
be4a651b
be038adf
becff226
3e65b413
3e7ea61c
3dec2d62
bc9703c6
be3399e0
3e1ae3d8
3ecb9961
3ec4cbef
be88e309
be9c7425
be8df2b1
bce089bb
be993c4f
be7ac384
bdbfa5fa
3dda3eab
3d76b749
be2a7ab5
be7289ab
3e3a3c09
3e01cff0
3c8d9624
bca96523
becc9ae7
be976c53
bd8e909a
beec6c1d
bea8ad91
be146eb7
bd10de14
3da43571
bcf482a1
3d1914fe
bcd87790
3f00604c
3e98efcf
bcde99b0
bdc6edcd
be2a1a87
b9612f1f
bed46aa5
bd3c1986
3e2648f8
be2db07a
3e0653a7
bea03fec
be200933
3e1d3bde
3d7f5dbb
bd819e5c
bd349db9
be1cb9a6
be453600
bf12a714
bf2ba3eb
beacd75b
be246cae
bf0a74ce
bd1bd7fb
3d1f1686
bda54604
bed340f9
3e5a457a
3e863236
bb47ce03
3e8de8fa
3e06693f
3e7f36f0
be163636
3e05c50a
bc93463f
3b6d25bc
bd243bc0
bddbfe11
3e508745
3e7bc4c0
bceceb7d
3d614e6a
bd7f89de
bcdc3d25
3ca771df
be87034b
bf175bb5
bdc379a2
be5f9a96
bdb7f94c
be71dd32
bc67183e
bc363dfe
bedc3ee8
bda4fcbe
3d195c11
3d5f015b
3d7e45b0
3eccb8a6
3e90f3e7
3e5a1c97
3f2ddb03
be162495
3d825b6c
bd49428e
3cbcce60
3e6cfe3b
3e7e98e6
3d96eb0b
bcb78f4a
3bfdc570
bd00e973
bdc22ce8
bd7f3562
bebdf381
be2ff196
be62ce58
be9ceaed
bef05cfe
be66e2b3
be9ce23e
bee08239
be474cc8
be95d2a6
bcc5643c
3ea7d058
3e974e83
bdc60b5d
bd01898b
be42b4ab
bdfc50a0
3e2c9033
bd3477f0
be177c3e
3ea489fa
3e8360f9
bd43d7e7
3ccd4438
3cd96878
3dac2695
be8b6c8b
be75576b
be86809a
be01e893
3e03c32a
bebdfe0c
bf388c2f
be0f46e2
bec7c8e0
bed7129c
bda10b41
3e995b0e
be5f1e84
3d4bfb16
bcd24de6
be0e9401
be0172cc
bec014b8
3e837e65
3dc0b081
bccde7c1
bf11d982
3decfb3f
3d9cddcf
bd872da4
3d962245
bc9ceccc
3cd04c20
bdd6e790
bead4a21
be82a272
beeebbf2
be493c66
be8d839b
3da029dd
b9b0578c
be42c548
bed3e322
3e582bfa
3f102154
bf0b9c28
3d2a73da
3e62ceb4
3dbf7796
bd83b383
be011130
be48d48f
3e557316
3e38b622
bed2bf58
be24e24b
3d98bc91
bcc55082
3d007fe4
3b57ff80
bda9394a
3b63a3ce
bdd64273
bef5d58c
bf566fb6
bee5a437
be037c22
3e045af4
3dad5d40
3e4bb57d
3e06be24
3e598360
3e1d757e
3dcf858b
be178623
be8711b6
3dab449e
bde59ed8
bf0092a5
bde16e67
be261520
3e8a84f0
3e195e6c
be5f2186
bd8b5782
bda47a21
3cd363ec
3d0580b0
3d7cd59e
bd965be1
bea867b8
be682a70
be7361bc
bcf2d8e9
becd3365
beeade30
be731497
bd0bb83c
3ddcccaa
beeb5f7a
bf1405f3
bf1408da
bf77a81e
bf3e1b77
bf4c9383
bf48f695
bf81b327
bf27f1e2
bf2c34ca
be828592
be719785
3d4e1ed6
3ce05ddc
3d48eb62
3ce544a4
3d6e8e06
3d2c294e
3d6e637e
bbaaba30
3d35c290
bdec9d6b
3d096e42
bdab15e1
be22de3e
be5c0fda
be4b5bdc
be810121
bd70b0db
be498614
bd1a13ac
bea83318
bed6314a
bd0421ba
3c4d8f50
bda07896
be6df15a
be99c646
be31794d
bd86aff3
3c8fde8c
bd4c0294
bd5890b6
bd49e08a
