be2bcdfe
be232761
bedbbd3d
be5db475
3ed2f8e4
3f396edf
bec144a8
bdd431e0
3dd53745
be0dbb0d
bf0d3268
be21b9a7
3e2cac47
3da08f10
3c99df20
bd9c830b
3f17a48d
bf031c00
3efdedcf
3d54ab83
be7a74b3
bd87fba0
3f3e3a04
3e4ad21c
3d56ca03
3e868410
be5add30
3d89ba09
be52e961
3f20417b
bdd93fae
3e2b0091
be356f82
bca86e85
3d9c5caa
3f5ce2fd
be0edd9d
be1e643c
3eaca97e
be13550f
3e6e39e2
be3ff60f
3e9f13de
be2e35ee
3e2959fe
3ddc2780
bafea0c8
3db06370
3c6bea65
3e9769d2
bde609b1
be638f4c
3f015e51
be943168
3e77979d
3ee86537
bda14e33
3f2a1f85
be4b59ac
bd879065
3d2d1f33
beeb4253
be999d41
3eed8b60
befcb714
be2603b5
3e482639
3e3881cd
bd3accaf
be898a06
3ec874a3
3f052109
3e326c70
beaad91b
3e71d37b
3ea902ca
3d60c21a
3c92cbbd
be8a7757
3e5e701e
3f17e8a0
3e0c0890
beec93c7
3ca6a699
be845587
bebaf7c7
bda57fdb
3e12ed4f
3cf547b8
3f134037
be085696
3e5dfb38
becef87b
be5ea8ab
bc10cb6b
3d454d7d
3ecdcb80
3eb45462
3d5fcc0a
3edb4df0
be9e11e4
3e005f8b
3d00b488
3ba5ef52
bd1b7a12
be7801d8
bd361358
3dbf8d15
3f2b719a
bc90f6e6
3f0168a8
3dbbce1d
beb4d5d3
3e48bf36
be22a367
3dfc5e6b
3e4afaa5
bdfbbbb6
3da1f355
3d77cd14
3f451d48
bd8ab303
3d19685e
be585aa2
3ea34a2a
3c99a904
bc3895ae
3f87f8cf
be66efa5
