3b9c5990
3d024748
3d8a492d
3cc4ae7c
bcde9c82
3cebe528
3d8d8159
bc6ac518
3d8e2d43
3aae2a40
3d7c4cae
bd6390d0
be15c807
bd42cbd2
bc8b33b4
bd2aff5e
bd286d37
bda2015e
3d906d11
bd2ceb91
3ca1bcd4
3d72582e
3ceb57e8
3da22ac5
3d6f1fda
bbaa5d60
3d8a8f53
bce8d86c
3d6a14d6
3d370556
bd8b0a73
bd87e006
bd512bdf
bc8b1b14
3ca9d866
3d8c52f7
bdc0c726
3de3e410
be38e227
bd2a32e6
3e2ee134
3df28e45
be0ed730
3edb544e
3ee89f68
3eb8a0c6
bdafbaac
bc207125
3cae0b05
3cec243a
bd2441d8
bb8e6540
3d899527
bd0e4f23
3aff8a00
bd99f2c3
bd8b7df1
3d949f47
bcff3f08
3f2b941d
3f336abe
bdcc6ccc
bde74a41
3de24bb6
bf370573
bf702ea9
bf1bbef3
be91c074
3e04b929
be344617
bee1ba39
beefc98c
bcd05fdc
3d458552
be3edf29
be774213
be6136e6
bf073605
befcdc34
3d87c09e
3c6cfc0c
bda698d2
3d4a5c4a
bd91598c
bd616d18
3d9a325d
bd39ae72
3f400250
3f66a192
be53c813
be42d2a7
be1c9355
be97d079
bc040c0b
3de25820
3d0541bf
3e3c7245
3e5c7e7c
bd1145dd
bf11c483
be92d652
be4bbce5
bed342b1
beaf501c
3e055542
3f029127
be5ef26e
bd9038f6
bdcd2a7b
bda79aca
3d4ea8d5
bd9c6266
3c5b8468
3c899e50
3da3054d
3ef9786d
bd814766
3df34dd0
beb9ee81
bed0628c
bddf5e90
3f06011f
3e46b396
bac6906f
be1e33f7
3d9cf472
bd0c5fe4
3e5383f7
3e30da44
3e190efb
3e57451c
3e58e482
3daccc36
3df79235
3e0c5b57
3e766971
3e1e93fd
bf127d3f
bec5db44
bd38c047
bc946ec0
bd167e73
bdd14d58
3ebb26c1
be1cd8a8
3ec7c9c2
3dd663ce
be198ff2
3ce1a66a
3e007082
bcfe0127
3e08d40d
3e3817d1
3e704f4c
be23b2da
3e4ad224
bd456d23
3e30a9df
3ec02466
3d725c32
be565f51
bdde28fa
3cc9ba2a
be5479f5
be0062e9
bf2ed7f2
bca7eeb0
be331644
3a6c2a00
3cd2e299
bdfa38b7
3d278e75
bd97dd0c
3ef7db47
3e9f49c7
3d483d1b
3df2e4d1
bf1bb047
be448cc8
be7d1675
be9b648b
3e0dc88f
3cfbfa4f
3cb7ac41
be0240aa
be834c6c
be0bdae4
bc86e327
3cd1a3cc
3eb94c10
3e519f6d
beb41b73
be89259e
3ce767ad
3da1385f
3e7f3906
bcb3e0f2
bd662a00
bde0a262
3e9ea3f5
bf4b2386
be0b1d3e
be3657cd
bd07953a
be905fda
3e848e05
3c86d4d3
bdb1f7ca
3da22493
bcca16b0
3dc310ea
3db9cef7
3d62610a
bce88c15
be711a9b
3e5b40e6
3cd4a43b
3d3d9f0c
3e14e794
3ec79e78
3dc5a087
be7f8dae
bdda6569
3f3695a6
3eda0a97
3e8ffa8f
3e336f0b
3e9eacfd
bf6102db
bea6d8eb
bdce3baf
bee9db9c
3d6c9a56
3ea3a823
3d8837b3
bea6f041
3eab0ad5
3de40d7c
3d5c9e0c
bd6d0ab4
bb5ad62f
bcf3c572
3e17b305
be6d0337
3e0b5678
3c7833cb
3ed00290
3e95e9f1
3da9cece
bdb39aab
be3a404b
3e53cfb7
3d7881d3
3e2bf02c
3f01637c
bec793ee
bf6e79f7
bec1d8fb
3d6d9df5
bbf6b446
be2f2f2c
3cd67161
3dca128b
be022532
bd8e0625
3e161e52
3d2cf532
bcdca2f2
3c219a57
3d53b060
bc5cdda7
3d8a5567
be12b02a
3ca6b549
3e88d125
3f228b20
3f391028
3e672246
3ca9b0e2
be9da255
3dc22aaa
bd800712
3f381c39
be8902b4
be9c2f83
be032859
3dd81dd1
be176c11
be6a2119
bc61cc7e
bd614361
3dcd714f
3e576fd3
3e8aad45
3ea8feea
3f1aaa90
3f3127df
3f006a63
3ebc985c
3e5ab6bf
3e2a8c5c
3c1197ca
3eab119d
3df7456b
3f0bce73
bbc76a5d
3e97c5d9
be7ae332
bd03dcb8
3d8a20a5
3f279ad4
bd95c6da
bec69d41
bf1065f1
be768b5a
3da3d2a8
bedb9ea9
bd9ecd7b
be3070fe
3b48af1b
bde4d303
bd7633a1
3d9ac1a0
3f1c23c0
3f2563b8
3f48658b
3f153930
3ee225df
3e05bc0b
3dd3272c
3e3bf3d1
3d01043a
3e84769c
3d8375d3
bda2f6d0
3dc8ffe2
3cdee870
3e445710
3e98a60e
bce88f08
be6de0b3
be30394f
bc8222fa
3de8847a
bde6f8d2
3db30069
3dd98ba3
3e5aa822
3d8c60fb
be59c856
bdb80435
3df03c08
3e8d5b6d
3ef90623
3ea47784
3deb1408
3e5ad0c5
3e54ac63
3e856696
3d82f984
3df70aef
3ca4d17f
3e7d9bd5
bea6e450
3d8db1e5
3eb15c7c
3da8c665
3d46cef4
be0b42d2
3f01d98a
3e08c6bf
be028989
3ac1da56
3e19ee51
be843256
3daf2523
3dea67da
bef6b767
bf2acee3
becdb242
be7a3061
be4469ef
bdc91ad8
3dbfc857
bc90ca91
3ea5dc37
3ec78449
bb8f9d8e
bdcd7c49
3e8929fc
bf203f4e
bef108ef
bc726b70
3da0ac7a
3dbd542c
beccc356
bd8b9e16
3ef01ba8
3ea79dc8
3d5196d0
3cda4928
3e956145
3d0af4b8
3ebaf6dd
3e84f036
be1459d0
bf3290e5
bed218e4
bf2a2d4d
be2d241b
3e0b9286
3e1127f1
3e8cbf0d
3edd558c
3eceaefb
3cf4741d
3eba1896
be9a8a34
bf80f1e1
be58aed9
bcfe757f
bd9ae586
bec8122c
bf29e61a
3d0daab2
3eb47e33
3ea5cc39
3e508861
bd2429bf
be4e010c
be10275c
3da77bad
3d897fb2
bf09dfbb
bf8320dd
beb5d000
bef46876
be6ab446
bdcb0213
bc261ea8
3ea198a5
3ede32aa
3dc3c4ee
3e9191fa
3f284d80
bec6808b
bf42be74
be91dfbd
bad6d358
3c749f3d
bea33362
becfa12c
3e898f74
3ed1e6b4
bd3187d6
bc59d581
3d8c5eb0
3e0d7249
3d20edc4
bda81378
bdb76e62
bedfe942
bee2e292
be0e1034
bee7998a
be973bfa
bec013ca
bc05b593
3e5f1d6d
3d726c9e
3e943f76
3e8bfd9e
bd97ec21
bfa0e787
bf88e1f8
3e329fbd
3d0343fc
3d71b3d3
beda6e6f
3d641574
3e866e6c
3e5de585
bdbc043e
3db40a0b
bc6439c6
3ce8eebc
3e4108f1
3e5055da
3dc28112
bed07b6a
be817b92
be5c1caf
bf1700e1
3e22cf85
be12f42c
3e0d8388
3d6a5975
bd9534fc
3e9cf9be
3e994b85
bcd91874
bfab4e9f
bf313349
3f46d183
3ee2568b
3de87d01
beaaa315
be66158a
bda9627d
3cdd1a87
bd0f9070
3d9ce79a
3e88c825
be6479b1
3d64bd34
3e15345e
bd2b5974
bea2517c
bcc94542
be92e9a9
beee5771
bc980917
3c011665
bd493fb8
bdc0a546
be56d4fc
bcb6ad8f
bd9ddd8c
be0b1a7c
bf512b4e
bf146927
be760a12
bd80f2c3
3f5846ec
3f195b5f
bdba25b9
bdea27ce
3de4a626
bc02973f
bd12e696
3d391ffd
be3afd0b
bb9d1355
bd6c4f17
3ebea731
3d7b1316
bd2cf6c9
be45f319
beb3b6d7
3ea472bf
be387306
bd5ee086
3daa4205
bea1bc00
be2d0d1c
be977b15
3e96122d
beeb3e4b
be96ca6d
bc3d75ea
3d8a2bbd
3f25bf4c
3e7cd3d3
3ef9a1a8
beb9f1a1
bd495c86
bee0884d
be5027a7
3dd78330
bc851265
3e05f04a
bcd96de7
3d519a2d
3e18eb59
bd94881a
bdfda58a
bd758b99
3e7c4c87
be3ceb7c
bd3094f6
be860289
befbd4c9
be52a956
bf173054
beb36b9c
bee4765f
be8eb955
bc01a690
3d0027b8
bd92d597
be1ab5bd
be96ee93
bf006398
bef887d6
bec9eddc
bf019d72
bd3c86d4
bde43656
3e024951
3eb2566c
3dc5d63b
bd9d6d2f
bd803d70
3db623d5
bd842ab4
be6139f9
3df829f7
beadc346
bed9de7d
bdfc6257
be4f910a
bfa766a5
bf23e227
beccdfde
3e4ca0fe
3d0ed94b
3d0101ee
bcdd387f
3cc65cfc
3db5c2e6
becaa6dc
3ea55107
bef6ac12
bef10c3e
bebbfd0e
be15a550
be0d6f24
3d4fee83
3eca91be
3e989513
3e689559
3e567829
3e130a06
3d8dd661
3db06b41
bedccd39
be919854
bb06be62
3ec237bc
bef4cda9
befdf439
3c40483d
3ea2cb1e
3d5039fe
bd849cc1
3cffd3f4
3c88dcbf
3eee0117
bef5dd4d
3ce19172
be980844
bec5a71a
3e0d9730
bdff9838
be2481a1
3e861af9
3e8a4546
3ca6c450
3b9db2e4
be11927d
be59a13c
be2ee874
bf187c96
bf8dd97c
bf90677e
bf1c3ed7
bef4f207
be969e4c
be75832d
3f0a85d3
be0a82cf
bc22e6a8
3d85e289
3d2f92aa
bd76801c
be8ad23d
bd5ab131
3e965728
be7472da
be6106eb
3f071c1c
be433f82
be7bf06f
bf026d2f
be97102d
bd131139
3f04052f
3e9197d9
3bea7593
3ee5d2b3
bd938923
bf72ed3a
bf93c072
bf0512d4
3d3834e7
3ea505fb
3f0f35b9
3d11212b
3b170160
bd65714b
bcbd77a2
3cadad34
bcbb7ed6
3bdcc49a
beaf683e
3dad1d5a
3db0d611
bc0d6948
bf123c0d
bf18de7c
be6d141e
3dd5b0c6
be885916
bdf5fc5f
3f04188f
bcec0815
be64379e
be5c236f
bf157066
bf14be6c
bec6e8fa
3e84b344
3f012d07
3ed5d885
3ed2c633
bd10ecca
3c1989d8
3cc72d08
bcc3a3cc
bd82e364
3da60b5b
bcc13309
bf01ec32
be233fe8
bea4b154
bf412dd8
bf5d1d2d
be627e4d
3e88ccbf
3f055552
be4c951a
3e5321e5
3ee0bbca
be82ba31
bf2b6a62
3e6fe2cf
be96e51a
beb48142
bd9c326d
be964c5e
be9e5d27
be8f8aae
be035888
bcc2ad9e
bd172fa8
3d2f62a2
3bfa1d20
3da3125f
3d84b3fb
bc9d86a0
bdeffe14
be007b63
bc4ec826
3dda8054
3c7f54cb
be7f8116
be1ada53
be005919
bd1a7cde
be8bbb15
bedb1843
bef5c699
bedf79b6
beda90e4
bde3ee6b
bd8ad5c8
bdc6c522
bd838100
3d754f69
3b249efa
bd73f266
bd8a5295
bd810e44
3d8acb7b
bef76641
