bdcf1e7c
bf671bbd
bd2ccbf5
3d9c2da2
3e2d114d
3e7c3686
3e231131
be38c98b
be7d57ba
bee9b71f
be7dd03f
bf0c7a19
3df5ab27
3ea6d3f9
3d5591c8
3e89bee2
3e6147dc
3df5bd68
bd3c14f6
3dd072d5
3e38dba9
bdcbb256
bec5ff49
3ddfbc46
bd927dca
3d38b373
bf2e4032
beb7b50c
3e6e05e7
3d8094ed
3e935011
be3beaec
3cdc0c2c
bed790f2
bf89e63e
bebf4c17
3dbff926
bf66c765
bdbc108c
bf61ba70
3e80c9ce
3e39ef3f
be14f852
bf18377d
3ca3cdb7
bd90cc9a
3bba689a
bf38ad56
3e91f000
be2a9983
bd63a7b2
3e5c50e9
bf497504
3eb44940
bf2b1251
be387968
bdea82c7
bdc0b5cc
3e555260
bdd8c595
be735bb7
bf018e26
bf680ad0
bd2e9e45
bef3c34a
3e87e683
bec23c53
3e8a718e
bf56da52
bce90619
bd29ea87
bf51f087
3d2d9bcc
3e7215c3
be4dbb7a
3e0d7fff
3ea15dea
bf912555
3e947047
bdc5757f
bf05a675
be329bb4
be2c1a06
bdaeecda
becd0e7f
bbca4fb6
bf123f60
3d8fe40c
3e8eb124
be4d52c5
3e5be2e3
3e927c47
be0fd515
3df26e52
bd3f65b8
3d455306
bf1e34cf
bd591df0
bd5ae55f
bf26a6d3
beab69bb
3c84701a
bda0ade9
bf0d321c
be25771a
be20dfcb
3d301392
3e0ca607
bf13ec95
bedcbe60
be61a0a8
bcee2a19
3e990c0b
3e978548
befdeeff
3cde8e00
bf2b98cb
3ed62194
bc107745
3ec025a6
3eb41b9e
bf56b973
bf69bcbe
bed52a04
3d9b1cd4
3ddccc62
3d78c13f
bed6828f
3e5ac0f9
