3df9d16e
3db0019e
3dabc65a
bdcafae4
3dd9e59b
3e7439fe
bdaf70cf
be3476de
3d27c8ba
3eb6f275
3dcd858c
3f26ea24
bea2dd0c
bef46fdf
be3221da
3e996528
bd8a2c49
bd0458f3
3e800e8c
3ec3f63c
be9aaaf3
bd5626b5
bdb73329
bea4d469
3e44b0d1
be0caeed
be4e4fd7
bdb6f4b9
3e13772b
bef02eb5
bdc3d8f6
3e01ef25
3e9ac083
