3d9eb875
3ef8d4a9
bf0b5831
bd108fd2
3f2917d9
3e15d4ce
3e1adf4e
bf2bcf6d
bc0afe8a
3e0ad64c
3e63167c
bcb7e788
3dc6fea9
bed90468
3dff32b6
bf2883b0
be33b390
3e36dc9b
bf8c1afc
bf678d98
bdc5ecd2
bf705b5f
3ead0e3d
be902bea
bf5e7214
3f3f5143
3e0fd23c
3e80ac25
bca1efe4
be81ca9d
bd4d79bd
3e2303ec
3f13e312
bf883a2f
bd3b1ef6
bf02b49c
3e531207
3d093cd3
3db7ce8e
3ea66609
3dfc5890
bd21690e
3e0530ea
3eb40b5c
bf7605f1
bf80a6d9
bee0c2bb
be09493e
bef2d063
be77b79a
3d6e53eb
be1fd958
3e0e8465
3d84e0f6
3e15db6b
3e38085a
bf39d6c5
be04feb9
3df69d04
bc1cf2c6
3ec9f6aa
3d3829b1
3e411ad1
be836ce0
3c5e3ff5
bf1b3aaa
3e602946
3ecddfe9
bd8d4c74
3eec8c4a
bcb1d60b
be573369
bdc2ef88
bcee021e
3e759dbe
3c1d7cdd
bdf7b8b2
bbbcb0e9
bea2d969
be9e725c
3e90af61
3da1da39
3e6e0491
3e99d0ab
bcb8aa36
bee414dd
3e0c0c86
bd16faff
be469f96
bee5d420
3d06ce5b
bdc4c421
be7e0cc1
3f220948
bee8ef1b
3de8aeda
3e12bad2
bf3f47e9
3e00eb1e
be625555
3e820391
3e4a8576
bebc36b3
bddc93de
be1ea0b9
bf395aea
be41be1e
3e86943e
bd7fc2cb
bc955379
bf1df25d
bed57c71
3dda752c
bb86c5ff
be928fc8
3ec0a30f
3f2e084a
beed85ff
beddc8a9
3e22c7a9
bf4648de
bc86cfaf
3d65698b
be0805f1
be9a3e48
bf3022ee
be704fa2
3d7915ac
bf195fb4
