3d3c9416
3d21b1f6
3c83df54
bd229c2a
3cbfc000
bd1677f6
bc9c044a
3d15f1fc
3d466682
3d9774ff
3d694f1a
bd269034
3b97b190
3bd538e7
3d35e9ca
bcb6e532
3d1664ec
bce78c70
3d68034e
3cada54c
bb8ab0f0
3d4cc7ce
3d1b40c6
3d1f8212
3d8c8421
bba123a0
3d5f2c9a
bd679f08
3d87f407
3d4abd8a
3c803040
bd8e1d37
bc2fce9d
bdf36776
be75fb8a
be8e415f
be0f2fab
bdc7cbbb
bdd69b63
bdb5f76e
bdd84a8f
bd4e2032
bd0e4e86
bd1506ab
bdf65784
be43c3bc
bdb7b6aa
bd94e211
be346e7c
be1efd32
be64ca39
be986b5e
3d9fe0a1
baa99280
3d33a83e
3d50892a
bd52e40a
bd54d6de
3d8cb5fc
bd8e89c5
bd765b10
bdf764cf
be686c84
bea7163c
be828327
be5413d0
be4c2aca
be9fb529
bf176b13
bf687df2
bf6d3225
be94186d
beefb832
be0bf2f0
3ec56796
3e8bbd96
3ea84473
bed01445
bf091d0f
be8b76be
bca27c1a
bcc2b994
3c31ffe8
bd3bbd47
bca61e62
bd6582bc
3d3bc6e7
bcbb66cd
3c881b9c
bebaf0db
bf086c7c
bf5c086a
bf539c3a
bf8707a5
bf5851c1
bf54608a
bf9b7f5c
bf49ddbb
bf219338
be85bcd4
bedee51e
becf0fd1
bf0d61e0
be8c6080
3ea58941
3e411696
3ebd7995
3da82f78
bf1050a1
bebfcc74
beba8fd7
bd3f6a8c
bd503c02
bc1de389
3bef3aa8
bc5e5dfc
3dcc58d0
3e93c80a
3e13f2b5
beb62876
bf352b2b
bf7d56dd
bf08e4b8
bee5e293
bf57679c
bef6df3b
bc7232b7
3d156613
bd34b6ec
be7da621
bd83c738
3e02a071
3e698c0b
3a6eedb9
3e74c9ad
3f0f8138
3ea09935
3eca7b7e
3de8e33f
be88ddf2
bd3afc18
3da1c9a9
bc86a5e4
bec498a9
bf06a761
3dbf958a
3f120527
bef54493
bf17bc25
bf0b0b99
bdbae6c7
3ec8fa59
3f0f6877
3e747105
bebcb06a
beb586fe
be8f0f44
bd319056
be81b6a5
bba43735
bda15909
bdeba55f
3e2002b7
3e034c1e
3e84525c
3f09bc9d
bf116829
be1ede14
3c51c058
bdca84bf
bdc236a1
bee29de5
be07717c
3dc26e9a
3eff2e3f
3e4c696c
3e885653
bdba2a36
3d907ec5
3e5269b9
3e4a4284
3df4a3cf
be5080ae
be863fe9
3e94bb2c
3e3e599b
be887465
be73d994
bd921955
bec8a394
be5eb26e
3e829358
3e66acab
be0cf83d
bc63f55b
be8554d1
3d82d675
be72b0db
bdde522d
3e82ff42
be6f1f31
3d335aac
3dc0e1c1
bde6fb48
be506199
bebd9997
bda8bed9
3c8cc37f
bccc51bf
3dc53229
bd91611d
be2f265c
bca2bb9a
bca48574
bdd0a1d0
bdba80aa
be0b2962
be2c6a5b
3e7742a0
bdaaf0f4
be5f2045
bf0959b7
3e4443de
bdf76ff1
3d7c7706
bebc05e4
3eadc077
3ed5b550
bea5eeca
3e36d6d1
3ddac87e
bc82261a
3e4bbe50
3d1ab8bb
bcad757e
be3b106a
3d3c1e96
bd96c634
3d87ecec
3c499573
bebd278b
bdf28b9e
bb66dabb
bddd52be
be123df0
bcfcfb68
be6cb29d
be4ac659
3d145901
3ed39371
3efbc3db
3f11bf59
bd779d84
bdba26e7
3ecf8713
3e9f0fb3
bef5bebc
be4644ed
3e88efeb
3dc016dd
3cd2620f
3d753cdc
be384c4b
be83627a
beb43a56
bec5f368
bde22371
be0fb386
3d4873c1
3dccb6eb
bdaaeb35
be3637aa
3da2954e
3e745b68
3df3d166
bca9b4b0
3ea9bb81
bcac9851
3edbcf69
3f062d4e
bb3014bc
bdc0ca25
3eb9470c
bdfd95e7
bc8d701c
3eaf8454
3ef71790
3d331b32
3e79f575
3e9a6a87
be1b2196
bf244d27
bed348a4
bf136f47
bddf94ab
3e54ac49
3df9a438
be03d5c2
bd459ca6
3e3a7fde
3e45cfcf
3d6c48a9
3ede0ad3
3e2453b3
3eb35ded
3eab696a
3ed9c372
3f01b3f5
bc7a803b
be5a8c49
bd1b0b93
bf07e230
3db3cf87
3ec283f3
3eb6dc80
3e56d424
3efd478f
3f26b5d6
3e45d3f4
3e4b7b3a
3ced17dc
be85a369
3e16fe99
be638806
bdd4f697
bd3cd29e
bc262076
3e001f93
3da6fd74
bdabddfa
3e685c6a
3e93b0c7
3f0dfde9
3ec729ab
3f053f39
3e6ec0ef
bd8af300
bd5bcde4
3dfdde12
bf038425
be01a275
3c33b987
bc1572b0
3d11ec9a
3f2d060f
3ec9e2d8
3ed7fa12
3e9094fb
be3ecaa2
3d01656a
bd808564
be2e7673
3db39d93
3ba975fd
3e5bf0dd
3e46f35a
3ebf5282
3eafc406
3e200d5c
3ef74101
bd06a6c1
3e8eab5a
3e26da01
3ef8a565
bd7a3c9b
3d8ddfeb
3d7acc30
bed06fe7
bdc991c6
3d8a852e
be0713f1
3d9f3cad
3f1789da
3eb8a789
3f184701
3f103192
3ed5961b
3dfeceea
bebcb84a
bd7e9967
bd25fe52
3c098b9f
be5a729b
3e808f4e
3e825e6e
3e15f79f
3f0c1dbb
3ea07b52
bc85ac77
3d8dd17e
bf1ac3c8
bc7482d9
3d034b2e
3d00b1ee
be4c6e3f
be5f4adb
3ef10b31
3e3500b6
be323235
be41dcd4
3ead3c01
3e816ed6
3f0c3ea3
3e972f1a
3ec45113
3d8ca5ee
bdcae343
bd62dc3a
3e588ce5
3d1507e9
be309913
3d0a77f2
3da3f557
3e0f7075
3dba4299
bd7f5f88
3bef0b9c
bee0d15c
bf3ebd10
be1130e0
bd0d9a80
3dbfd131
be0ee0bb
3ca642ad
3e4f6640
bcc8c696
bf250bfa
bebb1355
3e88519f
3d871fed
3e9639f5
3f03f61b
3ef72216
3d85b6ae
3e943f7b
3e369ad4
3ee773a1
3e63072d
bced0037
3dcb3b73
3c80295a
3e35b4e0
3ceb5fe4
3e9c85de
3deee4cd
beff43c1
bf6368d0
be81ff83
3d24217f
3c7e9fe0
beee3f54
be7f14cd
be2e9659
bde2c718
be01e99f
bf0f2cbf
be81b525
be3e1e5d
3d511eae
bcbc63cb
3e61fb0e
3e83ceaf
3ea5e231
3e191be5
3ecda3af
3e86b9e7
be3485a2
be8b1186
3d409e89
3e88e57a
3df64e63
bd5d8161
bedea021
bf1a8467
bf752665
bec0fd91
bda200c7
3d8b23bf
bededdd4
3dbf99e4
3d64a032
be555674
be8d13ca
bf1523ab
bf35d8c3
bf1c903e
bf1f1fb0
be99d4ff
3dc7c227
3e11bd42
be12c875
bd8526fd
3de14f22
be0ffd89
be342f4a
beb2d08f
3dd63707
bdd2a665
bd5ae0c3
bd4ae47a
3e70093c
3f2fb5aa
3e9c16af
bde8ab98
bf1148da
3c94d663
be1e1e62
bec6f3c8
3ea7fc3a
3c7ea4e1
bef7cf5d
bf5df9b1
bf168ac3
bf57633d
bf19b729
be2aa7bd
bcdc6c99
be929cb9
bedbde3b
bf0823b4
be8e9efa
bd6d5668
be8aca1a
be70e069
bea64d02
be3ee252
bd90b269
3ce6ddb2
3d0d642d
3ea62d26
3f11ec9e
3d9d60c0
3b77aee0
bea7a58d
bd038792
bf1da909
be6ecab0
be4b7294
be8eb8ad
bf1fd741
3e03989f
bdc4f978
bd8f7b33
be4af263
beaa05c1
be33eef0
bd9387b9
3cd9294e
be4c17da
bdaef95c
bca9b597
bd40f82e
becf74a4
bd851129
bd04ecc3
be707ef5
be1f3d25
bd37a872
be01f52c
3daf5782
3d806e1d
3d36b532
bd9d2d70
bf234942
bee023bc
bcefad62
be5729d4
bd1b826a
3e9a692b
3e166ad7
bddc8ab7
3d8190e5
3d147530
3ddd2b8b
3d0f1eb3
3e140ce4
bc4b7f92
3e078ec0
be8d0dd7
3cbd2a0d
be81eb8b
bcfdf929
3e8fe717
be3fba49
3cb37d66
be809c8a
be17a25f
3d9ae994
3cc949e5
3d1dfa9f
bcc4a898
bee294be
bf82da70
3e88bf83
bd8627e0
3e896b88
3e80cf56
3dea7b9e
bca5aed2
3e843ace
3e159285
be9c76da
be5416ca
be6a37e7
bedc7aed
be19d695
3d1b604c
bdd04c6d
be235cef
bd1aa26a
3e786d8c
3e681f04
bd46e5f1
be0171a7
be87655d
bd16c53f
bd37b5e0
3cc30b5a
3c8edbfc
bcc361ea
bf8105a3
bec806e7
bec0a207
3e83f9ad
3e4b1d20
bd0f01af
bcb8c565
3e1de0f4
3dc2b741
bb9b899f
bbffc852
be36c23a
be5b3770
be2a4e0e
3d07f8c2
bd5ba5c0
be3db6ef
3e4912ad
3d2ca4de
beb68e5d
be5dbf5f
be41001f
bc9e3882
bccd6af7
bd6e1b0b
bd2f275c
bd7fe433
3c0305bb
be822dbc
bc837951
bd9350ef
3dc116fd
3f185bb4
3e75f6c3
3e580a27
3de8a1fe
bd48e444
bd8b5f9e
3e36e899
3da2294c
bd71b510
3dd6588d
3dcf0c55
be806b06
be0e9492
3c88d346
be4cb352
be38c14e
beb6e563
be2ff327
bd1a2b6d
bb005ce0
3d364a22
3d620c5e
3e46332a
3e755a8b
3d9d38dd
3e0d6f79
3eb1c700
3f175fcd
bd8346a6
be4ea707
3e5f8a94
3eb868b0
be86d8da
bec8ea89
ba047793
bd79f947
bd12f059
beebe1fb
be23c7fc
be56bb9e
bde27774
3d268dba
be8ded80
bea225d5
bf042f32
be189661
bd58a54e
3d9df381
3d059738
badbc700
3d8311a5
3e25da54
bf10e46f
beb5265a
3e838c86
3decedd8
bee7938c
bf040ab3
bf0fa1e7
bf3e1675
bf50cd6e
be9dd182
3d6cd0b7
bd75e958
bc8fa32f
3eeaf7ac
3eff4992
3e4fe7c9
bc801da5
bca329df
bedb79b9
be63646b
be735ff6
3e2d0204
bc8b7c72
bb541d60
ba792d80
3d292f32
bcd170a6
bc9ee3c6
3da26d38
be3c60d6
beabd3c0
be80ed34
be838ddb
bdd9e39f
bee8a67c
bee5c26c
beebd64f
beacd683
3e5c25cc
be81c7c9
bdd74cfc
3e9b9ca8
be66f735
bf154e30
bec5e2f3
3d582b27
bec13270
be26e846
3c0e2050
3d4f14e3
bd84e626
3d1d44b4
3c3fef68
bcdbbc1a
bcfbdf52
3cdc1040
bdb3340f
bc903209
be71c6e4
bdc4393b
be71b513
bd80c43b
be74faf7
bd99a775
be82c952
3d1eb9c7
3d27a323
3e451e4c
bd823449
be672b2e
3df24f71
3ed13941
bc21545a
3d86072c
bcc46171
bcc123ae
3cf2a8c0
3b84e9c0
3d7287d2
bc8ca128
bca11f77
