3d9e6591
3d8160bf
bd5b9ba3
bd43f23a
bd83dc38
3cb43308
bd98d908
bcd734f2
3d919c55
3d215c06
bd9a2990
3d36dd62
3a5b9750
3d385ac9
3d77b052
bd0b7e4a
3c2dc078
bc6b58b8
bd4cf350
3c970454
bcb55d7a
bd97fbff
3cec3698
3d612bd2
3d955b8d
bcc4e758
bcbbdab4
3d722d8e
bd51e446
3d905a55
bcd8f7c2
bd8ea6b0
bd8a1719
3cd1c569
bbfa6223
bd8a7003
bda39218
bb1a2555
bd6fe5b8
bda09012
bc82b06f
bdc62b27
bcb27afc
bd8985fc
bc105d9a
bcfbcbd9
bc3e15c2
bdd8417c
bd88948c
bd1b50ba
bc2cac9d
bdf850cb
3d1d5d12
bd08d9be
bcbe5118
3d24ca5e
bcad54ca
bd6c319a
bd908d7b
baf267c8
3d4f30f5
bdad143f
bdcf3df9
bdd49e09
bda3b38f
bd5ccefd
3e5ffe6d
3e9a81d4
3e9255c5
3de1699d
3f149a23
3ecefa5e
3edf738b
3ec2479f
3db91f22
be5722aa
bd95fe50
3d6a526d
be432b2b
bd513780
bde56663
bdbf836c
3da01445
bc7729b8
bd85bc26
bda39c40
bd81500d
bdd9743a
bdf5da7f
3d49b406
3d800eef
3d104148
3dcd4204
bf0823b9
be687668
bf321b0f
bed7d416
bebc6ae6
be13c9cd
3d8368a9
3dec5539
bc77b097
bcdcf506
3e950831
bc4cdcd3
be5238fe
3e3f3d98
bd6a1af3
be140a4e
bd9f81b3
bd55fbcb
3c8e24bc
3cec1efc
bd6c4ed6
3ca48ed2
3dbffe9a
3ea8e0f1
3e2e6c00
be326a6e
3e4dde20
3ee3dfb5
3e4117e5
3e92b1dd
bd598fcc
bddbac4a
be1260be
bd9615da
3d683e3a
3dcf4b44
bca2a834
be0456d7
3d87b138
bcbcaee6
be426522
be2bd6ed
3e41c784
3efedab3
3e966c14
3ee492f1
3d8e6352
bd57ecc9
bd986f7a
bd8903e5
3da6c468
3e40c424
3e76ea21
3e2501c6
3e4f4b59
bdcae912
bdc6c3a7
3e24800f
3e5547be
3e4388bf
3db9863e
bd81fa52
3c545589
bdfe5e33
bcd3ce82
be639138
bda131c5
be8f5222
be9bd119
bdddbfdd
3d91a230
3d8acd29
3f8c711e
3f0c4f72
3d9b5715
bcc73e98
3d2e3a18
becf8d26
3be1e796
bc4975a8
bd62ab11
be482da3
be83f77f
be568f2a
be7b6e19
be4fc117
3de4800b
3e0c37ea
3e870ca7
bdda44ad
3e1e1571
3e22b051
3ced020c
be17fc0d
bdc51507
bee59da0
be050b95
bd8f8d0a
3e2cce3d
3e078a8e
3fa21076
3f02c3d1
be81cbad
3d837647
3e95a2fe
bec9db54
be8be646
bd85f345
bf0b942f
bf015cde
bf3151c8
bbbd48ac
bd3c1c31
3e019897
bdc15d24
3e180636
bcfd680a
be0c1447
3eccbb74
3e9a5453
3ea51bc9
3e5268f3
bdaf729e
3c8d8128
bd9b7549
bd761965
be8921a2
3ef350c6
3f88e907
bdc311d0
be836555
bd78f7f1
bd13a8c9
beb36290
be804b92
3de96eaa
bed98d08
3bcf7d52
be0fa6b4
bd35f582
3da454ec
bd97125c
3d783598
bd74a7a6
3e9740fc
3db37421
3edb1c1c
3d024170
bd347204
beacf7d1
bd55c91e
bde99776
3d838f4a
3c67dd4d
bf0c91c0
3e975724
3ee5e528
3ef75083
3eda52e5
bd6082b8
bca01999
be69c4dd
bddbf390
bdb05cfd
bd8b38a6
3e135465
3dcf2aad
3e957dc8
3e5d0193
3e464886
3e61223a
3df2b0a6
3e0ea38b
bdc4cc27
be7acf5b
bf4a44f6
beb75209
be8e47bb
be3c140b
3e92edb9
3ec328d6
3edcb1e4
bed79253
be2f1bea
3e90903a
bb3b466a
bdd93ed7
3d306fad
bd1f1bfb
bf5dcf96
3e92b142
3e8a49f4
3dada289
3dc86bdb
3ea1cde6
3f1933bd
3e1958aa
3c906441
bd2a082d
bdae07df
befe1af2
3d292877
bea23b4c
bf0eeb11
3df073b4
3e6281a6
3d1833ef
3eb23943
3e974ba1
3e6d6cb9
be78e97d
bf4e3ba6
beec9f91
3c38f24d
3cc87005
3c24ffa5
bc0be21b
beede7e0
3e1b756f
3efbd892
3ae6b98c
be15be69
3e7f3ed3
3eed33fe
3dda98d4
be7721eb
3d8939fb
3e27ca67
bd8a7f42
3ead800a
3dffddaf
3eb9bfef
3f4bd8b0
3ea3eef0
3ea32a8f
3ea7654d
3e12ff4a
bea5900f
be9ac5fe
becaf15c
be48af49
3f31766d
be4a3335
3d83f981
bcb62be6
bd8ce91e
be77b599
3e1dd452
3d8dfa10
3de22e9e
be5b9c9e
bd4a5da8
be950be9
be2fdc7c
bd42835f
bea5ccaf
3d37b4ea
3ed3a3e9
3e903b50
3e417a52
3f06bd88
3f214812
3ec6c096
bc478cb4
be7d39d1
bee0834e
be180fc6
beb20495
be4af49f
befe162f
beda2cc2
3c9321af
bdfd9a2c
be8d3d80
bf0e0ed0
be99ca3d
3cd630e9
bd1b5435
be0fe981
beabdc2a
be37a05b
3bf670b1
3db105bc
3e145319
3f067e38
3ec77e80
3f051fea
3ed20f56
3e5ef0a9
3da900ee
3c86c036
3e703d27
be74b62a
bed03bcd
be228b61
be9cff2e
bde5c0a7
bf12850a
bddb6ad4
bdeb49ad
bd1eb95d
be5334fc
bf3e1aaf
bf1dfe68
be41ea7e
be9e4f5b
becce439
bea1e2cf
be844221
be4a38dd
3d32f074
3e6f03d6
3e8c1604
3dcc2a79
3eab0f8e
3e48b52c
3d758c45
bebdbb9a
bef21e2e
3e081c0c
3e6fa801
bd520b7b
be13127f
be6b2cfa
3d8396bd
beac35fc
be52694e
bd7354d0
3de635e6
3e58bad2
3dbd5bd9
bd436425
be880f93
be1c0232
3c5e3cbb
3e838d7b
bde5a356
be1eabec
3d8bf495
3d916f08
3e9276af
3e96d725
3d8643eb
bd19d961
be540512
bf009bf1
be0dc630
be67270c
3d4bbaee
3e051fab
3e8d2327
bcc76780
bdefad90
be2b4327
bf0d627c
3d0f133b
bd9223a8
3eb5bcc3
3d0a9aff
bdda9db7
bf33ad81
bcc89202
3e68b05a
3ee861c2
3ea0af87
3e2277d0
3e23869b
3da8f528
bd7206ae
be5817ef
becba248
bea6c85b
be9c502f
3e130dfa
3d715712
3d5853fb
baa70fca
becbc0d7
3ebe83a7
3eaadd9b
be3b1dd9
bf02e045
bf1d6187
bd3c6754
bc722916
3ea7ca02
3edbb397
bca9a7a0
beb14469
be6de139
3ef593ec
3ecb84d2
3d5cb810
bdf8baf7
be92369d
bf0b5ae0
be079d57
bf423f3a
bed23a96
bd496a57
be0c8132
3e9268d7
3dc07ba1
be5c0a0a
bea27e6a
bebbdb0e
3eb0b288
3f12e71d
bf414578
bedb9520
be3bcaf6
3e5d78ba
3dbd7ace
3ed007ee
3e30d3be
bddcc557
3c8a1648
be01645d
3e740e8f
bed50562
be79f88e
bf031a16
bf08fc0e
bf113ffa
bef0ba4b
bf16e774
be5ed5e5
be2ced81
3cc337df
be82bf67
bdd2670d
bdab6d09
3c9d9d54
be2dc4e5
3eba6b62
3dae9b28
beb74f24
be8c877f
bc509a61
bd20a6dc
bed6e9aa
3ec6b57f
be8c2f38
3e72afa6
3e3cae27
be8262d5
3d9b2eda
be16d4be
be04345e
beec2846
bea4ffe8
bd7bfb2a
bed1bf1a
be2b33d8
3e5dd5e2
be408492
be26dc10
be197260
3dbfb390
bc1a07db
3d494e16
3d9d287b
3c98ffaa
be691d75
bea4a40c
bdf63f30
bd32e0d7
bd53da8e
be2e0f57
3e9dc3cd
bebd8c33
3e4c8794
3e058fc0
be3c3f78
be6e41f2
be43482f
bde84bea
bca60b4a
3dc11c6f
3e7d7de5
be470aed
3ca207fa
3e267646
be59daed
beec456f
be8cb4cc
bcc9b551
3e2798fb
3d95904f
3e6b898e
3e5af098
bd766819
beea51b2
bdaedde5
3d7aa256
bd846652
bbf47039
3ebfec5f
bea5eff4
3eae805e
3ecebea5
3ddad531
be88f3ec
be7a8d83
bdf581eb
3d459bdf
3e6ee631
3e9aa825
3d2adb55
3e577562
3e142548
be2b9ff9
beae8ed6
beba075f
3e2119d4
3e577331
bd6a5cdb
3d77ea13
3d992ac9
bf2be442
beb09631
bea1b616
bd1569a0
bce79216
bdc73533
3e4af834
bdad067f
3e1ed91a
3e19a608
3df385b3
be9bea7b
be9de2ce
be859496
bd3991f5
3d9bcbc8
3e41aaf2
bdeb5d64
3cffbb62
3c71a9db
be243488
be9b7a0d
be7e91aa
be74fe7e
be34e446
bf11364e
bc95b885
3d72e679
bef9bb96
be9769a9
be40b94d
bdab4394
3d1733f0
bd4fa0ec
3e5a07d2
be27ca5a
3c9ac8f1
be1c0044
beadc3fe
bea73210
bc6b03df
be0560bb
be66744d
3d78fa0e
bd847061
be564cda
be8cf551
be27ad7e
be68cc6f
bdc751bd
3e899de4
be1f2f91
bdbb9d13
be9ed459
3e8886a4
3ed2fc35
3c229233
3d1d54b3
bd8bf889
bb702e80
bd1cd128
bd1d6d66
3e305801
3e8714c5
3e428bf8
3ecc814b
3ea38bc7
3ebc278b
bd5f9f1d
be4f551e
3ee2c26c
3e05988d
be854647
be9c2863
becc2b53
bea3418c
be0b0714
bd8961ed
bec3fb88
be96cbb3
3e00e6d8
bd650393
3cde8b04
3eb5e2f2
be18e44e
bedffb2d
be9e27e2
3d99f9c9
bd5244b8
bda3a143
3db21db7
be25246f
bddcf394
3f233c1e
3eba40c9
3ea924da
bda2d5d1
bc95c766
3e886238
bd4c6915
be574108
3dc5391d
3dd10386
bd188c69
be193f09
3c1cd6f2
be49eace
bec91530
bd46283f
bed2e9a7
bebefc3a
bd77d451
bec7dfe0
be819daa
bebaeee6
3d27201e
3cf3709c
bd6911a0
3d4aca82
3e458b0c
3e19bf94
3f3d2e17
3ef498ae
3e92fb74
be91a73d
bcbb991d
beb904f9
be2d3929
be479aa8
3e82b254
3f4361bc
3e3630e9
bc1a85d5
3e86df51
3ea1a238
be77127a
3ee9dc48
3ec8ab10
bd3e7445
3df4250d
3e729fba
3c86ee23
3a029000
bd877f4a
3d9ac003
bda2d23c
3d24177a
bca7fb1c
bdb43c4b
be1f823d
bcd7ab0b
3d51374a
3e610a00
bce55460
3c8378db
3c77c70e
bee94898
bc7005c6
3ee739b4
3e279ee6
bd3d11d6
be6207aa
3e2b6b68
be1b4b40
bedd4269
bf356979
befef8bc
be3572cf
bd251020
3d451c3e
3d606cf6
3cdf2044
be939767
