3e7923d1
3e3137f3
bef20055
be34492d
3ec7a291
be8bb147
bd329a69
3ce65ad7
3b7afd87
be3e8d6b
befde46a
3ef39ae3
3c1c61bb
be926f60
3f7107ed
3e689959
bebe72dd
3ece671a
3dc5ed6d
be16dd13
be9b32a9
3e70fdbd
bdca2e29
3e3c9a8b
bebed598
bdf55b3f
bdb15533
be434881
3ca224d3
3e22d56e
bd34fd12
3e03961f
be838564
