beaa610c
3e2aa7d3
bea729a0
3ed71119
be0f3be8
beb9f402
3e3a42ec
bea7d9c9
3d4f5ac8
bd13d4f6
3b90d466
3dd2ad0b
3e0b3746
3ec0e9b9
3e0d5f8f
3eb9d2e6
bed2d4f6
3d89c12f
bde7ad43
bd96e400
bf4c2cb9
beb04037
3f1a27ef
bd250ad7
3ea63b6a
be7e09ac
be1069f2
3f0f2226
bf50b7bc
3eacf80c
3ea0a522
3dbc0c58
bf0658c8
3e6bdfdf
3dffe37f
bec031f0
be2395da
bf11be18
bdf870a7
bf58daf2
bf27fdd6
3ddf9520
be67a91e
3e99af5a
3f92b40d
bf0d7eab
3e7e1a67
be472c6e
3e1875d0
bf60e12a
bda66ac0
bea4353d
3f059338
bef4eec2
bee71688
3ef04f44
3e11c37b
3f01f40f
bf5d5819
be2850f1
3ec864ff
3d92be8d
bf30dd99
bed7a8c0
3ea421fd
