be7f0041
bec202cd
3dc7425a
bec07ca9
3e57ca23
bf0f66fe
be7bb0b6
be090863
3deb3de3
3e02aa1d
be854712
3e5dab48
be9b8464
3da481c4
bd4c67b1
beee6d6a
bdc0910e
3ce6a5e6
3eb4b6ba
bdbbf22d
3e7805dc
bd9657ef
3e37329f
be8a88d1
bf1fd78f
bdc10ecd
be92c182
3d4a4d77
bd41c3b9
be44f247
3e807c39
be94a6ad
3daa16d1
