bd9a6139
3d9d3fce
bdbdef00
bda4f79b
3e6ec8c3
be96c667
bec90598
3d8e61b9
3e68130f
3eaf9072
3e891b23
3eb9222a
3e75844d
3e88e651
be91ee48
be948dd6
3f01b109
be1c9830
3dc4d9fd
3e4a8f8b
bf3830f5
3c973ebe
bca2e680
3e968fd9
bc57a68e
3e104bc4
3e29bb22
3d11da3b
3d9df18c
be1ff50f
3e4f826a
be6cb513
3e258cdd
