be2e856a
bf2b2da3
be533d72
3e76394a
be5c740d
3f0340a7
be30c2e3
bf0601f4
3e874476
bf35b7a8
bf5dde36
bea1218a
bef648b4
3d06baf1
3e3dea88
bea95f87
bf0c375d
3e730aac
3e30719a
be5a0dc6
bf0a9af2
be837689
bed95fe7
bd3275a0
3c73afe4
3e817f5a
bf1781a5
bdf3f731
3dec3602
3e84dd11
be19b7d6
bc177dd1
bea98278
bebb306b
3e96d656
bdffc5e1
bddd352f
bee2b4fe
bede33e8
bdb9c845
3e416aeb
be7da17d
3f090f8b
bf84dd12
bb15eebb
bec810dc
3e29d285
bf70840b
3ea0d1e5
bf26766c
bedb512a
be08e545
3eab8efa
bec244c6
3d85ef6f
bd5fd471
bdb09024
3dfa7148
be5a26e5
3e50c2b3
bf832363
be2f4b26
bf8d19ea
bf37ca6a
3dd5c4d2
bd385f53
3e161f78
bdb15fdc
bf65710c
3dc37505
bf9aae0a
3edb7d87
bdfce12c
3e236db9
3e58a127
bd932d7f
bec4881a
bed60761
3ec1a962
bec9adf6
bebeba14
bdaa5316
3ea65ed5
3ebe9261
bda7b9ae
bcd70bec
bf88cebe
3e48d693
be747f98
bcf8d263
bc1e3ec7
bef6d382
bd4d6fd0
3e579718
3e2d3358
bf02e9bd
3e728b95
bf2b1588
3ea12b39
3e56e221
bf0d1a3f
be9e7472
3daf53ba
3ef654e4
be7b7505
3d6dd6de
bf8b45d6
3e347d97
3e98ee39
be2c8a10
3ddd3d0b
be272ae3
3e0519de
3f3689b2
3d852fb4
3dee65da
3f3f1be2
be57c91b
be15c8bd
be7d420f
bd448d63
bf7276b0
bed9a66b
ba77a1b0
be017934
bef4329b
be9dea5f
bf0da1c7
3eaaa630
