bdd306e4
3eba8477
3d26e13a
3e90dd01
be6ec72f
3e85df56
beb18505
be1a5151
3ec7fb8d
3f3c3516
bf24df4c
3de85869
3e212b96
3ebc0dcb
3e822d16
bee5573a
3dd180a9
be1bea04
3e008509
3e373973
bf357717
bee0ea8b
3db271bb
be9b84c3
3e944639
3e919eb8
3ebc01e1
bed73f75
bf1d7ba7
3d5be4b6
be438f78
be0b0c99
bc1918fb
bdaa5123
3e2e72b7
3dd37ee6
bca5ae40
bf1c66a2
bf0f9360
3f810e9a
be5902bf
be086e69
3e016fc3
3e98b406
be19c4de
3d983734
be30caae
3efba91d
beeab1de
3d1304f9
bebb415e
3d7fa2d6
be7eae08
bbd8a37b
3dc95746
3ef90b50
bc89fcbc
3e354af8
3c1d7379
3c92e17e
bf251f0a
3ef66958
3cd76d1e
bedf3cd1
3cc510eb
3bd8a560
3ee1c4ef
3d4939a4
be367413
bf1f1398
bf819b89
3eacae3b
bb781a88
3e06fee5
3ef2f1cd
3d030cc5
3e6d5f0c
3e28256d
be2302bc
bf117106
3f0b1aff
bc17bc61
3e8a25f8
3efa1d46
bf186bce
be6c805c
be1ac97f
3e4b0e56
3dbadaf1
bddbf2aa
be162388
bf1c5c4c
bdcd0774
3e5236f2
bcb9d62f
becb6a4b
3db1748f
3ee96789
3d4c35b9
bdf70466
3c38a56f
3cd5c087
3d4ab1ff
3ebaa561
bcf1d0da
3e001fef
bece94a8
3ce4654f
3ed40c3b
3b17f9e3
3eb511fb
3ddf4694
3ea7a2b4
beb49158
be1c0c2a
3e0a06e0
3ef423a0
be167752
bc080d64
3db428bd
be0b5d7d
bf1f799a
3e2fbbb2
3e58b5c4
3b956206
bf63b705
bef12ab0
be6f7add
3e3a3947
