3c8fe018
3d284a94
3d81751b
bcf59796
3c96aa9c
3cefc4a8
bd1f49d7
3d241fd6
3c942e44
3da42b53
3d6cd1ca
bd6c7446
3e55aaf7
3e88000e
3dd867d3
3da706aa
bd9bfc53
3da081b3
3d9718ed
3d22decc
bc8aa514
3cd757c8
3d3419be
bd98fc25
3b84a260
bd2713de
3d611f3a
3d71566a
3d52d58e
3d5f9f96
bcdbdf78
3c287258
3bdca1b8
3da84e07
3e073d14
3e04e832
3e08196d
3d6d2836
3ea10ead
3e8d3d64
3edc0911
3eaa3f86
bdc313d6
bd94f425
3e3df42f
3dffd1a3
3ee4281d
3ea08ef9
3eda8bd4
3eba4a1c
3ee025be
3e96775d
bca05c5c
3d7cfa36
ba7b6200
bd7eb514
bd68ecd2
3b176e00
bc2f821d
3e0fdbc9
3e944d32
3e4e51ca
3e287eb4
3eb415a5
3f4f02ec
3f677311
3f5d4148
3f357158
be0a69b7
bec5f999
3e89024c
3e857f01
bb04fd51
3e034c42
be88709b
be8b1114
bd5b4866
3f3d3880
3f1aeda0
3f4328fa
3f1dc087
3e535d2d
bcfffff4
bb8505b0
bd8bb4a2
3c3d0cd0
be77cb88
bdafa25f
3d9948ff
3f38fd08
3efc401c
3ebd34b9
3d4e2a1f
3eb2209a
3ec647b4
3f04808c
3cfa266d
be8d7cb9
beab8a19
be4cf437
bddc580b
be81bef6
befe9438
3eb10c84
3e23e229
3e999d70
3b9b1364
bda2e94c
be3a9053
3e3828ff
bd974486
3d4dc992
3cc55610
3d21f449
be8bec5e
be4d0352
3e91362d
3eca8248
3d8b10a4
be716964
bc3aad1e
3e3ca158
3f303f27
3eed56f8
bd986dba
beb2e7d4
bde545bb
bdf383a3
bd69eb73
3ebdd715
3eb6906d
3d1f6a62
3e67144f
3bb24e55
bea22ef2
be93a9e5
bef8f17e
bf02c4a9
bcb7e44f
3b535116
3d8d431f
bda17bad
bc2d2f3c
bdcf9ea0
3d20ffe6
bdf2b9fe
bca99834
3d15cde8
3d28f1d4
3d28df47
3e8b2947
3e8b7743
bd04c5fd
bde9e793
bc0f6e06
3dfebc83
3e3dc862
3d6a8409
3e8752bf
3dac8fa3
3e23f8a1
bcd34b90
bf643ca7
bd700425
be3d1a0c
3ecddd25
bd3261e5
3d86edfc
bcdbcafc
bd3e6a55
3dce267f
bd772290
bd76f513
bd094b1c
3e658c68
3d321019
be4e7f08
bce51d0d
bdae806c
3e640442
bdeddb5b
3b88520e
3ddc0c84
3a57321e
3e3ea541
bdecd638
be0452cf
bd2b7097
bef145f3
becb29f4
bf1c7a5f
bf353401
bf01ee53
3ebe00e9
3e1b5afe
3dbf6e81
3cbfbd48
3da2f1a4
3db5270b
be5c95ca
bee06aca
bed3be14
bd0b45b0
be0d285d
3db86905
bd84a1fe
bb6252a2
3e4fbacd
3e7f138a
3c8e2a4d
be17bf40
be65f242
b942ec54
bd7f05fd
bebc2bd0
beaf0f4e
bdcde6ff
be772e2c
bebdd5d0
bf456d30
be0518a6
3ec9e6ca
3cf36d12
3c878225
3e613bc1
3f475fda
3db868f2
bf0a6f95
bf2ea775
be30fc3d
3d15d7d3
beaea36a
be142b28
bd1a94f2
3de4f633
3e0559d4
bdcd0249
be54c1c4
bdb580f1
beaeb66d
be79acee
be6c65d4
bded865f
bd795dd2
3ec8fdd2
bddbd9ed
be89d5fb
3da013af
bf2d73e6
be529eb6
bd074078
bc259b88
bc115fe0
be62f15f
3ee09427
3f4a403c
3d24656d
3d6e6bc8
be7d442e
bea40f67
3d8a3c8e
3d41c948
3cddb936
bbe92657
be1ac101
be229a6d
3df092f4
3c661442
3d8ad0c6
bcf0ac42
bdd15af2
be3a1ee0
bdee9d29
be8d781f
bee3bb8f
be871d5c
be1c357c
be7ec8e2
3e9f68b0
bebfb7fc
bd98250a
be2bb664
bf0dd4b9
be391c11
bcc73947
3f18d24b
bde176bb
bec849c8
3e005f76
bc672cce
be6b2dac
bd870279
bc439465
bebef156
3c8433ad
bdfe3717
3db9a2c2
3e233d8e
be24a930
be89d66b
bf0ffc50
be67f6c9
bf05a6f0
bed8fd33
3e2dd183
be8b6bf9
3dcefdf8
bef6eea7
bd211cf0
3e05fb7f
bf4749e1
bf31c0f1
3d32e3f2
bcd52f9c
be04cd0d
bd23c840
3e316b52
be0e30c0
3e95654a
3e376518
be43377a
be31c9e0
3a48ecc5
bf0fd7f4
bece849a
be8c5585
bd134095
bdf88819
3c12a800
3d3db016
3be85150
bed25ad0
3eed96b7
3f3bd53f
be958bed
be8c5fd2
bd978985
bde85f45
bf6c70a2
bf635920
be19c505
bdefa189
be9b229f
be9febb6
bef53f34
bf22cf1a
be030c07
3c0bfdf3
bd5c8f05
3e435b5a
3e553a0d
be817949
be7da17f
b99ce460
3d976702
bda17314
3d725564
3e0e3d03
bd26f036
beb82e01
3e8d5297
bad9dd34
bd8d0d5e
3cdaa40e
3d11d4fc
be1bc346
bf28b8da
bec43d50
bf0289e4
bc95eec8
beb4e11d
bf0874de
befcf168
beb969cd
be82421c
bc1bdbee
3e16c28f
3f0b2bf6
bdb8a600
3e45aa4c
3d7596fe
be1f4858
3e31d121
3e541507
3c69ff1f
bda95f75
bcaa444d
3ed7900a
3ecfd9f1
bdf8905c
3f295dd1
3f616782
bbf7e620
be542667
be4c1a7a
3e6ff009
bf0e432f
be82393c
3d86b558
3d629758
3d8ce817
be13fe4f
be284375
3d988cc2
bbf3d79b
3e8a559d
3e8e6d0e
3ed2d84d
3e8089d3
be92e90a
3e13933b
3e7d6f3b
be4f807a
be8076e9
3eddfb64
3ee02ed9
3df4bbcc
3ea74f9f
3f1b2398
3ebe5ec2
bcf71664
bd74af40
bd9e8e8a
3f1096b4
be0f11a5
3da28b49
bdef9b52
3dbf3384
bce6694c
bd7f8e63
3cdcfa9a
3ca2759f
3d61d0b8
3eef3179
3e766c89
3e4a50f7
3e5b66cf
3cd960f3
bd6477d1
3e9bea49
3ca0f155
bdc4b385
3c961aae
3c2085de
3dde3cbe
3e8d74ea
3c973ec0
3f22530e
bcbb0b04
3dcb74df
3efd95ab
3e35f9f9
3d989061
3e25dec2
3e5fa28d
3e213563
beb16771
bdd27ad4
bd1b3c90
3de179bb
3dc32eda
3e5837d4
3eaf44e7
3f0135cb
3ee7a956
3ee7da68
3d9c9b7f
3e2c084f
3dcff90e
3e13aaa6
3e1332ae
3e1842e5
3dcea38f
3f076892
3d182351
bcadd7d3
3bb82d50
bda7ba09
3f1ecfc8
be1ee2d4
3e6b85f9
3e1a27c6
3ec815be
3def65c4
bc841b10
be2be219
3d90a619
bd0f2282
be01a05d
bd1e2190
be897744
3e9630ff
3e893ef9
3ecea42e
3e599ecd
bd7676de
3e3706df
3e6016d5
bd3c43fa
be378970
be1f426c
3ef0d227
bece72d6
be2401d8
3d7d077b
bd74f169
3d931201
be91f930
be0ee21d
3ec08f34
3f01a2b4
3ed5cbc3
be3cea9e
bd2a2ad9
3d9b6751
be252726
be1601f8
beef53ed
3d5a00f2
3f088095
3f14911a
3ed7fb42
3e0f23d1
3e10a787
be18dc08
3de403fa
3e7a79d3
3e3bc325
3eaae119
3f3aeef1
be99591a
3f3fc8ee
bc688bda
3d134293
3d8a943c
bf39fd54
bed21b43
3dcd4bbe
be002bbb
3e067413
bc8f8f57
3d4b1821
bd28b233
bdceff8c
be40961e
bea94ef9
3e0b9c5d
3f0ef4aa
3f17c6b9
3e9be30a
3e6cf57d
3c0dde8f
bd7bf492
3da1f709
3f11482a
3f055ae6
be952a75
3ed99197
3f8a4093
ba25320b
3c8b9e5c
3d2ae3da
bdc30155
befec83c
be819a59
3ea60b6b
be13c491
3bbbf290
be4b4e87
be7b602c
3dfbbd51
3d9e5345
be4ddab2
bebcbbf6
bcccb836
3e201106
beb5521f
be6c9b70
3e33c8a5
be74dd36
3ca5e9d2
3dd93231
3e84bbfb
3d2ed3bd
be5420f9
3efd9024
3f7c3eb1
3d4d754e
3d1614a4
3e05b8e8
bea7e3f6
bf0d1ec6
bec5c955
3e173218
3e32b9b3
3e4754b6
bd8c8374
bdb3cf6b
3e7cd78b
3e7f3843
3cec24a0
be032349
bea82bfd
bf864304
bf866556
bee89304
be797047
be5cbc05
be89329a
bd6d6f1b
be4b5fd5
bd9bf177
bed79c48
3eae7a1b
3e26e34d
3d2b7bfa
bd332058
bd26f040
bd88e80e
be8f0e26
bd054706
bc62b293
3e44d045
3e61494d
bd363b6b
be42dbb4
bd167d8c
bdd9f6fa
beca36b4
3e659938
bf6bfaee
bfd96cfc
bfa22d6f
bf0f46f4
bee03f07
bc19000a
3ea35e5e
3d63c181
bec4108c
bf17b984
bf10dd13
becf9018
bed40d59
bd4358f8
3d8af75d
3d51d92a
3ed3fc6f
be6693f9
bd986f64
be1956ff
be88f82a
bdb53707
be509d67
be137b8a
bed720d6
bef8e01f
bf1e60a8
bf843e17
bf757654
bfa25e57
bf8fa1e7
bf4ea080
bf0cf769
beec3de2
3b2efe36
be49d919
bd25fa81
be9b2028
bf23c715
bed05221
bef9f3a5
3d2daa62
3d77c52a
ba985400
3e6fc223
bd7e3154
be9e58da
beb29712
bec7718a
bf23577a
bf010cb5
bf6319a0
bf4d2b48
bf5d6b9d
bfe003c4
bfad3cfe
bf845d4e
bf070e37
bc9159e0
bed10cda
be7551b5
bed351d6
bf385cf0
be7e5990
bdf871c3
bf404c67
bd3bb4d4
3eb26d2f
3ee4d97e
3c105c00
bccc1da0
bd48cd21
3b85e5b0
bc4e606b
bdbb78b3
bf0aec8c
bee6ab10
bf15a045
bf0ad6aa
bf81d877
bf1a1e74
3eac123e
3f13a058
3ec9fbc0
bcec272a
bf1245b8
bebe3ffa
bf01e5e6
bea12a77
bf09d8fd
bf3b717d
bee37ab0
3e98b25c
3e47b57b
bdfba880
3eb844d0
3e9caaef
bc85bc18
3c8c7ff8
bd8b7b6b
3cd4c27c
3d3adad2
be8442f3
bebf35d0
be9b4e3f
3d32bcf5
be5074a9
bdab14dd
bd918162
be08bcbf
bd9d48af
bd90d7c0
bde49b61
be4911f4
3ebba7ea
3ea989ab
3eb9f26a
3e9498c6
3da7df39
bdeb93c4
bdef67eb
bda17dde
bc5b1927
bc7d1bd8
3cc48904
3d767516
3d68003e
bd3e712c
3d2f0072
bc08fba8
3d25a9f4
3da4dc1d
bd064da2
3d3c69fa
3b0df520
bd7a4dd8
3d5a8ee2
bd0b0569
bd9b3bd1
3d844e11
3d09188b
3d81c1f3
bb497b40
bd3c9a2a
bd9ad3d2
bd108b2c
3d8e4bbd
3d7fd57a
3d4f8b92
bd99c061
bc278a60
bd88ca17
bd8909be
bd106034
be462cbc
