be5711b9
3c7a20c2
3e36061c
bedb0552
3de1570f
3e0edb13
bcdc208a
be936fa4
3d7ddc84
3f50d587
be81e468
3e2db266
3e37d567
bdecd11f
beab11ae
bdd0edee
be056f14
bd8c859c
3eaa960f
beaf753f
be895835
bdf9c9d1
3d466fb9
bde80915
bea8d9e9
3dfa9481
bdbbb805
bd6d0ae5
bec2adc6
3e936547
bef80917
3de2de7e
be6ce098
