bcd913d4
3ce1eb60
bd1481f8
3da4db57
3d95baab
bce33b24
3d87cdfd
3d29b810
3d958f41
bd9bcdfa
3d90ac3f
bd0debf6
3cc080ec
bd94163e
bc6c7240
3cfc95fc
3d93f325
3d5288f2
bd950952
3d1a42ec
3d96d6bb
3cf00e44
3d60215a
3c38fc90
bcceb674
3d908a45
3cd254dc
3d94a8eb
3c99b5f8
3d2d35ba
3d23376e
bd5ca3a2
3c18d888
3d9ba495
3d5007ec
3d2cbdb9
bcd19a38
bd020eba
bcc7e423
bb6749e7
bdc7544b
3d21b1d3
bd3162bb
bd8fde24
3d131e5d
bce8ea26
bda8e80d
bc15b596
3c13e376
3c111926
3cfef660
3c13b22c
bd1bd45b
3d04bb6c
3d10c38c
3be15c90
3b163a20
bbbda890
bd98b6e5
bdae9c31
3d386e80
3d8f4403
be31dc33
be18e239
3c906e92
be67641b
bed93e34
bd469b39
be153321
bdfd023f
be536468
be921e3b
be1b94d5
bd2941f0
bcb65db7
3cb9a605
bd53ad07
3d4b5f7c
3c35eb98
3d5e7cca
bd76c58d
bd842019
3d9d84fb
bcfea75a
3d2dc80c
3cecd130
3ca281d8
bdd9c019
be29c7ae
bdc84fd3
bc52316c
bea4baea
be8967af
bef00582
be98e2dc
be1dff89
becf5add
bec37cc8
bec88215
bea228ff
bee7a87a
be36e62d
bd323fae
bdcec1de
beb388c7
bede61e3
bb4881a2
bd26b444
3d3f7977
bd9aff55
bd99cdaa
bd979fb1
3c81ae60
bd7c6afa
3d3ab5ee
bd969167
be964444
be86d0a3
bebb2421
bec4832b
be89c318
bea78afc
bf007e30
bf1305dd
bf50d68e
beed56b5
bef4b6c6
bf275f55
bf0449bc
be80e351
be16c30f
be1620cd
bed10b2b
beeef3a1
be8be76f
be1b8301
bdd9e5f5
bd9063ad
3c944a34
bd9c4a09
bda2051e
3d94a4c1
3bd01492
bf00ade5
bee5ea13
bf0ceef1
bf1cfc55
bf11593c
3e936a06
3ec260f8
bebb767d
be4df870
be289e4b
be9598f1
bef81e08
bf35e60e
bf269c80
bf2d5a6b
bfbf9657
bf972321
bfa181a0
bf4e8cf4
3e51d60d
bee9427e
bea83596
be0bf168
3cbcbe34
3d052cf6
3b84f670
bd9bbebb
3e532d69
3efdac78
3f123156
3f04d4c5
be5c02a0
be689ab1
3e5b0c32
bedee043
bf3a4a97
be880f36
3e354817
3e3baacc
3c3c19b9
bdc59fca
beb43b42
3dbf8008
3cbb021a
3d80049f
3ddd5235
3f061d42
3e7ca30d
3e77c4f2
bdafaa4e
bed8b7df
bede3978
3d08edde
3d2e178c
3e02b718
3f1b68d1
3f44c161
3ee9afa6
be93d7dc
3f04729f
3ed89d6a
3eb8acfa
3e2d8550
3d50548e
3da2ea10
bc2d13ca
be8f5c35
bdb8745e
be43ffa7
bdf20229
bd742699
bda1902e
be4c0fb8
bd0a748c
bcdb9dfc
bef9977b
bbea646e
bed6475f
be916a15
bd858e90
bb84c693
bd4de718
3e70b477
3e9f998f
3dd75081
bdca51cb
bea05c5a
3c0fd1ec
bdba678b
3cd13d31
3e3399ac
3eb21f3b
3e445d7c
3e0bcaf7
be70cf06
be959567
bbf1a396
bd8a29e3
bc8de279
3d89912e
bd8fb747
bdf0b205
3e432db0
bee733a5
3e1ea74f
bd02b1a3
be02e841
bdb623e2
bcd337fb
3e26b498
3eb6a6fb
bee165bd
be3715e9
3e9af681
3d183d15
3e9a4ef6
3e09f3d8
be430c41
3e1541cd
bd3f64af
3e8ee3bb
3e511706
bdff1786
3df6d195
3cc111c3
be255cd1
3e01eb48
3c757bac
be0aba70
3e7813f6
3e99b627
3e6230a0
3e49c100
3eabe944
bd85c695
be2b4aff
bd9a9a50
3e5a05af
3ed061f0
3dd081c6
3db37c4c
3e592bed
3e6682a7
3e21e238
bd92d8bf
bdc67f07
3ea144f8
3e629ca9
3f16ab5f
bd180210
be079713
be933c64
beb3a01c
be705b09
bb9ec3e8
bdb72bcb
3e0fd27b
3ec4bce7
3e3698d5
3e3f89dc
3e340bd3
3e5c8e5f
be20053f
be978a46
3bc5a352
3df99ff0
3e9ec1f8
3edbf7cd
3f25c650
3e57a215
3ea692eb
3e4c8603
bd00a708
be24b423
3f0c8cc7
3eecb22b
3f10f4d6
3d76eae4
bee75620
bf0a62b5
bdd1a40d
bcf689ec
3da2adee
3e340614
3e9c8cd1
3e799b0b
393f78f0
3bd1a1c8
3e008827
3f1d1dcc
bedc4324
bdc25bbd
3d61a50f
3db7e487
3e9497dc
bdb24ea8
3e8dddc3
3df9aa69
3eceb2ba
3d823412
3e9f950a
3da9136c
3d9ee62b
3e9be928
3dca9b46
beb5722e
bf91e6ef
beac00ba
bd09f7de
3e9e426d
3df3cf07
3e4a848c
bd76fc5a
3e342591
bb9d7afe
3dc18476
bd137b10
3e655a4b
bebc52af
bd659039
bc455930
3d87324d
3eb0651f
3e82aecb
3e4ba33f
3e09cbe3
3e354fba
3ef54d71
3e089b9c
3e88058b
3e7804f7
3e3b7815
3d950f42
bf24289c
bf4d4209
bee5fd2e
bd8ba334
bdb32df3
bd39fd4e
3d1dce35
be351085
3e32f884
3e3f560d
be51caa2
bf0990e9
3cd7cd27
be7a4643
3db5e1ef
3d2ac06e
3d9ec7ad
3e619fb3
3f23dc4b
3e969822
be4d2164
3e0e1dc3
3e684b01
be480600
be21cc81
3ea15226
3ed6adfa
3da7a94e
bf85c930
bfd3f733
bf0fcce5
be8b299f
be1300e2
39cabd5d
be21a336
bdeb95cf
be6b5fa9
bd898fe4
be4ee7ba
3c023036
3bb4b3de
bd04f876
bd8a6c39
bd8f4e1a
3de79e7b
3c673010
3d969619
3ed7cb33
be739cbe
3e1534a8
3d0bbd60
3e172c5e
bed92488
be982cdf
3ec5cc13
3b733d8d
bfceb2ff
bf86cc83
3d1183c3
bd6f7f1e
be8ccd6e
3e677752
bd05cb52
3e0803d6
bb629809
bc685986
bd81e4c5
bf02c167
bea79dd2
bcb76670
3dac6191
bd933c5e
3e252af8
bd036228
3e567d67
3eb8ae1b
3d45d1e8
bdcc272c
bcf222d5
3eb44d06
3e97c3a3
3ebb9178
3ea182ef
bf4bee30
bfe5c709
beb1bdbc
3e9a2db9
bddb7507
be8c24b7
3e461171
be82bc02
3e05e83f
be0d7b63
3edd1398
3e4bade6
be2d5f2f
be86c974
bf448756
3d911c43
3d8f70d3
3d994749
bd6def5a
3e4cd096
3e3000c6
bdfe2f08
bc79a55f
be964153
bd648c6c
bdb59512
bc09269f
be93f06a
bf4e777c
bfad55df
bea7f6f8
3d5af9f3
be6710d7
be0f967e
bc5a74f2
3cfe29c2
bdea6c1d
3e95ccb3
3e0945a6
3ec2d69d
bc60d2ab
bd0235e0
bf3a0338
bd574f38
3d61c3f6
3e33f88d
bd9ea999
3e9dbad2
bf290179
becb8eef
3db630b0
3c8b8956
bc99665d
3dfaa2a7
be95ad71
bf59e647
bf430127
bf136585
3db18887
3e5795b5
be6f9c6d
3b62a83f
bd8c6f6c
3dcdbae1
beb13fbd
3e4048f1
3ca8a8c8
3ea2dbef
be0a14b2
bf1961b7
3db66daa
bd99b69e
bb2e7f80
3d9012ab
3f03b7d4
3ed0228a
bf54a1dd
3d8ee2c4
3e9da5a4
bdb6734e
bf388db0
3e23511e
bf0118ed
bf4488a4
be3ec36c
bdb4a422
3db3db2a
3e97d20c
be8b9a59
bdd6c701
3cf3ea95
bd1f1743
be344119
3e2f3781
be85b073
bea4b30d
bf029d8f
bedc1a1e
3e3c0867
bd91837b
3d2bfd7c
3d106d6c
3c87d834
3e9385c0
beb0f131
bdf85208
3e3907bd
bea233a9
bf0ccae5
bec20e38
bf5b3f60
3d21614d
3d8c326c
3e13c458
be16dfa6
3d4d7987
be58624b
be16f5cc
3d24dafd
bb239d5e
3b3b5cfe
bdc26383
bf0b1311
bee6be94
bf4b466d
bde57684
3eb0f720
bce77f60
3d840b1d
3cd640ec
bd1b95b2
bca73403
be61786e
beee38fb
3e7abba5
bed75977
bf4bdd1b
bf1a6c8c
bde3ce80
3f0608d5
3e73d639
be034d54
3db398ee
3d595fd8
be42b36c
3cd63555
3da85abd
3e59d2de
3dfa8d27
bd970dec
bc9aba2f
bec1a6f2
bf224cb3
be1b3553
3e81e7f5
be30831c
3c672b08
3c684768
bd7669f2
3bc3f85d
be713fab
be9fe9c8
bef3dab2
be817fbc
bf0aba6f
3dcd7c76
3e596009
3d947d1c
3e058d67
beaa4ee3
3e75c239
bdd4f11c
bcf7d137
3c749cbc
bddaa2b1
3e028b0f
3e9d562c
3d38578f
bdd86b96
bed74e3c
bf10648b
be1e7d65
3cf38c57
be0d3403
3d7ce772
bd09b273
3cd3c7b0
bc481907
3d6bf7a0
bd816c5e
3d9190ce
3a87c030
3ed0adf0
3eb8a9c6
3b044836
3dff6339
be93d03c
3cb01d13
3ddaef70
bdc30533
3cc491db
3e127015
bcccc490
bd042279
3de45155
bcc317a8
be98d923
bf57287c
be77fa5a
bd72456a
bdb962f4
bd417164
3d83cd0d
bd2c14a0
bd960372
3c3508d0
be10c662
bd3ebae7
bdfef54d
bae7b109
3e983f43
3ea3ef68
be85d865
bd5c0f8d
bb8aecb3
3e0f6ede
3c9d9c0c
bea53810
be4a5660
3e247636
bdb0bb8d
be96b00f
3e446868
be9e226d
3d8282e2
bf070682
bf1b6c8c
bd8d8b6c
3b72e503
bda19762
bc909a3c
bd056f3f
bb291fa0
3b952c79
39343189
3ebf9956
be1adfce
bea3cf9e
3e33c414
3ef255bd
3e8d40e0
be0daadc
3d9404e7
3edefbd3
3da5c3e0
3ea42ebd
3dc81445
3f390837
3d4841f2
3de6c5f9
3d936a72
be816c42
3e2cb667
bc3cf872
be1cbd30
3ea00ef8
bd75d9c6
bd82de67
3d2830de
3d9c56c9
3ce7a224
3d6c2d6e
bd6101ed
3eff2835
be843774
beb0a679
be126d00
3c4ea578
be14670d
be5e7813
bdd07c6b
3dc18f7b
3eb8ccf1
bd3082b6
3e279259
3f5302e0
bd197981
3e0e7e63
3ea91224
be817780
be0401da
3e04fb18
bde22c9e
bebe6889
3e233580
3d75b7c6
3c0f5248
bc822870
3c239238
bba719d0
bd69bbcc
3d3225e0
3e626bb4
3eac6ced
3ea4dfe8
3ea6b46d
3f14c4b0
3ddb7657
3df1be7a
3f182bd3
3f2d113e
3f8672bc
bcb68322
3e4ea486
3f496401
3f00bf53
3ef7346c
3dcbcc00
3ecec645
3f3df352
3ebc7942
bcc4621e
bcd69bba
bc3d3fa8
3d077aa8
3d1e190a
