bcdf2e38
bd2b7ee5
bd4c43b6
3c9bdbf0
3d1a2160
3d340952
3d94cc1f
bd8a9f58
bd8e74b4
bb42afe0
3c93e33c
bd0e3b88
bd9ac221
bd21c1db
3ced2b80
3c882cb0
3d9baab1
bd9a4c9c
3cd870d4
bc2efbe8
3d4fd542
bd4df338
bc087730
3c8bfeb8
3d8e7c5f
ba94d000
bda5f4e0
bd613201
3d92d6f9
bca073ec
bd0cd89c
bd44a7ac
3b06fc20
3c447540
3ca64eb2
bd9ec214
3bfdaf15
3d9062d2
bd5f1384
bd79897b
3cc7c009
bc9262b9
3cd2071d
3deec8c3
3e13f1fc
3d3988e2
bd0cc8b6
bd712922
3d890091
3cceb900
3d4ce21a
3a20b700
3c493b48
bd7f5e7b
bd7ddcdc
bd361cef
3d958801
bcd0cce4
bb4753c0
bd7c000c
3ce97c24
3d9013d9
bd88b055
bda2a73c
bd9124f1
bf2aeaf6
3eb9a800
3f41836a
3ee56a83
be35f5d6
3dc9d67a
3e0d9a98
3e4d5d3c
3e3acc39
3ea54c09
3d185b7d
3ecc2f52
bcfc599d
bd9e659f
3d90717b
3d04cc9a
3a26d700
bd5f29cd
bc114c90
bd7d87a8
bd5ebb06
3d098cc3
3d59d43c
3e0c0888
3ec4b38a
3eb947c3
bef77164
beb33091
be8030d4
bf0fcab9
bf1d834c
bdc5bf7f
3ea311c8
3ed527e8
3f055e57
3edca989
3bdcb313
bd7c88bd
beff7f80
3e536ebb
bdbfc8de
bed1e618
bf08849d
bebf49a8
becd8a3c
3c8128dc
3d9862e5
bd9ee6f8
bd1ed95b
3cb0abd5
3ebae60c
3edd88a2
3eec00f3
3cbd3b5b
bdc45cb7
3e90de18
bdcecc0c
3e5728f2
3e8dcd53
bd9e6648
bd42c86f
3d93a2b7
3e95ae34
3dda9ca3
be40fc86
bdbcb6ec
3e861e07
be178684
3dff37f3
be662818
beaf54d5
be789523
3ec8f1c4
3e874e7d
3d4a1d8a
bd534cef
bda0b021
3d273d34
3a104f74
3f4fbce5
3f3bc2e6
3b1cd2bb
3e0fa125
3ddcadde
bd99be1f
bd425193
3e3ecd44
be7aa1a9
bc6140db
bda9789b
3e6d1596
3e9da2f1
bcfc87aa
bd936d0b
bc693ccc
3d9a8e8d
be32d901
bc5dec19
3efee255
3e88550d
3ea3af0d
be73fd5e
be94698d
3cf2b37c
3da7ab6c
bf05953b
be517f89
3df4fcf9
bebd39fb
bee2ea76
3dfb3a05
3ea9fed2
3eae53ee
3e0b88a9
3d76e076
bd3abdde
3e60a85b
3e25c62f
bc85281f
3d2b402c
bd437b7e
bdcf60ed
be14ed80
3d8f764c
3d08a400
bd953182
bc5fbeb1
3e4d0bf8
3e6dd5f5
3ddecbab
3f1b51d7
3d7510ec
3e1f4442
bcb62745
bed52aaf
bde14689
bd929e27
be4da303
be29c8c3
bd911774
be2fc4fe
bde32a9f
3c236d27
bd9d8639
3d1c1dc0
3e55e573
bcdb1626
bda6f664
3da85493
3d936433
3e03b8ca
bc237293
3eafea57
bc8bb516
bed18653
3d89815a
3efcaf39
3e579506
3f02a6e8
3c81428a
3c1e3fdd
3ee29614
3e5359c0
be7c5621
bca646ef
bc5b208d
be30e4e8
3d4385ff
3e58a321
3e1227a3
3e0f425d
bda34ccf
bdc84733
3c9163d2
3e55d4a4
3df6fc96
3d7687a9
3ca9b4ce
3d6a57fc
3df104ea
3d9adf83
be779154
bf2a7841
bc46beec
3f186ab5
3e3b3ffe
3e8fbb44
bc974141
bcf51dae
3e9714b0
3f024ab4
3d547a53
3d8ac459
3f074363
3dbca1fa
bb7a9e69
be069145
3c9b7886
3e2f5bc0
bcd7ce87
3ccb5bf7
3b568282
bbe0bf72
3c3a645c
bcb3f930
3d038142
3d4a48c3
3cb2bbbb
bdc1cfea
3cd21dfd
be265e2d
bd598bd7
3f1289c5
3ea173ba
3e2afe62
3c199ebf
bca10f53
3e5b7e55
3f1db972
beab9928
be64aaa1
3e8a19a9
3dd4a4ec
3cbc3c12
be4a1752
bcbdc5a3
be1f407a
3da78dd4
bd30dad1
3d0af4c3
be1b382c
be46469b
bd2aead9
ba66c786
3cb6d40b
be41ffc2
3e6060f7
be26a38e
bc9c1d0c
3e1ad9b7
3f13f697
3f3fb4b5
3c9a44c7
bc55b16f
3da88e62
be3bd730
3dded441
beaa2a41
3d760236
be9a1c38
3db19d58
be738845
bde6b4ad
bdb70aec
3e1c2514
3e41ba27
3e5e6d46
3d6db3c7
be3d3e97
3d4f04c9
bcecc0e5
3e0abb03
be0cff04
3e935aa4
3e69f72c
3b6a0b44
be867b74
3d83b472
3e39b126
3efaa1ac
3d4beb76
bd4f6eb3
bdd64660
be89f4ae
beb9beca
bd996c98
bdc9d738
be913df9
3dc5ce95
3d8d9b36
3de6e33d
3ddd975d
bd542eac
bd2296b0
3e770147
3e0be70a
3d7e0a95
bdc712da
bc2637bf
3d5ff076
bef5cf6b
bd8c8cee
3d93594a
bbaffed9
3d924018
becaaacc
bf1853aa
3efa433f
bcc6a6c2
bd782b25
be243ec0
be0c0934
beba161c
3d359068
3ebee809
bd8760ae
be0038ef
bdc344a2
bdc1b188
3b970ce4
bd9969c1
3cace73b
bd68f5ef
3d96f888
bddde542
bb7c1c19
3d531749
be285543
be623acb
bd97b7a0
be307530
3d30ac7e
3e1634b7
3ea2f15a
3e4467b1
3e86e922
bd32dbb1
3dce26ca
bc141334
bd8da0cc
bf573aba
be9e0881
beaaef02
3e6c2838
bc8b528b
3b140e7a
3e0c0fa1
3d938f55
bdce38d7
3e8c529c
3e68d414
3ea403b2
3d6e9a9a
be0e0f5f
be23d590
bd0f3e15
beb88568
bdafdf9c
bdb61b9d
39b42461
3e02f357
bd216d54
beaf4853
bda32dfd
bda72e4f
3cae3489
3e878822
3e47aa46
befdcb6c
bf1c4f3a
bdd52bab
be139ad6
beabe65a
be46c08d
3e036ab7
3ef70a26
3e9fb00e
3e5f4f11
3e49682a
3e1aa0cb
3e60f844
bdc7e826
be43708b
bd923359
bdf9cb38
3dd12eb6
3e8c76c1
3c592914
3c036e9f
bebe4be5
bf47fd5d
3eeab74a
bc63946a
bbdce8f1
3e73a3cd
3e518354
beecdee8
bf50736b
be992053
bf8fea5f
bf5fa514
bf883d1e
beafd155
3ec0eb8a
3eaf5bc8
3f1cb6f5
3ee85d5c
3e8d57d2
bd5f1251
be70c9ff
bd650169
3e42a63d
bd4831c8
bd053d11
3c48d5b1
bd5ec9dc
bc4769f2
bddfa8d8
bf166c15
bed14bd3
3d3adf15
bd06bb6b
3e7158c7
3ecbd7cf
be919f6d
bf4b945d
bf22624c
bf9ecb0b
bf6ebd59
bfbf12ff
bff9b124
bffacd9e
bf994290
bf697e61
bedb840c
bdac2d8d
bd97d0b9
be6e7c16
bb70e22f
3ea9b7c9
be472053
3c7fd68b
be0edd04
bea81d6e
3e358755
be741ba2
bece99a3
bddf72fd
bceea6ff
bdfad90b
3ca4d377
3f4096c4
3e8592d0
be772679
be25584e
bd6329d4
bdc08001
bf555443
bfa5fdff
bfcbfa5e
bfeb971f
bff42681
bfa8a14e
bf040d7e
bece003e
bc88f70e
3d095088
bb787377
be33b5dd
3decdd8d
3e106262
be0d0c9c
be23a0a6
bee56043
beea667d
bd3f7b8f
bd9590cf
3d36be96
3d0d1d9f
be13176d
3d96dcc3
bd9dcb06
3d08789d
3d0d336a
3d8624bd
3dabbc17
3e8ec7a4
be30ebab
beb7bbed
becbaecd
bf1c7350
bedcc494
be339f5b
3e071739
bd63a617
bd03acc1
bdcc58fb
3e6f338b
ba791aae
bd9b29d7
3e59d56a
be8142db
3e4a4c41
bd503a6a
bd605f83
3b7c5100
3ce83a8b
bebc2063
be5065a0
b9de9d4e
be317cb6
bde3c05c
3e88e4f9
3ea780c4
3f02cdd4
3f1be5d6
3ee55077
3ec5ece3
3e2e2f67
3dc7bae2
bcd06c2d
be186d8f
3d4e3455
3e8f21e2
3e605857
3e3ae945
be9f5f42
3d8b594b
3d6070b0
be944599
3e290733
bcb7fd6c
3d173f25
3d02a808
3d57a4d6
becb02f9
be802759
3e269d21
3e56562a
3e5450a5
3eee8dd5
3eb1eabd
3d2d029c
3e875bc8
3e20358f
3e8ef7c5
3ee5ea37
3e264be5
bd362bd6
3da2e59a
bcae9500
bc69a290
3cdbd74f
3e162a61
bea19a16
be080966
3d80f667
befc96f0
3da91854
bd519d0a
bd732dfe
3c502478
3c2aeabd
bf3faa43
bca0b2e3
3ed3e8f1
3e60f790
3bf4a59d
3d167432
3e0327db
3cda2c00
3cf33206
3e1c47bf
bc847b2a
3abe201c
bd8c9cab
bc8ffaf4
be4d9636
be543547
bdbc7ae0
be1dd06a
3d0e937f
be9c08e5
3e0601a9
bdc7c3b1
bec114cf
3e897076
3dc02131
3d919b5b
3a078900
bc63d1b0
3f02101f
3f78268d
3f7621bb
3ef99021
3d0d8985
bd33e2f1
bde6c611
bdcef7e3
3e8de453
3eae83cc
bd10da5c
3e04fc1b
bd230373
be057c97
bdca1c4e
bd1fa51e
3ceb7937
3cde5ce1
3e2f6342
bd38f621
be17d5c3
beb28c91
3f09bc15
3e3f588a
3d9e7bb3
bc83a63c
3d76b7a2
bcacb46e
3e3a17f2
3f5b134b
3f2e90ad
3f0916bd
3ee15e40
3e8f57f1
3e052fa8
3d626199
3eaa5633
3e5a5968
3e65cb14
3e21aa1a
bd8c7ee6
3def60af
3e4bb389
3bbd7ee0
bbcbc927
3c4aed9b
beb09a5c
3d96622a
3d9d8f2e
bdaa823a
be2b407f
3ca4d56f
bd540278
bc9f8a0a
3d8b4911
bc91b0f8
3e068ab3
be4505ff
3ea4d373
3f1595dc
3ea5dad0
3ef40fae
3d924b37
3d157c81
3e4f2762
bd2f8071
3e713ea6
3eb61abf
be0b5b38
3e094017
bd474e44
be9709ce
3d10bfb1
3ddd720a
be1648df
be46018c
3e999dbd
3e38149b
3e241a7d
3e6ba540
bce9b342
3da1c493
3c0cc470
bd77243d
3d93cc81
3e1483fd
3edec981
3e8a8613
3dd882a3
3e9fc089
be970da5
3de2bb8b
3da2a7b0
3dc810f5
be4c8238
3e92b160
3ee0df8c
3d65f3aa
3f1ce605
3f3cf5f3
3f21d41d
3e28d09a
3f06fa61
3f388f49
3eb4dde4
3eb1d10b
3d1192c2
bd12b366
bc0ef408
3d8d1333
3cb5ce04
bd3c6105
3d9b10c1
3d8198ff
3d385ba2
3c2d0334
bd0e6d6e
bdcf37ad
3da701d2
bea3d840
bce5b651
3e3a86c6
bee04ad8
bc805a03
3b3ccf53
bd268c92
3e3788bd
3d9ef50d
be322583
3cd68ca0
bf06c030
3d7bbe99
3c549498
bd8dcc96
3c9ed498
bd7548f8
bd87474b
bcd97d12
3caa01a0
