bd3643f6
3e2f3b94
be241b35
3e6b93e3
3d4ec975
3e7d7b77
bdc1e88b
3e24c353
3f019d94
3daca1a9
3e00b9f2
bebd35af
3e6c7a27
3e847e67
bca82707
3f16c021
3dd90ca4
bea0eaca
3ec916af
bd872c96
3e38b15a
be95956a
3e4fb78d
be86a4b7
bd9a4eac
bd827b78
3eddc48e
bca5b810
be8c6483
3b697da5
3ee74ad3
be06aec8
3e8e0816
