bd3ed8c6
bd9589fc
3d9afc75
3d9ddb87
3d22c3ce
bcfd3288
bcea6a9c
3d5126ce
3d2638d8
bd827060
bda34d9b
3d169670
bda02c24
3d255249
3cae8c74
bd17172f
3c43b7a0
3cad14c0
3d811f79
3d9a4243
3ccb3cac
3b643fe0
bb906150
bc73bf60
bd3b331b
bcfd2a60
bd4e31db
bd986dc9
3d867aed
3cc49a34
bd29f4cc
3c1d6700
bd0c8598
bd24e4c0
bd88f007
3d4abcc6
3d97b4a1
3d9abe25
be6d7139
beb13f34
be9b4696
bd709057
bed1a2dd
bee26b08
beddb34f
bdbdb09d
3c893a7c
bd98d0a2
3cf6341a
3c1711e5
bc96fcd4
3d173448
3d851cc5
bd8d82f1
3d72caba
bda40e6f
bd551eb1
3d11051a
bd608a78
bc99dd0c
bd520ab4
bb683800
bdba602a
bda07dcd
bd174af6
beb72a02
bf16f6ac
be90b7d9
bdae4718
bd6c9468
bd9e07f0
bdd58db7
bd3d4975
be954e26
3de987eb
3e34ba17
3e68c9c4
bef2a6a1
be1182cd
3e0304d0
bc0ba2e0
bd70f2e4
3d293c74
bceaf1dc
3d914bf7
bbf325d0
bdb226f2
3d1865d0
3e38cd8d
bd89711d
3e2623ee
bf0df53b
3effaed4
3ea74e6d
3d02a6ea
be711e8a
bd371af4
beefa1fd
bd8b4e24
3e62442c
3c96c663
3dec50e0
3e84f6ba
3cd90370
3f06c7f9
3e07cc73
beb67272
be1abbef
3eb9cae5
bd9caad0
bb2bd100
3d0cc408
bd251796
3d1405bd
3bcd6c31
3e89a18a
3ea562ac
3e28788f
bc46544a
3eb3521b
3ee294a2
3e510911
be01c5bd
be72b0a6
3d21690e
3e319bb1
ba809913
3e12b9cf
be2d633e
3e380dd1
3ed2e70d
3ecd315b
3e939458
3d277ae9
bdbf8f47
3d5dfb21
3f35eeb4
3f4433ab
3edf3e2a
bcd1424c
bd8e58c0
3b3f0360
bdeb4859
3e8562ca
3e84da5b
3ef589ec
be019ad9
3eab9820
3eccd476
bdd4ab9f
be31738f
bd6706f6
3c83e149
3e36b6fd
bdcd3681
3e193436
3ddc42f3
bddd283f
3e02d525
3e84c29b
3dccfa80
bda4f5fa
3db055d3
3e44713f
3e77c6ed
3c0c8679
3e1c0921
bd2572d7
3d9912a7
3d4252de
3e34c4d8
bda9a56f
3d206de8
3e175782
be53d1c8
bc878e37
3e0e9594
be1b6213
be232b37
3dad8eee
bc8fed92
3e1ca355
3b63ec84
3d7779bd
3de8ef33
3c046966
bc49d28b
3e7ea423
3e7771a9
3d39a4d1
3e482703
3dc1d986
3e95945e
bd482de1
3e903f5c
3aab9a6b
3d946b1e
3f0eb920
3f07853b
be55bb3d
3ddb56fb
3e14d559
bce7282e
3d1fd4cf
bddbcf18
be73c7ce
3e2b7efa
bc82f44d
3c6dcca5
3e1c84ca
3e9547e3
3d952731
3eca5fbb
3eccc09b
3d3275ef
3e20d769
3e372da8
bbf565b2
3def8f3c
3e1d87ce
3ecd733d
3f599e23
3e98bf73
3cd5eac3
bc14cb64
3db3d648
3ea5e96c
3ecc2c25
3e9af3fd
3d611cc4
bcd8e2f0
3e10a94d
3e973c62
3e58280f
3d7c7f5d
bc7ea2ac
3e10ecde
bebb155d
bda7abc4
3db7b439
3e07a725
3b5b7909
bcd9bb95
bc636097
3ccef0c0
3e273f7b
3e3596fb
beee08d2
3dd7396f
3f453201
be380f0d
3e03daf6
3d29cbee
3dd2b34c
3eea7e11
3f12b522
3e996a2a
3d25a6be
be8acf8a
3ea4e1e4
3df90962
be332a31
bed4ade8
bec5077f
bec9e347
be8f2364
bebc88c3
be64c2a1
bcd847c1
3d838025
bead7982
bd000ebf
3e222303
3e57e18c
3e799019
bf372735
bcb3cccc
3e914368
be261dea
bd9fef65
3cb9977f
3d9d1132
3ec6f5b5
3f554953
3dccfaf5
bd868a40
bee47722
be527549
bee88218
be9c4357
bf318693
bdcac376
bea8df8f
bd4e946f
3b8347f8
bd98f508
bd3c6ddb
bd94cdce
be93ac63
3b988dd4
3d788d6a
3db42c13
3e0283cb
bf00afd0
3ca7680c
3ebe52c4
be92ebbe
3d023f5e
3d832ed3
bc331c78
bf001522
3dd55f45
be068bf3
bec5c8f7
be998622
be81d95a
becd6734
bf16a45b
bd1069de
3e4a54c3
bdfa9383
3de8c69d
3e9ac698
3ed2ed03
bdb185da
3e8cfa75
3dff99cb
3b2f7357
bcd2d631
be6c0265
bef943bf
bf26b0a0
be7e909c
3e8a8a5b
beb44252
3d45b329
3d4fd101
3d2b5d51
bf1613ac
bda53e8c
be0e531d
beeee57e
be23e9ec
be7f9e9a
bebfd84b
3dff18cc
bc9a46db
3daa08c2
3e6f7c4c
3e367baf
3eeb637c
3f0695e8
3e222f2b
3e2da459
3e935fb3
be8510a4
3cbe901b
bed79e89
bf540f93
bf2ff8e7
bf27d238
3ea25fc0
bcee08d6
3d8bc4ce
bc979cb2
bca9f6a2
bef127ae
3d9ee873
3d16ed90
be4ec466
bea55ed1
beea877b
3e129bc3
3e3df2b3
3d8076d2
3e2f3156
3e8f1882
3edf352d
3e4fd33a
3e0ff2e6
3ed59362
3c9556a0
be8286b3
be53f692
befde71d
3a3a269e
bec8a9b9
bec81a76
3ebfb26f
3e164203
3cac8232
3c32ca18
3dc0b2fa
3e641576
3c9a6928
bdc2999b
bd4c0ff3
be363cb2
bf2581fc
bf6736f2
bed2f90b
be969f21
bec6fd9d
3e872e5c
3efd02e4
3d2ba1a9
3d843b3c
3d3c2eae
3d089de7
bcd807b3
be8ad5d2
3bfdd1fb
be543da2
3debffee
be43de44
bddee005
3eb9058e
bdf63ee0
3b7f8747
3c3ca4f1
3d3f4020
3e926655
3eedeaa5
bea0da01
3e4636d7
3dc722e6
be8358b1
bf9c59d2
bf9a3141
bf9c28b8
bf93e894
beed3ab5
3d9c7b49
3e63435b
3d59d46f
ba7c6803
3c870072
3d532a6c
bdb9e36b
3eb6feba
3e7c8d6b
3de6233e
be702fc3
be1cec70
bed73eec
be0ce630
3ec60335
bd3f536d
3d427446
3ecc79f9
3e2ed4b4
3e97731e
3e4110fb
3ec5a98c
bdb2ca07
bdc48458
bf4a0cfe
bf72c652
bfb210a3
bfd6a852
bfa991e2
beeb6cb5
be4781ea
bdd4c066
3dd5e09a
3e4c5918
3e067649
3e9ced44
3e8b5a91
bdbb4a3e
3e23817d
bd71c5cd
bdd7a74b
bf0b661a
bcdcf79e
bda6cc26
bc82bea0
3eabb2cf
3df7cd60
3ecd0f12
3eb78f04
3e7403ef
bbea4612
3ee2934e
3eae11a6
3d0504b7
bf18ad65
bf73e384
bf936460
bf81a25c
bea6f7d3
bdda459e
3e95b1c0
3df2761c
bdb880ea
3e62a6c3
3ced0557
bdaf86d4
be2df5ed
bd0d0eed
3e4690db
bed56beb
bd5580a5
3c4933c4
3e20fd2b
3de9519a
3e9e6ca3
3f74f01f
3e3cc0a9
3e98ce02
3ed802b7
3f18ff01
3f0c657e
3eb1ef4e
3ea180b9
3e09ce4a
be9ad533
bede915d
be80fb22
bdd86dd3
3d5fa9b6
3e068613
bd8df332
3e8827a4
bdcdc5f5
be10a6ab
be29c5ee
bea176e2
bcb568de
bee875d1
3ba44aaf
3cf60586
bd3cb8dc
3cf898e0
be193f4a
3f16c743
be27dc9c
3e274595
3dbea629
3e42ebc2
3e5dff7d
3e95e25b
3eb788ac
3ebbcaa4
3eb97669
be43feff
bd84e145
be6e9854
be7bbd81
3dceebb4
bca41d8e
bd096606
3d866a96
3b7a69c7
bd7f2ec5
bdaa1893
be03508e
3bcec80a
3d49d9fa
3c0e0ec6
bd006a79
3e2a55ec
be90fb5d
3ebdbcd9
3da163fd
3def2364
bdcf6969
be1cfc4a
bb06c118
3e1982d5
3e8bc12d
3e1e2ace
3e6c3485
bdfe0faf
be598f28
be8c2f2c
be1ce71d
3db61041
bd2dc2d1
be0345e8
3db82b2c
3d9c34e4
be2b9b2a
bf0b0d83
bead75f4
bd54ba19
bd831493
bd93e5d0
bd5e994a
3db8fe93
be9b96f5
be0c98b4
be2cf83e
bc7684e4
be0b29d5
3e3eefe2
bca54ee8
bdd585d1
3bb2f449
3e012cfe
3ea4f100
3e77873c
bd3e71e3
bc9c647d
be1efa46
bdc7f939
bd14e5e7
bde9dc49
3e59e77d
be0c26c4
beaae2b5
bf21517b
be31f6aa
bd0dc728
bac0172f
3b12cf20
bd59355c
3d4e57f2
bf011c96
bd900090
be710e1f
be3a002d
be2543e3
bd901345
bd283f44
3dce9199
3d9305a0
bdd60640
be3b030a
bea6a3ca
3e3e9d7d
3e08351a
3d067eb0
bc97b63f
beb50c3f
bd897daf
3b4fe63c
bdbf5169
be878383
beb85a15
be89baa8
be9e2816
3cf42436
bc032df0
bd9c275f
3ca81c2c
3f0d20ee
3f0d19e1
3d1a31fd
3e1c08b6
be9f428a
be1e83be
bc41c65f
3d725da8
3e162da5
3e73d3f9
3c2bde1f
be59d71f
3d6eb02e
3e84e3e2
bd3e6309
bd7564d0
3e82154c
3ead895b
3d2edf7a
be21c5ac
bea2d021
bea89d42
3f8e742d
3f01e7da
bdcb3e79
3b850df0
bd77fa4a
bcf6f0c0
3d796497
3f137c42
3f432b02
3f451b59
3ec970bc
3f2b5df0
3da942cc
bd88c77c
3c924715
3b80484e
be9e62cc
3be0dfed
3daec5d2
be4c5812
bec132b8
3e593630
be0e01af
bd885bd2
be2be928
bf05fad9
bf060b36
beb4bfd1
bdae3366
bcb647d4
3c5f7720
bd2f2efc
3cf995e8
bd2ebbe3
3d8a7b9b
beae062f
3f2a5fc0
3f82e9e8
3f2b6f23
3f4327f2
3ef13bad
bd8344a6
3e921391
3dc1c486
3eae30e6
3eba1b68
3f178694
3edf8bc2
3ef9d6a0
3d99cd61
bea36249
be27fbce
bdd0dae1
bea13e24
bd807d37
bde10afe
bde2afd4
bd05c5dd
bd4cd72b
bd24a410
bb3b7640
bd360fcb
bd84b538
3e8d6919
be149493
3ef16142
3ef9264a
3df0f34b
3e62cb62
3f7c6373
3f4cd17b
3dbffc74
3ee95270
3f5d60b3
3ea11208
3dfa835f
bf015858
bf08538d
3e413cfa
be94b333
bcb0fb87
3d496bab
3dd9ca73
bcdfea56
bd99b29f
3cc3422c
bd78a61a
3caeddb0
bb87fb20
bda2de07
bd1738ce
3c93add4
3cf920fc
3d052890
bc921f03
bdceae58
bd9de971
3d03012c
3cad6800
bd34e430
be5394cd
3ed8538d
3f8e5052
be6e574f
be240bec
be251289
be00e606
be596ffe
bd6ac9ee
bcbe251c
bb6eba60
3c08f378
bd829c32
3d78f51a
3cf63f68
bd855536
bebc930f
