be1f970a
3da4c357
bb3e773d
3db615ba
bd1821ce
3dafc635
3eb66022
bf2d0ec5
3dd45483
3f1e3fea
be91e68a
be4a042f
3de70bbe
bdc7de6f
bddd66c7
bd4f1f5c
3db02127
be98b9ce
3b7a73b4
3e4e84f8
3e92395c
be9f9480
3d5e2d03
be1ca43c
3e395330
3e841283
bdff8dbc
beb3d617
be5e1445
3e84efcf
3dad3c9a
3de31a30
3f1a250d
