bd8f7938
3d8c4039
3d62df0a
bc24dca8
3c45b3a0
bd7d0652
bd0d1985
3d1dcd50
bb446740
3d66930e
3c45a310
bd1bf37b
3dbbf747
3e423129
3d75e885
3d8b7187
3d1082b8
3ab2c340
bd473b78
3c4c8e20
3da49097
bd9f9635
bd7e8dc8
3d1cf216
3cae5bac
3d99ce43
3d32590a
bc6bc3a0
3d8f97bd
bd936643
3d31de42
bd44c5fd
bcdcc6f4
bbb22082
3e8f3c81
3e55265a
3e4e8396
3e44f26f
3e5d3555
3e05901b
3e8842ad
bbf40d71
bdde94c5
3eb3ddc0
3e882b1a
3ec75525
3ec054d1
3eeecec4
3f0c995a
3ecb0b72
3f04b71d
3ec9c1c6
bd8f5cf9
3d1b9118
bc8e8e58
bd0d2f9f
3d3f609e
bd40dbf7
3de00c15
bc69dbf3
3df8ca5e
3e2933a6
3ec2b00f
3f0cc207
3e521382
3d992ee5
3e0056a0
3f2b3d16
be81b613
3db7918c
3e959b2f
3f0d44d1
3f509387
3f165c73
3eb89a0c
3f0e78ac
3ee8e896
3f634f45
3f517a2e
3f05a0bc
bd43bbd3
bd8dbb23
3d6e456e
3d07ce32
3d2238ba
bd943225
bd83a9ca
be2b7e4e
3e324495
3f59a3c0
3f42f483
3f05e633
bf71d721
bf6b4d92
bf029626
beabee51
bf137897
be1d0ba8
3f1539a4
3f0b3c9a
3ea8b3dc
bc5905bb
3e9972ff
3ea207e3
3e4feb2d
3f0a6fe5
bc8ce14f
bf47965f
bf0286f5
bdb3c772
3d8ac782
3b086340
3d1c096c
3da5b5f7
bdb121bb
bf132de1
3e0bf062
3f376e2a
3f178a5b
bef3840e
beedf119
bf010699
3d5ed031
bb37f3f9
be682a52
3e82c165
3dae115b
beb3152f
bf100bc5
be1066cc
3db475cf
3e034b15
bcdcade0
bd930ab3
bf4dad87
bf65d328
bf5deaa4
bf553142
bd053a78
bb84c3e6
bd64bcdc
3d8d31d5
bcf24976
bddb53eb
3f321c6c
3f0b6e7e
3dc9eefb
be96f7b2
bf07d62b
bed1d368
bdffad74
3d38bbfd
3e391ca2
3d21a1c0
beb789c1
3e460f05
bd170d8c
3d2395bf
3db12b1c
be2d11a8
bea82943
bdc40e9f
bfb74fac
bf30c29e
bf32c705
bf33323a
bdbeb1f5
3dad9586
3cc6fa4c
bd0de098
be2e3076
3e7d19f4
3d5fbba7
3d453a8a
3d65acf2
be67d848
beb9a8c8
beb2602d
babcfe36
3d83003f
bd030041
3d44ed4f
be19620f
3de59dbd
bd9d448b
3d1f3307
3df2cdee
befc2735
bf818bb4
bf9761f9
bfa50b82
bf249c53
be855c43
bee56356
be035a36
be984a2b
3c5ac8f8
3e4a67a3
bcad84be
bea0f91d
bf4455c2
bf03b5bc
be82abca
bdce4009
be997554
be5c8feb
3e354787
3e65295a
3e284126
be066fa0
3da54e94
bd00eaf3
be62768c
bde4ce70
3eb19022
bf4a2944
bf995594
bf992055
bf930508
bf4e8d50
bed4bba9
bed4ebf9
be2f8ab0
be1cf817
3c8d1e4e
3d5a6512
3e06a3e2
bf17d063
bf013351
be1136ef
3e5d1653
3e8b24c2
be88b622
be101c33
3e5934d5
be75d9f5
3d237772
3e701a0e
3e5dc7de
beb198a8
beee5985
be58fe76
bd254b61
bf88c666
bf811e1d
beb3abdd
bf439dd0
bf65540b
bf677ce6
bf1cfaba
be0f4838
bd7e07ef
bd19e703
bda60cfd
3b565e1e
bd7f36a2
bf028a65
3e0b31ee
be0be796
3d9f38e7
be44e50e
bd934e88
3dbf774a
3deb0075
be14d70b
3de7f888
3eb728cd
3d8df9c6
beb3f043
bef1f724
bf031f74
bfa9c6c0
bf264f3b
3de860db
beb55589
bf49e7af
3ea05c26
bf2a258e
bf313e7b
be9f9489
bd0c06f7
3cdecf15
be927123
bf481004
bf4cb544
3ea5be1b
bd83bf7f
3c673e58
3dcbd66f
bd1f40ba
3e2580c8
3c34e477
be0ade34
3e9e6660
3e555a07
3dab8d5f
beb67eff
bebbb94c
bf131f07
bf2f80b9
beedd611
bcc9bd61
bd0566ca
be2acf14
3d7f8158
bf5be474
bf674f8d
bf0cb225
bd9fd52c
3d2edfc7
be37e029
bf44a896
be9f0af0
be25a311
bca6f921
bc1779f5
bdc55328
be3cd92f
3deed78e
be5b312f
be8f7be3
bd91c7d9
3de1225b
be3747b5
be08cfae
3cc8302f
3dfb9ee0
3df764d6
3e5cafc6
3bb6c09f
be49c918
3e4a040c
beffeb06
bed02a14
bfb03b96
be16bc4b
bd25a02d
bdbb9b96
be5beb91
bf40da35
bf0011b2
bdff2c46
bec4e495
be0aa377
bde638d5
bdf8eff6
3b84d05f
bb5b7af5
be53d5dd
3df263b8
bd75f0ca
bdb387df
bda3a1b1
3bd4d388
3e0ad53c
3e985cbf
3ec74a59
3c286eec
3d010199
bd90e14f
3e7c6cc6
bdbf52ac
be797a2d
be47a0d3
bd3b49e8
bd1b5030
bd4f86ce
bf29aff0
bf243d0b
3d9645ae
be91c48c
bea6a96d
bed7be2a
bebbdb4b
bd8e0dc4
bc5bdbc3
be7299ef
3e4ce0f5
3d5f564c
3d617e7b
3eab1aeb
bebea658
3d139f23
3e972ac4
3e57d161
3d9866bc
3e001fd7
3eb59fe4
3f1d4806
bdc529ad
3ec1e538
3ed41a71
3d52ef15
bd1c3986
3d0bbaa7
bebdc2c6
bf4e5da9
bd9acfa3
be1b6960
bdbf9a99
be09c1e4
bdf5c87d
bc2df473
be5a99d3
bd9a79f2
3dc17494
3e7e13ae
3db0dec3
3ebc2b93
bea8f1f1
be16f0bf
bc89f205
3eceba9c
3e7d9b8d
3f0b9739
3e990d8d
3c97208a
3e96e3c0
3f0c2e13
3ea58332
3db761b9
bd8e75d7
bd473291
bdf0fdcf
bf4fc0a9
3ded3bb9
be5d487d
3cac4d98
b99e3e8c
be6e70a0
be1f4ca0
be236dff
3e561b8a
3f099fe4
3ea1db58
be792068
be08b063
3e092a02
be288ef4
3e379afa
3ebd6e23
3e3f0e41
3e3420b9
be3a05c9
be701922
3efdaeda
3d820ff5
3f1b0b21
3d09cbcc
3c89d9e7
3e6de20b
3dae725e
beba9958
3e96e175
3d15482f
3d0f83b6
bebe5aa5
39142e77
3d8f6fdf
3e9b1546
3dacfd8b
3d7608f8
3e843330
be717958
bc880815
be39f704
bec7260e
3d0e5c74
bcb105f1
3e44faf9
bd0c45e0
3a08dca7
3eab31c3
3fae54e7
3ed12a1e
3e0616bc
3d75899a
bc9dc0b3
3df8c2d4
be97f5a6
be1982cc
bd84bb88
3da73765
be244800
bee17854
be61b596
3e1010bd
3d998512
3e1ced71
3eb8e909
3e886509
3d991ab2
3c1105c9
be75b87d
bd5e94da
3dbe7b69
3e8eeee2
3dc75f41
bd9a7b8c
3e75bc21
3e1a7655
3f37f50e
be44c6b1
be8509b8
3d2839ad
3d00e258
be77a2f9
beb9752d
beb9c2ac
be592d8a
be90d343
3e34531b
bea5e1a3
3df512ae
3d5daeeb
be7722d3
3e4ac5ef
3ebeb68d
3ec0a578
3eb1565b
3e851361
3e0336c5
3e1a7765
3de5fdc3
bdaea5b2
3e2f8de9
bec37e5b
bcf1f5e4
bc90732b
3ee340df
beb41b52
3e041950
bd0c7b77
bed72cfb
be8342e8
bf0e1eaa
be54c887
bd1c5b9d
be4f63e8
3ee586de
be3ea378
3ead1301
3d3ff7c2
be2114d0
3e0faed1
3eb6b4f2
3efffc2b
3ebd654b
3e7f1032
3e7697fe
3e6bdc35
bd440221
bddd7a7e
3d7722a6
be394f25
3eb1c1f5
be178f58
3e895718
3eda2c7b
3e92020b
bc1131e0
bf0460d9
beb7be1a
bf15e3e5
be3c7970
3e20945d
beb21a16
be6d5f72
be1d06f5
3eddbdb7
3db56622
3e2576d3
3e9bfcb9
3e891103
3edd5874
3eb7087c
3e3a51e9
3eaa63ef
3ec2a748
3d80133f
3e838336
3f01251c
3eba9279
3f11a250
be2fc55b
3e600100
3e90d369
3c7c18d9
3d142066
3dc81241
be668d3d
bf1c7b4e
bebc2274
bf09174f
3db426a8
be6e234a
3e1d2a3c
3e46ea84
3e867d3e
3deb1525
3e693e83
bdb6c5fc
bd862904
bdc8f4d2
be9cf670
be9d3911
3e2ba107
bd6a5221
3e52fa5a
3bd4451c
3ec05ef0
3f0b5a1e
bf0815e0
3f0f8886
3e205cc6
bcb908e6
3d8f84b5
3d3852d8
bd3b5553
bde3cce3
bd89110c
bf31f729
be9aa829
beaf50ea
3dafa1b9
bd04cf0e
be2f2c54
bea85eb0
be86858e
bef19124
bf0257b8
be9b4892
bf36c19e
bf02d4f0
3e428e05
3d3869b6
3e1a34bf
bdda5f12
3db2da01
3ed573cf
bf356266
3e8f2863
3eb60ba1
bd8b1cff
bc992558
3d51c9de
bd400d0b
be58dce9
beb0b399
bf05ff05
3e7ccbec
beda40d5
bee1395e
be66af50
bf2824e8
bef858e4
beb04662
bf01cf3a
be418cc6
bdd9cb2a
bf29af5b
bf4a3e89
becbebdd
be5bad35
3e3ed0e0
3daf7191
bd78e056
3d0a3de4
bf673b05
bd97403e
3ee74805
3d85d133
bc20c628
bd2685ec
bdf7e92f
bd10f469
bec6b16d
bed88431
bd524da0
be0f09a2
3eeda02c
3f044412
3efb7428
be8feb42
beb0a76d
beeb7b8f
be2aed11
3d35e066
3d9da21c
bf254b63
bedb70a3
bee8672f
bf2cdd46
bef60436
bd31e69b
bf1bc7e3
be11f256
3f07f8b8
3e807b81
3d2d54ea
bbbbec60
bc245838
3c09c040
bc46fa00
bd6f903d
be2b182b
be8727e2
bf0fa86a
bf33058c
bed32846
be8ad0d5
bf146b74
beab62f8
be075776
be311e9c
bf4d3509
bf43416c
bf16fea8
bf690480
bf941f6c
bf965656
bf59f247
3d79d757
3cbe47bf
bded8e1f
3e462e2d
3dcc385a
3c367a68
3d021d6a
3c5b9ab8
3d005bda
3d7efb62
3b5cae00
3cf9b34e
3d0a3c46
bda8773c
be4f6b52
be1fd614
be3f1375
bf02fcc6
bf17af32
bf296a92
bf642f8e
bf56a290
beae4c94
ba257c44
b84c7343
be1eb55e
be266698
be18e166
be2d6362
bda6ee3d
bd3fda57
bd6596d4
3d788086
3ba388d0
bc1401f8
3d990817
3bf3f430
bc56bf10
3d375bea
3c60e4ee
bd048d8b
3a5322de
bbba5a20
3d5df5fe
3d1b6bf1
3d5a3080
bdb40d02
3c384efe
bde10181
3d596cf9
bdc3b288
3c9c22cc
3c26924f
bbe38e78
3c35dc9e
bd9f689c
b9c8dc00
ba260f00
3d7bf45a
bd7984ac
3c3853c8
bd820e17
bdecdc0c
