bd54b3a0
bd2c1053
bd8f92ae
bd51b930
3ce89878
bd93858d
3d4e219e
bb82e520
3be727a0
3c4f66e8
bbd3ab00
3d64eeaa
bc472718
bc843b64
3d427472
bd921a3a
bc56fc88
37290000
3cd4e2a8
bd2da71e
3cb307bc
bd43dbd2
bc9fb1b4
bd42a8bc
3d7ebd36
3c0f46a8
bd8dade9
bba23f30
bcae595c
3d9c888b
bd80be7c
3d353a02
bd5aeb00
bd0ad1b4
3b20a420
bd589ed3
bb53f1db
bca74a33
bc7d159f
3eab1423
3f0aa4b6
3ee1c42c
bd0e9e2b
bdb66fd9
bd9719b7
3c0aa668
3ccf74c1
bc0ec8dc
bc839af5
3d208997
3d74f474
3d27c33a
bcc8ec84
3d484be6
bd5188c8
ba4c9a00
3d5c2472
bc90ef88
3d57176e
3f333f82
3f1bb508
bcceac76
bdb7eb6c
3e6c0f74
3dcd1770
bcaf14d5
bc02090b
3e2ff9ee
bd7a9d13
3e96513e
3de8d355
be179825
3e916c38
be9e5327
bf4cf7be
beadbf75
bead5e5d
be4cc723
bdcad41b
bd22d71f
bd8ff8aa
3d825a93
bd4370ad
3d7cc8ea
39b53400
3bc6dc30
bd8f4612
3f4d14ee
3f0fe180
bdb2e8b7
bdcd2a1f
bddacaa7
bf28260d
bf6d13a8
bf6687d7
bfa739e8
bfce489c
beffdb42
bd0e1009
3e99abe2
3e0d522b
bdb3450f
bf09f619
bf38b3b7
3ed8baa7
bd23f5c1
bf34d40d
bf38f00b
be887123
3d3abf14
3d0ddd3a
3d455436
3d8ac7e3
bcdb78c8
3ccf33e7
3d92910e
be4128f0
bcc86b93
bd734121
bf2ca081
bee12531
bf6f7442
bf83d99a
bf72ff1d
bf49f61a
be1f2e0b
bdd72ab4
3e1127f4
3e81da86
3f2579dc
3e8b1932
bccbf87c
3e156e18
bcbf48bd
3e82228c
3ddaec14
bed381b2
bf44c49e
bf1e1dae
beb08614
3d7620fe
bd34c3e4
3b83d6e7
bdd2615c
be65c118
3e7ba4db
3f20caa7
be9cbd79
be9ba9e8
be336510
3c0cee8e
bf200eb2
bee70235
bda52252
3e16d528
be2a4536
be4eadef
3ed839ca
3d0b4fa0
3e3ad211
bd58afd7
be7907ff
3e9c7d2d
bdc9f3af
be90346d
bf6966cd
bf27bb8c
bef52721
3d43043a
3d8c25a7
3ea1c99c
3f085e63
3ec72df5
3f411a86
3b8b6248
beccbbaf
bf16e343
bedaa3f4
3e014d83
bd228f0d
bddc9df4
bd9872ed
3c17d8e8
bc50f9a4
be736f01
bdb7152f
bd66f6b3
bd999052
3e09f28d
3eb8821c
3e9be91f
bd8002a7
3e3c9a6e
be5a3ecb
bece7450
bebd8fba
3d31d422
3e68c618
3ed977f4
3f2889d5
3eef3e2a
3ddb5463
3d01a2b7
bdb4379f
bebd7c57
3bd0cb69
3e915d92
bd7bf422
3dab3257
bdf72606
be873ad7
3e0a32f8
3e1419d5
3e1fdb1b
3e721c85
bd8ea133
bde06d42
3de38453
3e4ac1da
3e97133b
3e9ac9c1
bde57d56
bf2b19d4
bd36425a
3fa3db51
3e2a5708
3f5b56f8
3d94696c
bd5a976a
be80eb72
bcfa9c80
bdd28362
3e21c3dc
bd8fc458
be32331e
be958014
3e202316
bd784f98
3dd02c39
3e9c1119
3ef6302e
3e7b9392
3e7f85ff
bda9e533
3e56d19e
be2faf1a
3e214e8c
3d1f3e08
bf068c64
bef31fbe
bef24714
3cdfaeb9
3d158141
3e979ca1
beb2cd84
bd26fbc7
be020290
be8d3c23
bd9c1d57
bda150d3
3cafe737
3cb03140
3d5a6bc5
bdf5f3c1
3e48ed33
3e806724
3e474565
3cff7e2f
3eb8782e
3f054317
3eaef6bd
3e88f55f
3eebbd5c
3bdd7b87
3e52c548
3f150077
bebd2536
bdc8b9eb
bd5969d8
bbbcf826
bcc81480
3dbd7787
3f3eb5a4
bd3e94e8
be06fdad
be2a310d
3e8503f4
3ebb7240
3e2bb439
3dbec8ee
3e09b541
3e560148
3d52f93f
3d9caab0
3e7a2305
3e7f35e0
3e24d976
3f3de67b
3f13e8f1
3ebd13b0
3f279876
3e929c8a
3edf050e
3ee4a457
3e8dc32a
bdbd9736
3eab4d98
bc33be43
bd189ff2
3f9fe715
bc55590f
3efd0649
bbb3944c
bf0dd1a4
be8d68f6
3ee7737e
be9d8f39
3def7e9c
3d861a7d
3d577eaa
be727b13
3d1a2201
bdff0cf0
be8b23fb
bdfaeead
3ec94bf1
3e9649a0
3ef3c2ce
3f071565
3e734f27
3e1c055c
3ed41695
3ee186d4
3cdbbfb3
3dbe4cd2
3dc74a90
3cd15823
3e90316f
beca4642
3e0cd29b
be9b7993
bf574d5f
beb62cfc
bd790dcd
be82cab9
3e005fa4
3e48d0e7
3ca36de1
3c3b68e3
befea510
bf102855
bf088f0e
be9545b2
3d80ba33
3c049a56
3eaed4f3
3e8d9cfa
bdcaa344
3d94abc5
3e8cce15
3e1f3483
be28caaa
bde3ed0a
bd9565c7
3ca04410
3eb5ba3a
3e13a6fe
3eb080b4
be82ffc6
be9b5514
3d53c958
bee77668
3e190290
3e96b240
3ea62b3e
3ea04dbb
3c7abb11
beab6c77
bf24b043
bf20578e
beef622f
bdcd327d
3e5d2c59
be39527d
bc86a8f7
3e1c3be2
3bacb33b
3e1e267e
3f028933
3e4098a8
3e8cff60
bdc83a1b
3d6aa80e
3df7f3c0
3ed9ea60
3e9523e7
bf32e650
3eb88b27
3e85fb05
bd3e438c
3d7cdb02
3e518240
3ea9fc7c
3dda441d
bf0086d2
bf1948f3
be8f65ed
be3bae80
bf1ea904
be9272da
be5e3c4d
be468eeb
bace1871
3ecb32cd
3e18c52b
3d718833
3f076334
bdd367b7
be10e8b7
bde1f3bb
3ccff895
3c54f3d0
3e0d1b19
bdcaa53b
bef14a6b
3ea359c2
3e497d99
3e1f546e
be3e1424
3e4d4c9a
3e4218fa
3e4c28df
be671e84
bf5c30e2
bf14d22e
3e2d8d1f
be8864fe
bead5ca2
bdf26963
be6eb12e
3ceb84c6
3ecfb3e1
bdc6fccb
3dfb1e8f
3f23f70e
beaa09fd
3e462fba
3d66ff60
bcaf5354
bd8e3d36
3d9989de
be0163c7
3e919724
3b32bc76
be1f30ab
3d8bca61
3e144d85
3df671d5
3e564abf
bde22b6c
bf4709e3
bf4f9990
bd5c00c0
3e067d70
bea11b42
3c42ffb8
bdc95a4a
bf00cf2d
bd4fd78a
3d8cd62b
be0d198b
bdcc11b5
3dc41bc7
be303502
be0a7feb
3e9a1a94
3d4595fe
3aaced6b
bd9e436e
bf01de3f
3e0d4e54
3defa7e2
be51a915
3d5d424a
3ebf1e68
3ee6bcf5
3ca70d5d
be99e7b0
bf3ed772
bdfecf5c
bc81b8c3
be250efb
be34f230
be0bf885
bd8bc5a2
bd9f50bf
bcd8396b
bc903949
be22e3e0
3d843ed5
3d36d701
3e0130b5
bd5bdae0
3eb8df4f
3f0ad9a9
3d0afa5b
3d3bffa2
bf884af9
3df92197
3d4b8cf6
bd014b1c
3e57107a
3f282a3a
3eb63143
bdf8c1ba
bef55ab7
bf3e59e2
bf0698c1
bebdccbc
be9ff8af
bdc593c2
bd804c79
be451a8f
beb51eb3
bdfa5ca1
bdb5b9ea
bd15c3fc
be48f215
3e433cb1
3ef7365f
3c931ff8
bda0d362
3d270f18
3f2819f4
3f170fe9
bf0ca2a4
3e7adf0f
3e4005ca
3e3fda06
bcdaace9
3f0a07cb
3e7d0c33
be3fa616
bed8dadf
be5293e5
be6888dd
be14ea7f
bec27d54
be81f8cf
3e1953cd
be11ef2d
be8520d5
beb42bdc
be023241
bebc9db6
be2f1b31
3d5b7941
3ca0fd26
bdfaac41
bb8c353d
3d7bfaae
3f0ac2fa
3eac5920
beb534cc
3d1c2163
3e5a847c
3e27f083
3ec94521
3e8fb3e1
3e8f5f68
3d75def1
3d84eec1
3d61046f
bd219ee0
be1d6f4b
be699fcf
be9af9f1
3db75a13
be9f7ec6
bec25aff
becc8370
be0c7b78
be8e1f7c
bf202d25
bd6cc129
bec973f3
3dc05bdf
bd9e5d0e
bda20f94
3d505ed3
3dd67cdc
3ded68d9
bdc6abbc
3d8a4149
3da27bbb
bd82c7a0
3e1dbac9
3d20a18d
3eb2dc4e
3efc03d7
bd0514dd
be9f813e
bf117c53
be881ff0
be6cb9ea
bdc2d1c6
bf043c40
be689897
be748d59
3ccbb32b
bcb70ee6
be9890f1
3edec314
bea8f022
3f85400f
3c3d51d3
3c4635f8
bd73abe0
3c50be10
3e1bbf80
beabc409
3dfbb5f6
3e5d8b8f
3e4e3738
3e8aab71
3e92573f
3e34f317
bd71780a
3db92e2a
bd9501f2
be2eea86
bdea9550
bdb40a73
bcc51d81
3e1d25c4
3c984718
beb13e05
be33e1aa
be20d108
be4aaa7d
bd15bfb4
3e4f52ae
3f6cca43
3d13ea44
3d77433e
bd3da2f8
bd9755c6
3d261f8b
be8c2696
3a82f809
3e9fae7b
3e490393
bde09827
3eaf482f
3ec70d03
3e5d98a6
3ec0673f
bd4c3586
be3aae6e
3e0d39ee
3e2416a4
3eeaef55
bea77b86
bf246241
bf4b1349
becd4993
bf10e751
bed447f6
bd9d25b2
3da64592
bd91cb00
ba89ce00
3d263aea
bc9e8a62
3e2c9a87
3e59b0b2
bd4dd0d8
3f19b801
beb0a74e
bf11bc46
be38d7c9
be00be8f
3e0f2bce
be2755ff
3e222c3c
3d44f9d3
be14a787
3d9a6d34
3e42e5b5
3da0f43f
be659b1a
bec8b773
be8059ac
3e183ef0
bea3f9e3
bedc960c
bc21cb9b
bd9065a5
bcd6c72a
3b586dc0
bd920d61
ba997180
bdf60819
3ef13403
3e94691d
bedee293
bd8aa386
be23e854
bc0641ee
3e32ba59
3d7c668c
bc0faec4
be8de256
3eb9d366
bd8423ef
be1d2d0f
3e912696
bdb13ac8
be4c5d1b
bec7e15c
be42d33c
3ebf3088
3ebe5621
be1743e9
3deb936d
bcaf2d38
3d4c89aa
bd4be683
bca4eb62
bce03a56
bbfa2800
3d37bcf8
bf68ec3d
bf976403
bf41b392
bf220069
3d461b25
beb375ac
bb46e122
3dcd30ba
3f065de0
3ea8c038
3cb46782
3c7463f2
be831e65
bea67c4e
bebae488
bd24c444
bceb69ce
3eebe4b0
3f28ad95
3ddfbfbd
3b3edfa0
3cac44db
3bda5280
3d13329e
bd6f54d2
bd936675
3d153854
bcb3245c
3e4b121a
3e9cf3eb
3c5c5328
bd1b305e
bd95cdc3
bf034d3d
3dca53e0
3e0a813e
be70f065
bd1ea9b6
3ea34221
3d9816d5
3d1bdfde
be3a6035
befb9d62
3d878fa8
3e92ca0a
3f0463e4
3ee8f35a
3e749a9e
3d1f48d8
3d87381d
bd47a710
3d2c4822
bdbbe487
