3cb25c7b
be02057d
be714a0b
3e15c2c2
3e2f3874
bea12718
be925e17
be0f1e11
be65899e
3de1eefd
3c95bec3
3eb1bb91
3dcda161
3c4d5f9f
3dacfaf5
bdfb96f1
3e214123
be160a10
bde4c62f
3d176e7e
bdb303c0
3d05513b
bf4d2550
bdba7655
3c14af19
3e043961
bec6cb0b
3e062d0b
3ec7866a
3e120e86
bca0bb09
bd9bf1c5
be3e7c34
