be686ae5
be8df092
3e14ce09
be5d675f
be78a077
3d164201
3ecfe111
3e95e07a
3dd09be4
3e503e0a
bdf8df09
bd7caf43
3e33bfd4
3e07eed7
3e11aa35
3dee6cc4
be001fb7
bdeaa8ed
be5f358b
be1fe3b5
bdcc0f35
3dba2bc0
bd8c4969
3d507943
3ca5bafe
be83d32d
3d8466e7
beb66641
be39ef72
3d004a37
3e410446
bc8a3f35
bdc9f48b
