bd9558cc
3e60fb54
beaa82e2
be1e3f6b
bfab5165
bea80dae
bf3b2208
b8ef4e5d
be9e405f
bf05a9ac
3e1b3807
3ccaa3f1
3e09a3d3
3bd5ddbe
be087292
bf0036ee
3e47e408
3eb3f857
3d0ce880
3e59462c
3dbc363e
bef04b52
3e1e996d
3ea797b1
3e79ab8c
bf2a5abb
bf5ad11a
3e8bc2e7
bd8fdfaa
be4c4ab6
3e9db99a
bf134eaf
3b6ae2fc
3ddd3fca
3ea999af
3df0ef4f
bf431f72
3e651abc
3ee2f693
3da585a0
3ebb352c
bf2df46d
be46c218
bdaa8222
3da9bf73
3d998b58
3e90b34f
be81f6a4
3e780277
be491a19
be48861a
bd4526b3
3e00ab56
be78b5f9
3eb9ecb8
bed22ce9
be929073
bef8b4c8
3da9480c
3e9d241a
3d930726
be14d88a
bdde19b7
3f053771
3e83e819
3c706c44
be476444
3e851853
3e308e96
3b98c708
3d900a34
3e8747ae
be5e22ab
bf070285
3df87f85
be8d8913
bf112084
bf0bfc3f
3e7db843
3ebc3832
3e2f9219
3d6c1250
bda4afd0
bf47bdd2
3e2eeb25
bcf01aa4
bdfb847a
be5e0057
3e326e48
bd6c7b52
bee206d2
3f04278a
bd2bb372
be7b058b
3e865733
3e6730da
3ecfa48b
3e8b1ac4
3e9b7f13
be3f4e03
3d992b4c
bb71d407
3e2449cd
bed46789
3eb9b115
3ebd57a3
3d442ce0
3c83feba
3f19c168
3d00cdd3
bede2ee4
3e93dfd5
becc99d0
be9610f7
3eaf5bf5
be407358
be9b3d2c
3de02abc
becaad7b
bef36f32
3e92d3f5
be2fe188
3dfe6fd5
bcc2c70a
3e8535e7
be13891c
3def9475
3e0d0a6b
3e2d01d6
