3d7beb50
bf3914ea
bd690b9a
be602b10
ba86ead3
3cd46246
bd01c650
3d4c7c4c
3ddf9939
3e556d76
3dfb7c9f
3e3ea84c
bf1bd43a
3ddb3107
befc88e8
bef784a4
3e5e5d10
3c0e784d
bed174fc
bf138b12
be5e36a9
bf0497fa
beca369d
3e999c39
3d1c8047
3ce8986a
be0aed5f
bf0b6d07
bdca0958
3d12dde6
bd6ffe56
bef31145
bf388e1e
3f01bc3d
3c4d2103
bd1a6ad8
3e1f081e
3d29f45e
3db4e3f8
3d723259
be41cae5
3e4e1c18
3db6e476
3a438123
bf21b22e
bf1a10b0
3c4eea39
3e1a1d02
bddf5941
3ce05ff3
3e5df915
be4099cd
bd9ce243
bdc129f8
3e2c1c8f
bf60a45b
be993b09
be90d170
be3ea1b2
bedbb91c
3ee6a92d
3e367144
3dd15f91
be1fd93d
3ea406be
