bd3174a1
3d99e645
bd736888
3ca13630
bd925b59
3d50811e
3d0b36f8
bc3f9220
bcb49e9e
bd81bc33
bd1dbd50
bcc37cb2
3d28ffc2
bd25fdcd
bce048fa
bc327665
bd565013
bd24323a
bd91b073
3d8d16e9
bd7a1118
3d4e0386
bd8fe005
bc44fcd0
3d789432
bda325ec
bd8eba9a
bce689c6
bce55494
bd041170
3da3961f
3be5de00
3d2327b6
3c6db92f
3cd6fab6
3d9ce349
3de0a55a
3def6c48
3e049595
3dde8e1d
3e747b35
3e9877bf
3e8e3cb0
3eb5b209
3e7fed5b
3eb87375
3e48e0ed
3db48199
3e0e7f08
3e4a982a
3d597203
3d1f4242
3c8a51c4
3d376066
bd5b6eec
bd70903d
bcf47594
bd7819cd
3da3ff17
bd55686e
3d83baae
3ca95cd0
bd0a1f53
3db192cc
be03bef0
3dd66c1b
3e51e765
3f0a0240
bef4b85a
3c05ef7f
3f26fe49
3f1ae984
3f043096
3f114f6a
3f3d8fdd
3edd00d5
3e36c851
3ef35aeb
3eacbca6
3e6b0a0c
bb23a3cc
bd1cd669
bda4d4ae
bd157219
bd852b2a
bd211c4a
bea5448c
be9e3f68
3b1b59b9
3d670024
be28b7ec
be88187d
bec48fef
3da4bef6
3d3b236f
be27dae8
bf0325fb
bd00b2b1
3e9ae92f
3f0baa3a
3dcba2bb
bcd4215f
be559555
3e9d23f3
3dac14a1
3e1c289f
be1c2b90
3e2970b0
3d1e2e1d
bdfa8c1a
be2c276c
3d00d6d2
3d6ef4de
bcec9360
bed7a039
bec6e3f0
be8deb2d
be7568a3
bd27aefb
bf0af133
ba73c72e
3f17bafc
3eb95e19
bdc0def9
be514921
beb733e1
be2bc0d5
3c7bf208
3e39c024
befd905e
bfa65419
3d1acdeb
3e67b803
3ef981d6
3d5d1745
bea98c7e
3df06302
3f04cea0
3f55aa85
3f0ffb95
3d5f8096
bd54728e
be5fca70
bf288d97
bf1a5ebd
bf0829dd
be606ef3
3e30166f
3eaa79d8
3eeda47d
3c468996
be64410f
bec23ff4
be855cd7
be1be0c7
3bec90b8
bc8fc760
3d81c2e8
be45a7ef
bc719545
be0d167b
3f0e2ef5
3eb4dbbf
bdf218d8
3d3e05ee
3d1e50a3
3f7e6248
3eb7dda8
3d0c90ee
3c056aac
3d3eeff3
bef32bc3
be1735a7
ba7c1a35
bc1eee5d
3f103b6a
3e22c6de
3d8c8147
be9fc218
3bc466dd
3d189c24
3cf7d439
3c8a8c78
3d79e4a7
bd3d2e4c
be6bc08f
be2899d7
be730c12
bf16be1b
bd78535b
3e455c7c
bcd793e1
beb2def2
3d0436d3
bda48dc0
be7d537e
3d3296a5
bd508ec9
be48909a
be90c63d
3d82af5b
3ebd95b5
bc9f1898
3d1fdb71
bde0eba4
3da30036
bdde7e59
bda99e03
be387a56
be2efc85
bbda61cb
3ea83b1a
bb8ed886
3d1f93f4
bca3367d
bec7b588
3d0838fa
3d0f992a
3e36ae80
be5913eb
be5353b0
bd58f82a
bf0fd198
3c9531c8
3c335581
bd23d2cd
be4026f6
3ea1c0db
3e9a40b6
3e890ce8
3d1457f4
be89eb4f
be4f2162
3d9d9ba5
3c8f7a78
3d37ac01
be846032
be02601b
be9b49c7
bb5ad053
bd9a6b43
3e5f001d
3d71958f
3e53be66
3ef73d79
3ebaca08
3e5c8b46
3dc077a6
bda6c114
bde74d96
be924de0
3c492042
3cd0646b
be42a8e9
3e88ff5f
3e982809
bd0ee364
bd210f40
be1847b0
be801037
bed3ce69
bdc4f152
3e445867
3ea1d735
3e57f255
be6cb667
bf0d73fb
be962c97
beaee984
3e2739e2
3da1f8eb
bdc55744
3e206e37
3e66e55c
3ed2e62e
3e80ae0f
3e4d62cf
bee32b39
bf0bdb96
bf710894
bd0b8646
bdba5146
3ed573e2
3ee7cafc
be9fe93c
bd5869f4
3e91d559
3d87da58
bcfb5680
3d492913
3e765170
3be6cb59
3e9f2a96
be261eae
be992347
bf02656e
be483ac6
bdcbd4cb
be21f994
be095ed7
3d8e70c3
3ddeaf9d
3ec4b5f6
3edda3a5
3e72348c
bf2a3ef3
beff7874
bf5aaa67
bca5baab
bbaaafa8
bed2d5ac
3c89cac8
bf175538
be7d6209
3de58627
3e9d6656
3d9c5b71
bd7f78ec
bd379b8d
3e9393a8
3e819f7a
bd3a75f3
3c2ad4bd
bdc7172a
bd8cbf10
be9ee0cf
be68e7ad
3df0266a
be9447d4
3d6abf4c
3e0b0395
3d463753
3f20d39e
3e2b115e
3e2b0643
bc92dcc6
3d2d5694
bc9b669a
bdae48d1
bf061cda
be73563a
bef0c236
3dce7ca5
3e3c8a10
bdc44847
bda91149
bdd8b592
3e895cea
3e32c3df
be8339e9
bd1ac58e
be8bead1
be1de1ed
bd498e9a
bc62f56c
bde5e665
be331f9a
3dbd6ed4
bd36081a
3e468ccf
3f8606bd
3e56fa94
bea5eb16
bb5d0ffc
bcbe4b88
bd8d692a
be37421c
be8fedec
be5aaffa
bedf09a4
be1f8c60
bed7f46a
be33ef20
3dadbb4a
beb4a2df
be2f092d
3e8a332d
3de9d547
be67a14e
be910139
be1438b9
bcee5b74
3e3b5b0b
bc3e63f6
be1343ea
bf0fa88f
3e068c4a
3e266125
3e5ddb81
3ed4e589
be1dc2aa
3ebdc931
3dbc1c9f
3ca1e0e8
be215f4e
be99c52e
bd3c26b3
bea195bf
3e48033e
be97c2ef
be82ae2a
bb0cb10a
be7f1d83
b9c2aef3
3ea15912
3e867c44
bebe081c
be431d4f
bd02d794
bd6e97bd
3d57177e
bd18d6c8
bf2a1335
bef3144c
3d7fa5bb
3e97f368
3e8415b7
3f1e5812
3d00cc54
3e54297d
3d6fd124
bd50be61
be67b21d
3e4f53c7
befdc5ff
beb5b56f
3de0c559
bdc1adbe
be1f790c
be56841d
bee20043
3ed1b278
3ecb3bb4
3c8124ee
bedcfd0f
beaa6145
bba6bde0
be55c043
3e5b854f
bd16f2e3
be103b8a
bd2280a7
3ec83b37
3f333d8a
3f1183c1
3f84700f
3e567d1b
be3d99e8
3c56e245
bd8caa8e
be817f25
3ea56714
be872573
3bbf083e
bd9a3a1f
bda6fb54
bd3cb161
beca8ffc
bda00cbc
3de1bfcc
3f19ac0b
3da79d4f
3a6fdb5c
bd8ac18f
be0d50d6
bda8fcb4
bdbb84d4
3d043a15
3d847549
be9182e9
3e3e1308
3e4dac0d
3ea83bc5
3f955879
3f1ad946
bdacc88c
bc93c420
3d505748
be2ba64f
3a14843e
3ddf05ba
3dabced9
3e9d1894
3deade3b
beda6e98
be67082c
3ea56028
3ed9b55b
3f1be368
be08ed80
be23ff41
bb308349
bf17d9bb
be3622e1
3d481f22
bc46cd54
bde236a7
bef1a46e
bd451ce6
bddb9188
be2acb5d
bdc539a4
bf456b78
bcecc382
3ba1be49
bc0924d7
be1f47c4
be15fc2f
be53d62a
3dfd587e
3ed969d2
3a0ffefe
be87070b
be3cf156
3e6a0297
3ec00646
3f2c4ecd
bed757a0
bf29c74f
3e0f5e2b
befff0a9
be1a85df
3de034da
3e7ec14f
bf015672
be8f180e
3e2158b3
be4297dc
bdbe0c85
bdf05063
bf63dd85
be4212d5
bcd6c14c
bd941da7
bc65b34f
3e471614
be9ca37e
be83d59f
3e8706fc
3e25ee2a
be528bce
bf077569
3eb79691
3eedb494
3f03fe31
be8d7c88
bea20d8c
3d00672d
be89b532
bddb852f
3dc16357
bea0139e
bd819781
bcfa100d
3e3db90e
bcfc8a02
bdabab63
3eb25948
3e080fa3
be374615
3d92d355
3d0e3bd1
3dca8dc7
3f108dee
be91d3db
be7474ad
3de40656
3e5a29a6
bf30c93f
bf4c7c51
3ee42d07
3f3479d7
3f0e2798
be8e17cb
bd98835b
3eb28be5
bda65091
be0a04c6
bdd4455c
bebed3d9
be321982
bc96eb7a
3d621a85
be28ab7f
bdd28f67
3ef29d88
3d14e10b
bd1db219
3d8d96ec
3d07138d
3d9594e5
3f017a13
3da01177
bde62f20
bcd17909
bec0a14b
bf2f0864
bd5c86cc
3d9f0fa1
3ed645a6
3e6ec19c
3cc6abeb
3e076d44
3efd80f9
3e244c57
3d632a7f
be32cadf
be2466f7
be41cc8d
3e0ad92e
3e5ca9df
3e5d244b
3e51d79f
3ee346ca
3e7828b7
3d942798
bd93c078
bd0d11b6
3c6ad756
3f216dc3
3ece5fc4
3e362da7
3cd967a4
be9fd8d6
bf092e24
be3f5143
bca729db
3e149781
3edcd2d1
3d707ca8
bd5bed4a
3f0ececc
3df679b4
3e579f44
bce80c87
bcfd5abb
3db1698e
3e969c75
bd09d4ff
3e50f576
3e8e15fb
3f09b5ea
3db29b40
bc24f0a2
bd808370
bd5af0c2
3df26e46
3eb758a5
3e5b87a6
3eee5230
3eace895
be076d99
bed6a5cc
bee5e8d1
be55fc42
bd9d703c
3e408bbc
3e8c0a26
3e330ec3
3e2e6c2e
3e584394
3ee64e6e
3e914a3d
3ddc9f39
3e877a10
3e61a07a
3eb7b6ee
3e92076a
be2df1ae
3e9b5eb9
bd0b8c38
bd540c27
3ca39384
bc9cc452
bd7fe0fb
3df83742
bdd90df1
3efdcecc
3e9607af
bf62116d
bf557bdf
bf1e93d5
bed5f9d7
3dec0f0d
3ee2c3b5
3eccafdc
3e5c846c
3e9b97b1
3ee304fc
3cfc53b1
3e6d39c2
3d4a60b4
3e9eab4d
be1cb032
3e94aeae
3db7df30
bdbc1771
3d2d4b80
bcf4f010
3afe3040
3d820bc5
3d7c3ebe
beb9facd
bd9c1201
beafa975
be236e7c
3da28e50
bcaaaae2
beb981c4
bf075681
befcda78
be583c1f
be02d6c6
be083e25
bea18f51
be456a1f
3dd173f8
3e0a0479
3e94d636
3d1a1092
3dc92c18
be564425
bea87e7f
bf19da3f
be301ff3
bd27d2ab
bd0ba1a0
3cf8bb78
3d690e36
39860600
bd282e5b
bd7814e4
bc59157c
bee30d3a
bed60a55
3bc65f1b
bb5efea7
befa9471
bdc3ef4f
3e04ecf3
bd118afc
3e38bfd7
bd8c2ef5
be61015b
3e4a7122
3e38bd18
bdb7c222
be78ce2f
be892126
3cd3688c
3d45cd9a
3d089229
bc4f1e75
bd9e60d6
3da48205
bc580490
3d29cc10
3d9f0815
3d469d72
bd11ecbc
bd6dce84
bb6a3220
3c2f7310
3d3c9e8c
bc14ad14
3d3e961b
be6407f7
be097127
be2110d0
bde1c1a3
bd464d2c
bcabde71
3b863cc4
bcb07294
bd825c2b
bd41411a
bdfa1a16
bd741103
bcc55822
bd2c4fd6
bcfac608
3a3c6280
3a980f40
3d4a9622
bdfa28d7
