3caade70
3bf9fef0
3d91287f
bc1dfe98
bc9cb23c
3b861830
bce993f4
bd5a317a
bd19a754
bcd79810
bceeeb9a
3d2bb720
bda47852
3c737520
3cb64041
bd703a96
bcc08218
bd996a1f
bd837cd2
3cb49e18
3c84ccd4
bd685edc
bd0fdbe4
3cfff380
bd9f0a93
3d36f13e
3d540e0a
bd21b375
3c982cb4
bcbc436a
bd4e2ddc
3d9b8923
3caeaed0
bc47c191
bd9afbb0
bd81c380
bdb473c3
3b92977a
bd7966e9
3e170c56
3e63ab3b
3f007106
3f0ce629
be402ddb
be3227bb
bd9982ce
3d2e732b
bdccc58f
be09f127
bdda1879
bd25e96b
3d85c105
bd5d97d6
bd0112f1
bc6ecf68
3d149c8e
3ce6409c
bd75f2ac
bcbdd508
3e550393
3e479d76
bc6388d9
be96ee42
3dfac867
be95d803
beeb48ac
bec9d262
bed6fea0
3c57911a
3e804a2b
3e56a5e9
be52632c
bea357d7
3d501f30
3e6873bb
3ed3874b
3e62cc11
3e2cad48
3dbfff5c
bea039ef
be22706a
bd5f8e7c
bd507816
bd60c382
bd806caf
ba234e80
3ae2e14d
3e563b9b
3e3d4121
3c56479a
bf0949c6
be59f61b
bf4bcaff
bf7db6f6
bf19dec9
bf45ad20
bf3f04de
bf3f013d
bda7cbbb
3eab3f44
3eaa871b
3debdc88
be9fee50
bef20658
bea215b7
be55eb6c
be80f3b9
bc84a6d8
bf025be4
3d2649fc
be1c0af2
bd0cead7
3cc089a4
bc6528f8
3c018d46
bc73c665
3e071894
bec45da3
be77cd2b
bdac12a6
bea7878c
be43646c
3c6c5990
bdbe49d1
be6f79a3
bd6d5e6f
3d8572ae
bd35535c
be02ad7f
be152603
be666b6b
bea355cb
be8811df
be1af763
3dd37a35
be6c3810
bf00bbcb
3de10eda
be1ef1ba
3d0a3b64
3cc4d5c8
bceff55c
bd34cd38
3e68a002
beea3734
be923ab4
be3cd56b
bce5e8c5
3d99f1c7
3e21ff40
bd181dbb
bd8d12a0
3de17eb7
3df21228
bde485e6
bda206ac
3e59e600
3ea702ae
bdab8f84
bbc0d6e8
be4f5dc9
bed57456
beb769c2
be94ed93
be9006f0
bf03cdb2
be837e5e
bdcff78c
3d8df08b
bb837396
bd8c52b5
bd8d9767
3d14c922
3d29b7e9
3e2408a0
be2a9569
bf0e4e04
bea28927
bd3fe220
bdf08722
be8e040e
bece34f5
be7c2cf1
bd97f63f
3e096dfc
3e99c46f
3de60671
bd9a2c28
ba676f9e
be035f8a
3d0c61f7
bd81d77d
bda4c540
be638481
3e85304c
3cb78eac
3d54471a
bdd68695
bd0e3dce
3dd6c6ea
3d90c4ff
3eaea134
3d503490
be1c8ee7
bed29fbe
bedb258f
be0d3d50
3e3753f1
3db931cf
bda5575b
bd8aa69c
3e1e4a63
3de3d59e
3e9f85e2
3db09c94
3ca40109
be3f77aa
3d6bbb13
bdbbaa82
3e236a96
3eba4d8c
3ed45c91
bf46e6ee
3cd07f7e
3da4c9ef
bd6ff374
3ea9f752
3ed7a993
3f1a8f44
3bda2d87
3d87190e
bd3b570d
be4d6c39
be6d024a
be1b131d
3e8e02ca
beb295e2
be97c24d
bc8ac31e
be583bb1
be4ba3b2
3e0bf7d3
3e1ce20a
3e851ca3
3d160efc
be057a22
be9d48f5
bd9bfb5e
3e21e975
be2c4e7c
bf582deb
bda4bd91
3ca4f360
3d3f2169
3ef37275
3e63a188
3e4dced6
3da75bba
3e3414df
3e2addd5
bcdf99df
3d67e9c5
3e0929ee
be8c2bfc
beb1cd48
3bc58cb7
be2d9ae2
be83d8f2
bef956a2
bee41725
3c698bd4
3f0984b0
3f17157b
3e6af0f9
be062772
3d1eb6b6
be6b98f9
bf352391
bf08c832
3c3d1892
3bda8180
3de35ac1
3ea0b331
3e7b50fa
be310b07
3ebab5ec
3c8c6a22
3e3ed89e
3b590475
bdaa9f75
bdd43690
3e39ed52
bd86a53f
be87fa9c
be559137
bea5bc56
be5f33a1
bee6c242
bedf387d
3e550bb7
3ebc27da
3ea8a884
3e8670d0
3e041f03
bf027a7a
be54e8f1
bef76d4c
bd0a062d
3c7c5768
bd4ed691
3ed72ee1
bec25811
3dc051d4
3d44c87d
be2c88b6
3e11c889
3e48f5f5
3db7701d
3d116640
bddb1fb9
3d98c653
3e01e92e
3dd0bfb6
bdd8112e
bebfe302
bf83716f
bf6f3811
bc89c951
3e941dae
3e75a18f
3e23dbbb
3e702dcd
be96b740
be38d82c
be1a12ec
bcd59595
bd595375
bdf08064
3e7b6cb1
be29af38
3e58ad7a
3e1999a5
3e64d75a
bda1e153
bd398ebb
bea6122a
be2fed25
bda4e489
3daaef95
bbd6db58
3c4d63f8
bebdb203
bf23ce52
bf35e1e6
bf52afd0
3e332c3a
3db57020
3da3b9e8
3ea90d3f
3e830ef3
3d324247
beb7ace5
be4ac672
3d2c5b51
3d34ce82
bd349354
bd6bf73e
bed92c5c
3c693c54
3a892819
3cb8798f
3c771f51
3da48e7e
be3dccb6
3cca4b79
bd6a86c5
bc80e7d1
bdc92da5
bdf3718a
bec970e6
bf40b761
bf5c7665
bee3c61d
3d82ca20
3ea8bd4f
bdd1b891
3eaa9a52
3dfa854f
3be1b122
bf02a2e5
be6daec2
3b8c2e48
3d9dd651
bda4862d
3d14a3ab
bf10b9e3
be8447aa
bd96272e
3c821646
bd620753
3d88c708
3e830285
bd653233
3e8fa639
3e39f1f9
3c8ceee9
3e35366f
bda71d9d
bf340f24
bf634adf
be234f61
3ee6e950
3ecee3f3
3e077a3a
3e95bd87
3cd1855b
be9a09b4
bed84ca2
3d80a259
bcbb5014
3d32c148
bda43c68
bd1e48a2
3e42ac35
be849f98
3e505b0f
3ea5c408
bd41c14d
3e16f103
3ed06b01
3e9edf1a
3e0a8ced
3da0a3db
bdfca11f
beb995ef
bee1e1a6
bf68ec70
bf51aceb
3e709e85
3f2684c8
3ef4418a
bde3dfbc
3dfb1230
bed4b737
be32c99f
bef7877a
3e11153d
3e0b97cf
bd3a5e4b
bd98d7a7
3c13170e
bd1fe3ec
3e35734a
3d33d0a6
3ed3c9d3
baaf90dc
3dd3d628
3c6cc925
be9933e2
be347c6e
bea08dd5
bf217b3f
bf110b92
bedb001b
bedc905b
3ca2b66d
3f063180
3ebc7f86
3e867ba6
bd3f89c8
3e644647
bf430651
3d865211
be101035
3ec22b37
3e29741e
bd065cc8
3c81ef28
3e5e158a
3d3f1781
3cb290ad
bd95dd86
3ec57dc2
3ec585b0
3e0a754e
be4b2549
bda2d12c
be44bab0
bed48ff2
bceb97be
bdc099e6
be2d0748
3d8105b6
3eafa983
3ec5a25b
3e927194
be027ad4
3cec29f3
3d3f8534
bf2bb6b9
beaa5d38
3e245796
3e9614f5
bb2f1db0
bd2b5140
bd08c951
3e2ab682
be486551
bba36206
3d5b7225
3e26d691
3d9eacf0
be1a1645
3e5de9c6
bcc3cbf7
bddabb5f
bea85ade
bcf6b5ee
bd455157
3dcc58f8
3ea5d323
3ef0c4a3
3e236604
be8f935f
be097de0
3df50a62
3e17f93f
be463c23
be411d4b
bdfe877d
3d3f9d3a
bdacc392
bd98a4b2
3beb08cc
3ed957da
bee0b194
be000ade
bc8c4346
3e8239ae
3e4bc57f
3dee0628
3dd7fa49
3edb438d
3e1f581c
bd4cd3b0
bdb21992
3e128990
bcc29832
3e5b1800
3e2b3f3c
3de26bd0
bca93bd3
3c9efdbb
bd9f9b20
be607243
3e22d174
be03a703
be47f597
3e166ded
3d731e6f
3d6da23e
3b28f3b2
3e7bb2ce
bde29a70
3d0fc1d8
3e4d8eb2
3e693da1
3d84aac2
bd905ac8
3d8c3231
3e722d4f
3e1678b8
be68a0c1
be0664bf
be1bf5a3
bdb2981f
3d61fd54
3e1f8d91
3ebec7e7
3e254c76
3c1d11d0
3e01c27e
bd23d3d7
3ee4dc57
3ee8488d
bcd8aaf2
3dfa175d
3d8402fd
3b107fa0
3e3fed78
3e621420
3f1393b5
3ed3f3ca
3dc4c313
3e7b65d5
3d2dcfe3
3e06c0d2
bdcba923
bb13dca4
3c4fbc20
3d2d2689
bcfdd5f8
bdda6a75
3db61962
3e9b26ae
3ded4710
3e9df4c6
3e9cb68b
3cd4491c
3e13af37
3e80192a
3ed1c34c
3f94f474
bdd79410
bc23825f
bdbd3597
3d6c7b6a
bd5f8bbe
3d5bb942
be812798
bdcb4238
be18da2b
3de54937
3ea7a846
3eb3175c
3d5ce538
bda16367
bce93694
3e41abcf
3de86dc5
3ca466d5
3dd8e402
3e9f0084
3e98785e
3d7f285c
be123eaf
3e5eb675
3e99c01e
3d03346d
3dac765d
3f8f4c74
be8489c3
be4e0a2e
3b8b3417
3d13c942
3d711cca
3c27c915
bf423f22
bf0f2225
3dc1d877
3e7ad007
3e399b06
3d70adb9
3cb04cfb
bd1ad4b2
bd96fdf5
3d2a6b3e
bdcd08bb
be22e355
3d84bd4b
3d965fc5
beb160ba
bf0921d2
be90d5af
be71009d
be64c9ce
be8134ba
bded0792
3f6f6023
bef90229
bdc10927
3d953641
3c17d920
3d74830e
bdee8c70
bd3e97c7
be49d357
3c4fc4ea
3e969793
3e1f33a4
bbaf5686
3df9d110
beab548f
3de4b502
bdf4b5da
bdb7ddc3
3e74899e
3ea07613
3e774a01
bdb9a747
bea604f4
bf79637d
bf34d3ee
be79cc08
bef8a369
bed69937
bedefb62
3ca89a7a
bcece4e6
3da5a679
bd20e51d
bc6d1f18
3d837a21
3d99f63d
3ec3d6d6
3ef8874a
3ef934ba
3e330b4d
3c1ad1c2
be7783af
3eccf685
3e493622
bf340086
bebf276f
3e7b9dd9
3ef852e5
3d229544
beb74108
3e2e4873
bbaa8181
3e099739
3efdb04d
3e8a5af6
bdd42a9c
be982f4c
3d115b62
bc0bf0a8
bd85924f
3c811710
3d91596b
3c3ee450
bd28f13e
3e5cc762
3eb1642c
3ef18c1b
3f198f32
3f001f83
3dd2c778
3e19af3f
be6915b2
bde399c7
3e662286
3e47c34c
3d391c68
bf2e15e2
bf18f73a
3cc1226f
bd50522a
3da9c1b5
3e93093e
3eab3bd5
3c96cf7d
bd39cd86
bd3ebe30
bc87e99c
3d95dfeb
bd88ebda
3c8de4dc
bb917fb0
3b84e0b0
3d6caa66
3db55466
3dc97430
3db30ce6
3d238897
3dfffabd
3e2c1ba4
3de3c5cd
3df07050
3ebf5bf1
3ed67e97
3e9ea5d9
3e6e1b72
3db01a2a
bd7a0ace
bdf964af
3e49c2c5
3dbc8c52
bdd071b4
be69a56f
bd7b6b02
3c6594e8
bc720688
3d804c71
be682ec2
