3d95e5e5
3bbaa0d0
bc1d80e0
bd42b323
bd67a2e2
bd8ac8f9
3c8e7b40
bd6c8d9a
3d262050
bd5eefc4
3d947f65
3d3b567e
3c91c299
3db42016
bd97217e
bd5ddc02
bccfd3b8
bd091364
3d057fe6
bd84696a
3d4bf526
3d7e67ee
3ce70f28
3c489338
3d4a3b4e
3cd00c74
3c1eebe8
bcf7eafa
3c581368
3d0e7902
bd219d3c
bc8cc024
3c73bac6
3dcf5f55
3e2e69fb
3e63a970
3e6b4778
3e5ee2a0
3e69cd6d
3e37a4e7
3f0bba0f
3f5e2981
3f2a700d
3f132935
3f182e28
3ded28d1
3d8c52b8
3e8dd59e
3e218a06
3da7a4ea
3dd3a570
3e1cad64
3d5f24c6
3d86d8e3
bd681987
3d0906ec
bd8d0922
bcd24a12
3d326d89
3da7e25d
3e77cf8a
3e334173
3e8d8b3f
3eeab1f8
be8d3f33
be2822f2
3e25149e
3f36b245
be99ed97
3ea124a9
3d9ab255
3e53dece
3eefb5b1
3f13cd46
3ef52b85
3f309559
3f0fbc5a
3d30ca3e
3e97630a
3e19baf9
3d5bee6a
3d97ea87
bd451e66
bd861a4d
bca475c6
bcf55a44
3d1120f5
3e9e26a3
3f02d6c7
3e1d0d32
3cbfb610
bc22fb8f
be7298f7
3d97b03d
3dc290bc
be972d55
be8f78c0
3ee1423d
bc5dea2c
3d4b5513
3dda8bce
3ef81cd3
3f1da4ef
3f0379f5
3e57f1e9
be029fb7
bf116076
bf0884e4
3ea6049e
3f25c01a
3f0f0a40
3bc4ed60
3c896fec
3d765e47
3e0bcb7b
3ecae150
beb018e3
3cff13b1
3e34b570
bdc20357
bee4949d
3d92079e
3d7a12f9
bd64c996
bb0acfae
bdd401e5
3dfed493
bd9bb70d
bd2189fa
bdf9ac19
3ebbed27
bc36e27f
be483ae1
3d69e2cd
bce29b78
3e4f3240
3f3d861c
3f7c2653
3f2ac583
bcba5b0c
3c545a58
bda3462c
3de72514
be59033d
bf745403
bce031c8
bd3ad2d4
bee4d487
bcaacd0e
3eba9d59
3e452fb9
3d0c26cb
bd16a74b
bda599fa
bd937154
bcc752cf
3e332c88
3ea61427
3ec63da3
be8d227a
3e46970b
3e336fae
3e915071
3f33767d
3e276d40
be06a5a6
3ef1cad8
3b84d52e
3d9ba077
bd2c6225
3d116ad7
bf6eaded
3ca8a4d8
3e173995
be436b4f
bdb934da
3d37cd33
be35ec9c
bdf6497e
3ddc8ac3
3e3a63f8
bdbf45a7
3de90c3c
3e3314fe
3e81fea1
3ebfdf7d
3ebb7b7a
3e2f65b7
3f154305
3edd5165
bdbee25d
3e861002
3e18c31d
3edb6a1f
3f23f029
3da895f3
bd8951cc
bd54b2f4
bdb4973e
bf13d878
bda0581c
3e56c666
bebce7e1
bde10460
3e1e3489
bd181355
3e7c0097
bbfe4dee
3e079909
3bc0a98c
3e9803bf
3e185b5b
3f00b1aa
3e9d57d0
3e9fab5d
3ecc2961
3f091a8d
3e53809e
beb155f6
bea04fe9
3cdeaa1f
3f06d5b5
3ee11ba2
3d7cc3b7
3d724422
bd909a46
bea3955f
beb983a4
be9a2559
3dd9cddb
be256322
3cbbf912
3c8a0527
3c225998
3d9c614c
3da105ae
3e2b1bcc
be73b10a
bee22dd4
be1ffc4a
beff2403
be858524
be82d11b
bf3f54e3
bf3c9ce1
bf52ea7d
bf426554
be88b988
bf1d4053
bf50ad4a
3e556d85
3d0145cb
3d7ed186
bd486051
bef9ad40
bf06e181
3d90cea6
bea569ec
be327458
bdafa828
3e7a6936
bc146955
bdba2ed8
bd905f23
bd71f0d4
bf295914
bf556b37
bfa7d2df
bfe5bf77
bfdb255c
bfe378f3
bff95c38
bfbe869c
bfc1d9d8
bfc09055
bf4bf974
bf8a1613
bf52a2c7
3d8680c2
bab04e3d
3d4f364a
bd54a29b
bddf680d
bee7472d
3e5bac33
be89d43c
be870d10
be95dc3d
3cb48e81
3d134cbb
be8c6f96
be98c43f
be5561be
bef3eaa8
bed2e3ce
3a952248
3e3c8b0f
be2d1653
bf41c290
bf86f788
bfad3e23
bf54bc64
bfc56969
bf81e4c2
bf69c6d7
bf373d83
bdcad8a0
bce4f0a2
3d7f342a
bdd29052
be2e9d0a
be99d59c
3d9072ec
bde968e1
3d26e0a8
3d5d77db
3c12dfd4
be11847b
bd26c037
3d93187e
bcae35d4
3e16bc3d
3e1fdcc8
3e113b7e
3edf2050
3eae6eec
3e980e7c
bebe1ad3
bf688f3c
bf79058c
bfa8df07
bf80c3d2
bf620913
bf4e1695
3e56b19e
3e7cd0c5
3c721e38
bdb72cf3
be3f8f97
be88853a
bec097d5
3dabdc0a
3e50762a
3e576e84
bd2d8ea8
3d989375
3dcaee99
3e88d012
bd61344d
bd8f804e
3ccdbb6b
3ce035e0
3c5dc7fa
be554292
3de5e819
be10b147
bd273caf
be5a73dc
bf0604e2
bf0b358c
bf20fd5d
bf477605
3e8501d7
3ec23e50
bc7ee840
3d04130e
bd7e7dda
3d33b499
be89a52c
3e65c8aa
3e141ebe
3ec9976e
bdc2ac7e
be05c1ee
3e97428b
3e78f39d
3dbd5600
bc7639e3
be8d69e2
3e887adf
be0a6c96
be4d82cb
bdaee32f
3dbfc98f
3e206a0c
bd411c0e
ba9e87de
3e21e26b
3eb53d5b
bf07f9b1
bdaa0c9c
3dc551d4
3eb2cbd0
3d8ce7f6
3d331899
3db138e7
3f0b9a69
bd60ec2f
3ed4d55c
3ecdc277
3e92da25
bd9b102e
3e34b96c
3dc204fb
bc9d4b36
bed3fbb0
be9302d1
be17ed24
bec157a3
be075d40
3dc18581
bcb5173a
3e7ca980
bdc89ffa
be6899de
3e86f48a
3f2c829b
bd0ed868
becead45
be0a6f03
3e7b067d
bd551eb5
bc2d2866
3ddfc464
beb13346
be425563
3e129d0f
be7b0820
3dc78c19
3dc2718f
bdd22033
be8cd367
bdc7421d
bf081050
be88a53e
bdd82ec7
be125ad9
3e9d0980
3b745768
be1cfc81
3e0c37df
be13649c
be44c5c0
bdfcee28
3ec6ad4d
3ec67c3f
be925a3f
bd801de2
bd844645
3c48dfdd
be0863f5
3e89a198
bf5930e7
bf1ae89e
bf09ae3e
be5371e6
bdb6d695
be2bc8bf
be671067
bdd9166e
3e01e1e0
bdb4dcd8
bd77a539
3e3f3642
3e6c3120
3e848f74
bdf917e4
3d769115
3de8eccf
be4a7228
3de4942e
3bf22292
3e8c02ca
3ef9ac9b
bf404c5a
be402e19
3d3a0026
bbbb76d1
bebf75df
3ec4644b
bec2c6f8
bf05922c
3d864a23
3881e920
3e80ad6f
bd687c7b
bd94a1f4
3e3fa322
3e03f3a0
bc55db54
3dc90f4c
be0d598e
bd9a9c83
bdb422ab
3e402088
bd772871
3ea322f1
3e6389d8
3d81ae00
bcac2963
3e8381a0
bd412863
bf0a2cc2
befafafa
bd19dc2c
bd7b9cfb
beb2226e
3e85e355
3d811813
3ea5560d
bd6ec5b7
3deed2cc
3e81470b
3daf0c59
3dc382e8
be87bcdc
bebfd6eb
bed2fb85
3de9d342
3d3ade85
bca833b2
bc5a309b
3e24f046
bd1b659d
3db26e76
3d21aedc
be839b9a
3ced3577
3ec84a13
bd9b6cde
bf16b42d
bf02f8eb
3d360d22
bc414ec2
3d8883f9
3d1933bc
3ec09c18
bc7e5036
bdb58f1e
be9b9e64
bdb417ef
be562313
bdfd08a3
3dd16647
3eaf970d
3ea0fa49
3e0aaa7d
3e16fbe1
3e64bdb0
3e5949cd
3d632b61
bc120fea
3e3bc8f2
bd1ec970
be2b8ddd
3d0964ef
3f164e3e
3e26c21e
bf533b70
bebd3b70
3c877df0
bdc3c2e9
3e096b33
3e730b09
3e38d529
bd96159f
bdfdffdd
be142709
3da44224
3ea92332
be67361b
be3dde14
be1c1abd
3d9cedd4
3e9b21b5
3ec2f9c9
3e889324
3e4d92bb
3e30e462
3d8324c8
3cd6d1ac
3e30935c
3e6067c9
3d8df5ba
3ef7edcc
3ef3b401
bf27fa9c
3d83e800
bd83b316
be3d095b
bee47d34
3ef2b5b5
3e97d3b9
3eb0566f
bdb20ebd
3daff70c
3c39ce8d
bdfc8e80
bd94e803
3dd3d8cc
3d9ebc24
bc6960c0
3e0ccb96
3e24a3a0
3e085599
3e972aa2
3e0ebe19
bd03cc85
3eb25567
3ea1fc1d
3e4fc336
3e82d400
3df09f40
3f16d107
3c56e5db
3d53e38e
3d9425d9
bd6167ae
be872875
3e82621a
3dfea612
bd7faf56
beb1af18
be886f63
bcbdbbf6
be0cd970
be3371e9
3d883739
be192bbc
bd11bcdc
bcc1d1c3
3d7cdb61
3d2aa5dd
bd2ae21e
be460f73
3c58cad6
3bca4186
bf0dd9fe
be894802
3ed9f60b
bdcd4693
3eb4c7a3
3f4ecb02
bc699148
bca74ce4
bd78ea60
3e914f05
bdc9a84b
bda27bb0
be5cdec3
be94508b
bdd0418a
3efb336f
3e1791bc
bcf4597c
be82c0bb
bccbd6dd
3e66a3ac
3e422754
3e895048
3e2b7b71
be4ccb0f
be1fd696
bd9c3e7a
3a325231
3c38e74a
3efafee6
3e323547
be9480a6
3e8e0b40
3f37ea06
3d835ae3
3d0c7dba
3d1d753e
bc866efb
be2d7e5f
3e54940c
3cefb2b8
3e29e16f
3ea6f13e
3e285fea
3ece3dc7
3da33c1e
3cdba95b
3e7160a2
3c18d02b
bd577a46
3cb42eb8
bed0c1ac
bd7f1deb
3e20e751
3d5c177e
3f05e90b
becdfd81
bcf23b7f
bef7fd4e
bea635cf
be0dc374
bc9319f4
3d2a8270
3d7c9cae
bd823b90
3d89e988
bd74dfff
bf3d317b
bf258334
3ec02546
3f7fffe5
3e96ed86
3ec17bcd
3e0fcf5f
3ece0851
3eaf0c21
be16379a
3e0e5e81
3eb7a3a3
3ed20276
3e2a7897
3eb2b25a
3f709cca
3f36859c
3ecbe4e3
3f3ca841
3efd7635
bebcc1e6
3cfe6d9c
3d59efb6
3d6eb972
bd035483
bc8e91e0
bcdcd392
bcaf3cca
3da6fe34
3c54dc95
bd8cda9a
3c3e8a56
3ce675a9
3cb1ebd1
3d6d1b73
bd2035be
bdf38bdf
bdf2bc53
bedc1a32
bf0f165c
bf547298
be9b1570
3de6a940
3e651a60
3e704716
3f0073a5
3eefea1c
3e993b81
3bf82aa0
3cfb9270
bc90979c
3d49f18a
bda42b02
bd2f768b
bc129048
3c75c050
bcbb96b0
bd1df79c
3da3a1f9
bd097739
bd2bd448
3c347b45
3c94777b
bd7f3236
3cda833c
3c871916
3d54c6b4
3d2e04e7
bd8cbdb4
bbc60d98
bd61e666
bd007790
be88172a
beb07248
be914aa7
3d54ef1a
3c8e0688
3b40c940
bd02ac78
3d15a26a
3dc889b3
