3e786359
3d0bdc85
3d17142a
be27c891
3d042ec6
be95db7b
3ec5e625
3c983d2c
be5868ee
bc10bebf
3e66b4a1
3e44b318
3e745740
bd90120f
be285258
3b7ccf10
3df0e95f
3edf7d63
3e12d531
be5b76a5
3eb79c1f
3d1b507a
3e7379b3
be15a508
bec7688e
3e0827cb
be5feb4e
3dd696ff
3e801d4e
bd7a0378
3e3bcc51
3e2bd1d8
bdcfafce
