3d87b367
bd389fc7
3d574b16
3ccc3068
bb7c5440
bd8f9b80
bd48aba6
3d498742
bd7b1950
3d1b9ef6
3cdb7bdc
bd584f0d
3d71d112
bd53f9e2
bc8207ec
3d1e371a
bda2732c
3d24e148
bda01eb7
bd8e602e
3d7b8dc6
bd4cc956
bd056653
bd22c53f
3d52ab1a
3cada274
3ce404f0
bd67dd6c
3b655a60
3d3e8e92
bd52344a
3d80031f
3d30b7a8
3d50c0d4
bdb68af1
3cad9281
bb8794b4
bd3914ef
bd94e48b
bd486ba5
bc22bcfe
bde0aaa0
bdaf56f4
bd3b4e0b
39df9114
3d187be9
3d5d4beb
bd569766
bc26aab9
bc13caa8
3d5bbb10
bd90cf82
3d4b587e
bd8eaeb8
bcbb9d38
3d212658
bc8188fc
3d445fce
3da566b9
3e17a49c
3e36fdd9
3cea0406
bddcaf0f
bc9390d8
bcb4f751
bdaa88e7
be05176e
be7f7a4d
be1ec45c
be36c99a
bdb3635d
3df7dc04
3e131064
3df2c4c1
3e0dc556
be1a4b25
bdf93726
bd1817f7
bdf67f3f
bde4250d
3c73f751
3c4b2900
3d298024
3d9ce56b
bd57a282
3c183ac8
bda31d0e
3c82802c
3d5a01bf
3d36d4fe
37ac28f9
be8e0bd9
be409d7c
be8a9502
be581f3c
be3191b4
bea083ec
bea8da79
be03613a
3c844878
3ce5de44
3d885ff2
3da71671
be8f5672
be361579
be630830
bd4536da
bda36b49
3ca1bbdf
bb3a9ac0
3d43d4ed
bafe1640
3d75772e
3cce5854
bcc5f678
3eb960f7
3eb34073
3dde15a9
3bfa75b3
bf08bb8a
bf1958c2
bed28cfc
bf3456a9
bf58764c
bf069200
bd814486
3debfb1b
3c9cfe82
3d42bca5
3d578490
3e178d53
3dea7228
be893856
bee58526
bf22c867
beb514d8
b72a7619
bb2e047a
3d1c427c
3b9c9055
3da2ec17
bd89c10a
bb2181a1
be9eced0
3df32c86
3e8122f2
bddf60de
3e2ab4ae
3eabf063
3ec0a2e3
bdda07cb
beade081
be2fd0fd
bec73168
bef2eee5
bf2de627
bf2b46fe
bf5d3d72
bf631b5a
bf3aee88
bf728db3
bf84cf2d
beee3288
bf1b6452
bde34545
3eaea31f
3ed48076
3d49b391
bca7f392
bd8c8b04
3dd26bc3
3db2ec6d
3f490bff
3f08305d
3d12dab4
bdaeeb3c
bd108296
3ee978de
3e89a28b
3ea66a0a
3dc2d275
beefb915
bf6549b7
bf24254e
bea23cd0
be77f333
be90faa4
bd864075
3e121bcf
3e8f3283
bf2c2d12
bf1d9ee0
bdf83675
be15ffa9
bdbad517
bd4565cf
3b5ac33e
3e06d499
3f0b1899
3ed4b6d1
3eb3ed83
bd33a94c
3eecf441
3eae1503
3d52bde5
3f0c7f31
3ed9dd1d
3e45daf8
bbcb6e96
be27d6f9
bdf3f152
be833444
bdcc4502
3e2920de
3e54d0a7
3deca193
3df48986
3e9f225c
3ddc7ee2
bdcccef3
3dc4e41a
bf2c90de
beaca8bf
bcb07045
be26e69f
3e2f41b0
3e1cbf09
3e172052
3eaa4124
3e8506d2
bd76c1a5
3e177e48
3eaccedc
3eab9f85
3eb9bb6a
3e1e633c
3e21ac75
be0c38ce
bd74bfcf
3e57af5a
3e8c4ec3
3d604b98
3e832a8d
3d706cde
3dbce7d9
3ea09dcf
3ec07d9f
be3ab101
3d904a8f
bf530af6
bdfd2801
bc9cae85
3d9d4420
3eb1764b
be626420
3db2155d
3eb01fa7
3dda894a
3f1f7262
3ed5d47e
3ec1d88c
3f21820a
3eda1962
3ea131d8
3ecf18de
3eb37ffe
3ea7f05a
3eab4cbb
3e5328d4
3e97aae6
3e7913d8
3e5bc276
3ee590e1
3ec5a4d2
3e904b19
bed45c90
be5a61d3
beb7e517
bdff8af3
bdd65318
3dd16a17
3e3731f6
bd812ed3
bea311e3
3e16810c
be23e632
3e6e947e
be02287b
bd9c7f67
3eb2f17a
3f007ac5
3f38a2de
3e3f4840
3e9f5cc9
be32b4a3
3e0fc1a7
3e4d5095
3ed62f26
3e85506b
3e254044
3ebaf001
3e3300fe
3d5ae3dd
bf0e4b34
bf7b81ae
bf028d47
be4542b0
3d13e00a
3dc9ce54
bcc92a05
3eca025a
3d126b3e
bdb36466
bea899cc
be2dd170
be68f945
bf1a6723
bce7dfe5
3c122e4a
3dc7b5cd
3d4bbf8c
be70ba01
be93bd54
be07a5d2
be8c2f50
3e802ce9
3e19cd5e
3b21123a
3e55eb2c
bddac7a3
be0c9d03
be372324
bf56e04b
be1330ae
bd6293c2
3d6d3a53
bc02d291
3e1aa46c
bdf122f5
bf08384d
bf04696c
be98a454
bf2f923b
be715bd8
be74659c
be6026ac
be64c17b
3db6db2c
bca8b947
bf0e0261
be1f1edd
3e11287a
3dccb9cc
be80dc7c
bcba789d
bddb95cc
beb00a53
bdb2868d
3cf3a883
bf161b0b
bfa1edf5
beb5953a
3bcffaa4
be1b2f94
3d940a57
3cc074af
bd2c8682
beb0eb7c
bf05e743
be4a0ab6
be9d20f0
bd802c18
3ef8a2b1
3c0ff8f4
3ce2748e
3e23a7ef
bf2dd4fb
bf89484a
be848418
be5c5ed8
3e0c1454
be749ec4
bdbd7120
bea92e76
befc963c
bebbba5c
bee951fb
bf34bd91
bf83c2c3
bf1008c1
bec9c677
bec1f052
3d7fc74a
3d7cb98f
3dbc6adc
be218b06
be7a5907
3e2d1640
3da11729
bb9072b9
3dbbd164
be19f4bc
3d833a7c
3d0fdabf
bf4e15e1
bf0ccb05
be64866a
3ca81864
bde2c811
bd444684
3cc5cb5c
3dda0e14
bec96804
be3cd546
be3ad042
3edb9436
bc5b51c6
3e6bd812
bec6ee71
bdb46a1f
bc49265e
bd59aa8c
bb409205
be303f84
3d1c8844
3d8d2aea
3e9c5d2f
3db61deb
be54b3c1
bdd13de2
be2d6fb9
3d0b90fe
bf0a0e21
bdcec298
3d91e238
3d6eab28
bebc12c7
3cc0235a
3e8bce4f
3e55ade2
3e8b86b2
3f03c118
3efe01d2
3e895f56
3e7d598f
beb49b4e
bc17c068
3d91c5f3
3d95c7fb
3da03ba5
bd844161
becc6072
bf14c7cc
be1fb59e
bdaaadd8
3e769873
3d3b096f
bda4309c
bea902bd
bf11befe
bec5bc4f
be661ae5
bdda5fd5
bde26907
3cbc1422
3e65d731
3e32cccc
3e997591
3d2611da
3eb83dad
bb79d385
be7b0fa2
3d8650c8
bf0a5f12
bbae1885
be1b5020
bd221e0f
3d8fa271
be14e682
beb0968b
bee07142
3ca37f57
3a3edb53
bdb49877
bdfa7dcb
be29fd80
be16c167
be475d8c
bf077ac8
be11ebbe
3c186c4a
bdc094d7
3ca02eb6
be92294d
bdf7ec9e
3d98dd15
3e0297bb
bc520862
bd7c7cea
3e7992ae
3ee68b8c
bec535fa
be8e5193
be2f7732
3ebdd1ca
bd8661e3
3e1ba8eb
bf12ae3d
bf6d5e28
be6e792e
3db9f16e
3efc9407
3dc5f806
3e88cb9c
bda70f27
be4df0db
bdede74e
3e33b114
3d99a7e6
be568edc
3d1321d2
3d94578a
3e580773
be4cbf71
bb83b938
be9a09a5
be0a8d87
3d965707
bd34796e
bf365bce
be8552a8
be439d19
3d83305b
3e4e09f4
3e554538
bf352274
bf43b654
bf9cc3c5
bde106db
beb102c0
3de570fa
3cf060f3
bedfc3e5
beb32971
bd54ac9a
3e0c9def
3e0ad105
be1741ac
bdd8e57d
be0201d2
be897bcc
be9e5bd7
be8e9c1f
bec96242
bf1e41af
beddda8f
3eaba125
bf5ed76b
bde5229b
bd5908c0
3bb025d0
3e077120
bce4e5b8
bee84b5f
bf7f14b1
bf515804
bed86320
3d89b760
be3cc276
bec325d7
bf0cc697
becf866f
be7ea1b5
3da4323d
3c8281e8
bdadc24a
be190da8
3d27f6d2
bed10444
bee86a34
bf284167
bf148790
bedf6f98
be09a3b9
3d3515ce
bf60117f
be05be28
bd75fa39
bbea99c0
bd91c997
3d985441
bf12a03e
bcac3d2a
beb56142
be58839e
bdf95c57
be787726
be6f581c
bde93f40
be2b010b
be5d891c
bcb959ab
beac19e4
be4e8d04
3e8c22e4
bd5d389d
bf1e4d3d
bf835814
bf5bd777
bc546027
be845b80
bc80af74
be925d5f
bf130712
bdcff9e5
3d9b151d
3d9c7e05
bd4e422e
bdca1b91
be174b05
3e7a6956
3dcf5366
3b9a2666
3df9bfc0
3d2bd77c
bd9bdfec
3b9607dd
bdb59172
bdeaef39
be074165
bebd46bd
3e802a71
3def8ef7
be0f30a0
bec140d1
be48bb24
bda24450
3e297cec
be681dfa
bf292551
bef520c5
3dfd79bd
be60d213
bd4b1604
bc60d190
3d8ae78d
be321550
bd946040
3f0949bf
3f2c8d4c
3eeeaa9d
3ec876c8
be631fc3
bc6a25ff
3e2856aa
3e252939
3d724131
3d635b05
bdbd8979
3d2b4f7d
be460500
bef2d991
be726450
bf148291
bdeaa83a
3ddcd8d4
be978083
bf1163b2
bea418e0
bdc924b6
bd4e493d
3cb50a6c
bd7fb7ce
bd981b77
3ee5324d
3f216359
3f1d1d19
3fb4f443
3f0ab553
3dadd29f
be571add
3e4e0f4d
3e804298
3ec1679a
be39dcc9
3e3676ae
be0576b1
be3c4767
be90e0cf
be7bfb3a
be8a5c34
be6e6ddd
3e421fbe
3ee5b9c0
be833efb
bf18a470
be23cc05
bd8c5b94
bd98845a
3d254fac
bd9c62ce
3d964869
beb08eac
3f1ec04d
3f57453a
3f779bd6
3e908864
3d07d121
bd97c647
be7753ca
bdda90f3
beb38d8f
3e58c751
3e560285
3e493681
3d84f616
3e823f88
3e068621
3ee7c334
3f34ccc5
3c9dc6dc
3ebd0c72
3ec7f479
bc887970
bbde99c8
3d5fc17d
bda5900e
bd8f29e5
3d615aaa
3ce3616c
3d92ec29
be07bbf1
bedac762
be421077
3e701eec
3f2ac2f0
bdbfd193
be5363b6
bf058812
bef5f2f1
bead8a85
3e20220f
3c9e6453
3c959019
bd3529bf
bdd274ec
3e36f43a
3e8c6737
3e1743c7
3f088246
3e6d84bc
be9cced5
bedf5d27
bd0e5294
3c66ec50
bcebc21c
bd04ce6d
3d71fffa
bd9145bc
3c4153f8
3e6cddef
3ea71019
3de6c321
bd90bf37
be29ab2f
3cc62122
3f064b93
bcfb4790
3e30d40f
3f086fdd
3ef6ed88
bea80640
bdab3a8a
3f2f563b
3e92c0ea
bcb130c4
bd8a7e60
3ecf4bca
3ea285db
3ed7e760
bd554783
bd94908a
bc8d1d68
bd2cd1db
beb8e741
