3d84b2e2
bcb262cc
bd725416
bfa9fae1
be50ece5
3d879122
beb22ff8
bd9050a2
beb30121
bc9d2a09
3d8d457a
3df19c7f
3db03e7a
3c849075
bd7d1ff7
bd53b988
beebbd27
3cd7c3a7
be531bf8
bc717129
be53e3f9
3db1433a
3e5ee76d
3e12589d
3e2dbc33
3cfc7056
bf61bf0c
bfd92fd7
bf62e13c
bf0d4659
3d416fe8
3d9ae3bb
3d322672
bfaa2b3f
3def9ed8
bf3cf4e2
bd323c8f
bf4fe2be
bc58ebce
c00d17f5
3ddebb95
beb33aa2
3dd8c1c7
bc015dc8
be675399
be22e208
c03e89d2
3da166fa
bec23f79
bf1e3060
bea2c982
3dc16712
bea05f2f
3dd40906
bee0d555
3e27e47d
bf1bbabd
bcc39b03
be7250bb
3c292f11
3dd25c27
bf8b56f8
bef945b6
bef52071
bea09c6f
