bdda278d
3ec1995b
3e79a400
bda60f81
3e805aba
be11060f
3ed1a9c6
befe4e8c
3e6956c0
3ea0f22e
3e8ea90f
3ee0e061
bd741256
be64fa55
3d2e033e
3f04a4c4
bee42ac3
3d6bf722
bf93aa87
be660dec
3e6bba1f
be764544
bf1432d1
beec6e2f
bda91e6c
3e6450ee
3ed2d50f
3d8cfb0c
3e27651c
bec87a6a
bd4bc07e
be07b264
3e7187ce
3ea6f862
3eb9bb34
bf62df81
3ccea2d8
3f396bf1
bf123764
3ebe5baf
3e060083
bdf1e59d
3d7acc2f
3f1e78fb
bbb0747c
bf3f3044
3d69b2da
be65a67a
bea56967
bcc56a09
3e52b065
bd1e927a
ba06e241
3c24121a
3c890269
be75cd8e
3dbe9f28
bed148a5
3e18ea5c
3b496ccd
bdfa7635
3f5b9111
bed990a5
bed14144
3ee8b32f
be8deca3
3e72c22f
be6edaec
3d9609c2
bd3b7a0f
becebe5a
bdec03ba
3ba9ca55
bd88f5a7
3f620825
3dad3865
be1aee5f
3ec5330e
3cff5d2e
bec382cd
beb1e8f3
bcde306a
3e38622f
3ea8a2f7
bda71ef2
bde4e893
3e837cb9
bdcb120b
bea5c557
be8dc38a
bd6fca7c
3ded1664
3e7faaa7
be508cc6
bdb38d86
bd1be917
3ded3bf1
bfbe7daf
3ee51f00
bcf88363
3cb6ff62
3e8a23ca
be6f3190
3eddb4e1
3e661671
bdde9ae5
3e8c313c
bde0d71d
3e0a324a
bd7d171d
bf83fb6d
be913550
3e17a964
bd086373
bcdceb4f
3e6396f3
3eebe123
be36d001
3c9ad438
bebd2b4d
bf63a8d1
3e90fed9
3f30573b
3e41111a
bf5aefee
3d898519
beac8371
bee78399
be978989
