3d20e3a2
3d9dd16f
bd98d6e2
3c38e308
bd83f1c6
bc42fea0
3c124b00
3caf184c
bd7dce8c
3c1cabb8
bd147d9c
bd001f25
3c854b4b
3db14949
bd85ed8d
bc360862
3d070526
bd53bcba
bbcfe980
3d78f396
3da0b0cb
3d56c00e
bd0efffb
bd37ca9e
3cafa070
3c98f8a8
3d1907aa
bcf85eba
3d78c342
bcd055e6
3d677d82
bd8882fa
3d329a54
3d12d6ae
3dca48f4
3d0595fe
bcb5cb3c
bbe2fc6c
3beb3ff8
3be635b0
3e890d39
3e88430e
3e282f02
3e464eac
3e10e46b
bce5203b
3d2f740e
bd83c54e
bc880409
bcb48f74
bd71f30d
bc4c4b10
bc0212c8
3c249640
3d3be9f2
3cbb5d78
bcef2bb8
bda372ff
bd6c2b74
bd90f294
3bff6a95
3c6cc7ea
bcdd8b8b
3dc4f9bc
bb1934eb
bd62d2d7
be25ff75
3ed75e6e
3f02a410
bd8642d2
bee1fe1e
bf38bf6d
be9a7ebf
be57cfc3
be2d6d71
3e88be59
3e7e72be
3f11b6e3
3eb62d3a
3e02db05
bd2d7c36
ba18212d
bd868892
3cfd3ffc
bcb5be08
bd40c345
bd8eff92
be3b97c5
3c80e2bb
3eb64c78
3eb98ab9
3f25294a
3f5f5b51
bf3d8da9
beb81e3a
beb5833e
be9870fd
beee4156
bee0f840
bdfee8fd
bece68f9
becb9f92
3e1bec17
3d41a0d7
3c6b2614
3e7e99ed
3f1edaec
3f14fc88
3edec8fe
3e79a6b7
3e99c281
bba9e820
3cd04c48
3d138dc6
3de7ee61
3e37037d
3df6e92c
bf465b8d
3e0c054b
3ecd7883
be920d82
bf3d66f1
be4611f5
3da84999
bd306f67
bd110343
bd063e92
3e810369
3ed9a406
3ec58ded
3ebda28e
3ed0b244
3db1658c
3daf29a8
be6a8651
3c86c68f
3e7b0994
3e5e423c
3e913907
3ec85f4c
3d58d442
bc915e70
3e12390e
3ebc7d88
3f13e88e
be93369e
3ecd10c3
3ee0b1c6
bda4b852
3d50b8ff
3e5ad4ff
bd80e094
bde49b10
be1701cf
3ea4cc23
bd079da1
3e433b9e
3eabdfd7
3da8679a
3ee3463c
3ef48a32
bd0a9344
3c53a120
3e5ee3ab
3c61e654
3f32383d
3f3ad45b
3edb270e
bab839c0
3d4ad791
bec2c121
3e2b3a59
be1fc4ad
3dd17c12
3eaed18c
3e8c2c9a
3da90c0f
be2cc909
be84ebd5
bde5965e
3e41f876
bb7ca231
bd0dda67
3e006d84
3db62331
3c60c431
3ccdb9bc
3da76b2e
be4d0470
3ded9265
3e041d58
3f83480b
3f2cc975
3edbdea5
3e1b61b4
3eafca1f
3d67366a
3df6bafb
bcd660a6
3d641854
bd43d302
3e688437
bc964640
be52b062
3e65765e
bdb04934
be019819
be61b913
bd9a5985
bde56dbb
bda445cd
bd97233b
bd825966
bdefa0df
3e2de602
bdeb15bb
bcafb622
bd267ab1
3ee268a2
3f3dfa01
3e728658
3e1b1294
be4943d1
3e87f572
3da07b93
3d3a92b1
3ef6187d
3e1f7efa
bdc322ef
be8cc644
bdef2dff
3c427a33
bc87a022
3e52c1ca
3e217bf9
bd5e559e
3ecf2ba1
3da7cf98
bdc25ab6
becb2ade
be083032
be5d1ab0
bdc666b1
3ea06c8c
3e3d48fa
3de8a84a
3ed7838b
3d8a2bcd
3da7fbfb
bd8a59b5
3cc6ec2d
bd83566b
bd31a054
3d1e4a37
be38d133
bdf2aafe
bd053120
3e7d56b0
be3d5e3a
3dbfb8b1
3e1ad4e0
3e115d72
3dfaa972
3deb8742
3e05e058
bd61bfc6
bebd890d
beb2c121
be960e97
bdfa5fc3
3dee7d84
3effdd1a
3e81cbfc
3d297c53
3eb00b50
3f17b9f7
becbd92d
bd043257
3e4f48ea
3ca8f367
3d46a57f
bc4dce7a
bedf7f05
be37a8b3
3ecf7a63
3e7cdc39
bcdd378e
be57eefc
3e5c6c4b
3e79a574
bd957ee7
bcaeda6f
be2e0017
bd706753
bc074d40
bea06832
bdf88fbe
3d22e8e4
3e3b9249
3e139f42
3eabafb7
3e80bcb1
3e851ddc
3f02877e
bef2266f
bf2811e2
bd0b4269
bd8f17f2
bcd4d6c1
3d7da31a
bf1af83e
3f314e1d
3f159c86
bd8b516b
bebd91cc
bf1fbeaa
bedada2d
bcfe6304
bf152051
bed430b1
be628731
3e7af3ab
3e4cb44f
bdd2757c
bd3b79a5
be203fea
be67a8cf
3d86bfbf
be45bd23
bf092ea7
bec153d4
bf305e11
bf0f6b75
be9ad697
bd055381
be2c31a6
3c653352
bd9637c4
bee118d1
3eb17de5
3e59ef9f
bcac4fea
be857bef
bd7f50a8
bed527b2
be2ae2bc
be5684c2
3de27a86
3e6d4e1f
3eda3141
3e15c16b
bc2a60c8
beb0637c
be91949d
bec72008
bf2dddda
bf68c231
bf296c9c
bf96d497
bf6ee8db
bf0fafd2
beb8f549
3cb28c73
be1b353c
bc0ebb86
be21931a
beaec789
3eaba91f
be83b96a
bd1ec6b8
bddfc002
bd9dc7ef
3d0e9b52
bdfa3e3c
beff929c
3c259d92
3debac35
3f0c5515
3e3a42b3
bd90b5c0
be903990
bec057bd
be90b72d
bef0c4dc
bf1db2bc
bf61cc80
bfcc96b2
bf837b8f
bf131fc3
be8189f3
be89cf52
be61267e
3dae0cb8
3d756143
bc21cb90
be1c4703
be51e7a5
bda22dc9
be561b33
beaebec1
3dd162d1
bdc891ff
3d0be593
3e227a8a
3d9bffaf
bddc567a
3e211f07
3e81d081
bcbf6cee
bdc18167
be82640d
be8555c7
be001ae8
beefed65
bf4a98b9
bf5ad878
bf4d92ae
bec95b56
bed27a6f
bdc17a4c
3d1704d2
3e926a24
3e522c7c
be9b8301
be6331df
3d8d03c1
3e4eb49f
3e9fc2a2
3e5bbd48
3e314d5d
3e98bbd9
bd70f3d6
be83868c
be5ae331
3ef2dad3
3ebbc150
3e8c1f49
3e28b87b
3d26cf1b
bde18eb2
bb6466f9
bdbb3585
be9ee743
bf142fd2
bf50517a
bea599d1
be810b62
3d0dd7b6
3c444ed0
3e14fece
3e98461c
3dee3e4d
bb84dc6e
3d4147b5
3c8c4bf5
3e31d934
bd2a4636
3ea7ae58
3e495e62
3d575c49
bd3c54dc
be1f571d
bc93768d
3e2ee058
3ef70856
3e49db49
bca89d11
3e374a26
bddce386
3e84c885
3e4a6e3c
bd38c607
becd4f6a
be0cf826
3da19e6c
3c95ef36
bce5dfb0
3e9799ae
3e3bc6b7
3de983ec
be88bfa4
be97b83c
bf05dc30
3e75429e
bdae99c6
3da0b562
bed5fc30
bea4f837
be443e83
beb99432
beb8f810
be662273
3e4f3cc1
3d9d677d
3d50993d
3ee0f012
3e9a0fe0
3f40adce
3eb89d6e
be7b110d
bfa1ba2d
bf2525db
be013a33
3e6e3589
bbe30e79
3d7b76b3
3de37ea7
bd5ca163
be262c1f
be27d30e
be603775
3e692688
3c99f866
bd9ed00c
bdfe0cc1
bdfa5c2d
bdb4f896
be398e5b
bf06b6c5
befbfd07
bd908df5
3e5786be
bd9f97c6
3ef1d66a
3f071cfe
3f0dae9a
3ddb24a6
bed73f4e
bf5a5bcf
bf339b3d
bcd0c719
3e25c93b
3c3c5f46
3e2971ba
3dd33513
bdde9765
3df86b08
bd98dcbc
beb438cb
3d73c9ce
3ccddd91
3dcee34c
bdbe234e
bdd4b16a
be5d9a6a
3d6c5814
bf0ab592
be45999a
bd13c1dc
3e5e87fc
3c921b64
3eaeca54
3f18a82d
3f1d3057
3ed3bf02
be89fef7
bf405636
bf11e862
3d0d5d71
bda4745c
3d9a970d
3d822c0b
bccebac9
3e60feb6
3e667450
bef89aa6
beb3c4bd
be5fc79d
3e40a012
3dc38287
bee3349a
be442515
bd03152c
3e63c78e
3de91e7f
3eb1eb99
be5fa024
be00c759
3e337404
3ea4e305
3ecf3ef5
3ecb04f4
3e35c806
bcec2817
bf2477d5
beb1381a
bd62832a
3cedb30a
bdb4dfa6
3dc282a7
3ec80518
3eef7dc9
3f058b5a
bf0046c4
be9b57e3
3e87c50b
bba63ae7
bebcef66
bec772a8
3e12588a
3cfe865d
3e5306eb
3e88518f
3e433e24
bc75419c
3d423de4
3e2bceb8
3e4bddf2
3e800f7c
3d9b4ea0
be906b6f
beae4668
bf16f26e
bf0d6af7
bd45295f
bd0752fa
3ce2d75f
3c7d2a6f
3ec7415e
3f0e5437
3ef5ecce
be502cbc
bed1b599
bc78cf8f
bea11cda
be9feb04
be77a1b9
3e0acafd
bd2fa7ee
3e84f502
3e4b324d
3e0c1702
3d28c431
3d91c5b0
bd7e58c6
3d8aaf23
bbf6b65e
bd1203ac
bb4ed0fc
beffc81e
bf647177
bf01a5c9
3da01d14
bb966f96
bd6df4d2
bd22fe64
3e0cdba0
3f6d07a6
3f16a0a8
3e596a1a
3ed10ad6
3f174823
3e10646e
3e0ecea9
3e0edb35
3e8d529a
3df13fce
3ed7bd76
bdb20556
bd9ae4f5
3b347e4c
3dfbdeef
3e0436c2
bdceeb09
bb77a34e
baee13cb
3c161d71
bf0b0784
bf23be65
bee5c147
bd210bdf
3d2bc6a8
3d524116
3d848e35
bd921ffe
3f814211
3ea941e8
bd8901da
3ec49061
3edb8ded
3f6937b8
3f3b1774
be97f655
bdbca9e4
3ea60d25
bd127221
3e4261de
3e9c1e0b
bc38dfd0
3e44c4a0
3e574ad1
be6db775
be853f62
bed1ece3
be99fa8a
bf2d3fa9
bf0e04b7
bc06cfb4
bb377f54
bda0d08a
bc59c580
bcd4452c
3d1c62b9
be68f5d9
bedbf930
bd77a52c
3d5fe953
bd8638f3
bd600f65
3f182f61
3f0ed6b1
3c793258
3eea22ed
3d90accf
bec9808a
3ee685bf
3eea0399
be83b0ad
be4b3b1d
be6c6f99
be2b935d
bc1aa963
3ce3afb3
beb022d9
bd6c3994
3d73075e
bd3ba637
3c518440
3bfe8870
3d70e90e
3aecf140
bd98c002
bd211d53
bd78dbb1
bedc3ae6
bf25448b
bd8cd656
be079e65
be5954a8
3dfd62ee
bda24ddf
bd2580e4
bea95121
be7936bc
3cc6cea0
bedf489f
bebba519
bdc22cb3
3d62a2c4
3e946041
3ea5e6cb
bca48128
bdb60a95
3d9ec2e0
3d758142
bd44f7c5
bd8c2e3f
bd96cec3
3ccf9244
3da1b185
bacd8e00
bd39ac8f
bd650ece
bc79bf04
bdb4eb0c
be8ebd43
bf1239ff
bf0c6fe7
bdd522c5
bdaaeeb5
bdcb5761
be12444e
beabd77c
be976ffe
be7f0500
be8cacd4
beb98e87
beb57efa
beb35d42
be8cffe3
bd75c01a
3c4fe318
3d7531d6
3d9af649
be8e5c89
