3b82a2c0
3d26d6b6
3d24034e
bc97be98
bc7abc80
bd7445cd
bcb04f12
3d833a67
bcbb1886
3d8e9fe5
3d41ca16
bd3b42e7
3d84f7c6
bdd5e842
bd705b91
bd9edbe1
3da56759
bbc60b90
bd0f3da0
bc82869c
3ceb82c4
3d3f6b7a
3d7d5666
bbbcab80
bc03b430
b9e7c400
bbe00a00
3d832975
bd08cdd2
bd60c2a4
3d6e8306
bcef9980
bcf95a92
bd1e093a
bbafac16
3d8de34a
3dc14417
3d858cdf
3ea805b4
3ebae9a9
3eddd51b
3edb09c8
3e508fe8
3e234577
3dd3f032
3edb760b
3e95ed24
3e587b99
bc692f9e
bdeb7c00
3cbbc0a5
bbbc7266
3cfa60cc
bb6ad8e0
3d63f35e
bcd098dc
bd0e8084
3d1286f8
3d357705
3d43afad
3d7eb1f0
baf77588
3dee495e
3d06eba1
be91403c
3bd4a723
bde388f3
3c8e9fd5
3daa4875
bea203c4
be54eabe
bdb77197
3cb1cac2
3db33c28
bdac3da1
3c8a0875
be06676c
3f02f886
3ee5676e
bc97dd27
bddf336b
be31f830
bc26d360
bd397e1f
3cf850f0
3da0696b
3de04c3a
3e929eee
3ed69947
3e90797f
3e40515a
3bf4880c
be2458db
3f28da13
3e2eb9a9
3e17085e
be5ff4ff
3e8ffce9
3ed57094
bdb49f4c
bd3fa8c4
bee33cce
bed390bb
3e081edf
3e9a67e8
3ec338f6
be0aad01
be0e9370
bf29e252
becb8ec4
be1e72de
3ae1f840
bd0551af
bd8fdb02
3d9fdee0
3f1d637a
3f210424
be30ae73
be008f0d
bee898bd
bf4f30af
bda7b5ef
bf03c446
beedead8
bdb6c603
3d9a55de
3e81643b
3e5d4929
3d745510
bead99ae
bea79c0e
be8bdc52
bca9eb92
3f04eb30
bdfe8cec
bf11cbf8
bf36296a
bf2c9c62
bd4387a2
3eafc234
baddd200
3d34a446
bc7f260d
3f5b5d2d
3ee57be8
3db6ecf8
be5c1e13
bf5281af
bdd8821e
bdfde735
3ea7881b
3ecdadc8
3e0323a0
3e42012a
3ed6e838
bd14739b
be92e86e
be0a37de
becdb2d0
bdb7871e
bd887dca
3dbe00b5
3c08c4c1
bf2ed01a
bf395205
be5bcbed
3e9775a9
3eaea58e
3c786f68
3d281f33
be7a83c4
3edb70e3
be4b3505
bebf92a8
bf75bd82
bf2ee070
bd80148c
bdaf43a1
3e3f8506
3f263342
3eee64b2
3dd10240
bdc35b63
bee8a32b
bee6e76f
beb5d04d
be49716c
bcb50260
bea87545
be2383c9
3eaf7346
be8173c1
baaac34e
3cd9aba7
3dda298b
3e37b143
3be60690
bea8ae96
bc3b8440
bd8b5f27
bf418c14
bf225b2f
bf1e1af6
bec23d73
be05acc1
bdcaad3a
3e9f533e
3f07b35b
3f03e0df
3c35b62f
beb6cddf
bebfb00b
bec28060
bdacb30c
3e1e6e2e
3d9b2bb4
be27e008
bc0ef2af
bdd0ce6f
3d60105f
3d6842a5
bdd42bb2
3ed5770f
3e74991a
3ef88a45
be529b40
3f020678
3ea40489
bf2990ba
bf717e56
be9a5462
be9d994d
bef20764
3dbed5de
bd269678
3f0fe1b0
3f28131d
3ea948ea
be552928
3d3ceddd
3a13cbb9
3e47e3ba
be4bcc6e
bdd11f72
3dac5bfb
bcea741e
be3844e5
3d745f5f
3ea01205
bc6a893b
3dd4c5c1
bd67c0c0
bd092832
bd065f4f
3f134651
3e0bf4ab
be2daca0
bf8e799c
be9f0e7d
be5f33b8
3a9dc5b2
be8c619e
bdb42638
3ec0e5f1
3f1306f2
3e2bd892
bec4d910
bebd6db4
bd891b2f
be0c4c29
be8698ad
bd300118
bd440fb6
3e516d1d
3dcf8dd9
be8dd2a3
3e1f601b
3e662c5f
3d9bd3c6
beec2a16
bcee89ee
bdc0defd
3ebc440d
3f2ea724
3e53a610
bf294fcf
be564b8a
3eada43c
3db5bc81
3dc3c7e1
bddf1cc1
3ea12e50
3f030c5a
bd87fcfa
bdb19350
3d0e2c69
bceb4ea3
3d828a80
bcb0bb48
bd837e01
be662354
3ebdeaca
3e8ffb55
bdfd3e9e
bd478e06
bf22dc68
3e09a1df
bcac26c6
bd2cf1d1
3f433112
beaaf551
3de949bb
bed78a01
bed004c1
bdaff639
3ed367ed
3dee9934
bd89d839
be068739
3e9d6320
3e027e14
bebe57e8
3e5a19f2
3d1dc872
3e5ae4b6
3c61d2bc
3bdb2416
be20c919
be6f9b52
3d94d124
3e56596b
3eae4280
3dabe120
3e04996e
3ee4ed41
be0619fa
bd4748a1
3ddf6d33
be243d57
3d34d5b2
bf2ead9a
beee9c0b
3d443631
bdf7e2a2
be3c42f3
be3e01f1
3e676556
3eb9e092
3d3b4223
be05444e
be5c88ef
be2f7eb0
3c735b08
be0ae1c3
be6cc875
bef63c45
bcd0efd8
3e6d1fed
3ef79882
3e5f641e
3f097a5e
3e64901a
3e19bf5c
bf499db1
bd85e781
3e339a5f
bddf0ad0
bd9bfe8c
bf6eee55
be5c69bc
3eac13cf
3df68f8c
bc3ce1a6
3e3e15a9
3e1bc591
3eb7a971
3e158e88
bd9d3795
beb69974
3e49a19c
3dcdb73f
be29fe17
beb4829f
3d5f141d
3dc3c650
be4fbe56
bc3cd345
3e1bc0df
3ced997d
3e6dfcc8
3e5bd159
be644dd4
bc5fa056
3c9d685d
bddc5ed2
be037557
bf686282
3e67c12d
3e9420a8
3e277c3f
be2597a6
3cbf406e
3eff8e09
3edc3749
3e0853e8
bea1152b
beaf6a80
bdebc9cb
3e11da82
3dd88888
3dc39cc9
be8cfc8b
bd96eeaa
3e0ed18a
bdb6e53e
bcfbcb02
3ed40d70
3ef43445
be988854
bdbf219f
3cb3aa60
bdd634bb
bd94b7b8
bdf8da02
bf4a9c63
be52189c
3c84d7bf
3e969738
3d43a9f9
3ef39de8
3f3085dc
3e2610ea
3d373e31
bee37efb
bd6ab215
be0e2861
3e885991
3e0ffb4a
3de41c35
bc5722d7
bdf81d03
3e130504
3d79f38e
bdc8da80
bcbe673c
3e6d001e
bdecdb26
be4be706
bda0e1c1
bc156a79
bddf663f
bdd4a0ae
bee7e669
bea0ae13
3e3e2d60
3e3ed325
3ecb5c04
3f260356
3ef65949
3e42b0f9
be98ea5f
bee2f626
be945438
3dad755c
3cc2a9a5
3eba23e6
3d55de21
bd40caa1
3de2ee29
3e963b9c
3e27f6cf
3d36a981
be91b84a
3ebb12b1
be6287d6
be300aa4
3d72b68e
bccc2fcb
3c577bc5
bef2306e
3e4596d2
bce3bad7
3f01b01e
3e993516
3ed71d9c
3f0ee19d
3eb682e5
3d21ac0b
bef92ac7
bee10525
3dfa8486
bdafa549
be93e7d3
3cddccba
3e0b6a6c
bd192213
3d994040
3e928194
3da6fb5b
3e0b281a
bd788f8b
3e179383
3ea1a510
3f19b87e
be8a410f
bdc4a826
be532940
bf2fc88f
3ec0c1a3
3e6a2632
3ee74a64
3eba4340
3ed826b6
3edce293
3db9e228
be581dd4
beadf224
bea46c06
bd7243ac
be7326ae
bebb706a
be86da9a
3d9f94f9
bdf2e071
bc967ddc
be5654c3
beac23d7
3e506e03
3ef91002
bda2903d
bcf21693
3e7bb090
3da0159b
be6f0bb9
be495946
be1cb676
3ea3665e
3ecd1576
3e837edc
3d54bda2
3e6e2141
3e0c8ec8
3bb5c5f1
bd6d7ed7
beeef4dc
bd6c7b43
be7216d6
be58bd05
beb8d369
be824c8e
beb52bb8
3d5ffcfd
be896279
bcdd335d
3da325a7
3e50e579
3d0686e8
be2b2b1d
3bf62d97
bcf09d83
3b9b0c80
3ea4bf45
3e1bb922
bedb0b62
3e6258b2
3dfc320f
3d719752
3cd2c1e6
3d8ff67f
3e4dbc7b
3e95affd
3e903a2a
bca28bc3
be03805b
be93535f
be0c36ad
bed9a4f9
bee0b2f9
be67828c
bda87ba5
bd2b3007
be083612
be6ce141
bf303319
bf90c2cc
bfbf02b7
bca2b810
bd37c5e4
3cf190a0
bda474ba
3da5271e
be1e3159
be03d82f
be362a32
3e8d96f2
3e767c79
3e09922e
3efc68cd
bb81240b
bd9cf3cf
be41f4ae
be53bbb7
be2f0af6
bdb264f4
bed857e6
beb1e3b0
be9e13e7
bf006828
3c1e8a05
bd7f3fb1
be9a1b42
bf89e572
bf8ccdb1
bf3485ef
3ea5a8c6
3c852fa9
3d5892ea
bd8eb7d8
bdde1a6e
3dff6745
bd14ebea
be70f57a
bde14661
3eebad02
3e800459
3d89a689
3e867a79
3e35ed7a
3e12bd31
bd969605
bea3e080
3c95daec
3e105ab5
bd9c31ef
be9a072a
ba0a48b4
bd888276
be93d4e7
bf05239f
bf309f71
bf5866e5
bf385dfb
3e64da6b
bd6ea101
3cf08a14
3d959a09
be341249
3e52fb92
bea8098c
bf493fb0
bf00f83c
be509245
3e282781
3c00f3ae
3e6afbe8
3d63ea4b
3ebd81d8
be09e517
be4211bf
be00f1e6
be581c5c
bd219c57
3e67afcd
bc8c93af
bf1723a1
bf1466a3
be365810
beb4bd8f
bf840f06
beeb87ed
bc470d30
3cf6142c
3d8ff281
bd6e0d94
be2b9a5c
3b32c3cf
be3c7121
bee63451
bf89441f
bf47f8bc
be9f67fd
be8581a7
3cf531ae
bc452fea
3d984e84
3eaf828d
bd731ae0
bbfcb0a6
3ddff987
bd80c7e7
3d3dbe45
bebbdf8f
bec99932
bf13fb8b
bf2f5838
bf0661d0
beb7fdab
bdcb1288
3d06fdcd
bcbc1f0a
3ab82040
bd0d3636
bdbd93d0
be0c8c85
be57ec74
bf06f460
bf3ba7b9
bee21ceb
bf0bc8d1
bdd9d6d8
be05eb57
bda45337
be6ebaf4
bedf9173
bd91c9cb
3dbbae19
bd2e011c
bf677eb9
bf1be4cd
bf1c52e1
bf1d33e5
beb33767
be667c58
3c8a19fb
bc37ff02
3e077cb0
3d5a4723
3d09f97c
bd179dd4
3d2c5460
3d297edc
3d26744d
bd918fb5
bea8212e
bf2a9b0c
bf8db6c6
bf5ee758
bf25638b
bf312c5e
bf6caa00
bf0286f6
bf8673f6
bf9222ef
bf10d1ae
3e54a443
3db25e2a
bd6cd20a
3e91a584
bf0d64e2
bf479dad
3e17d2d9
3d8c3907
3bd1db21
bd843c8c
bc672a20
bcb26c3c
3d0fc66a
3a135400
3d3abfb6
3d9542bb
bd891caa
3bc0c9ca
bebc40e8
bf04ffba
bee64386
beb957d6
bd8a4623
bc945ed4
be148982
becc682f
bed6c686
be3dde7b
bf059c5a
bf27dbbd
bee030ed
bdb6ee6f
3d63c4db
3d6bcbb7
3bfb65b5
bdad94c1
3cc00b3c
3d5bcc1e
bcbdafce
3d88ca0d
bd942910
