bd32792d
bd81534e
3ae7e340
3c82aecc
3cca8a38
3d44bf3e
bd36448f
bd3d44ec
bd01c9e3
bcb0ea46
bda4931a
bd82dcfc
bc3e4342
3d892fbc
bd578b8e
bb7bb640
bd85cfbd
3d97e9b1
3d6aa62a
bcce4e58
bd34c816
3c9c143c
bc135bf0
3d1bb592
3cd54d58
bd2fbe97
bd78c924
3d997909
3d587586
bd5c553d
3d0ba8da
bcae7896
3d1fa5c2
bc85d548
3cb7a5a0
3d0d05cc
3be214f3
bc02c784
be900a9d
be9cbc1c
be483d34
be45af73
3d8bd188
3e452c22
3d94759e
be481d17
bdc81daf
bdcecb32
bd55e773
bd360f8e
bda2cc35
bd967dc0
bd6e6f42
bccaffc0
3c20d0b8
bd06a8ec
bd601af2
bbc1c410
3d9ac329
3cea454c
3c4d885d
3d34d97b
bd200723
3c3984b0
be8c8d63
bef918a5
bf2b9a26
bf2779ea
bd02818b
3e05d670
bd01007c
3e6c6b0b
3ed57f57
3d5dc86d
3eccd305
3ecf32e0
3e828210
beb4005c
be579df4
be4beca9
beddb695
3d8cb798
bccd98a8
bcddfe0e
bd8388f0
bd38f3d4
3dc7ac89
3ea04884
3e82b5e1
bc062fbf
bdca903e
be1a70b5
3f3063f8
3f28db7b
3f0b04bc
3d4e2242
3e64f510
3e818dab
3e326c54
3ea067fa
bb93cb78
be5c204f
3de043d0
3e47464b
3e94ac61
be9323be
bf6ff461
bf41060c
be2e1e0e
3e9da3bc
3e543f52
3ce1798c
3c5b70e0
3b88313f
3d58a2c9
3ea1940f
bc35be46
be150d12
be8be26f
3ec4599f
3ea40d08
bc507135
bd8f8443
be97dce2
be96eac0
3e53e888
3e5cbb4a
3d04730f
3e32315b
bd71c57d
bd63a517
3dc41e7a
3e49f238
3e853f38
bee1d386
bf076022
3e8fe7e0
3dba4395
3eacf67b
bcbf754b
3d09a61a
bc2374b0
bc931222
3ee3e083
bea2d68d
3ecff620
be0df6d2
3e657c41
3e89f35a
3e8c8844
3f04f0d9
3cf1a94c
be1bd08d
3e2600a9
3e63ba6c
bc14f8cd
3df579a0
3e8fafa0
3d5ea2d8
3cac5d23
3e1d2eae
be3c01cc
3c34d3e5
3ddfd47c
bdc37859
bdb8d82c
3dc4b993
3e44aaaa
3b096240
3ded6ac1
bd7a823f
bd8b1c22
3dcec66a
bf21fbed
bed8997a
bf0b5d47
3e06fca0
3f4bd732
3eba04e5
3dd0f9c4
3cf96446
bdd92ec7
bdbe0d55
3e43c01b
bc970e9d
bdd80981
3ee5950c
3e83f844
3ee6e538
3e29c174
3e1a400b
3f1ae85c
3f16f804
3e7dfb1e
3e796c2f
3ea939ec
3d7f0553
3da73e08
bddb3814
bea9368b
be854827
bf23d65f
bf16adb2
bf2b197f
be6f750b
3dd15e1e
3eb70ae0
3e0381ab
3e614279
be2cc4c7
bde40c2b
3e064251
3d8837dc
3e51b455
3e351c4a
3ea2bac8
3ee4efaf
bd980b5e
be1906ed
3eac6e4e
3ec65f65
3e389dc7
3ee50d35
3e6dfeb3
bd3fe00c
bebe8568
bea2e022
be5e40d8
3e12dcc2
3edbcaab
bd427dfd
3dbaab79
beba5620
be3bd9ed
bca626d1
3e837471
3ec98221
3e8c3941
3e3d8a36
3e80484d
3b9fcf9a
3d6d4d66
3df02919
3e58b55a
3e09ae5c
bce78a33
3defd643
3ec5ac8a
3f314479
3b3e9866
3eb66066
3dba503a
3bdc09c0
3d271f56
be04ef97
3f49d2b4
bdc80b11
3f09a3d4
3f02f092
be86e37d
3d564ffb
bb6b6021
3d30022f
3eb2fc80
3e759e85
3e0a728f
3ee528e3
bce09bf9
bd4c73df
bd6e741f
bea0d685
3dbbb7aa
3d935fc4
be8a3b84
3e59d9db
3f00480a
3dc0fc73
3f0e4af8
bcc47261
bd9afdb4
3d67fc34
bc4b2773
bca3bd54
be486cb7
3e55bf3f
bee06888
becbc112
bf35f3b3
3e1df2c0
3edd10d9
3e53e60e
3dbb7a01
3e557fc9
3d9cf455
3e6be9b8
be4e8c2e
be8c71e7
becba4a4
be9e8c7c
bec05b9f
3db153ad
be9b68ce
3e2425b5
3e5ebe6b
be89a522
3eec4a75
3edc0cfa
be3deba2
3af2c1eb
3d2320b1
be10e67f
be97f580
be32350b
bebe8f38
bf8842d5
bf7b98c9
bd98b307
bea2fd3e
bd31740c
bebe8cae
bdb7ec8b
bd1775ac
3e81915b
3db48505
bdba3c2a
3e64201c
3cbfb12b
beb4f907
be5d4731
be11b4a0
3dd4eba2
3e1bbd6a
3e61b7cc
3f37a810
3f84483e
3bc07a0a
bd8491a8
3d8c519a
be6c0343
bd91428c
3ce03a8a
bebe023b
bf1d6ee3
bee44596
bfa69fd9
bf3acc49
bf1abba0
bf847005
bf0f0b2b
3e6a1ecb
3ed3e6b5
3e8dd7d7
bd8146f6
3e5d561e
3e2a2a25
3d0083d1
bdd42fbe
be23b087
bd941295
bdf6d955
becb4462
3e871afa
3d06cf46
bd9cf34a
bd3c1aa9
bd0ef42b
be917cc7
be96ea3a
bdc96b37
bd8691cd
bd626066
bea9e7a3
bf5fdbf0
bf7781be
bf6ae5c9
bf1d8d9b
beb5004e
be8114ab
3eb663d6
3db20763
3e954553
3e3e11d7
3d6ee221
3d2471ee
be8809d3
be775760
bf410d9c
bfa5dc8a
bf48408d
3e20416c
bd948d19
3bf0cd10
3d4bea78
3e64404e
bce7f0b3
bf2fadc2
3d397c06
bd60e061
3ebfa485
bd94fad8
beb12632
bf2cf39f
be50938e
3db1e013
be70e5c6
bd493fb9
3e86ff16
3e8489b6
3e07950d
3de2fd6e
bd2d4aac
be72baf2
bd94992f
3cbeacdc
bf475a5b
bee237df
bec0b2e5
bd974aeb
3da7d71b
3caa8abc
3d61e28e
3e8a5317
bda1f6c4
bf84213a
3f0e7685
3e7f4479
3ef684dc
3eca85e6
3ea67aa6
be01fa26
3de465fa
bc0f1870
bc517a34
3da85505
3e057d67
bda1264e
bda29b88
bf067baf
bcc2402c
bd2b5866
3d0d6718
be26071b
befb016e
bec1794c
bec6e2de
3d15b72f
3e3178a1
3d837c0a
3ab4cc1d
3e53e3ca
beaec897
3d9c1450
3f1d3f94
3e12c7f6
3ec3c1fa
3e6bd930
3e79cbc5
3e02744c
bd5904c6
be9e476b
bdbcc79a
bdaac3a4
3d0a5565
3d8b08ba
be67ce1e
be633b8f
3d957a96
bd959a31
3ddb44c4
bdf9128c
bf879504
bfac14f3
bdd3d7d1
bdf0e948
bd1b5504
bcd221be
bbe57940
3dfadeef
bf2efcfa
3e6f3ef0
3e9b82d6
bdcf66bf
3e926c8b
3e515381
3f13616f
3e71b00d
be51ef30
bd9da681
be77ab7b
bed2537e
be0f0c53
bd345cd3
bd122472
3c123e70
bb9a1462
bd1b3ca6
3e4e66d3
bea8cc2b
bf90cf69
bfa39896
3e05d474
beb13e32
bdb7d9de
3d49b1b7
3d0da60c
3e0f766b
bf050247
bd398484
bd2dfc2b
3e35e329
3eb27eae
3d2bbe10
bc85debf
be962104
3aa685a8
bda2b0ba
bee82e3b
bebfae49
bb6ae591
3dd36f05
bda52395
bd98b8c4
be298717
bd9feeb6
3dcb2378
3deefe8b
bf754744
bed45e0f
bd79de67
be61ac4b
bcde51d5
be0ba6b8
3c51f1ad
bde9aa8d
3e99b46c
bf28082e
be211192
3e308b82
3e32a8cb
3e96d38d
3dd3ffd1
bda3021a
bbe1a86f
bd10098f
bde9c358
bc112943
bd9ba92d
3dc5fb2f
3e48eb41
bdc27521
3e95850f
3dbc7dce
bd3a80ec
bf16292c
beff9cae
be8c3535
be8b7e7c
bf075fcd
bdff2c0f
bdd7c984
bc5d1c68
bdc0331f
3e21df1a
bf2fcf69
3d8fb13c
bd31a267
bde315c7
bd2a2f9f
bd4d781a
bca43b60
3e697275
3e15c296
bdb64a1f
3dde6990
3e5d9063
3ea95ee2
3dc09c34
3da8aae5
3e3b3e88
bd108ba5
be6fe63c
bf05b8e5
beb66c53
bee1cd5c
bf63b84b
bee047fb
bd95cba5
3da3bb1f
3d2b7705
bd09163f
bc604570
bf5c7fe0
be85c3bb
bdd6431c
bd949a99
3aff9f53
bdfeca5c
3d53dc63
3c572442
bd4778a8
bdce0c1b
3e77f6fa
3eb4e9b2
3ce254ab
3c2aae76
3e6d7178
bdafb267
bde76151
3e14011c
bea590f1
bf7f0496
bf4b1474
beeff3e4
be155156
be0aa943
bb94a040
3dc5b677
3d8c9860
3e26a2eb
bf3ce832
be4bd74e
beceee42
3e26500d
3d91f459
bec8a792
be24fa07
bb10fddb
be0ada3b
be9cb1d1
be3ad506
bddc37ab
3db1a9ec
3e99587c
3e60b76d
bf0bb5f6
bf31d2a2
bf2a84d0
bedc1399
bebe6e98
beeeae8a
bd9c5c8c
3c82a1a3
bdadad92
bd0cc2ea
bc674958
bd34a113
3e74f6a2
bf1bd60b
beb6be29
bedac978
becebe71
be8149f4
beb0698d
bd1490f4
baf2e68c
3e0d0c6b
bd9e0b0e
3e4855ef
3d0e3ab6
3e345ce7
3e094628
bdc85fe9
bf6a99c6
bf80294c
bf0bf3f1
bf32957c
bea19617
be8f5725
3f9cf94f
3f2e7980
be63094f
3d8b3991
bc097ca0
bd1d439b
3ddb334c
3f0db9f1
3e8fe716
be08df70
3e90a053
3e1a581b
beb479e4
be62b4ff
be9e56cd
3e9462c6
3ebdee22
3e673ce8
be660aa2
be8498da
3ecd5b32
3ebad908
bf126aa2
bf0caac8
be4ffe0e
bf15fb37
be2a7338
be0d176f
bd7371d1
bd804ada
bd97a794
3d9df56d
3d17b5ac
b9a18d00
bba551af
bebd1b26
3af40529
3e3f7331
3dbfe781
3f1f301f
3f1ef6cf
3e248eb2
3e24559b
beb80bef
bd1f8feb
bb80d90d
bf17c32b
bec5aa4e
3ec2a359
3e399082
be7bd956
3e9d77a6
3dda1068
3db24b49
3ead8b18
3e7c2a7a
be2bc447
be0f9761
be190cb1
3d9036eb
bce66512
bcfdb2d8
3cfd88e8
bc52c4d9
bf1d3f3a
bf2639f6
bf39abea
be9eb631
bf254502
bf9071d7
3e6c847e
3ef8bf03
bd31245e
bcb72ae3
be50aa9c
bda5a49c
be5a6339
bf238322
be12c683
be8f8ec6
bd00d02e
3df1ae71
3d30d970
bd05acc5
bd54d5ff
3d3eb4e2
3d8f288f
3d82ef29
3d9a2013
bd1de93b
bd91a10e
3be55be0
3c2811b2
bda95f5b
bd844213
bd561fba
3d442376
be68a430
bf0e26dc
bf195aeb
bf0053a2
be3084de
bcef4036
be923e57
bde5a6c5
bd5c1a92
3d160c21
bd94fe70
bdd3a12a
3cdcb8db
3d1890e9
3d11d551
3d44dff6
bd89b1f7
bce0f9c0
bb8d2340
bf1cf9cf
